<unk>	0
<s>	0
</s>	0
▁	-1.89433
.	-2.58936
▁I	-3.17867
▁app	-4.23283
s	-4.87859
▁game	-4.91367
▁The	-4.98297
▁It	-5.01341
ing	-5.1437
▁like	-5.21993
▁is	-5.25547
▁get	-5.45799
▁would	-5.53447
▁time	-5.5382
▁it	-5.61324
▁one	-5.62979
▁play	-5.65516
▁cannot	-5.67336
▁am	-5.68033
▁good	-5.69014
▁use	-5.73895
▁have	-5.76084
▁This	-5.79155
ed	-5.80124
▁even	-5.81152
▁great	-5.82835
▁really	-5.84225
y	-5.87093
▁phone	-5.98926
▁back	-5.99606
ly	-5.99816
▁love	-6.00624
▁new	-6.05924
▁ads	-6.06345
▁free	-6.07063
▁music	-6.07565
▁want	-6.08991
▁update	-6.15435
▁work	-6.17781
▁way	-6.19836
I	-6.20565
▁screen	-6.22612
ut	-6.23469
e	-6.24424
▁fix	-6.24631
▁also	-6.25086
▁make	-6.25259
▁much	-6.25604
▁still	-6.26261
▁video	-6.32613
▁many	-6.33036
▁every	-6.34015
▁go	-6.3487
▁watch	-6.37129
▁not	-6.37436
▁keep	-6.37712
▁playing	-6.39064
▁see	-6.39481
▁A	-6.40853
▁T	-6.41405
able	-6.42581
...	-6.4463
▁issue	-6.44676
▁using	-6.45012
▁problem	-6.45378
▁used	-6.49692
▁find	-6.5141
▁that	-6.53017
▁could	-6.53354
▁better	-6.53583
▁need	-6.56605
ou	-6.56884
▁fun	-6.58052
▁well	-6.5886
o	-6.60339
▁lot	-6.6046
▁times	-6.61348
▁option	-6.62838
▁without	-6.63839
▁If	-6.64388
▁years	-6.64678
▁annoying	-6.65903
▁version	-6.67646
▁And	-6.6782
▁thing	-6.6828
▁There	-6.69616
▁people	-6.69971
▁songs	-6.70829
▁try	-6.73146
▁shows	-6.73429
▁face	-6.73777
▁something	-6.74792
▁stars	-6.74861
A	-6.74909
▁read	-6.74991
▁add	-6.75303
▁easy	-6.75921
T	-6.76734
▁games	-6.77311
▁issues	-6.77681
S	-6.7822
▁there	-6.79975
▁best	-6.80467
▁money	-6.80565
▁never	-6.81331
▁give	-6.82373
lease	-6.83463
▁always	-6.83493
▁things	-6.83998
▁since	-6.84237
▁apps	-6.84537
d	-6.84666
▁Also	-6.84822
▁pay	-6.85629
▁know	-6.86288
▁song	-6.87812
▁sometimes	-6.88002
▁movies	-6.88335
▁open	-6.8844
▁you	-6.8851
▁long	-6.8964
▁works	-6.89743
▁show	-6.91322
▁en	-6.91582
▁ad	-6.9294
▁though	-6.93111
▁first	-6.93439
▁So	-6.93897
▁think	-6.93969
▁different	-6.94116
▁experience	-6.94661
▁change	-6.95003
▁feature	-6.96012
▁going	-6.96867
▁tried	-6.98007
▁makes	-6.98309
▁coins	-6.98985
▁everything	-6.99198
ot	-6.99805
▁features	-7.00173
▁getting	-7.00583
es	-7.00612
▁last	-7.01194
▁watching	-7.01726
▁mobile	-7.02761
▁S	-7.03253
▁again	-7.05327
hen	-7.05623
▁level	-7.05736
▁will	-7.0615
▁download	-7.07518
or	-7.07822
▁now	-7.07984
▁got	-7.08322
▁please	-7.09808
▁anything	-7.10042
▁day	-7.10088
▁ama	-7.10173
ow	-7.10327
▁hard	-7.10606
▁frustrating	-7.10867
▁trying	-7.10935
▁start	-7.11537
▁fine	-7.11601
▁service	-7.1291
▁content	-7.13323
▁this	-7.1366
▁bad	-7.14773
▁fixed	-7.17153
▁do	-7.17185
▁working	-7.17374
▁nice	-7.17963
▁minutes	-7.18339
▁reason	-7.18614
▁me	-7.19175
▁movie	-7.19211
▁another	-7.19226
▁right	-7.19658
▁videos	-7.20041
▁re	-7.20197
▁far	-7.2054
▁turn	-7.21065
▁account	-7.22341
▁player	-7.24215
▁wish	-7.24392
▁little	-7.25212
▁pretty	-7.25518
▁recommend	-7.25774
▁files	-7.25976
ust	-7.26485
oy	-7.26753
▁ever	-7.26904
i	-7.27189
▁button	-7.28282
▁made	-7.28383
▁friends	-7.28633
▁controls	-7.28884
reat	-7.29312
▁help	-7.29713
▁streaming	-7.2978
▁star	-7.29977
▁nothing	-7.30007
er	-7.30007
▁next	-7.30577
▁all	-7.3141
▁let	-7.31538
▁two	-7.31561
uality	-7.31698
▁problems	-7.32677
▁mode	-7.33074
▁takes	-7.33188
▁seems	-7.34558
▁load	-7.35528
▁audio	-7.36109
n	-7.36118
▁device	-7.36951
▁up	-7.37146
▁actually	-7.37226
▁them	-7.37604
▁old	-7.37755
▁instead	-7.38829
etflix	-7.38851
▁bit	-7.39248
▁listen	-7.3946
▁reading	-7.39549
▁to	-7.39835
▁stop	-7.39971
▁levels	-7.40253
▁put	-7.40642
owever	-7.41739
ery	-7.42425
▁say	-7.42443
▁subscription	-7.42577
▁premium	-7.42743
▁user	-7.42791
▁Android	-7.43713
▁take	-7.44256
▁email	-7.45415
▁message	-7.45556
▁sure	-7.45766
▁seconds	-7.4607
▁needs	-7.46313
▁options	-7.46484
▁graphics	-7.46587
▁point	-7.47327
▁enough	-7.47954
▁data	-7.48075
▁are	-7.4835
▁started	-7.48356
▁bugs	-7.48417
▁days	-7.49201
▁gets	-7.49423
▁longer	-7.49954
▁multiple	-7.50673
▁close	-7.51184
▁almost	-7.5144
▁played	-7.51681
▁making	-7.52058
▁end	-7.52275
▁access	-7.52963
▁worth	-7.53052
▁look	-7.54503
▁bug	-7.55616
▁sound	-7.56171
▁App	-7.56721
▁updates	-7.57158
▁etc	-7.57498
▁crashes	-7.58697
▁playlist	-7.5878
▁story	-7.58785
▁already	-7.58984
▁photos	-7.59196
▁months	-7.59399
▁Spotify	-7.59824
▁send	-7.59837
▁full	-7.59934
▁text	-7.59989
oogle	-7.60154
▁review	-7.60595
▁completely	-7.60966
▁list	-7.61547
▁click	-7.61661
▁search	-7.62006
▁media	-7.62355
▁anymore	-7.62473
▁us	-7.62552
▁especially	-7.62558
▁support	-7.62988
▁available	-7.63356
▁live	-7.6422
▁difficult	-7.64308
▁i	-7.64313
▁That	-7.6434
▁month	-7.6434
▁buy	-7.64441
▁either	-7.64466
ther	-7.64605
▁call	-7.64854
▁downloaded	-7.65799
▁least	-7.66398
▁file	-7.66843
▁settings	-7.67161
▁favorite	-7.67261
▁year	-7.6728
▁devices	-7.67408
▁less	-7.67979
▁constantly	-7.68171
▁often	-7.68495
▁found	-7.69137
▁fast	-7.69242
▁come	-7.69924
▁view	-7.7012
verall	-7.70218
▁messages	-7.70399
▁around	-7.70599
▁save	-7.70613
▁ago	-7.70776
▁recently	-7.71158
▁move	-7.71332
ne	-7.71602
▁left	-7.71971
▁done	-7.72892
▁hope	-7.72901
▁book	-7.72999
▁stream	-7.73023
▁whole	-7.73769
▁continue	-7.74212
▁slow	-7.74379
▁soon	-7.74392
ove	-7.74661
▁else	-7.74741
▁on	-7.75202
▁episode	-7.75456
▁looking	-7.75709
▁page	-7.76017
▁kind	-7.76611
▁run	-7.76738
▁impossible	-7.77085
▁seem	-7.77435
▁top	-7.77472
▁out	-7.77675
▁several	-7.77804
▁away	-7.7781
▁progress	-7.77903
hat	-7.78101
▁simple	-7.78422
▁feel	-7.78578
▁part	-7.78622
▁real	-7.78687
▁past	-7.79028
▁interface	-7.79391
▁learning	-7.79557
▁overall	-7.79969
▁notifications	-7.80026
▁couple	-7.80238
▁awesome	-7.80262
▁amount	-7.80629
▁connection	-7.80929
▁internet	-7.81271
▁goes	-7.8131
▁absolutely	-7.81326
▁stuff	-7.81443
▁Thank	-7.82145
▁off	-7.82603
▁recent	-7.82788
▁choose	-7.82804
▁wrong	-7.82882
▁perfect	-7.83118
▁loading	-7.83323
▁others	-7.83846
▁chat	-7.83928
▁place	-7.83955
▁platform	-7.84376
▁updated	-7.84389
▁system	-7.84442
▁says	-7.84565
▁learn	-7.85075
▁stories	-7.85196
▁edit	-7.85426
▁selection	-7.85535
▁yet	-7.86259
▁lose	-7.86296
▁second	-7.86548
▁delete	-7.86704
uite	-7.86729
▁added	-7.87016
▁control	-7.87476
▁All	-7.87587
▁in	-7.87744
▁spend	-7.87892
r	-7.88188
▁allow	-7.88281
▁set	-7.88329
▁Thanks	-7.8891
▁After	-7.89503
▁paying	-7.89735
▁select	-7.90108
▁stuck	-7.90266
ood	-7.90553
▁playlists	-7.91979
▁fact	-7.92093
▁big	-7.92123
▁restart	-7.92148
▁certain	-7.92796
▁worse	-7.92964
▁pass	-7.93071
▁As	-7.94088
▁complete	-7.94733
ulu	-7.95038
ould	-7.95093
▁In	-7.9523
▁too	-7.95652
▁error	-7.96156
▁super	-7.96465
▁skip	-7.96645
▁home	-7.9679
▁series	-7.97193
▁they	-7.97207
▁changed	-7.97213
▁cool	-7.97732
▁hours	-7.97911
▁daily	-7.98306
▁plays	-7.9837
▁glitches	-7.98448
▁forward	-7.98799
▁wait	-7.99102
▁understand	-7.9929
▁single	-7.99647
▁pop	-7.99989
▁latest	-8.00084
▁chapters	-8.0011
▁listening	-8.00128
▁pause	-8.002
▁switch	-8.00369
▁thought	-8.00622
▁editing	-8.00832
▁extreme	-8.01377
▁scroll	-8.01449
ouTube	-8.01464
▁lost	-8.01465
▁unless	-8.01763
▁random	-8.02073
▁become	-8.02833
▁anyone	-8.03169
▁may	-8.03172
▁someone	-8.0349
en	-8.03493
▁however	-8.03719
▁background	-8.04118
▁worked	-8.04169
▁tv	-8.04423
pdate	-8.04436
▁possible	-8.04445
▁clear	-8.04454
▁paid	-8.04535
▁Some	-8.04609
t	-8.04962
▁uninstall	-8.0527
▁matter	-8.05378
▁later	-8.05719
▁tell	-8.05753
▁small	-8.05945
▁ability	-8.06034
hy	-8.06225
▁commercials	-8.06276
▁finish	-8.06826
▁randomly	-8.06893
▁sync	-8.06933
▁Sometime	-8.06981
▁channels	-8.06982
▁terrible	-8.07015
dit	-8.07233
▁order	-8.0746
▁changes	-8.07468
▁smil	-8.07863
▁definitely	-8.08026
▁players	-8.08115
▁rate	-8.08163
▁world	-8.08475
▁happens	-8.08757
▁automatically	-8.09333
▁gameplay	-8.09533
▁main	-8.0978
▁users	-8.10155
▁rating	-8.10272
▁starts	-8.10493
▁maybe	-8.10879
▁more	-8.11155
very	-8.11188
▁hate	-8.11795
▁chapter	-8.11809
▁useful	-8.11909
▁storage	-8.12077
on	-8.12209
▁gone	-8.12364
▁half	-8.12416
▁said	-8.12421
▁cost	-8.12608
▁post	-8.12758
▁crashing	-8.12761
▁photo	-8.13188
▁high	-8.13804
▁picture	-8.13985
▁due	-8.15088
ven	-8.15276
▁black	-8.15682
▁news	-8.1573
ave	-8.15735
▁guys	-8.15972
▁easier	-8.15973
▁seen	-8.15977
▁because	-8.16219
▁stops	-8.16298
▁language	-8.16348
▁notification	-8.16459
▁beginning	-8.16595
nly	-8.16738
▁books	-8.16912
▁easily	-8.16949
▁trial	-8.16996
▁points	-8.17049
▁everyone	-8.1784
as	-8.17978
▁price	-8.18041
▁car	-8.18457
▁application	-8.18486
▁sucks	-8.18617
▁Then	-8.18986
▁eyes	-8.18988
▁giving	-8.19192
▁force	-8.19252
annot	-8.19275
▁previous	-8.19365
..	-8.19558
▁literally	-8.19631
▁saying	-8.19793
▁properly	-8.19937
▁stopped	-8.19949
ump	-8.19958
▁camera	-8.19972
▁example	-8.20024
▁connect	-8.20033
ame	-8.20356
▁type	-8.20586
▁Its	-8.2068
▁channel	-8.2071
▁hear	-8.20715
hatsApp	-8.2115
▁.	-8.22118
▁went	-8.22143
▁upload	-8.22219
▁track	-8.22227
ropbox	-8.22277
▁emails	-8.22407
est	-8.22764
▁week	-8.22821
▁worst	-8.22891
▁business	-8.22964
▁check	-8.23521
▁number	-8.23765
▁tablet	-8.24163
▁happened	-8.24216
▁wanted	-8.2443
▁log	-8.24439
▁speed	-8.24458
▁function	-8.24541
▁developers	-8.24773
▁for	-8.24883
▁offline	-8.24936
▁piano	-8.25199
▁rather	-8.25206
▁ones	-8.25274
▁might	-8.25597
▁match	-8.26102
▁deleted	-8.26277
▁desktop	-8.26388
▁remove	-8.26808
▁heart	-8.27152
▁side	-8.274
▁space	-8.27461
▁weeks	-8.27516
▁pictures	-8.27663
▁disappointed	-8.27673
▁phones	-8.2776
▁showing	-8.27908
an	-8.28068
▁useless	-8.28097
▁does	-8.28338
▁pick	-8.2848
▁section	-8.28535
isney	-8.28566
▁comes	-8.28838
▁running	-8.28924
▁design	-8.2905
it	-8.29076
▁variety	-8.29208
▁gives	-8.30529
▁ridiculous	-8.30848
loud	-8.3103
ob	-8.3104
▁entire	-8.31045
▁lessons	-8.31213
▁purchase	-8.31523
▁wifi	-8.31977
▁folder	-8.31995
▁online	-8.32205
▁uninstalled	-8.3229
AT	-8.32479
▁Samsung	-8.32524
▁person	-8.32569
▁items	-8.32801
▁tap	-8.32841
uickly	-8.32916
▁reinstalled	-8.33411
▁win	-8.33552
usic	-8.3356
st	-8.33601
▁hit	-8.33751
▁short	-8.33965
▁took	-8.34731
▁waste	-8.34813
▁navigate	-8.34964
▁auto	-8.35054
ad	-8.35095
▁whenever	-8.35215
▁menu	-8.35264
▁leave	-8.35659
▁happy	-8.35947
▁create	-8.36046
▁contact	-8.36164
▁card	-8.36166
....	-8.36249
ike	-8.36507
▁android	-8.36754
▁mind	-8.36849
▁status	-8.36923
▁minute	-8.37106
▁extra	-8.37118
▁of	-8.38062
▁share	-8.38079
▁ma	-8.38146
▁over	-8.38216
▁before	-8.3828
▁excellent	-8.38686
▁middle	-8.38762
▁life	-8.3898
▁five	-8.39174
▁needed	-8.396
▁playback	-8.3975
▁expensive	-8.39948
ee	-8.40025
▁helpful	-8.40092
▁team	-8.40175
▁cancel	-8.40764
eally	-8.40996
a	-8.41014
▁bring	-8.41118
▁adding	-8.41598
▁sent	-8.41792
▁glitch	-8.4206
▁unable	-8.42417
▁voice	-8.42573
▁original	-8.42788
▁three	-8.42931
▁what	-8.42967
▁setting	-8.43159
▁reinstall	-8.43376
▁plus	-8.437
▁At	-8.43719
▁layout	-8.44053
▁bar	-8.44149
▁except	-8.44307
▁adds	-8.44457
▁Still	-8.44497
▁happening	-8.44553
▁horrible	-8.44582
ation	-8.44715
▁cars	-8.44923
▁computer	-8.45016
▁volume	-8.45017
▁notes	-8.4511
probably	-8.45302
▁pro	-8.45334
▁upgrade	-8.45503
▁fre	-8.45811
▁be	-8.46109
▁interesting	-8.46212
▁friendly	-8.46625
▁whatever	-8.47145
▁program	-8.47198
▁per	-8.47597
▁images	-8.47868
▁loved	-8.47989
▁stay	-8.48026
▁must	-8.48211
▁complaint	-8.48328
▁installed	-8.4892
▁buggy	-8.48936
▁library	-8.49017
▁saved	-8.49365
▁large	-8.49367
▁Ama	-8.49476
▁deal	-8.49538
▁usually	-8.49693
▁lots	-8.49776
▁basic	-8.49826
▁episodes	-8.49963
▁downloading	-8.49982
▁sign	-8.50017
uick	-8.5002
▁press	-8.50061
▁spent	-8.50434
▁hands	-8.50552
▁cache	-8.50708
▁missing	-8.50956
▁simply	-8.50959
▁within	-8.51473
▁forever	-8.5198
uire	-8.52671
▁crash	-8.52727
▁happen	-8.52851
h	-8.53289
▁s	-8.53518
▁install	-8.53657
▁allows	-8.53674
▁reply	-8.53749
▁si	-8.53855
▁liked	-8.54167
▁mini	-8.54492
▁down	-8.54535
▁To	-8.54739
AS	-8.54747
▁buffering	-8.54843
▁given	-8.55141
ost	-8.5526
▁highly	-8.55541
▁here	-8.55625
▁huge	-8.55685
▁un	-8.55911
▁box	-8.55964
▁character	-8.56103
▁customer	-8.56126
▁remember	-8.56402
utlook	-8.56475
et	-8.56537
▁Instagram	-8.56702
▁p	-8.56814
▁a	-8.56919
▁earn	-8.57016
▁calls	-8.57115
▁gave	-8.57241
▁hour	-8.58083
face	-8.58126
▁across	-8.58374
▁artists	-8.58382
▁looks	-8.58535
▁actual	-8.58686
▁reset	-8.58752
▁broken	-8.589
▁alot	-8.58929
▁group	-8.5909
▁name	-8.59172
▁miss	-8.5935
▁family	-8.59557
▁customi	-8.59662
▁removed	-8.59666
▁swipe	-8.59703
▁touch	-8.59746
▁idea	-8.60207
▁lag	-8.60354
ith	-8.60731
▁Adobe	-8.61027
▁Sound	-8.61175
▁reviews	-8.61303
▁hand	-8.61305
▁Twitter	-8.61703
▁noticed	-8.61771
▁so	-8.62452
▁feels	-8.62545
▁comics	-8.6256
▁specific	-8.62565
▁beat	-8.62694
▁low	-8.63626
▁break	-8.63631
▁mean	-8.63802
oin	-8.6403
▁suddenly	-8.64086
▁practice	-8.64216
▁weapons	-8.64219
▁moves	-8.64392
▁today	-8.6452
▁challenges	-8.6453
▁decent	-8.64697
verything	-8.64812
lay	-8.64885
▁network	-8.65251
▁information	-8.65349
ix	-8.65406
al	-8.658
▁waiting	-8.66098
▁stupid	-8.66302
▁while	-8.66344
▁unlock	-8.66484
▁opening	-8.66665
▁perfectly	-8.66734
▁gotten	-8.66844
▁with	-8.66862
▁buttons	-8.67224
▁believe	-8.67416
▁watched	-8.67418
▁note	-8.67448
▁bottom	-8.67501
▁Since	-8.67529
oyed	-8.67599
▁everytime	-8.67651
▁chats	-8.67755
▁smooth	-8.67826
▁words	-8.6787
▁reinstalling	-8.68023
▁commercial	-8.68033
▁coming	-8.68039
▁Tubi	-8.68181
▁kick	-8.68465
▁figure	-8.68561
odi	-8.68599
▁changing	-8.68813
▁boring	-8.68887
therwise	-8.6891
▁via	-8.68973
▁care	-8.69143
▁important	-8.69271
▁honestly	-8.69419
▁image	-8.69585
▁store	-8.69848
ay	-8.69852
▁came	-8.69975
▁resume	-8.70328
▁controller	-8.704
▁otherwise	-8.70772
lus	-8.70923
▁wonderful	-8.7096
▁course	-8.70983
▁challenging	-8.7109
▁server	-8.71118
▁profile	-8.71244
▁documents	-8.71521
▁manually	-8.71725
▁viewing	-8.71782
nce	-8.72032
uest	-8.72174
ill	-8.72283
▁awful	-8.72307
▁connected	-8.72893
but	-8.72924
ew	-8.73145
▁finally	-8.73184
▁exit	-8.73481
▁build	-8.7373
se	-8.7376
itbit	-8.74038
▁bought	-8.7421
▁beautiful	-8.74651
▁improve	-8.74662
▁spending	-8.74753
▁shuffle	-8.74827
▁social	-8.7491
▁opinion	-8.75469
▁fantastic	-8.75495
▁choice	-8.75671
▁dark	-8.75708
▁browser	-8.75881
▁trouble	-8.76014
▁functions	-8.76055
▁normal	-8.76124
oes	-8.76177
▁older	-8.76279
IT	-8.76427
▁unusable	-8.76795
▁guess	-8.76978
▁uninstalling	-8.77136
een	-8.77252
▁cable	-8.7731
▁tracks	-8.77375
▁constant	-8.77466
one	-8.77608
▁services	-8.77661
▁deleting	-8.77696
▁album	-8.77745
luetooth	-8.77905
▁personal	-8.77936
un	-8.78012
▁follow	-8.78709
▁general	-8.78761
▁totally	-8.78889
▁higher	-8.78917
ell	-8.78963
▁fair	-8.7902
▁appreciate	-8.79328
irst	-8.79372
▁line	-8.79468
▁appear	-8.79495
▁supposed	-8.79519
▁lately	-8.79541
▁thumbs	-8.79753
▁sense	-8.80252
and	-8.80348
▁sleep	-8.80504
▁weird	-8.80794
▁taking	-8.80867
▁helps	-8.81
▁format	-8.81021
▁sending	-8.81038
▁reels	-8.81045
▁events	-8.8112
▁harder	-8.81209
▁link	-8.81383
▁functionality	-8.81507
hromecast	-8.81565
kept	-8.82036
▁mission	-8.8212
▁messaging	-8.82225
decided	-8.82503
▁plan	-8.82693
▁cards	-8.82731
▁correct	-8.82739
▁streams	-8.82844
▁default	-8.82877
▁wants	-8.82955
le	-8.82974
▁rid	-8.83225
▁glitchy	-8.83293
▁moving	-8.83338
▁taken	-8.83344
icrosoft	-8.83417
ST	-8.83479
▁poor	-8.83509
▁keyboard	-8.83584
▁current	-8.8359
▁basically	-8.836
▁updating	-8.83751
▁currently	-8.83889
▁folders	-8.84085
▁behind	-8.84269
▁along	-8.84411
▁based	-8.84686
▁completed	-8.84954
▁twice	-8.84974
▁process	-8.84994
▁scrolling	-8.85045
▁starting	-8.85158
ox	-8.85499
▁friend	-8.85634
▁means	-8.85795
▁loads	-8.85978
▁skin	-8.85994
▁building	-8.86001
▁runs	-8.86125
ive	-8.86433
te	-8.86516
▁repetitive	-8.8653
▁icon	-8.86601
▁limited	-8.86776
▁mess	-8.86815
uently	-8.87083
▁immediately	-8.87166
▁web	-8.87276
▁accounts	-8.876
▁thank	-8.87747
in	-8.87864
▁monthly	-8.87934
▁display	-8.88174
▁mention	-8.88396
▁ways	-8.88591
sed	-8.8866
▁together	-8.88881
▁offer	-8.8894
▁tab	-8.89014
▁versions	-8.89379
▁sort	-8.89635
▁date	-8.89669
▁anywhere	-8.90209
▁software	-8.90211
▁cast	-8.90221
▁lesson	-8.90301
▁seeing	-8.9046
▁did	-8.90566
▁pu	-8.90693
▁challenge	-8.90793
▁garbage	-8.90846
▁map	-8.90999
▁nearly	-8.91002
p	-8.91024
l	-8.91036
luto	-8.91057
eep	-8.91151
▁fitbit	-8.91705
ver	-8.91755
▁subtitles	-8.91851
▁suggest	-8.92436
▁battery	-8.92487
▁limit	-8.925
▁cut	-8.92717
▁thanks	-8.92742
▁password	-8.92821
▁code	-8.92828
▁organi	-8.92933
▁smart	-8.92978
▁finished	-8.93062
▁ok	-8.93093
▁info	-8.9321
▁cloud	-8.93223
▁missions	-8.93392
oom	-8.93411
▁mostly	-8.93426
▁similar	-8.93479
anva	-8.93852
▁Telegram	-8.94029
▁receive	-8.94031
▁was	-8.9411
▁faster	-8.94164
▁incredibl	-8.94323
▁rewards	-8.94435
hile	-8.94511
▁Although	-8.94692
▁w	-8.9501
▁itself	-8.95484
ombie	-8.95594
▁response	-8.9573
▁suggestion	-8.9592
IS	-8.96079
ever	-8.96434
aybe	-8.96447
ue	-8.9675
▁talk	-8.96838
▁losing	-8.9708
▁although	-8.97318
▁tool	-8.97476
iscord	-8.9768
orks	-8.97798
▁company	-8.98009
▁contacts	-8.9827
▁posts	-8.98594
▁future	-8.98681
▁okay	-8.98703
▁tru	-8.98718
▁ruined	-8.98798
k	-8.98804
▁website	-8.98967
▁charge	-8.99031
oyable	-8.99128
▁forc	-8.99214
▁Too	-8.99356
▁casting	-8.99427
▁irritating	-8.99531
▁chance	-8.99792
▁color	-8.99804
asy	-8.99852
▁score	-9.00059
▁laggy	-9.00465
▁refresh	-9.00558
▁correctly	-9.00605
▁reach	-9.00711
▁feedback	-9.00858
▁includ	-9.0087
smil	-9.00948
▁finding	-9.00971
▁compared	-9.01232
▁despi	-9.0125
▁ask	-9.01254
▁disappointing	-9.01262
▁prefer	-9.01437
▁word	-9.01695
▁night	-9.01753
▁push	-9.01753
▁town	-9.01865
▁split	-9.02006
▁confusing	-9.02011
▁breaks	-9.02257
▁power	-9.02393
is	-9.02468
▁case	-9.02644
uolingo	-9.02657
▁downloads	-9.03644
▁min	-9.03965
▁opened	-9.04079
▁double	-9.04096
▁appears	-9.04344
▁c	-9.04345
ice	-9.0461
▁report	-9.04667
▁repeat	-9.05055
▁near	-9.05142
▁laptop	-9.05151
▁straight	-9.05439
▁but	-9.05877
▁syncing	-9.06074
retty	-9.0611
u	-9.06238
oying	-9.0625
▁bonus	-9.06315
▁none	-9.0634
ope	-9.06412
▁lags	-9.06471
▁improved	-9.0653
▁Ads	-9.06586
f	-9.06598
▁reopen	-9.06748
▁th	-9.06838
alaxy	-9.07023
▁cash	-9.07154
▁document	-9.07182
▁Twitch	-9.07211
▁continues	-9.07216
▁four	-9.07251
▁frustrated	-9.07376
▁which	-9.07411
▁rest	-9.0745
▁and	-9.07498
▁b	-9.07721
▁becomes	-9.08165
▁intuitive	-9.08189
▁driving	-9.08329
▁login	-9.08794
inecraft	-9.08809
▁consider	-9.08854
▁coin	-9.08885
▁restarted	-9.08976
▁stopping	-9.09132
▁errors	-9.09256
▁sharing	-9.09377
▁drive	-9.09399
▁whatsapp	-9.09431
▁x	-9.0956
othing	-9.09751
▁rewind	-9.09842
▁provide	-9.0993
▁disappear	-9.10049
ombies	-9.10362
▁lower	-9.10964
▁separate	-9.11117
▁locked	-9.11342
▁area	-9.11439
▁Add	-9.11644
▁bother	-9.11696
▁An	-9.12014
▁buying	-9.12054
▁improvement	-9.12169
▁designed	-9.12312
▁considering	-9.12331
▁thinking	-9.12374
▁trash	-9.12535
▁bunch	-9.12665
▁resolved	-9.12787
▁interested	-9.12957
▁characters	-9.1304
▁developer	-9.1313
▁no	-9.13157
nfortunately	-9.13467
ect	-9.1357
▁hoping	-9.13726
▁AS	-9.13881
▁expect	-9.14028
▁drop	-9.14072
▁goal	-9.14091
▁types	-9.14319
▁wide	-9.14332
▁regular	-9.14375
▁sad	-9.14382
hich	-9.14436
▁favorites	-9.14479
uch	-9.14596
▁artist	-9.14674
ish	-9.1482
▁Am	-9.15056
g	-9.15307
▁restarting	-9.15661
▁attempt	-9.15838
ting	-9.15841
▁disable	-9.15989
▁tasks	-9.16069
▁cra	-9.16148
▁luck	-9.1637
ero	-9.16621
▁closed	-9.16795
▁expected	-9.16937
▁minor	-9.16964
▁switching	-9.17017
▁f	-9.17115
▁platforms	-9.17142
▁groups	-9.17249
ecause	-9.17315
▁ahead	-9.17473
▁choices	-9.17493
▁servers	-9.17533
▁discord	-9.17534
▁creators	-9.17619
▁reliable	-9.17758
▁steps	-9.18016
re	-9.18234
▁tools	-9.18293
▁solid	-9.18499
▁mins	-9.18512
▁fan	-9.18609
▁art	-9.18777
▁non	-9.18793
▁product	-9.18817
our	-9.1936
enrag	-9.19491
▁kill	-9.1952
ore	-9.19573
▁same	-9.19709
▁devs	-9.19744
▁count	-9.198
▁keeping	-9.20072
▁fully	-9.20281
▁block	-9.20391
▁feed	-9.20435
TI	-9.20452
▁once	-9.20501
▁moment	-9.20828
▁site	-9.2088
▁copy	-9.20904
▁switched	-9.21247
▁pain	-9.21338
▁discover	-9.21588
▁the	-9.21616
▁closing	-9.21684
▁return	-9.21768
▁enter	-9.2189
▁spot	-9.21944
▁communication	-9.22013
▁reali	-9.22083
▁as	-9.22141
▁manage	-9.22241
nother	-9.2269
m	-9.22707
▁skips	-9.22745
▁turns	-9.22908
▁room	-9.22995
▁podcasts	-9.23159
layer	-9.23521
▁telegram	-9.23728
any	-9.23813
▁m	-9.2413
▁caus	-9.24179
▁offers	-9.24552
▁fro	-9.24809
▁sounds	-9.25113
▁connecting	-9.25137
▁obvious	-9.2523
▁recommended	-9.25236
▁light	-9.25308
▁recogni	-9.25487
▁Seem	-9.25529
▁hold	-9.25529
▁learned	-9.25555
▁suggestions	-9.25673
▁red	-9.26193
ro	-9.26201
▁closes	-9.26213
▁hearts	-9.26721
▁plenty	-9.26765
▁bored	-9.26943
▁ups	-9.26952
▁lives	-9.27107
▁diamonds	-9.27112
▁comment	-9.27126
▁google	-9.27182
▁season	-9.2726
▁backup	-9.27465
▁convenient	-9.27837
▁exactly	-9.27985
▁demand	-9.28006
▁twitch	-9.28069
laylist	-9.28078
▁tone	-9.28196
▁bigge	-9.28238
ried	-9.28268
▁garden	-9.28284
▁fixes	-9.28399
▁comments	-9.28443
▁results	-9.28449
▁sports	-9.28543
▁attention	-9.28949
▁meet	-9.28996
▁rarely	-9.2905
▁concept	-9.29144
▁smoothly	-9.29312
▁Super	-9.29739
▁saving	-9.29815
onestly	-9.29903
▁albums	-9.30042
▁history	-9.30056
▁fall	-9.302
▁whe	-9.30236
▁calendar	-9.30497
▁stick	-9.30581
akes	-9.30597
▁lock	-9.30668
▁through	-9.307
▁payment	-9.30705
aving	-9.30834
▁improvements	-9.30859
uit	-9.30944
▁purpose	-9.30984
▁particular	-9.30984
▁comic	-9.31074
▁mouth	-9.31083
▁mark	-9.31093
▁clean	-9.31147
▁accidentally	-9.31216
▁shut	-9.31262
uired	-9.31411
▁selected	-9.31505
▁charged	-9.31541
▁k	-9.31625
▁slide	-9.31695
▁v	-9.31766
umps	-9.31824
till	-9.32026
oblox	-9.32117
▁addictive	-9.32322
▁checked	-9.32477
▁period	-9.32477
▁directly	-9.32541
▁looked	-9.32542
▁only	-9.32633
▁performance	-9.32781
▁from	-9.32841
▁talking	-9.33025
▁fee	-9.33054
▁solution	-9.33081
ueue	-9.33476
▁told	-9.33512
▁difficulty	-9.3381
▁difference	-9.33965
▁lack	-9.34103
▁mix	-9.34127
▁anyway	-9.34129
▁created	-9.34243
▁parts	-9.34288
▁pages	-9.34338
▁fire	-9.34403
x	-9.34406
efinitely	-9.34451
▁advance	-9.34612
▁sit	-9.34613
▁causes	-9.3483
▁multiplayer	-9.34995
▁item	-9.35058
▁creating	-9.35104
▁include	-9.35122
▁result	-9.35171
▁increase	-9.35172
▁depend	-9.35222
▁food	-9.35245
▁telling	-9.35325
▁writing	-9.35421
▁task	-9.35782
▁glad	-9.35818
▁mid	-9.35875
▁symbols	-9.35953
▁Second	-9.35976
▁relaxing	-9.3608
▁classic	-9.36308
no	-9.36309
▁complaints	-9.36386
▁genre	-9.36503
▁loud	-9.36726
ast	-9.36802
▁then	-9.36999
▁write	-9.37017
SS	-9.37145
▁putting	-9.37187
▁roblox	-9.37197
▁individual	-9.37225
▁step	-9.37306
▁forget	-9.37327
▁personally	-9.37415
▁pdf	-9.37544
us	-9.37553
▁entirely	-9.37564
▁why	-9.37614
▁pc	-9.37649
id	-9.3767
▁clearly	-9.37702
▁places	-9.37758
▁purchased	-9.37781
▁genres	-9.37828
▁interest	-9.37972
▁fail	-9.38008
ous	-9.38118
henever	-9.38157
▁negative	-9.38196
▁spotify	-9.38197
▁unlimited	-9.38199
▁becoming	-9.38231
▁spam	-9.38237
▁pull	-9.38551
▁sub	-9.38724
▁clicking	-9.38869
▁fails	-9.39034
▁reader	-9.39093
xcellent	-9.39113
▁costs	-9.3914
▁somehow	-9.39414
▁userfriendly	-9.39434
▁worlds	-9.39551
▁l	-9.39617
▁heard	-9.39906
▁tracking	-9.39907
box	-9.39927
▁complicated	-9.39986
▁helped	-9.40047
▁answer	-9.40139
▁window	-9.40173
▁lagging	-9.40179
▁searching	-9.40257
▁following	-9.40308
▁stable	-9.40353
the	-9.4047
ightroom	-9.40488
ots	-9.40518
▁white	-9.40636
▁shame	-9.40677
▁alone	-9.40889
▁filter	-9.4113
▁entertainment	-9.41133
▁blue	-9.41193
▁location	-9.41227
▁popup	-9.41252
specially	-9.41305
▁buffer	-9.41368
▁grammar	-9.41386
▁purchases	-9.41389
▁IT	-9.41451
▁slightly	-9.41581
▁loop	-9.41611
▁sudden	-9.41692
indows	-9.41745
▁addition	-9.41854
▁potential	-9.41901
▁unfortunately	-9.41973
▁failed	-9.42134
▁uni	-9.42184
▁total	-9.42208
▁previously	-9.42593
▁cleared	-9.42765
▁radio	-9.42851
▁key	-9.42884
▁action	-9.4292
▁inconvenient	-9.43171
▁upthumbs	-9.43193
▁glitching	-9.43227
▁buffers	-9.43291
rom	-9.43316
▁style	-9.43611
▁creative	-9.43883
▁transfer	-9.44059
▁provides	-9.44106
▁fit	-9.44236
▁revert	-9.44276
nstead	-9.44285
▁endless	-9.44298
▁titles	-9.4432
ity	-9.44399
▁popular	-9.44442
▁asking	-9.44442
▁security	-9.44444
▁blank	-9.44627
▁turning	-9.44649
ideo	-9.44717
▁received	-9.44797
▁g	-9.45048
▁aspect	-9.45073
▁opens	-9.45089
▁pl	-9.45251
▁fixing	-9.45364
mail	-9.45436
▁honest	-9.45564
inning	-9.45677
▁intrusive	-9.45751
▁we	-9.45771
▁realistic	-9.45794
▁unplayable	-9.45944
ers	-9.46201
▁kids	-9.46222
▁pls	-9.46312
▁tricks	-9.46357
ecently	-9.4651
▁experienced	-9.46528
▁built	-9.46539
▁languages	-9.4683
▁special	-9.46836
▁hell	-9.47015
▁technical	-9.47176
▁stays	-9.47364
▁solve	-9.47373
▁suck	-9.47425
▁onto	-9.47695
▁trick	-9.47999
ake	-9.48115
▁tech	-9.48259
▁respond	-9.48292
all	-9.48322
▁saw	-9.48397
▁eventually	-9.48631
▁boosters	-9.48665
▁strong	-9.48739
▁details	-9.48749
▁dollars	-9.48789
▁logging	-9.49084
▁upgrades	-9.49085
▁st	-9.49202
▁wall	-9.49269
ar	-9.49637
▁allowed	-9.49677
▁tons	-9.49718
▁memory	-9.49742
▁Terrible	-9.49752
les	-9.49755
uent	-9.49774
▁annoyed	-9.49877
▁disappeared	-9.50087
▁title	-9.50232
▁landscape	-9.5043
▁webtoon	-9.50462
▁row	-9.50665
▁absolute	-9.50921
▁record	-9.50956
▁afford	-9.50985
▁buildings	-9.51016
▁Awesome	-9.51105
▁damn	-9.5111
▁insane	-9.51196
▁explore	-9.51248
▁ton	-9.51319
▁Th	-9.51373
▁mistake	-9.5155
▁programs	-9.51593
unk	-9.51649
▁collect	-9.51652
less	-9.51732
▁algorithm	-9.51823
▁yes	-9.51908
▁products	-9.52227
▁ease	-9.5241
▁Alto	-9.52564
▁tend	-9.5259
▁shoot	-9.52635
remium	-9.52682
▁community	-9.52712
▁brightness	-9.52721
▁unlike	-9.52742
▁chromebook	-9.52745
▁matches	-9.52938
▁refund	-9.52954
▁favourite	-9.53241
▁teams	-9.53288
▁asked	-9.53314
▁tapping	-9.53366
▁t	-9.53521
▁serious	-9.53705
▁visual	-9.53869
w	-9.53894
▁experiencing	-9.54005
.....	-9.5404
▁bigger	-9.54191
▁event	-9.54256
▁guns	-9.54316
▁credits	-9.54389
▁complet	-9.5441
▁throw	-9.54604
▁tired	-9.54655
signed	-9.55063
▁inbox	-9.55222
▁focus	-9.55309
▁beyond	-9.55327
▁privacy	-9.5533
▁Always	-9.55331
▁n	-9.55399
orst	-9.55437
am	-9.55532
▁hunter	-9.55561
▁true	-9.55647
▁customers	-9.55672
▁round	-9.55698
▁seriously	-9.55749
▁die	-9.56019
▁additional	-9.56023
▁designs	-9.56322
ews	-9.56419
umping	-9.56489
▁reasons	-9.56671
▁notice	-9.56761
▁advertising	-9.56798
▁apparent	-9.56799
▁shown	-9.57011
▁recommendations	-9.57045
▁ends	-9.57114
▁export	-9.5713
▁active	-9.57147
▁posting	-9.57338
▁streak	-9.57568
hone	-9.5804
▁subscribe	-9.58084
red	-9.58155
ree	-9.58268
▁outlook	-9.5836
▁dead	-9.58549
▁mine	-9.58556
▁upon	-9.58617
▁lines	-9.58638
▁rated	-9.58888
▁font	-9.59104
▁ended	-9.59264
▁head	-9.59553
▁yesterday	-9.59746
▁unnecessary	-9.59748
ight	-9.59832
▁about	-9.59954
▁range	-9.60039
ome	-9.60301
▁articles	-9.60613
ant	-9.60613
▁shooting	-9.6063
▁co	-9.60654
▁autoplay	-9.60669
ought	-9.6078
nd	-9.61002
opefully	-9.61086
▁Acrobat	-9.61253
▁source	-9.61316
▁resolve	-9.61419
▁dropbox	-9.6144
▁goals	-9.61455
▁headphones	-9.61547
▁hundreds	-9.61566
▁effects	-9.61614
c	-9.61637
▁h	-9.62016
raged	-9.62017
▁setup	-9.62021
▁complain	-9.62522
oke	-9.62551
▁register	-9.62573
▁school	-9.62652
▁fill	-9.62714
▁nowhere	-9.62886
▁resolution	-9.62928
▁tries	-9.63022
▁calling	-9.63098
▁occasionally	-9.63172
▁scan	-9.63187
▁templates	-9.63204
▁wonder	-9.63477
▁suggested	-9.63493
▁alternative	-9.6369
▁collection	-9.63692
ead	-9.63884
▁third	-9.63913
▁lol	-9.63972
▁paused	-9.64038
▁exact	-9.64142
▁reload	-9.64167
▁private	-9.6435
▁navigation	-9.64359
▁minecraft	-9.64417
▁clicked	-9.64505
me	-9.64548
▁mail	-9.64937
▁preview	-9.65017
▁ruin	-9.65048
▁e	-9.65117
▁gaming	-9.65357
ects	-9.65476
▁print	-9.65562
▁avoid	-9.65577
▁effort	-9.65652
▁medium	-9.65665
▁local	-9.65718
▁early	-9.65723
acebook	-9.65795
▁upgraded	-9.66174
▁drain	-9.66279
▁impressed	-9.66333
▁beside	-9.66346
▁decide	-9.66393
▁draw	-9.664
▁tweets	-9.66786
▁weapon	-9.66892
▁figured	-9.66971
▁ready	-9.67168
▁bare	-9.67257
verytime	-9.67295
▁country	-9.6732
▁skins	-9.67351
hatsapp	-9.67406
▁optional	-9.6752
▁anytime	-9.67558
▁infuriating	-9.67809
▁everyday	-9.67867
▁checking	-9.6794
▁messed	-9.68089
▁cheaper	-9.68096
▁late	-9.68097
▁entertaining	-9.68108
efore	-9.68432
b	-9.68545
▁novel	-9.68549
lmost	-9.68607
▁catch	-9.68695
▁disappears	-9.68734
ies	-9.68902
▁timer	-9.69054
oystick	-9.69089
▁broke	-9.69107
▁aim	-9.69182
▁enemies	-9.69184
▁clunky	-9.69184
▁parkour	-9.69193
▁categories	-9.69202
ninstalled	-9.69222
▁consistently	-9.69366
▁graphic	-9.69469
▁authors	-9.69625
▁barel	-9.69771
▁delay	-9.69963
ixel	-9.70004
▁slowly	-9.70521
▁Though	-9.70724
▁colors	-9.70729
▁scores	-9.70793
▁gallery	-9.70853
▁programming	-9.70875
▁nightmare	-9.70882
▁leaving	-9.70936
▁gold	-9.70983
▁host	-9.71004
▁earlier	-9.71047
▁kodi	-9.71113
▁necessary	-9.71304
▁banned	-9.71344
▁chamet	-9.71356
▁own	-9.71409
▁finger	-9.71569
▁agree	-9.71583
▁newest	-9.71768
▁article	-9.71891
bsolutely	-9.71944
v	-9.72179
▁cuts	-9.72409
▁hidden	-9.72539
sing	-9.72568
▁galaxy	-9.72595
▁pre	-9.72691
▁gr	-9.72936
▁typing	-9.7307
▁displayed	-9.73086
▁bots	-9.73152
▁tweet	-9.73153
folded	-9.73463
▁likely	-9.73578
▁movement	-9.73608
▁podcast	-9.73623
▁cry	-9.73895
ither	-9.73962
▁highlight	-9.73973
▁areas	-9.74086
▁mute	-9.74308
▁browse	-9.74372
▁hulu	-9.74376
▁stats	-9.74413
side	-9.74415
▁terms	-9.74473
eeds	-9.74485
▁sends	-9.74807
▁offered	-9.74812
▁refuses	-9.74815
▁incredible	-9.75094
▁r	-9.75188
ind	-9.7529
▁method	-9.75339
▁downside	-9.75369
▁can	-9.75384
▁man	-9.75449
▁guide	-9.75587
▁self	-9.75638
▁proper	-9.75822
▁safe	-9.75827
now	-9.75951
▁chose	-9.75963
▁thru	-9.76019
▁prevent	-9.76068
▁conversation	-9.7618
▁import	-9.76185
ninstalling	-9.76359
▁disabled	-9.76371
▁wasted	-9.76672
▁included	-9.76708
▁hardly	-9.77014
xtreme	-9.77056
▁storyline	-9.77132
▁competition	-9.77136
▁posted	-9.7719
▁reel	-9.7726
▁forces	-9.77297
time	-9.77491
hromebook	-9.77669
▁cover	-9.77788
uid	-9.77802
▁outside	-9.77845
▁visible	-9.77858
▁continuously	-9.77901
▁related	-9.77987
▁launch	-9.78055
▁moved	-9.78074
▁membership	-9.78076
▁loose	-9.78189
▁football	-9.78193
▁sec	-9.7831
▁bonuses	-9.78322
▁stand	-9.78362
▁normally	-9.78368
▁recharge	-9.78728
▁reward	-9.78789
▁handle	-9.78794
▁frustration	-9.78868
▁cu	-9.7906
▁credit	-9.79063
ook	-9.7915
▁direction	-9.79245
▁prices	-9.79277
▁Spanish	-9.79625
nglish	-9.7978
▁other	-9.79867
▁br	-9.79895
▁remov	-9.79925
▁con	-9.80192
▁slower	-9.80204
▁Any	-9.80227
▁subscriptions	-9.80404
to	-9.80434
nt	-9.80463
▁expand	-9.80554
▁numbers	-9.80902
▁fault	-9.80925
▁fake	-9.80931
▁provider	-9.80931
▁edits	-9.81034
▁animation	-9.81065
orrible	-9.81357
▁willing	-9.81463
▁claim	-9.81468
▁theme	-9.81485
▁position	-9.81608
▁bluetooth	-9.81847
▁green	-9.8189
▁emo	-9.81913
▁uno	-9.81924
▁redownload	-9.82123
▁teach	-9.823
▁mistakes	-9.82365
▁front	-9.82367
▁boxes	-9.82508
▁length	-9.82635
▁rd	-9.82646
ability	-9.83236
ls	-9.83292
you	-9.83309
▁recording	-9.83349
▁million	-9.83363
▁soundcloud	-9.83368
▁hooked	-9.83386
▁advertised	-9.83433
▁regardless	-9.83507
▁elements	-9.83519
▁reasonable	-9.83529
▁replay	-9.83542
▁ending	-9.83589
here	-9.83695
▁written	-9.83839
he	-9.84065
▁test	-9.84246
▁crashed	-9.84269
▁lacks	-9.84464
▁gain	-9.84503
▁widget	-9.8452
▁console	-9.84592
▁kinds	-9.84604
▁regatta	-9.84611
▁exercise	-9.8468
▁standard	-9.8476
The	-9.84821
▁value	-9.84891
▁signal	-9.84899
▁frame	-9.85142
▁accurate	-9.85143
▁IS	-9.85253
▁felt	-9.85262
▁elsewhere	-9.85284
▁cancelled	-9.853
▁awhile	-9.85313
▁pressing	-9.85328
▁mechanics	-9.85432
▁pixel	-9.85555
▁installing	-9.8562
▁struggle	-9.85863
▁li	-9.85974
▁suit	-9.86064
▁communicate	-9.86094
▁clips	-9.86108
▁popp	-9.86165
▁consuming	-9.86197
▁professional	-9.86285
▁missed	-9.86398
▁Start	-9.86532
app	-9.86828
▁path	-9.86874
age	-9.86886
▁maps	-9.87039
▁secure	-9.8706
▁minimal	-9.87071
oku	-9.87136
▁warning	-9.87226
▁tedious	-9.87238
▁water	-9.87242
▁positive	-9.87267
▁toward	-9.87429
▁subscribed	-9.87518
ack	-9.87558
▁personali	-9.87665
▁matching	-9.87687
▁morning	-9.87807
▁basics	-9.87883
▁rolling	-9.88149
▁webtoons	-9.88206
▁selections	-9.88222
▁pics	-9.88256
▁usage	-9.88286
▁streamers	-9.8843
▁advertisement	-9.8859
ard	-9.88644
▁walk	-9.88656
▁refuse	-9.88691
▁Absolute	-9.88893
raphics	-9.89168
▁somewhere	-9.89238
▁release	-9.89248
▁inside	-9.89286
▁links	-9.89316
▁purchasing	-9.8933
▁uses	-9.89371
▁reduce	-9.89404
▁health	-9.89519
down	-9.8955
▁addons	-9.89653
▁uploading	-9.89655
▁hide	-9.89848
eed	-9.89912
▁advertisements	-9.89912
▁unlocked	-9.90024
ness	-9.90049
▁pace	-9.90252
▁likes	-9.90262
▁clip	-9.90329
▁rotate	-9.90389
▁subtitle	-9.90614
▁ran	-9.90639
▁max	-9.90715
▁netflix	-9.90935
▁essential	-9.91078
▁lists	-9.91263
▁timing	-9.91276
▁alright	-9.91276
▁increasing	-9.91334
▁repeatedly	-9.91383
▁cheap	-9.91394
▁pausing	-9.9142
▁flip	-9.91427
▁helping	-9.91491
▁ideas	-9.917
ote	-9.91731
ate	-9.92117
ority	-9.92616
▁explain	-9.92646
thing	-9.92693
▁party	-9.92789
▁Auto	-9.92813
▁meaning	-9.92878
▁blocks	-9.92934
▁custom	-9.93031
▁Stop	-9.93044
▁cell	-9.93104
od	-9.9312
▁remote	-9.93158
▁automatic	-9.93349
▁Additional	-9.93363
▁throughout	-9.93374
▁everywhere	-9.93375
▁consistent	-9.93384
▁halfway	-9.93396
▁greedy	-9.93415
▁canceling	-9.93437
▁efficient	-9.93447
▁chatting	-9.935
▁dislike	-9.93529
▁thousands	-9.93592
▁functional	-9.93598
▁tiny	-9.93637
ring	-9.9372
▁regularly	-9.93797
▁skipping	-9.9382
▁winning	-9.9405
▁shared	-9.94091
▁exist	-9.94121
▁ruins	-9.94229
ang	-9.94245
▁skills	-9.94338
▁minimi	-9.94351
▁speaking	-9.94428
▁had	-9.94571
▁disconnect	-9.94703
▁edited	-9.94761
▁lacking	-9.9477
▁goto	-9.95103
▁form	-9.95183
▁shooter	-9.95211
▁station	-9.95284
eople	-9.95338
▁avail	-9.9537
onstantly	-9.95517
▁compatible	-9.95519
etter	-9.95623
ally	-9.95644
at	-9.95767
▁misleading	-9.95806
▁troubleshooting	-9.95927
eaming	-9.9595
▁contain	-9.95963
▁flow	-9.95972
▁sorry	-9.9611
▁speak	-9.96221
▁road	-9.96231
▁loss	-9.9634
▁responding	-9.96389
▁hang	-9.96392
▁reboot	-9.9669
▁shuts	-9.96749
▁address	-9.96768
▁hassle	-9.96821
ily	-9.96921
▁tutorial	-9.96987
▁drops	-9.97014
▁remain	-9.97049
▁gripe	-9.97061
▁speaker	-9.97076
▁odd	-9.97119
ce	-9.97298
ately	-9.97337
ons	-9.97526
out	-9.97603
▁breaking	-9.97643
▁profiles	-9.97722
▁busy	-9.97749
▁editor	-9.97947
▁mood	-9.97968
▁provided	-9.9804
▁films	-9.98089
▁d	-9.98097
▁should	-9.98252
like	-9.98263
ng	-9.98282
▁reached	-9.98354
th	-9.98409
▁present	-9.98434
oo	-9.98441
▁lucky	-9.98442
▁hot	-9.9855
▁gun	-9.98558
up	-9.98671
▁animations	-9.98754
atch	-9.98764
▁brand	-9.98875
▁fac	-9.98912
▁effective	-9.99093
ebtoon	-9.991
▁city	-9.99167
▁avatar	-9.99192
▁noise	-9.992
▁regard	-9.9921
▁ticket	-9.99214
▁prompt	-9.99273
▁repeats	-9.99331
ion	-9.99352
▁intro	-9.99431
asks	-9.99455
▁sentence	-9.9953
▁market	-9.9956
▁rock	-9.99602
▁tracker	-9.99647
▁saves	-9.99826
▁horror	-9.99874
▁instantly	-9.99976
▁rare	-10.0003
▁rules	-10.0012
▁has	-10.0014
▁yeah	-10.0019
▁de	-10.0021
ach	-10.0051
ey	-10.0053
▁pri	-10.0062
laying	-10.0068
▁ob	-10.0079
▁materials	-10.0082
It	-10.0086
▁toggle	-10.0089
▁followed	-10.009
▁teaching	-10.0112
nable	-10.0133
▁sheet	-10.0145
▁scene	-10.0149
AI	-10.0156
▁canva	-10.0157
▁bigo	-10.016
▁stage	-10.0167
if	-10.0174
▁scam	-10.0177
▁member	-10.0194
uests	-10.0195
▁occasional	-10.0196
▁television	-10.0215
▁excessive	-10.0215
▁dropped	-10.0216
ear	-10.0218
▁lyrics	-10.022
▁forth	-10.0248
▁common	-10.0249
thumbs	-10.0255
▁smaller	-10.0268
▁structure	-10.0275
▁Trying	-10.0278
▁known	-10.0298
▁portion	-10.0311
▁filters	-10.0369
ig	-10.037
▁package	-10.038
inally	-10.0389
▁confused	-10.0392
ary	-10.0396
etting	-10.0403
▁supported	-10.0406
▁skill	-10.0406
▁readers	-10.0406
ic	-10.0425
▁infinite	-10.0428
▁usual	-10.0434
▁rigged	-10.0447
▁land	-10.0447
▁addicting	-10.0447
▁campaign	-10.0447
▁unavailable	-10.0448
▁surprised	-10.0456
ooks	-10.0461
ve	-10.0475
▁digit	-10.0484
▁funny	-10.0488
▁backwards	-10.0488
▁grab	-10.049
▁names	-10.0499
▁accessible	-10.0508
▁hearing	-10.0519
ui	-10.0522
▁released	-10.0529
either	-10.0544
▁broadcast	-10.0558
▁wasting	-10.0565
▁vs	-10.0589
▁killing	-10.0596
robably	-10.0602
▁interact	-10.0607
▁instance	-10.0616
▁client	-10.0618
▁courses	-10.0618
▁material	-10.0619
▁placed	-10.063
▁annoy	-10.0632
▁shot	-10.0652
▁loaded	-10.0666
▁ST	-10.0673
iterally	-10.0678
▁myself	-10.0684
▁minimum	-10.0685
▁virtual	-10.0685
▁doubt	-10.0687
ontrols	-10.0689
▁memories	-10.0692
▁lead	-10.0704
▁presets	-10.0711
▁disconnected	-10.0711
ent	-10.0714
▁xbox	-10.0719
▁category	-10.072
▁gifts	-10.0729
▁aware	-10.0744
▁deep	-10.0747
rive	-10.0764
▁logg	-10.0774
▁se	-10.0776
▁poorly	-10.0786
▁advanced	-10.0787
▁sick	-10.0804
not	-10.0827
uestion	-10.0845
elp	-10.0859
▁floor	-10.0863
▁beginner	-10.0863
▁development	-10.0891
▁chromecast	-10.0892
▁circle	-10.0897
▁receiv	-10.091
rime	-10.091
▁sometime	-10.0919
▁numer	-10.0927
▁slight	-10.0928
▁management	-10.093
▁youtube	-10.0931
▁flawlessly	-10.0936
▁input	-10.0936
▁prior	-10.0937
▁appearing	-10.0938
▁pointless	-10.0939
▁tips	-10.0975
▁blocked	-10.0986
▁trigger	-10.0986
▁walking	-10.0987
▁ingame	-10.099
▁detail	-10.0992
▁filled	-10.0995
▁imagine	-10.0999
SI	-10.1001
▁destroy	-10.1022
▁listened	-10.1024
▁ten	-10.1026
▁novels	-10.1028
▁showed	-10.1035
ighly	-10.1041
▁begin	-10.1049
▁timeline	-10.1078
ersa	-10.109
▁Sad	-10.1107
▁permission	-10.1113
ere	-10.1125
▁develop	-10.1126
ext	-10.1141
▁mentioned	-10.1145
▁opposite	-10.1179
▁survival	-10.1179
▁engaging	-10.1179
▁Soundcloud	-10.1179
▁seemingly	-10.1183
▁improving	-10.1184
▁permanently	-10.119
▁thus	-10.119
▁rocks	-10.1196
▁bank	-10.1209
▁vlc	-10.1211
▁browsing	-10.1217
ful	-10.1217
▁enabled	-10.1219
▁model	-10.122
▁loving	-10.1221
ist	-10.1225
pix	-10.1226
▁gems	-10.1228
▁appreciated	-10.1237
▁Apple	-10.1243
▁vari	-10.1243
▁pack	-10.1254
▁Stream	-10.1258
▁complaining	-10.1263
▁restarts	-10.1276
▁versa	-10.13
▁discovered	-10.1301
▁reconnect	-10.1341
▁my	-10.1356
fore	-10.1384
▁angle	-10.1401
usiness	-10.1405
▁keys	-10.1408
ade	-10.1417
ntil	-10.1421
obile	-10.1425
▁instagram	-10.1435
▁internal	-10.1439
amsung	-10.1439
▁charging	-10.1441
▁restore	-10.1459
▁feeling	-10.1469
▁flaws	-10.1484
▁playable	-10.1492
▁dumb	-10.1492
▁barn	-10.1511
▁covers	-10.152
▁listed	-10.1526
▁wear	-10.1544
ava	-10.1572
▁drag	-10.158
▁where	-10.1595
uir	-10.1631
▁cross	-10.1635
▁solved	-10.1636
▁earned	-10.1638
▁most	-10.1651
▁stress	-10.1659
ecent	-10.1664
▁external	-10.1674
kay	-10.1678
▁incorrect	-10.1678
▁logo	-10.168
▁screens	-10.1684
▁robux	-10.1691
eeps	-10.1692
▁center	-10.1696
▁distance	-10.1698
▁aggravating	-10.1698
this	-10.1702
▁accept	-10.1703
▁bucks	-10.1703
▁cutting	-10.1704
▁introduced	-10.1711
▁Audio	-10.1714
▁optimi	-10.1729
▁interruptions	-10.1733
▁Again	-10.174
▁arrow	-10.1743
▁specifically	-10.1744
▁signing	-10.1756
▁board	-10.1756
▁exciting	-10.1762
▁base	-10.1768
▁permissions	-10.1768
▁opt	-10.1771
edia	-10.1776
▁utili	-10.1794
▁fight	-10.1794
STA	-10.1809
▁originally	-10.1812
▁Is	-10.1817
▁steam	-10.1823
▁fresh	-10.1835
eader	-10.1843
▁house	-10.1844
screen	-10.1849
even	-10.1859
▁sections	-10.1869
▁disappearing	-10.1874
ector	-10.1877
▁cute	-10.1879
▁greatest	-10.1884
▁final	-10.1891
▁situation	-10.1901
▁cycle	-10.1937
▁league	-10.194
▁displays	-10.1942
▁grow	-10.1951
andora	-10.1955
▁obnoxious	-10.1968
▁unreliable	-10.1968
▁Star	-10.1977
▁reduced	-10.1983
▁encountered	-10.1983
▁inapp	-10.1988
▁powerful	-10.1999
▁yrs	-10.2014
▁activity	-10.203
▁addressed	-10.2037
▁remains	-10.2042
▁viewers	-10.2048
▁pauses	-10.2056
▁andor	-10.2072
▁sorted	-10.2083
▁such	-10.2084
atching	-10.2093
▁occur	-10.2094
ideos	-10.21
▁kid	-10.2107
▁who	-10.2112
▁multi	-10.2118
▁weight	-10.2123
aid	-10.2123
▁compare	-10.2131
back	-10.2142
▁age	-10.2146
▁attempts	-10.215
▁weekly	-10.215
▁popups	-10.215
▁benefit	-10.2173
▁environment	-10.2176
▁applications	-10.2187
ld	-10.2205
▁piece	-10.2206
▁reccomend	-10.2214
onstant	-10.2215
ninstall	-10.2226
aking	-10.2237
▁Adventure	-10.2239
▁somewhat	-10.2239
igo	-10.2243
▁technology	-10.2246
▁primary	-10.2249
▁wild	-10.2253
▁instructions	-10.2258
so	-10.2259
▁Time	-10.2264
▁state	-10.2269
gr	-10.2274
▁tilt	-10.2276
▁nd	-10.2277
▁...	-10.2279
▁currency	-10.2285
▁swiping	-10.229
▁meant	-10.2317
rying	-10.2324
▁official	-10.2327
▁scratch	-10.2336
This	-10.2349
▁sensitive	-10.2353
▁topics	-10.2356
▁repeating	-10.2403
indly	-10.2404
▁members	-10.2412
ia	-10.2431
▁folded	-10.2435
lon	-10.2438
▁train	-10.2459
▁guy	-10.2462
▁subscriber	-10.247
ted	-10.2489
▁effect	-10.2499
▁brilliant	-10.2504
▁screenshot	-10.2505
▁fingers	-10.2506
oing	-10.2507
▁menus	-10.2511
▁whatsoever	-10.2525
▁twitter	-10.2525
▁downhill	-10.2525
▁impressive	-10.2525
▁disappointment	-10.2525
▁empty	-10.2526
▁bundle	-10.2526
▁sweat	-10.2527
▁continually	-10.2527
▁massive	-10.2528
▁progression	-10.2531
▁struggling	-10.2535
ment	-10.2541
▁strange	-10.2541
uo	-10.2545
▁oh	-10.2546
▁factory	-10.2547
▁resources	-10.2555
▁remind	-10.2564
▁earning	-10.257
when	-10.2571
▁modes	-10.2584
▁sentences	-10.2611
▁research	-10.2617
▁exercises	-10.2624
ser	-10.2642
▁native	-10.2645
▁enable	-10.2659
ose	-10.2681
▁liking	-10.2687
▁he	-10.2727
▁alert	-10.2754
▁sender	-10.2754
▁bot	-10.2758
▁concern	-10.2792
▁pic	-10.2792
▁formats	-10.2802
▁nobody	-10.282
▁sliding	-10.2823
▁basis	-10.2825
▁downgrade	-10.2837
▁among	-10.2861
▁fitness	-10.2866
▁rewatch	-10.287
▁obstacles	-10.2881
▁trains	-10.2887
▁testing	-10.2888
▁tag	-10.2894
▁odds	-10.2908
▁speakers	-10.2912
▁edition	-10.2929
ello	-10.2931
▁resets	-10.2936
▁mic	-10.294
▁retry	-10.2983
▁developed	-10.2988
▁killed	-10.3
▁boost	-10.3002
▁passes	-10.3014
▁under	-10.3014
wo	-10.3023
▁AI	-10.3027
▁refreshing	-10.3053
nless	-10.3056
▁tune	-10.3065
ch	-10.3099
▁field	-10.31
▁false	-10.3103
▁manual	-10.3103
▁edge	-10.3103
▁tears	-10.3109
▁possibl	-10.3119
▁Township	-10.3122
▁unwatchable	-10.3122
apanese	-10.3122
▁patience	-10.3122
▁success	-10.3122
▁budget	-10.3123
▁recognition	-10.3123
▁surprising	-10.3126
espit	-10.3133
▁public	-10.3136
▁unresponsive	-10.3138
▁blast	-10.3149
▁sunglasses	-10.3152
rench	-10.3157
▁race	-10.3162
▁increased	-10.3163
arious	-10.3167
▁speech	-10.3169
▁deserves	-10.3173
▁extend	-10.3176
▁stickers	-10.3195
▁scenes	-10.3213
▁casual	-10.3232
▁designing	-10.3233
▁pieces	-10.3242
▁sport	-10.3249
▁visuals	-10.325
▁finishing	-10.3263
▁peoples	-10.3269
▁windows	-10.3296
▁seasons	-10.3307
harge	-10.3309
which	-10.3321
▁handy	-10.3322
end	-10.3329
▁flaw	-10.3341
▁freak	-10.3342
▁behavior	-10.3351
▁logge	-10.3353
rs	-10.3353
▁film	-10.3355
▁Team	-10.3359
▁fox	-10.3377
ens	-10.3385
▁resi	-10.3389
oved	-10.3391
▁suppose	-10.3403
▁paywall	-10.3409
▁tabs	-10.3412
▁direct	-10.3416
sually	-10.3421
▁..	-10.3424
tv	-10.3428
▁rip	-10.3428
▁connectivity	-10.3434
▁airport	-10.3434
▁unacceptable	-10.3434
▁Try	-10.3436
▁dialogue	-10.3436
▁messenger	-10.3436
▁locks	-10.3436
▁upgrading	-10.344
▁perform	-10.3441
▁advice	-10.3441
▁lightroom	-10.3443
▁schedule	-10.3462
▁trust	-10.3463
▁stated	-10.3464
▁bec	-10.3467
▁physical	-10.3472
▁mixes	-10.3476
▁knowing	-10.3479
▁transition	-10.3483
▁viewer	-10.3485
▁Seriously	-10.3487
▁apart	-10.3489
by	-10.349
▁angry	-10.3524
▁dee	-10.3537
▁stored	-10.3538
▁conversations	-10.3555
coming	-10.3566
ire	-10.3575
▁bars	-10.3597
▁mad	-10.3605
▁interests	-10.3623
▁pin	-10.3653
▁dis	-10.3669
over	-10.3677
▁banner	-10.3688
▁panel	-10.369
pad	-10.3705
▁corner	-10.3712
▁craft	-10.372
▁recover	-10.3728
▁vi	-10.3737
▁staying	-10.3741
antastic	-10.3754
▁screw	-10.3757
▁foreign	-10.3757
▁repetition	-10.3757
▁activities	-10.3757
▁Should	-10.3757
▁Sorry	-10.3758
▁forgot	-10.3759
▁ongoing	-10.376
ble	-10.3768
▁patient	-10.377
▁usable	-10.3773
▁dog	-10.3781
▁adverts	-10.3782
▁seamless	-10.3787
▁wherever	-10.3808
▁satisfying	-10.3809
▁hopefully	-10.3814
ts	-10.3815
▁particularly	-10.3816
▁shorter	-10.3816
▁experiences	-10.3817
▁dev	-10.3821
▁painful	-10.3824
▁met	-10.386
▁aiming	-10.3861
▁produce	-10.3863
▁replace	-10.3878
▁fly	-10.3886
way	-10.3894
▁fonts	-10.3895
▁previews	-10.3895
▁holding	-10.3905
▁seek	-10.3923
▁canceled	-10.3924
▁sources	-10.3931
▁styles	-10.3935
▁class	-10.3952
▁Take	-10.3952
▁cord	-10.4007
▁signature	-10.4023
▁synced	-10.4043
▁gift	-10.4046
xcept	-10.4056
▁superb	-10.4081
ong	-10.4082
▁blow	-10.4085
▁altogether	-10.409
▁verification	-10.409
▁unfair	-10.4091
▁microphone	-10.4091
▁Simple	-10.4091
▁portrait	-10.4091
▁interactive	-10.4093
udos	-10.4094
▁exploring	-10.4096
pensive	-10.4099
▁monsters	-10.4099
▁watchlist	-10.4099
▁six	-10.4102
▁achievements	-10.4104
▁physics	-10.4104
▁mouse	-10.4107
atest	-10.4109
▁at	-10.4112
▁detailed	-10.4123
▁intended	-10.4123
ol	-10.4124
▁talent	-10.4127
▁Search	-10.4135
▁vector	-10.4141
▁atleast	-10.4141
▁individually	-10.4148
▁excit	-10.4167
amused	-10.4195
▁disconnects	-10.4196
▁Their	-10.4202
uested	-10.4208
▁ratio	-10.4209
▁documentaries	-10.4215
▁manager	-10.4226
ften	-10.4228
▁vast	-10.4233
▁failing	-10.4233
▁scale	-10.426
▁heartr	-10.4271
▁answers	-10.4274
▁adventure	-10.4284
▁purposes	-10.4294
▁rich	-10.4305
times	-10.4308
▁wise	-10.431
eb	-10.4311
▁moments	-10.4314
▁Switch	-10.4319
▁Save	-10.4324
▁Are	-10.4329
▁messing	-10.4338
▁growing	-10.4339
▁activate	-10.4348
▁motion	-10.4349
ho	-10.4357
▁inconvenience	-10.4358
▁sitting	-10.4361
▁grind	-10.4366
▁explanation	-10.4367
▁translation	-10.437
uali	-10.4377
▁soundtrack	-10.438
AST	-10.4388
▁by	-10.4391
▁express	-10.4418
▁detect	-10.4425
▁target	-10.4433
▁bet	-10.4434
▁vocabulary	-10.4435
▁capabilities	-10.4435
▁grateful	-10.4435
▁cumbersome	-10.4435
▁opportunity	-10.4435
▁inventory	-10.4435
▁enemy	-10.4435
▁countries	-10.4435
▁annoyance	-10.4436
▁accident	-10.4437
▁limits	-10.4442
▁knowledge	-10.4446
▁ages	-10.4448
▁paste	-10.445
▁clock	-10.4451
▁duolingo	-10.4454
TS	-10.4457
▁master	-10.4462
▁replaced	-10.4463
▁into	-10.4466
▁supports	-10.4473
▁upset	-10.4474
▁hundred	-10.4477
▁mb	-10.4477
▁encourage	-10.448
▁genuine	-10.4486
▁Support	-10.4487
▁Today	-10.4496
▁relevant	-10.4501
old	-10.4503
▁flat	-10.4506
light	-10.4524
▁binge	-10.4526
uestions	-10.4532
▁satisfied	-10.4537
▁Show	-10.4538
▁mo	-10.454
▁children	-10.4541
▁stations	-10.4546
TA	-10.4566
▁blocking	-10.4606
▁aspects	-10.4615
▁eye	-10.4617
▁affect	-10.4627
▁reread	-10.4631
▁killer	-10.4639
▁understanding	-10.4639
ely	-10.4655
▁Sure	-10.466
riginal	-10.4686
sides	-10.4695
▁cases	-10.471
▁shift	-10.4717
low	-10.4723
▁some	-10.4732
ltra	-10.4768
▁wheel	-10.4774
▁assume	-10.4781
▁icons	-10.4789
isappointing	-10.4789
urrently	-10.4792
▁unstable	-10.4793
▁unskippable	-10.4793
▁hearteyes	-10.4793
▁stunning	-10.4793
▁tubi	-10.4793
▁phenomenal	-10.4793
▁outstanding	-10.4793
▁Tab	-10.4802
▁excite	-10.4802
▁epix	-10.4804
▁beta	-10.4807
▁comfortable	-10.4811
▁implemented	-10.4812
heart	-10.4814
▁ideal	-10.4814
ass	-10.4816
▁air	-10.4819
▁nose	-10.482
▁competitors	-10.4825
▁anime	-10.4835
pressed	-10.4839
▁girls	-10.4845
▁streamer	-10.4847
uicker	-10.4848
▁weak	-10.4852
▁spelling	-10.4853
▁act	-10.4858
▁timed	-10.4859
ance	-10.4881
▁ti	-10.4883
▁searched	-10.4884
▁hangs	-10.4888
▁focused	-10.4889
▁crops	-10.4891
▁curve	-10.4893
▁clients	-10.4893
▁la	-10.4906
▁collecting	-10.492
▁texting	-10.4933
▁mis	-10.4945
▁scanning	-10.4952
▁linked	-10.4954
▁di	-10.4955
ooking	-10.4958
▁sell	-10.499
ovies	-10.502
arch	-10.502
▁decides	-10.5025
▁redo	-10.504
▁tablets	-10.5051
angry	-10.5059
ontinue	-10.5066
▁smartphone	-10.5094
omething	-10.5094
astly	-10.5097
▁flash	-10.5104
▁views	-10.5104
▁initial	-10.5144
▁advise	-10.5147
▁exceptional	-10.515
ustomer	-10.5159
▁rank	-10.516
▁regret	-10.5163
dyssey	-10.5163
▁creativity	-10.5163
▁comparison	-10.5163
▁cursor	-10.5163
▁replies	-10.5163
▁Simply	-10.5163
▁addicted	-10.5164
▁adobe	-10.5164
▁choppy	-10.5164
▁blurry	-10.5164
▁caught	-10.5166
▁preferred	-10.5167
▁navigating	-10.5171
▁paper	-10.5171
▁thinks	-10.5174
▁choosing	-10.5175
▁worthless	-10.5177
▁distracting	-10.5177
ool	-10.5177
▁relative	-10.518
▁gear	-10.5182
ual	-10.5186
▁continuing	-10.5189
▁teaches	-10.519
acting	-10.5193
▁sensitivity	-10.5196
ames	-10.5199
▁ammo	-10.5202
▁balance	-10.5203
▁hori	-10.5203
▁undo	-10.5209
more	-10.5215
▁compete	-10.5218
▁perhaps	-10.522
▁tested	-10.5247
please	-10.5252
▁ground	-10.5258
ound	-10.5261
▁letters	-10.5263
▁competitive	-10.5265
ownload	-10.5266
▁orders	-10.5272
▁sides	-10.5283
▁releases	-10.5295
▁knows	-10.5319
▁practical	-10.532
▁utter	-10.5343
▁badly	-10.5345
oth	-10.5358
ooms	-10.5409
▁rely	-10.541
▁roll	-10.5412
▁reports	-10.5417
▁decade	-10.5465
▁description	-10.548
free	-10.55
▁bed	-10.5519
▁port	-10.5524
▁diamond	-10.5533
▁session	-10.5535
▁memori	-10.5537
erfect	-10.554
▁fold	-10.5541
idiculous	-10.5544
▁child	-10.5547
▁awkward	-10.5547
hristmas	-10.5547
▁somebody	-10.5548
▁average	-10.5548
▁asleep	-10.5548
▁spinning	-10.5549
▁ultra	-10.5549
▁bombard	-10.5549
ameplay	-10.5552
▁motivated	-10.5556
▁handling	-10.5558
▁usability	-10.5559
alf	-10.556
▁startup	-10.5564
▁office	-10.5569
▁seamlessly	-10.5571
▁docs	-10.5578
▁interrupted	-10.5579
▁occasions	-10.558
▁defeat	-10.5587
▁viewed	-10.5591
▁bu	-10.5596
▁knew	-10.56
▁worry	-10.5601
▁breaker	-10.5601
ty	-10.5609
▁lie	-10.5611
▁decorations	-10.5615
▁raw	-10.5627
ap	-10.563
▁disconnecting	-10.5636
ling	-10.5641
▁vary	-10.5644
▁endlessly	-10.5663
▁dropping	-10.5667
▁exists	-10.5671
▁computers	-10.5698
phone	-10.5722
▁pleased	-10.5732
pdated	-10.5733
▁table	-10.5748
other	-10.5758
▁amounts	-10.5779
▁slides	-10.5779
▁connections	-10.5791
ur	-10.5807
▁patch	-10.5824
▁taste	-10.5824
▁fav	-10.5832
▁death	-10.5875
▁deserve	-10.5882
ustment	-10.5888
▁crush	-10.5899
play	-10.5899
use	-10.5918
eing	-10.5921
▁continuous	-10.5928
▁favor	-10.5941
esktop	-10.5944
rustrating	-10.5944
ersonally	-10.5945
▁catalog	-10.5946
▁childhood	-10.5947
▁companies	-10.5947
▁Awful	-10.5947
▁headache	-10.5947
▁explicit	-10.5947
▁nowadays	-10.5948
air	-10.5948
man	-10.5948
▁complex	-10.5948
▁superior	-10.5949
▁verify	-10.595
eah	-10.5952
▁desired	-10.5957
▁Internet	-10.5958
......	-10.597
etc	-10.597
▁Aside	-10.5981
▁connects	-10.5985
▁disney	-10.5993
ine	-10.5998
▁candy	-10.6005
▁stack	-10.6006
▁cluttered	-10.6007
▁workouts	-10.601
▁hrs	-10.6016
▁repeated	-10.6036
▁alerts	-10.6037
▁rename	-10.6043
▁phrase	-10.6044
▁leagues	-10.605
▁after	-10.6058
▁grinding	-10.606
▁Stars	-10.6062
▁plane	-10.6095
▁Ad	-10.6101
▁gb	-10.6104
▁ignore	-10.6114
▁careful	-10.6149
▁systems	-10.6152
▁raise	-10.6159
▁anyways	-10.6184
▁increases	-10.6185
▁returns	-10.6204
▁encounter	-10.6247
mp	-10.6258
ode	-10.626
▁dream	-10.6308
picked	-10.6317
▁partner	-10.6332
▁implement	-10.6339
▁according	-10.6345
▁enhance	-10.6348
▁achieve	-10.635
▁recommendation	-10.6353
▁backward	-10.6354
oining	-10.6354
na	-10.6354
oving	-10.6356
asically	-10.6362
▁topic	-10.6362
▁atmosphere	-10.6364
▁opportunities	-10.6364
▁versatile	-10.6364
▁happily	-10.6364
▁anybody	-10.6364
▁duration	-10.6364
▁manner	-10.6364
▁maximum	-10.6364
▁energy	-10.6364
▁risk	-10.6365
▁began	-10.6366
▁supplies	-10.6368
▁tough	-10.637
▁providing	-10.6372
▁cancelling	-10.6373
▁notified	-10.6378
ax	-10.6379
▁hurt	-10.6382
▁pair	-10.6386
▁initially	-10.6391
▁rendering	-10.6391
▁chords	-10.6391
ectives	-10.6401
▁reverse	-10.6401
▁prime	-10.6402
▁straightforward	-10.641
▁captions	-10.6412
▁strategy	-10.6416
▁spins	-10.6417
▁smoother	-10.6419
▁if	-10.6424
▁counter	-10.6426
▁plug	-10.6437
▁fullscreen	-10.6437
▁sadly	-10.6446
▁marketing	-10.6455
▁exception	-10.6458
▁reads	-10.6459
▁existing	-10.646
▁situations	-10.6469
ATI	-10.6472
▁networks	-10.6474
▁repair	-10.6488
ifi	-10.6489
▁tutorials	-10.6494
▁importantly	-10.6505
▁notify	-10.6509
▁packs	-10.651
▁claims	-10.6517
▁meeting	-10.653
▁Store	-10.6546
▁recorded	-10.656
▁farm	-10.6568
▁reporting	-10.6572
lad	-10.6592
laylists	-10.6598
▁spaces	-10.6611
▁static	-10.6614
▁creates	-10.6618
▁saver	-10.6623
▁Total	-10.6624
▁expecting	-10.664
▁interrupt	-10.6646
▁sight	-10.6662
▁label	-10.667
▁picks	-10.669
▁manag	-10.6696
▁surprise	-10.6698
▁kills	-10.6704
▁unlocking	-10.6714
ating	-10.672
▁TI	-10.672
▁coop	-10.6724
dark	-10.6725
▁username	-10.673
▁decision	-10.6731
▁thumbnail	-10.6731
▁dollar	-10.6732
▁chasm	-10.6733
▁ex	-10.6734
uel	-10.6744
ain	-10.6749
▁god	-10.6757
▁integrate	-10.6765
IA	-10.6774
▁contents	-10.6776
▁permanent	-10.6779
▁tree	-10.6782
▁plain	-10.6784
▁rais	-10.6791
ably	-10.6792
▁workout	-10.6797
▁cap	-10.6798
▁heavily	-10.6799
▁bubble	-10.6799
▁inappropriate	-10.6799
▁horrendous	-10.6799
▁unknown	-10.6799
▁ultimate	-10.6799
ovember	-10.6799
▁disaster	-10.6799
ithout	-10.6801
el	-10.6806
otifications	-10.6806
▁difficulties	-10.6814
▁delivered	-10.6814
▁living	-10.6817
▁yearly	-10.6818
▁brother	-10.6822
▁miles	-10.6824
▁pleasant	-10.683
▁laughing	-10.6836
▁affordable	-10.6836
▁ba	-10.6836
▁calories	-10.6837
aily	-10.6837
▁faced	-10.6841
▁participate	-10.6846
▁greatly	-10.6854
▁bullet	-10.6855
▁chasms	-10.6866
its	-10.6872
▁teacher	-10.6904
▁considered	-10.6913
▁doing	-10.6916
▁nonsense	-10.6923
▁colour	-10.6926
▁throwing	-10.6938
▁unsubscribe	-10.6945
▁corrected	-10.695
▁flips	-10.6951
wning	-10.6956
▁recordings	-10.6958
▁Apps	-10.6965
▁ap	-10.6966
avid	-10.6972
▁beginners	-10.6979
TT	-10.6999
▁invite	-10.7006
own	-10.7012
▁locations	-10.7039
player	-10.7041
▁stretch	-10.7042
▁ac	-10.7042
that	-10.7067
while	-10.7091
▁sites	-10.7127
▁woman	-10.7134
▁mod	-10.7146
▁creation	-10.7172
▁travel	-10.7179
roblem	-10.718
▁ratings	-10.7206
SA	-10.721
▁reflect	-10.7217
▁integration	-10.7226
▁charges	-10.7235
▁instant	-10.7235
bility	-10.7236
uiet	-10.7245
▁girl	-10.7245
isappointed	-10.7246
▁April	-10.7253
▁Shield	-10.7253
▁TikTok	-10.7253
▁eliminate	-10.7253
▁helicopter	-10.7253
▁irrelevant	-10.7253
▁folks	-10.7253
▁grammatical	-10.7253
▁yourself	-10.7253
▁revenue	-10.7254
▁homepage	-10.7254
▁shrugging	-10.7254
▁loyal	-10.7255
▁overwhelming	-10.7255
▁modern	-10.7255
▁completion	-10.7256
▁uploads	-10.7257
▁plot	-10.7258
▁typically	-10.7258
▁statistics	-10.7258
▁expectations	-10.726
▁Issue	-10.7267
▁neat	-10.7275
▁promote	-10.7276
▁convenience	-10.7279
▁chosen	-10.728
evelopers	-10.7281
▁highest	-10.7287
▁wrote	-10.7294
▁reminders	-10.7298
▁drafts	-10.7299
▁existed	-10.7304
▁musical	-10.7306
▁vid	-10.731
▁shape	-10.7311
▁preferences	-10.7312
nlike	-10.7314
▁sprint	-10.7322
▁decrease	-10.7324
▁ensure	-10.7325
king	-10.7343
▁supporting	-10.7351
bout	-10.7354
▁Smart	-10.7355
▁obscure	-10.7363
▁benefits	-10.7364
▁thumb	-10.7366
▁boy	-10.7375
▁pushed	-10.7375
▁heck	-10.7379
go	-10.7393
os	-10.7394
▁simpler	-10.7395
▁critical	-10.7405
▁recieve	-10.7415
▁watches	-10.7422
▁directions	-10.7423
▁alternatives	-10.7453
▁photography	-10.7463
▁thr	-10.7465
ct	-10.7487
▁filling	-10.7487
▁training	-10.7493
▁introduce	-10.7496
slightly	-10.7522
▁biased	-10.7524
▁ride	-10.7526
rely	-10.7529
▁persons	-10.7573
▁pdfs	-10.7577
▁speeds	-10.7577
rror	-10.7598
▁gamers	-10.7614
▁band	-10.7615
▁advertise	-10.7617
▁machine	-10.7655
ide	-10.7657
▁failure	-10.7658
▁bookmark	-10.7663
▁creator	-10.7668
arely	-10.767
▁region	-10.7675
ink	-10.7676
▁sorts	-10.7681
▁unit	-10.7683
▁slider	-10.7692
ma	-10.7692
ible	-10.7699
▁duplicate	-10.7703
▁Sam	-10.7703
▁bringing	-10.7717
ry	-10.7722
ile	-10.7723
▁or	-10.7729
▁communities	-10.7729
▁capacity	-10.7729
▁shield	-10.7729
▁unhappy	-10.773
▁opponent	-10.773
▁gorgeous	-10.773
▁disgusting	-10.773
▁firestick	-10.7732
▁crop	-10.7733
▁Annoying	-10.7734
▁silly	-10.7736
▁younger	-10.7737
▁followers	-10.7741
▁involved	-10.7743
▁golden	-10.7743
▁significantly	-10.7746
▁scammers	-10.7747
▁reappear	-10.7747
▁exclusively	-10.7748
orked	-10.7753
▁forums	-10.7754
veryone	-10.7758
▁controlling	-10.7759
▁visit	-10.7762
▁placement	-10.7774
▁responsive	-10.7775
▁tiktok	-10.7776
▁stutters	-10.7781
▁Songs	-10.7791
▁runner	-10.7797
▁earbuds	-10.7798
ll	-10.7799
▁output	-10.7804
▁fell	-10.7812
▁stressful	-10.782
▁animals	-10.7824
▁hr	-10.7824
ord	-10.7824
▁betting	-10.7826
▁locate	-10.7843
▁screenshots	-10.7844
▁occurs	-10.7848
▁themes	-10.7853
▁when	-10.7853
▁states	-10.7854
▁wo	-10.7862
▁heavy	-10.7868
▁stages	-10.7872
▁nonstop	-10.7874
▁cause	-10.7876
uare	-10.7884
▁sooner	-10.7888
▁writer	-10.7898
▁ya	-10.7905
▁gifs	-10.7908
▁falling	-10.7909
▁texts	-10.7909
▁Tru	-10.7925
▁addon	-10.7929
▁escape	-10.7931
▁pi	-10.7938
ads	-10.794
▁walls	-10.7949
▁returning	-10.7951
ations	-10.7952
▁rounds	-10.7997
ps	-10.7998
▁ca	-10.8011
ac	-10.8024
game	-10.8072
usted	-10.8073
▁treat	-10.8075
right	-10.8084
how	-10.8086
▁sorting	-10.8102
▁pricey	-10.8107
tories	-10.8118
▁bands	-10.8133
▁wow	-10.8134
there	-10.8153
▁catalogue	-10.8154
▁swap	-10.8157
▁pocket	-10.8157
▁advantage	-10.8158
▁blueprint	-10.8163
▁symbol	-10.8163
▁interruption	-10.8164
▁spin	-10.818
▁cheat	-10.8184
part	-10.8186
▁progressing	-10.819
ra	-10.8192
▁beca	-10.8196
▁successful	-10.8203
▁vertical	-10.8208
ontal	-10.8212
▁bright	-10.8215
▁translate	-10.8217
▁brain	-10.8217
hrome	-10.8221
hotoshop	-10.8223
ardenscapes	-10.8226
▁prepare	-10.8227
▁dashboard	-10.823
▁capability	-10.823
▁forgotten	-10.823
▁cropping	-10.8231
▁flashscore	-10.8231
▁intense	-10.8231
▁bummer	-10.8231
▁percentage	-10.8231
▁scenery	-10.8232
▁horribly	-10.8232
▁unbearable	-10.8233
▁further	-10.8233
▁simulator	-10.8235
▁showsmovies	-10.8239
▁linear	-10.824
▁entertained	-10.824
▁attached	-10.8242
▁fps	-10.8244
▁counts	-10.8248
oor	-10.8257
▁glow	-10.8267
▁stuttering	-10.8269
▁route	-10.8281
▁syncs	-10.8286
▁presentation	-10.8288
▁solving	-10.8297
▁weather	-10.8297
▁steal	-10.8302
▁bait	-10.8304
▁perks	-10.8304
▁these	-10.8305
▁react	-10.8318
▁adfree	-10.8325
based	-10.8345
layed	-10.8361
▁lame	-10.8375
▁tickets	-10.8383
▁businesses	-10.8401
▁bold	-10.8417
▁soo	-10.8423
▁disabl	-10.8437
▁both	-10.8447
▁pile	-10.8457
▁directory	-10.846
ions	-10.8472
▁divers	-10.8473
ownloaded	-10.8476
▁been	-10.8478
▁secs	-10.8507
▁park	-10.852
▁classics	-10.8521
lays	-10.8522
▁sets	-10.853
▁hanging	-10.8532
bar	-10.8549
And	-10.8561
▁bothers	-10.8599
▁ban	-10.8613
cast	-10.862
▁boom	-10.8625
vid	-10.8636
▁Trie	-10.8641
▁cr	-10.8642
▁chances	-10.8652
▁bc	-10.8652
ark	-10.867
▁shutt	-10.8672
▁relax	-10.8677
▁combination	-10.8682
▁tier	-10.8684
▁armor	-10.8686
▁preference	-10.869
▁study	-10.8706
▁monitor	-10.8707
still	-10.8711
▁apple	-10.8717
▁whil	-10.8721
onderful	-10.8721
sion	-10.8733
▁ha	-10.8733
▁inconsistent	-10.8734
▁exclusive	-10.8738
▁unfortunate	-10.8738
ominos	-10.8751
eautiful	-10.8752
▁percent	-10.8755
▁suspicious	-10.8756
▁scheme	-10.8756
▁wireless	-10.8756
▁unintuitive	-10.8757
▁context	-10.8757
▁uncomfortable	-10.8757
▁bedrock	-10.8757
evel	-10.8757
▁simultaneously	-10.8757
▁aswell	-10.8758
▁ugly	-10.8759
▁freedom	-10.876
▁fewer	-10.8761
▁hardware	-10.8762
▁stability	-10.8763
aught	-10.8764
▁survive	-10.8767
▁thoroughly	-10.8768
▁chrome	-10.8772
uess	-10.8778
▁recall	-10.878
hatever	-10.8781
▁describe	-10.8785
▁generated	-10.8786
▁Into	-10.879
▁codec	-10.879
star	-10.8799
▁graphs	-10.8799
▁persists	-10.8805
▁dig	-10.8809
▁political	-10.8809
▁accurately	-10.8812
good	-10.8822
▁mainstream	-10.8827
▁dates	-10.883
ated	-10.8845
▁subscribing	-10.8854
▁tags	-10.8861
▁wi	-10.8862
▁carry	-10.8863
evs	-10.8863
tic	-10.8865
▁covered	-10.8868
ower	-10.8872
hose	-10.8883
eal	-10.8885
▁render	-10.8888
▁blueprints	-10.8897
▁functioning	-10.8904
▁wa	-10.8911
ebtoons	-10.8914
▁balanced	-10.8927
▁pitch	-10.8946
▁discovery	-10.8956
video	-10.8961
▁rewarding	-10.8966
▁Tri	-10.8967
ata	-10.898
▁STA	-10.8986
▁collections	-10.899
▁notch	-10.9007
▁wh	-10.9019
▁skipp	-10.9026
▁tunes	-10.9057
▁individuals	-10.9067
ie	-10.907
▁author	-10.9094
lue	-10.9115
▁reopening	-10.9121
▁passing	-10.9126
eta	-10.9144
▁lighting	-10.9155
▁engine	-10.916
▁rooms	-10.9166
▁each	-10.9174
using	-10.9174
eels	-10.9191
▁bump	-10.9193
▁Turn	-10.9209
emand	-10.9218
tion	-10.9223
▁excuse	-10.9227
▁disappoint	-10.9234
day	-10.9239
ull	-10.9242
▁modify	-10.9256
▁chart	-10.9258
▁laugh	-10.9264
▁rule	-10.9267
▁Incredibl	-10.9274
eside	-10.9284
▁template	-10.9286
▁confirm	-10.9289
▁letter	-10.9306
outube	-10.9307
arbage	-10.9308
▁bro	-10.9309
my	-10.9309
rashes	-10.931
▁orientation	-10.9311
▁trail	-10.9311
▁women	-10.9311
ourney	-10.9312
▁valuable	-10.9312
uency	-10.9312
▁unwanted	-10.9312
▁replacement	-10.9312
▁outdated	-10.9312
▁introduction	-10.9312
▁winner	-10.9312
▁combat	-10.9313
▁indeed	-10.9313
▁artwork	-10.9313
nning	-10.9313
▁swear	-10.9315
▁whoever	-10.9315
▁reenter	-10.9315
▁policy	-10.9316
▁headset	-10.9316
▁Anyone	-10.9319
▁roku	-10.932
▁untill	-10.9322
▁those	-10.9322
▁bugged	-10.9323
reviously	-10.9325
▁powerups	-10.9326
▁combined	-10.9328
▁sooo	-10.9333
▁knock	-10.9335
op	-10.9337
▁screwed	-10.9342
eatures	-10.9343
▁soooo	-10.9348
▁were	-10.9348
▁tight	-10.9354
▁bus	-10.9355
▁muted	-10.9361
▁crossed	-10.9361
▁stock	-10.9363
▁acceptable	-10.9365
io	-10.9367
▁practicing	-10.9372
▁pleasing	-10.9374
▁selling	-10.9376
▁blowing	-10.9378
▁interrupting	-10.9378
▁cellular	-10.9383
▁recipient	-10.9384
▁alarm	-10.9387
▁factories	-10.9387
bvious	-10.9389
itro	-10.9404
hanged	-10.9404
▁complained	-10.9405
▁sh	-10.9408
▁minigames	-10.9411
used	-10.9412
iles	-10.9413
▁stunt	-10.9415
▁reconnecting	-10.9421
▁trend	-10.9422
▁abilities	-10.9427
wise	-10.9429
fficient	-10.9434
▁caller	-10.9434
oice	-10.9435
▁Song	-10.9442
▁contrast	-10.9449
▁minus	-10.9449
▁contract	-10.9459
▁aap	-10.9468
rop	-10.9494
ones	-10.9497
are	-10.9499
aste	-10.9508
eat	-10.952
do	-10.9537
usting	-10.9546
▁fo	-10.9551
▁finishes	-10.9552
▁bree	-10.9585
▁favourites	-10.9587
▁dating	-10.9608
▁glitched	-10.9632
▁bye	-10.9647
▁solutions	-10.9647
setting	-10.9657
▁Think	-10.97
▁spoil	-10.9702
broken	-10.9705
▁mp	-10.9709
▁hitt	-10.9743
▁Story	-10.9748
ears	-10.9758
▁thi	-10.9762
▁caption	-10.9783
▁America	-10.9811
▁clue	-10.9828
▁bomb	-10.9829
▁beating	-10.9829
▁interaction	-10.983
▁thousand	-10.9833
ontact	-10.9834
▁preset	-10.9839
▁chore	-10.984
▁thread	-10.984
music	-10.9843
off	-10.9869
ok	-10.9871
asting	-10.9873
▁human	-10.9879
▁welcome	-10.9885
▁approach	-10.9886
▁desire	-10.9889
fix	-10.9889
mails	-10.989
ultiple	-10.9896
▁daughter	-10.9897
omescapes	-10.9897
▁approximate	-10.99
▁nuisance	-10.99
▁replied	-10.99
ecember	-10.99
▁drama	-10.99
▁bandwidth	-10.99
▁construction	-10.99
▁accessibility	-10.9901
▁relieve	-10.9901
▁problematic	-10.9901
uarter	-10.9901
▁impact	-10.9902
▁between	-10.9902
▁racing	-10.9903
▁everybody	-10.9903
▁removal	-10.9906
▁playstore	-10.9909
▁restricted	-10.9909
▁epic	-10.9913
▁hel	-10.9915
▁router	-10.9916
▁drives	-10.9919
▁Sony	-10.992
▁pricing	-10.9921
▁enhanced	-10.9922
▁significant	-10.9935
▁addresses	-10.9937
▁Incredible	-10.994
inux	-10.9941
▁maintain	-10.9944
▁vehicles	-10.9955
▁noticeable	-10.9956
▁students	-10.9963
▁logs	-10.9969
▁broad	-10.9972
▁invasive	-10.9973
▁moneti	-10.9974
▁tiles	-10.9975
lowing	-10.9981
▁combine	-10.9982
▁thumbnails	-10.9993
▁income	-10.9998
rking	-11.0002
lear	-11.0022
ets	-11.0025
ments	-11.0027
▁plann	-11.0029
▁generate	-11.0029
▁progressive	-11.0033
aster	-11.0062
▁parent	-11.0067
▁consume	-11.0068
▁begins	-11.0088
▁beautifully	-11.0092
▁rates	-11.011
▁highlights	-11.0137
leading	-11.014
▁Sp	-11.0159
▁See	-11.0161
▁adapt	-11.0161
▁spoke	-11.0164
▁priced	-11.0177
▁sp	-11.0179
▁overly	-11.0192
▁extras	-11.0194
▁boards	-11.0197
▁trip	-11.0201
▁integrat	-11.0207
▁offering	-11.0228
ock	-11.0231
ence	-11.0243
▁body	-11.0244
▁appeared	-11.0249
they	-11.0253
▁sticks	-11.026
▁thin	-11.0273
▁SI	-11.0303
loaded	-11.0308
▁actions	-11.031
▁su	-11.0312
xperience	-11.036
ug	-11.0388
ggest	-11.0393
ontent	-11.0401
▁subs	-11.0406
▁convert	-11.0407
▁stutter	-11.0409
pon	-11.0412
▁meh	-11.042
eview	-11.0422
▁fi	-11.0423
usk	-11.0423
only	-11.0425
erman	-11.0426
ping	-11.0427
▁core	-11.0431
▁operate	-11.0442
▁interior	-11.0447
▁pattern	-11.0453
▁aesthetic	-11.0455
▁student	-11.0457
▁resource	-11.0459
▁attack	-11.0467
▁pit	-11.0471
▁forms	-11.0474
▁drift	-11.0476
▁dump	-11.0478
................	-11.0488
▁penny	-11.0498
▁extensive	-11.0499
▁accomplish	-11.05
▁dang	-11.0514
core	-11.0519
▁fluid	-11.0524
▁fashion	-11.0525
▁college	-11.0525
▁encryption	-11.0525
▁facepalming	-11.0525
▁nonexistent	-11.0525
▁temporary	-11.0525
ormally	-11.0525
uipment	-11.0525
▁possibilities	-11.0525
▁sluggish	-11.0525
▁disruptive	-11.0525
▁rotation	-11.0525
▁Shame	-11.0526
▁occurred	-11.0526
▁earth	-11.0527
▁legit	-11.0527
▁annual	-11.0528
▁terribly	-11.053
▁protect	-11.053
urther	-11.0531
iano	-11.0532
▁showmovie	-11.0534
cannot	-11.0536
▁homescreen	-11.0537
▁entry	-11.0539
▁upsetting	-11.0542
▁admit	-11.0545
▁invested	-11.0545
▁Settings	-11.0546
▁stands	-11.0547
▁steep	-11.055
▁operating	-11.0552
▁paragraphs	-11.0553
essages	-11.0556
▁beg	-11.056
▁renewing	-11.0563
▁tweaks	-11.0567
ian	-11.0567
▁truth	-11.0569
▁mobs	-11.0572
▁Text	-11.0581
▁foot	-11.0581
▁retain	-11.0585
IST	-11.0591
ah	-11.0594
emove	-11.0599
▁climb	-11.0602
▁international	-11.0605
▁Shuffl	-11.0606
▁former	-11.0609
▁appropriate	-11.0612
▁delayed	-11.0615
data	-11.0627
▁ho	-11.0631
▁reverted	-11.0638
ustments	-11.064
art	-11.0647
▁drawing	-11.0649
▁firing	-11.0654
ros	-11.0663
▁separately	-11.0664
▁pathetic	-11.0667
▁hi	-11.0668
▁counted	-11.0672
▁incentive	-11.0672
▁legal	-11.0673
▁sky	-11.0674
ending	-11.0676
ying	-11.0677
▁burn	-11.0677
▁owned	-11.0685
▁paint	-11.0691
diting	-11.0694
om	-11.0698
▁dep	-11.07
▁yellow	-11.0704
▁builds	-11.0707
ught	-11.0717
▁prompts	-11.072
pl	-11.0721
uate	-11.0729
▁Sync	-11.0742
▁ga	-11.0749
hange	-11.0752
▁communicat	-11.077
▁blind	-11.0778
▁floors	-11.0779
ired	-11.078
▁delays	-11.0782
love	-11.0785
▁com	-11.0787
▁broadcasts	-11.0788
▁frames	-11.0791
oping	-11.0793
▁timeout	-11.0797
▁she	-11.0811
▁persist	-11.0816
cy	-11.0817
locking	-11.0826
▁ear	-11.0826
uge	-11.0831
▁oppos	-11.0835
have	-11.0837
▁term	-11.0849
ware	-11.0863
▁ta	-11.0867
▁tip	-11.0868
▁mental	-11.0872
ars	-11.0875
top	-11.0885
▁dime	-11.0888
hanging	-11.0903
rolling	-11.0949
▁insta	-11.0953
uring	-11.0965
▁acc	-11.0968
▁animat	-11.0986
ter	-11.0987
▁natural	-11.0991
▁guessing	-11.0999
▁any	-11.1002
loses	-11.1029
▁easie	-11.1051
ns	-11.1053
▁thrill	-11.1057
▁websites	-11.1065
alendar	-11.1079
ning	-11.1079
la	-11.1079
egatta	-11.1087
▁passwords	-11.1103
ail	-11.1108
▁revive	-11.1109
▁drawback	-11.1109
eneral	-11.1124
▁reaction	-11.1128
▁assist	-11.1136
icrotransactions	-11.1138
▁calm	-11.115
▁chill	-11.1152
▁deliver	-11.1153
revious	-11.1164
ecommend	-11.1165
▁obtain	-11.1166
▁independent	-11.117
▁alphabetical	-11.117
▁silent	-11.1171
ess	-11.1171
▁id	-11.1176
▁promise	-11.118
▁eyesb	-11.1183
eleting	-11.1185
▁plans	-11.1186
▁invest	-11.1186
irestick	-11.1188
▁draft	-11.119
▁Stupid	-11.1191
▁metronome	-11.1191
▁pandemic	-11.1191
▁temporarily	-11.1191
▁themselves	-11.1191
▁unnecessarily	-11.1191
▁nostalgic	-11.1191
▁borderline	-11.1191
▁wingsuit	-11.1191
▁immersive	-11.1191
▁legend	-11.1192
▁inaccurate	-11.1192
▁simplicity	-11.1192
hinese	-11.1192
▁bulk	-11.1192
▁Third	-11.1192
▁identify	-11.1192
▁rubbish	-11.1192
▁generic	-11.1192
▁persistent	-11.1192
▁proceed	-11.1192
▁recomend	-11.1193
▁reliably	-11.1193
▁absurd	-11.1194
▁shadow	-11.1194
▁Screen	-11.1196
▁discussion	-11.1197
▁entirety	-11.1198
▁ab	-11.12
▁masking	-11.1201
▁ball	-11.1201
▁sake	-11.1203
lean	-11.1205
▁corrupted	-11.1207
orce	-11.1207
ersion	-11.1208
▁hair	-11.1209
▁crates	-11.1212
▁expire	-11.1215
og	-11.1215
▁hinder	-11.1215
▁aliens	-11.1215
▁Interesting	-11.1219
▁lowest	-11.122
▁classes	-11.1221
▁explorer	-11.1226
▁lasted	-11.1229
▁backgrounds	-11.1229
▁ignored	-11.1233
fully	-11.1236
▁border	-11.1239
▁vice	-11.1243
▁incorrectly	-11.1245
▁realms	-11.1246
▁owners	-11.1255
▁reactions	-11.1259
▁fulfill	-11.126
▁reviewers	-11.1262
style	-11.1263
▁rebooted	-11.1266
▁leader	-11.1266
▁riddle	-11.1274
▁resort	-11.1274
▁trees	-11.1281
▁bookmarks	-11.1288
erally	-11.1288
▁license	-11.1295
▁micro	-11.1303
▁motivate	-11.1304
▁nuts	-11.1314
▁bloat	-11.1319
aming	-11.1326
▁texture	-11.1332
nitially	-11.1335
inding	-11.1337
▁lovely	-11.134
▁decorating	-11.1341
▁gray	-11.1358
▁entered	-11.1366
▁retrieve	-11.1369
▁award	-11.1382
▁redownloading	-11.1387
▁avatars	-11.1402
▁stores	-11.1414
▁shooters	-11.1417
▁lo	-11.1419
▁colours	-11.1421
▁primar	-11.1427
▁young	-11.1432
▁regattas	-11.1434
ge	-11.1435
iving	-11.1436
▁shop	-11.1443
▁competitions	-11.1454
▁suffer	-11.1463
can	-11.1476
▁bugging	-11.1478
▁index	-11.1485
▁nicely	-11.149
uirk	-11.1491
▁boot	-11.1502
▁closer	-11.1503
▁wor	-11.1505
▁vids	-11.1519
▁blame	-11.1538
▁pinn	-11.1553
ooming	-11.1557
ta	-11.156
▁rewinding	-11.1564
▁Allow	-11.157
▁tempo	-11.1577
ground	-11.1586
▁gam	-11.1586
ffice	-11.1587
appy	-11.1587
▁spamm	-11.1596
hold	-11.1601
reinstalled	-11.1605
▁convince	-11.161
ip	-11.1618
▁died	-11.1622
▁ship	-11.1635
▁searches	-11.1641
▁cat	-11.1644
▁factor	-11.165
▁overlay	-11.1652
▁ui	-11.1658
▁def	-11.1664
▁forwarding	-11.1667
▁ins	-11.1675
ify	-11.1676
act	-11.1677
▁punish	-11.1682
▁frustrate	-11.1695
▁demo	-11.1696
ke	-11.1705
▁fans	-11.1706
▁feeds	-11.1706
▁holiday	-11.1718
ple	-11.1758
case	-11.1769
ovel	-11.1775
▁passed	-11.1782
pdates	-11.1813
▁glass	-11.1813
um	-11.1818
▁gambl	-11.1819
ny	-11.1823
▁conclu	-11.1825
▁Anyway	-11.1831
▁perspective	-11.1833
▁gesture	-11.1837
▁vehicle	-11.1838
▁habit	-11.1839
▁competitor	-11.1839
▁adult	-11.1841
reinstall	-11.1841
▁badge	-11.1856
orse	-11.1859
im	-11.186
ctually	-11.1865
▁respect	-11.187
ventually	-11.1876
lock	-11.1877
▁insert	-11.1879
andom	-11.1884
▁brief	-11.1884
▁flawless	-11.1888
gged	-11.1892
▁Scroll	-11.1893
▁gem	-11.1896
▁vers	-11.1901
▁submit	-11.1902
▁exclamation	-11.1905
▁satisfaction	-11.1905
▁happier	-11.1906
▁uptodate	-11.1906
▁overhaul	-11.1906
▁compatibility	-11.1906
▁husband	-11.1906
▁Apparent	-11.1906
▁database	-11.1906
▁guard	-11.1906
▁authentication	-11.1906
▁proud	-11.1907
▁vomiting	-11.1908
▁facility	-11.1908
▁clever	-11.1908
▁redesign	-11.1908
asily	-11.1908
▁cropped	-11.1908
▁commentary	-11.1908
ompletely	-11.1909
▁Africa	-11.1909
▁appearance	-11.1909
amera	-11.191
appens	-11.191
▁hole	-11.1913
onnecting	-11.1913
▁upper	-11.1914
▁porn	-11.1918
▁hacked	-11.1919
orth	-11.192
▁unbelievable	-11.1931
▁flashes	-11.1931
▁webcomic	-11.1932
▁musicians	-11.1936
▁successfully	-11.1937
▁mature	-11.1938
▁reminder	-11.1942
▁restrictions	-11.1944
▁delight	-11.1945
▁cubes	-11.1953
▁assum	-11.1974
▁throat	-11.1977
▁trips	-11.198
▁teleport	-11.1984
▁Tech	-11.1985
▁root	-11.1988
▁facebook	-11.1995
why	-11.2004
▁shapes	-11.2014
▁resuming	-11.2017
▁steer	-11.2019
egardless	-11.2021
▁explained	-11.2027
▁She	-11.2028
There	-11.2036
▁responded	-11.2037
▁erase	-11.2041
▁concerned	-11.2047
▁translations	-11.2049
▁gap	-11.2051
▁dogs	-11.2055
▁installation	-11.2055
ixed	-11.206
▁races	-11.2064
▁soccer	-11.207
▁Anyways	-11.2072
▁incom	-11.2074
▁bi	-11.2085
▁tapped	-11.2088
for	-11.211
▁dodg	-11.2116
line	-11.2119
▁packages	-11.2122
▁son	-11.2134
▁grown	-11.2135
▁pure	-11.2139
led	-11.2144
de	-11.2144
eading	-11.2156
sh	-11.2165
▁pixels	-11.2166
ostly	-11.2178
▁appeal	-11.2182
▁understandable	-11.2192
▁downsides	-11.2198
▁pe	-11.2199
read	-11.2203
▁compar	-11.2206
▁originals	-11.2219
▁regards	-11.222
uly	-11.2224
eply	-11.2235
ied	-11.2245
▁counting	-11.226
▁reference	-11.2295
earning	-11.2307
expression	-11.2334
▁additions	-11.2335
▁planes	-11.2347
pped	-11.2357
▁payments	-11.2373
▁an	-11.2383
▁mom	-11.239
watch	-11.2406
umble	-11.2412
▁spots	-11.2414
▁displaying	-11.2421
▁enlarge	-11.2425
▁faces	-11.2439
▁realm	-11.244
▁Trial	-11.244
▁comp	-11.2441
tc	-11.2475
▁flipp	-11.2479
▁ch	-11.2492
▁worthy	-11.2492
▁bigg	-11.2495
▁leveling	-11.2515
▁iron	-11.2534
etwork	-11.2536
dge	-11.2545
lex	-11.2547
ties	-11.255
be	-11.2571
▁wins	-11.2575
▁Slow	-11.2583
▁audios	-11.2588
▁sharp	-11.259
▁relationship	-11.2597
▁compet	-11.26
▁secret	-11.2601
▁element	-11.2607
▁overlap	-11.2608
▁inter	-11.2608
▁refus	-11.2612
▁backflip	-11.2614
ik	-11.2617
pending	-11.2621
▁chest	-11.2625
▁sale	-11.2626
evice	-11.2633
ff	-11.2634
ifficult	-11.2635
epeat	-11.264
▁owner	-11.2645
ex	-11.2657
▁surf	-11.2664
lack	-11.2664
erhaps	-11.2666
▁renew	-11.2666
oins	-11.2672
▁motivation	-11.2674
etween	-11.2674
▁stead	-11.2674
▁clothes	-11.2675
▁crosshair	-11.2675
▁encrypted	-11.2675
▁satellite	-11.2675
▁bankrupt	-11.2675
anuary	-11.2675
layback	-11.2675
▁atrocious	-11.2675
▁easytouse	-11.2675
▁terrific	-11.2675
▁tailor	-11.2675
▁fraction	-11.2675
▁expansion	-11.2675
▁desert	-11.2675
▁marketplace	-11.2675
▁immensely	-11.2676
▁submitted	-11.2676
▁drastically	-11.2676
▁necessarily	-11.2676
ebruary	-11.2676
▁Social	-11.2676
▁verified	-11.2677
▁mediocre	-11.2677
▁analysis	-11.2678
▁discouraging	-11.2678
▁sideways	-11.2678
▁nitro	-11.2679
▁indicator	-11.2679
▁intriguing	-11.268
▁shocked	-11.2681
▁Account	-11.2682
▁sister	-11.2683
▁wiped	-11.2684
indle	-11.2684
▁outright	-11.2684
▁below	-11.2686
▁encouraging	-11.2686
▁mutants	-11.2689
▁moviesshows	-11.2689
▁damaged	-11.2689
pay	-11.2691
oyment	-11.2691
▁unlink	-11.2691
▁consideration	-11.2692
learly	-11.2697
▁transferred	-11.27
▁updown	-11.27
▁inspire	-11.27
▁calorie	-11.2703
▁fastforward	-11.2705
▁billing	-11.2708
▁intervals	-11.2711
▁token	-11.2711
▁strangers	-11.2712
▁sun	-11.2715
▁produc	-11.2716
▁determine	-11.2716
▁shortcuts	-11.2716
▁dying	-11.2726
uirements	-11.2729
▁Sense	-11.273
▁audiobooks	-11.2731
▁chests	-11.2739
▁cheating	-11.2741
▁unexpected	-11.2749
▁gestures	-11.2749
▁alb	-11.2751
▁textures	-11.2757
▁damage	-11.2757
▁Thought	-11.276
▁ne	-11.276
▁gmail	-11.2763
ective	-11.2764
▁gamepad	-11.2765
▁synch	-11.2767
▁blend	-11.2769
▁cos	-11.277
▁contest	-11.277
▁wreck	-11.2772
▁bothersome	-11.2772
▁familiar	-11.2773
▁pleasure	-11.2775
▁hop	-11.2776
▁fr	-11.2776
▁flashing	-11.2781
▁precise	-11.2784
ha	-11.2792
▁vibe	-11.2798
▁decisions	-11.2798
two	-11.2803
▁teammates	-11.2804
organi	-11.2806
▁Trash	-11.2806
▁tastes	-11.2807
▁Installed	-11.2808
orean	-11.2808
▁collected	-11.2812
▁automat	-11.2813
▁par	-11.2824
▁sold	-11.2829
ild	-11.2836
▁clicks	-11.2836
▁battle	-11.2838
▁panels	-11.2842
▁interacting	-11.2843
ral	-11.2845
cash	-11.2851
ked	-11.2868
made	-11.2881
▁decorate	-11.2885
▁reviewing	-11.2889
▁globe	-11.2891
▁rearrange	-11.2894
▁narrow	-11.2895
▁attribute	-11.2898
▁circles	-11.2899
also	-11.2903
sign	-11.2908
view	-11.2928
▁editors	-11.2931
▁registered	-11.2933
ends	-11.2947
▁ITS	-11.295
▁exited	-11.2956
ether	-11.2962
▁indicate	-11.2966
▁signatures	-11.2966
▁methods	-11.2986
▁configure	-11.2988
▁movements	-11.3002
▁flag	-11.3005
▁grey	-11.3006
ks	-11.3012
▁efforts	-11.3021
lot	-11.3022
rush	-11.304
most	-11.3045
ace	-11.3046
▁algorithms	-11.307
▁hits	-11.3077
▁heads	-11.3077
great	-11.3078
▁possib	-11.309
▁univers	-11.3097
▁St	-11.3103
ding	-11.3112
issing	-11.3113
▁magic	-11.3128
▁insist	-11.313
▁marks	-11.3135
victor	-11.3139
let	-11.3169
otally	-11.319
▁severe	-11.3203
▁fat	-11.3214
▁ditch	-11.3216
umped	-11.3242
gun	-11.3256
ays	-11.3262
Also	-11.3262
▁hated	-11.3262
igh	-11.3274
▁breath	-11.3277
ater	-11.3288
▁cons	-11.3312
▁variet	-11.3313
▁sav	-11.334
▁shove	-11.3345
would	-11.3365
▁responses	-11.3365
▁sexual	-11.3366
▁dot	-11.339
▁represent	-11.3392
▁replac	-11.3398
▁concepts	-11.34
▁mu	-11.3414
▁gif	-11.3423
picture	-11.3427
eveloper	-11.343
avorite	-11.3431
▁occasion	-11.3432
▁amateur	-11.3434
▁vibration	-11.3434
hannel	-11.3436
▁wake	-11.3438
▁mechanic	-11.3441
▁combo	-11.3444
arring	-11.3446
▁chase	-11.3451
▁u	-11.3455
▁malfunction	-11.3457
▁troubleshoot	-11.3461
▁Select	-11.3463
▁featured	-11.3467
irect	-11.3468
▁disc	-11.347
▁desync	-11.3485
▁blood	-11.3487
▁immediate	-11.3488
▁attach	-11.3489
ccasionally	-11.3491
▁guarantee	-11.3493
ussia	-11.3494
▁alphabet	-11.3497
▁decline	-11.3498
▁boss	-11.35
▁unread	-11.3504
rilliant	-11.3505
▁trophies	-11.3508
▁subpar	-11.3508
▁unrealistic	-11.3508
▁immersion	-11.3508
▁stereo	-11.3508
▁assistance	-11.3508
▁compression	-11.3508
▁directories	-11.3509
▁traffic	-11.3509
▁sweet	-11.3509
▁educational	-11.351
▁confident	-11.3511
obody	-11.3511
▁afterwards	-11.3512
▁dvd	-11.3512
▁priority	-11.3513
unter	-11.3514
ussian	-11.3514
▁tongue	-11.3514
eleted	-11.3515
▁loosing	-11.3515
▁Sucks	-11.3516
▁electric	-11.3518
▁touchscreen	-11.3522
▁shuffling	-11.3522
▁beans	-11.3522
▁unfollow	-11.3525
▁billed	-11.3525
▁vods	-11.3527
▁biomes	-11.353
▁redeem	-11.3531
▁applied	-11.3532
▁Interface	-11.3533
▁mass	-11.3533
▁hiccups	-11.3535
▁balloons	-11.3535
einstalling	-11.354
▁greed	-11.3542
▁flyers	-11.3543
level	-11.3546
oring	-11.3547
▁vibrate	-11.3552
▁headlines	-11.3553
▁American	-11.3554
▁suggests	-11.3558
ious	-11.356
▁flick	-11.3562
▁catches	-11.357
▁charm	-11.3572
▁apply	-11.3575
eit	-11.3575
▁follows	-11.3584
▁controllers	-11.3586
ontacts	-11.36
▁charts	-11.3601
▁bat	-11.3604
▁designers	-11.3604
ually	-11.3607
▁accumulate	-11.3616
▁enrag	-11.3618
▁units	-11.362
▁exchange	-11.362
friend	-11.3641
▁pressure	-11.3642
ber	-11.3642
▁spac	-11.3642
▁clapp	-11.3648
presented	-11.3651
▁Stick	-11.3655
▁descriptions	-11.366
▁livestream	-11.3662
▁few	-11.3665
▁clutter	-11.367
▁possibilit	-11.3671
▁truck	-11.3673
▁dots	-11.3677
▁hill	-11.368
▁Teams	-11.3696
eaning	-11.3697
▁improves	-11.3698
il	-11.3701
▁bombs	-11.3706
▁designer	-11.3709
▁sticker	-11.3715
▁touches	-11.372
▁sliders	-11.3722
▁cam	-11.3724
lready	-11.3731
lip	-11.3735
▁affects	-11.3736
▁expanding	-11.3737
▁transferr	-11.3744
▁reopened	-11.3745
▁having	-11.3746
new	-11.3754
▁Issues	-11.3766
▁slot	-11.3776
▁plac	-11.378
sometimes	-11.3783
▁sleeping	-11.3783
▁buff	-11.3789
ned	-11.3791
rior	-11.3815
ands	-11.3824
rt	-11.3831
rd	-11.3831
andy	-11.3834
▁upside	-11.3835
ean	-11.3837
acts	-11.3861
everal	-11.3894
▁metal	-11.3901
▁verb	-11.3903
▁inf	-11.3914
ged	-11.3919
▁yo	-11.3932
▁po	-11.3932
notch	-11.3966
▁butt	-11.3979
▁heal	-11.3979
find	-11.3982
tal	-11.3982
▁Tap	-11.3989
▁magical	-11.3989
▁Smooth	-11.4007
paced	-11.4009
really	-11.401
omi	-11.4013
▁specials	-11.4017
ite	-11.4018
▁net	-11.4026
▁corrupt	-11.4035
▁fa	-11.4049
aps	-11.4072
athetic	-11.408
pp	-11.4091
▁eating	-11.4096
ittle	-11.4114
▁pa	-11.4133
▁poo	-11.4138
seless	-11.4139
▁gardens	-11.4142
get	-11.4146
ul	-11.4167
ath	-11.4175
udge	-11.4187
▁SA	-11.4189
ec	-11.4192
opping	-11.4203
▁falls	-11.4204
▁grade	-11.4207
▁fish	-11.4209
▁arrange	-11.4234
▁war	-11.426
adio	-11.4281
xample	-11.4311
▁trim	-11.4321
▁codes	-11.4328
▁adore	-11.4331
▁som	-11.4335
update	-11.4336
icture	-11.434
▁column	-11.4346
▁lvl	-11.4348
▁disturb	-11.4352
▁hunt	-11.4353
▁fruit	-11.4354
▁weekend	-11.436
▁succeed	-11.4361
▁spawn	-11.4366
▁overheat	-11.4371
▁operation	-11.439
orking	-11.439
▁thorough	-11.4397
nspire	-11.4397
▁sensor	-11.44
▁seperate	-11.4402
▁accidental	-11.4402
▁bless	-11.4407
lassic	-11.441
mpossible	-11.4411
orget	-11.4411
▁dialog	-11.4413
riends	-11.4414
uivalent	-11.4417
▁abrupt	-11.4417
▁abysmal	-11.4417
▁conservative	-11.4417
▁distinguish	-11.4417
▁maneuver	-11.4417
▁traditional	-11.4417
▁flexibility	-11.4417
▁strength	-11.4417
▁electronic	-11.4417
▁phishing	-11.4417
▁uninterrupted	-11.4417
▁acceleration	-11.4417
▁accuracy	-11.4417
▁female	-11.4417
▁dynamic	-11.4417
arlem	-11.4417
▁copied	-11.4417
▁butler	-11.4417
▁Addictive	-11.4418
▁tolerable	-11.4418
▁impatient	-11.4418
▁sleek	-11.4418
▁wrist	-11.4418
▁Stuff	-11.4418
▁spontaneous	-11.4418
▁glance	-11.4418
▁staff	-11.4418
▁nerves	-11.4418
▁stinks	-11.4418
▁Application	-11.4418
▁unfinished	-11.4418
▁fees	-11.4418
▁wonky	-11.4418
▁ondemand	-11.4418
▁industry	-11.4419
▁worldwide	-11.4419
▁execution	-11.4419
▁Austin	-11.442
▁momentum	-11.442
▁hurry	-11.442
▁coverage	-11.442
▁rotating	-11.4421
▁conversion	-11.4421
▁streamlined	-11.4421
▁colorful	-11.4422
▁dragging	-11.4422
ommercials	-11.4424
▁discograph	-11.4425
▁downfall	-11.4427
ahoo	-11.4427
ini	-11.4429
▁twist	-11.4431
▁programmed	-11.4431
▁guaranteed	-11.4434
vice	-11.4435
▁smash	-11.4438
▁meters	-11.4438
▁Tablet	-11.4443
▁above	-11.4444
▁mirroring	-11.4444
▁opinions	-11.4445
ninstaller	-11.4447
▁matters	-11.4448
▁trailers	-11.4449
▁dms	-11.4449
▁obtained	-11.445
ecommended	-11.4451
▁harvest	-11.4453
▁correction	-11.4456
▁encouraged	-11.4461
▁experiments	-11.4467
▁informed	-11.4468
▁bills	-11.4469
▁nature	-11.4473
▁commands	-11.4478
▁affected	-11.448
▁kiss	-11.4482
▁disturbing	-11.4484
▁hung	-11.4491
fits	-11.4497
▁drawn	-11.4499
▁ipad	-11.4502
▁gather	-11.4502
▁alter	-11.4502
▁firm	-11.4503
▁victor	-11.4503
▁monitoring	-11.4504
▁fancy	-11.4508
▁effectively	-11.4509
▁varied	-11.451
▁intentional	-11.4512
▁traveling	-11.4516
umber	-11.452
▁safely	-11.4526
▁hoops	-11.4527
▁reorder	-11.4529
▁gradual	-11.4533
ovie	-11.4534
▁bosses	-11.4538
▁hype	-11.4539
▁logical	-11.4539
▁tonight	-11.4542
▁suspense	-11.4544
▁thankfully	-11.4546
▁duplicates	-11.4548
▁scary	-11.4549
▁wallet	-11.456
▁oldest	-11.4566
ometimes	-11.4572
▁passion	-11.4573
▁aggressive	-11.4574
mall	-11.4577
date	-11.4585
alse	-11.4586
▁practices	-11.4601
▁explanations	-11.4605
▁Tw	-11.4606
thers	-11.4606
lips	-11.4607
win	-11.4612
elete	-11.4616
▁Track	-11.462
▁dash	-11.4623
▁performs	-11.463
sent	-11.4633
▁donate	-11.4633
▁explaining	-11.464
▁profit	-11.4648
related	-11.4658
bs	-11.4658
▁tr	-11.4663
▁timely	-11.4667
structured	-11.4673
full	-11.4679
▁prob	-11.4683
▁launching	-11.4685
vy	-11.4689
uck	-11.4692
▁trade	-11.4718
▁restor	-11.4721
▁beam	-11.4726
ailed	-11.4731
▁driver	-11.4776
▁providers	-11.478
ped	-11.4782
▁shots	-11.4794
▁wife	-11.4795
▁filtering	-11.4797
▁layouts	-11.4801
▁appealing	-11.4801
pen	-11.4802
▁op	-11.4803
▁fu	-11.4809
▁sex	-11.4825
ev	-11.4825
what	-11.483
▁usb	-11.4838
▁crack	-11.4846
▁eat	-11.4855
ir	-11.4871
tball	-11.4888
▁hack	-11.49
aka	-11.4923
make	-11.4931
some	-11.4933
ingly	-11.4937
▁ignor	-11.4948
witch	-11.496
eh	-11.4976
eats	-11.4982
▁costly	-11.4982
oto	-11.4986
ond	-11.4991
ture	-11.501
▁af	-11.5012
thinking	-11.5015
hundred	-11.5081
▁redirect	-11.5082
heck	-11.509
▁differences	-11.5092
ait	-11.5097
▁suggesting	-11.5098
well	-11.5102
▁ordered	-11.5113
▁intend	-11.5115
▁wind	-11.5125
ops	-11.5135
hey	-11.5141
hand	-11.5144
▁irritate	-11.5166
▁sc	-11.5166
▁decor	-11.5172
▁role	-11.5172
learning	-11.5175
land	-11.5178
▁o	-11.5182
▁favorited	-11.5202
▁pla	-11.5202
ctic	-11.5206
▁dear	-11.521
▁differently	-11.5218
live	-11.522
▁networking	-11.523
▁powers	-11.5238
▁gi	-11.524
▁freely	-11.5241
▁figur	-11.527
idia	-11.5296
mb	-11.5309
▁partial	-11.5309
▁standing	-11.5311
.......	-11.5322
▁advert	-11.533
co	-11.5331
▁afr	-11.5335
▁capture	-11.5336
▁pronunciation	-11.5339
ontrol	-11.534
▁Service	-11.5342
▁companion	-11.5343
▁idiot	-11.5346
▁outcome	-11.5348
▁command	-11.5352
▁animal	-11.5353
▁cube	-11.5354
uirement	-11.5354
▁audiobook	-11.5358
▁workaround	-11.5363
work	-11.5383
▁roman	-11.5383
orld	-11.5388
▁bas	-11.5391
▁archive	-11.5399
▁prioriti	-11.5403
▁bias	-11.5408
▁tweak	-11.5409
▁res	-11.5409
▁techni	-11.5411
atrix	-11.5413
hamet	-11.5413
arvel	-11.5414
mething	-11.5415
▁withdraw	-11.5415
lies	-11.5416
earing	-11.5417
▁disadvantage	-11.5417
▁eyebrow	-11.5417
▁nostalgia	-11.5417
▁comprehensive	-11.5417
▁degree	-11.5417
▁tennis	-11.5417
▁guidance	-11.5417
▁legitimate	-11.5417
ages	-11.5417
▁confidence	-11.5417
▁exposure	-11.5417
▁guidelines	-11.5417
▁copies	-11.5417
▁glaring	-11.5417
▁criticism	-11.5417
▁Alien	-11.5417
▁audience	-11.5417
▁diffrent	-11.5417
▁famous	-11.5417
▁seldom	-11.5418
▁studio	-11.5418
▁grasp	-11.5418
▁rectify	-11.5418
▁assault	-11.5418
▁frankly	-11.5418
▁hotspot	-11.5418
▁dissapointed	-11.5418
▁correspond	-11.5418
▁protection	-11.5418
▁fabulous	-11.5418
▁promising	-11.5418
▁pinch	-11.5418
uantity	-11.5419
omcast	-11.5419
▁dangerous	-11.5419
▁extension	-11.5419
▁differentiate	-11.5419
▁curious	-11.5419
▁troublesome	-11.542
▁baby	-11.542
▁copyright	-11.542
▁discount	-11.5421
▁incompetent	-11.5422
▁suspended	-11.5422
▁deducted	-11.5422
▁configuration	-11.5423
lenty	-11.5423
▁fift	-11.5423
▁captivating	-11.5425
▁spare	-11.5425
▁intake	-11.5425
▁robot	-11.5425
▁advancing	-11.5425
▁globally	-11.5427
▁discontinued	-11.5427
▁desperately	-11.5429
assive	-11.543
▁debit	-11.5431
▁creepy	-11.5432
▁hints	-11.5433
onsidering	-11.5433
aying	-11.5434
▁Sept	-11.5436
▁forgetting	-11.5436
▁fellow	-11.5438
▁anoying	-11.5438
▁perfection	-11.5438
▁irritated	-11.544
▁pandora	-11.5441
▁unexpectedly	-11.5445
▁fluent	-11.5447
anky	-11.545
▁indicated	-11.545
▁erased	-11.545
leared	-11.5452
▁typos	-11.5454
▁located	-11.5454
▁incorporate	-11.5456
▁tower	-11.5456
▁expired	-11.5457
▁movieshow	-11.5459
▁disrupt	-11.546
▁synchroni	-11.5461
▁chord	-11.5461
▁reconsider	-11.5467
▁reliability	-11.547
uys	-11.5471
▁horns	-11.5471
▁limitations	-11.5476
▁dance	-11.5477
hotos	-11.5477
▁planet	-11.5478
▁broadcasters	-11.5478
▁comfort	-11.548
▁remix	-11.5482
▁incomplete	-11.5485
▁alto	-11.5485
▁shy	-11.5486
▁recommending	-11.5487
▁embedd	-11.5491
hannels	-11.5495
▁refill	-11.5496
▁combos	-11.5497
▁reminded	-11.5502
▁directed	-11.5502
▁yea	-11.5503
▁disliked	-11.5505
▁alive	-11.5505
▁restored	-11.5508
▁backflips	-11.5509
▁habits	-11.5515
▁learners	-11.5517
▁argu	-11.5519
oad	-11.5519
▁township	-11.552
▁remotely	-11.552
▁bass	-11.5525
▁operates	-11.5532
▁vision	-11.5532
▁redundant	-11.5536
▁detection	-11.5537
▁Single	-11.5538
▁agent	-11.5539
point	-11.5539
▁leftright	-11.5543
▁farming	-11.5544
▁distorted	-11.5544
ats	-11.5547
▁scanned	-11.555
▁bell	-11.5551
▁unpause	-11.5555
ather	-11.5556
▁locally	-11.5558
▁imported	-11.5558
▁launched	-11.5561
▁presentations	-11.5563
▁corners	-11.5563
▁roof	-11.5573
▁unlocks	-11.5584
▁dependable	-11.5588
▁moderate	-11.5594
▁refunded	-11.5597
▁interrupts	-11.5598
mo	-11.5603
▁sessions	-11.5604
umm	-11.5619
▁rage	-11.5621
▁decades	-11.5642
▁iteration	-11.5642
▁pad	-11.5644
▁transactions	-11.5651
▁tok	-11.5659
▁facegri	-11.5666
▁eg	-11.5668
▁cater	-11.5671
ept	-11.5672
▁subscribers	-11.5675
▁formatting	-11.5677
her	-11.5686
▁earnings	-11.569
▁houses	-11.5694
▁na	-11.5707
di	-11.5709
▁lovers	-11.5715
▁replaying	-11.5723
inor	-11.5739
▁noises	-11.5745
▁grand	-11.5745
▁rolled	-11.5749
alog	-11.5756
rown	-11.5763
▁Sta	-11.5769
▁im	-11.5779
heers	-11.5781
uddenly	-11.5787
▁standards	-11.5797
came	-11.58
lose	-11.58
layers	-11.5815
will	-11.5841
▁uh	-11.5854
▁proof	-11.5865
double	-11.5875
▁grouped	-11.5886
ye	-11.5895
▁typed	-11.5915
ugh	-11.593
▁landscapes	-11.5953
early	-11.5955
set	-11.5965
▁records	-11.5984
arlier	-11.599
▁stat	-11.6005
gh	-11.601
▁arrive	-11.6018
alled	-11.6022
▁loops	-11.6058
▁expir	-11.6065
dited	-11.6071
inting	-11.6072
mi	-11.6074
ptical	-11.6081
▁despise	-11.6081
▁dim	-11.6085
▁flagg	-11.6087
nter	-11.6098
▁Thing	-11.6105
▁backups	-11.6111
▁dedicate	-11.6113
atcher	-11.612
share	-11.6145
▁fear	-11.6152
▁hook	-11.6164
▁elses	-11.6168
ick	-11.6175
▁adventures	-11.6176
▁unsubscribed	-11.6189
▁bits	-11.6213
▁South	-11.6218
scored	-11.6223
▁lying	-11.6233
▁silence	-11.6233
ft	-11.6237
▁Sign	-11.624
with	-11.6249
hoto	-11.625
▁indi	-11.6262
▁behave	-11.6263
▁laptops	-11.627
match	-11.6289
ified	-11.6295
▁gen	-11.6297
▁AT	-11.6297
ouse	-11.6308
▁til	-11.6332
after	-11.6334
placed	-11.6341
▁exhaust	-11.6342
▁assign	-11.6346
▁le	-11.635
reinstalling	-11.6351
▁realise	-11.6354
▁rerun	-11.6355
▁da	-11.636
litch	-11.637
dition	-11.6409
▁bo	-11.6422
ors	-11.643
uns	-11.6433
▁chicken	-11.6436
▁measure	-11.6436
keep	-11.6451
▁theater	-11.6458
▁conflict	-11.6467
board	-11.6467
▁flight	-11.6471
▁spo	-11.6474
drive	-11.6486
▁vanish	-11.6489
▁unbelievabl	-11.649
▁abandon	-11.6503
lapping	-11.6504
▁intermittent	-11.6507
▁thankful	-11.6514
▁extent	-11.6515
layrix	-11.652
long	-11.6522
ultiplayer	-11.6523
lashscore	-11.6525
▁exits	-11.6526
▁myster	-11.6526
eyond	-11.6526
ltimate	-11.6527
▁sand	-11.6528
▁arbitrary	-11.6528
▁elevat	-11.6528
▁grenade	-11.6528
▁monotonous	-11.6528
▁rediculous	-11.6528
▁dictionar	-11.6528
▁parameter	-11.6528
▁sloppy	-11.6528
▁clarity	-11.6528
▁confusion	-11.6528
▁revisit	-11.6528
▁registration	-11.6528
▁vague	-11.6528
▁informative	-11.6528
▁unpleasant	-11.6528
▁addiction	-11.6528
▁afternoon	-11.6528
▁component	-11.6529
▁dissapointing	-11.6529
▁maddening	-11.6529
▁toxic	-11.6529
▁Sleep	-11.6529
▁deliberate	-11.6529
▁supplement	-11.6529
▁impression	-11.6529
▁unhelpful	-11.6529
edrock	-11.6529
▁gym	-11.6529
▁Avoid	-11.6529
▁creatures	-11.6529
▁excitement	-11.6529
layStation	-11.653
▁garage	-11.653
▁production	-11.653
▁compass	-11.653
▁tutor	-11.653
▁moderation	-11.6531
▁principle	-11.6531
ms	-11.6531
▁instrument	-11.6531
▁marvel	-11.6531
▁sketchy	-11.6531
▁friendship	-11.6532
▁paramount	-11.6532
▁releasing	-11.6532
▁bypass	-11.6532
▁matrix	-11.6532
▁inspiration	-11.6533
we	-11.6533
▁spotty	-11.6533
▁colleagues	-11.6533
▁whistles	-11.6533
▁drink	-11.6533
▁pixelated	-11.6534
▁dropdown	-11.6534
nbelievable	-11.6535
▁notic	-11.6535
litches	-11.6539
fac	-11.6539
▁strictly	-11.6539
▁musthave	-11.654
▁engaged	-11.6541
▁smoothness	-11.6541
▁supply	-11.6542
▁remixes	-11.6543
▁tolerate	-11.6544
▁unreadable	-11.6544
rew	-11.6547
▁playpause	-11.6549
▁praise	-11.655
▁spread	-11.6552
▁promised	-11.6555
gate	-11.6559
front	-11.6559
▁prediction	-11.6559
party	-11.6566
▁controlled	-11.6567
▁compromise	-11.6567
▁bloody	-11.6567
▁meals	-11.6569
load	-11.6569
▁segments	-11.6574
▁cheated	-11.6577
▁availability	-11.6577
little	-11.658
▁emotes	-11.6582
▁expert	-11.6584
abit	-11.6585
▁realtime	-11.6589
▁Space	-11.6589
▁slick	-11.659
▁photographers	-11.659
▁attachments	-11.6591
▁faves	-11.6591
▁pm	-11.6595
every	-11.6598
▁accent	-11.66
ri	-11.6603
mates	-11.6604
▁calming	-11.6606
▁supportive	-11.6606
eason	-11.6608
▁brush	-11.6611
oading	-11.6614
▁drifting	-11.6619
▁guest	-11.6622
▁vibes	-11.6624
▁sales	-11.6627
▁pluto	-11.663
ugs	-11.6637
▁adults	-11.6637
▁excel	-11.6639
ues	-11.664
▁dope	-11.6644
▁delivers	-11.6648
▁smh	-11.6651
▁invisible	-11.6651
▁fastpass	-11.6655
▁vocab	-11.6656
▁makeup	-11.6656
▁chores	-11.6657
▁underrated	-11.666
▁manga	-11.666
▁offroad	-11.6661
uares	-11.6666
▁police	-11.6669
▁hackers	-11.6673
ception	-11.6676
▁accelerate	-11.6676
evels	-11.6676
▁dies	-11.6678
▁recipes	-11.6678
▁goodness	-11.6685
ology	-11.6699
▁outline	-11.6714
▁starters	-11.6716
▁concerning	-11.6721
Thank	-11.6735
count	-11.6744
▁swiped	-11.6757
▁triple	-11.6764
▁configur	-11.6776
▁broadcasting	-11.678
wiping	-11.6782
▁involve	-11.6788
▁intuitively	-11.6802
img	-11.6804
ef	-11.6807
▁environments	-11.6821
gain	-11.6829
iant	-11.6831
▁cycles	-11.6832
▁shuffled	-11.6833
dfather	-11.6836
▁latency	-11.6842
▁angles	-11.6844
eri	-11.6844
▁Touch	-11.6848
▁pray	-11.6852
elps	-11.6853
▁pet	-11.6857
▁billion	-11.6858
pic	-11.6861
▁inputs	-11.6865
iff	-11.6866
▁alike	-11.6869
▁gripes	-11.6871
▁keyboards	-11.688
▁canvas	-11.6888
▁collapse	-11.689
playing	-11.6897
▁reloading	-11.6908
▁farther	-11.6909
continued	-11.6912
That	-11.6915
ama	-11.6921
ork	-11.6923
▁yr	-11.6925
▁wonderfully	-11.6928
ds	-11.6932
▁focusing	-11.6934
▁trackers	-11.6939
ucki	-11.6945
ease	-11.6956
uote	-11.6956
coins	-11.6975
since	-11.6975
▁pan	-11.6975
▁toss	-11.6976
ings	-11.6998
▁sing	-11.7009
tory	-11.7014
better	-11.7037
▁purp	-11.7045
of	-11.7056
tary	-11.7058
▁sms	-11.707
▁listener	-11.7075
▁sm	-11.7076
▁draws	-11.7076
▁rough	-11.7078
▁Soon	-11.7081
▁dirt	-11.7081
▁streaks	-11.7089
▁al	-11.7104
▁models	-11.7105
hh	-11.712
▁unbias	-11.7127
mm	-11.7137
ards	-11.7142
▁snap	-11.7148
▁voices	-11.7158
going	-11.7163
pls	-11.7164
ism	-11.7177
edit	-11.7183
fire	-11.7191
ausing	-11.7191
▁slip	-11.7192
▁expose	-11.7198
serves	-11.7199
ember	-11.7203
ea	-11.7206
▁differ	-11.7208
▁pr	-11.7227
▁hire	-11.723
▁shares	-11.7239
▁lies	-11.7243
ba	-11.7246
auto	-11.7246
▁toggl	-11.7255
▁Al	-11.7264
ck	-11.7275
▁paired	-11.7283
▁float	-11.7284
show	-11.7286
atched	-11.7304
tatus	-11.7323
never	-11.7328
otmail	-11.7328
▁var	-11.7335
annoying	-11.7336
▁communications	-11.7343
ada	-11.7347
esign	-11.736
▁dm	-11.7361
▁construct	-11.7388
▁shorts	-11.7411
olb	-11.7411
money	-11.7441
cs	-11.7446
▁examples	-11.7451
▁serve	-11.7451
umbled	-11.7459
▁towns	-11.7477
▁finds	-11.7481
ustable	-11.7492
▁promo	-11.7503
ship	-11.7503
designed	-11.7528
pdf	-11.7537
▁merge	-11.7544
lly	-11.755
▁exp	-11.7552
starstarstarstar	-11.7554
▁mor	-11.7566
ffer	-11.7574
▁actors	-11.7588
aya	-11.7596
ical	-11.7597
▁thre	-11.76
rage	-11.7608
eware	-11.7609
stic	-11.7609
▁sift	-11.7621
functional	-11.7628
book	-11.7646
▁flicker	-11.7653
best	-11.7654
eature	-11.7662
device	-11.7664
▁etern	-11.7666
plus	-11.7677
uilding	-11.7679
▁recognise	-11.768
cious	-11.7685
▁scrub	-11.7687
ure	-11.7692
then	-11.7692
rovide	-11.7692
pisode	-11.7695
hallenge	-11.77
▁tournament	-11.7704
essage	-11.7706
▁leaderboard	-11.7708
▁attachment	-11.7709
▁bill	-11.771
▁obstacle	-11.7711
round	-11.7711
▁restriction	-11.7711
▁headline	-11.7711
ision	-11.7712
▁shortcut	-11.7712
▁photographer	-11.7713
▁scenario	-11.7713
▁lasts	-11.7715
▁variation	-11.7715
▁distract	-11.7715
▁forum	-11.7719
▁doc	-11.7722
hones	-11.7726
▁experiment	-11.7727
▁satisfy	-11.7731
▁km	-11.7731
▁heat	-11.7733
tuck	-11.7738
▁hides	-11.7741
▁booster	-11.7742
▁soft	-11.7744
▁limitation	-11.7744
oads	-11.7749
generated	-11.7749
xpensive	-11.7751
▁broadcaster	-11.7754
▁routine	-11.7757
lash	-11.776
▁literal	-11.776
uence	-11.7763
ffline	-11.7766
xceptional	-11.7768
▁hesita	-11.7769
▁sim	-11.7772
esterday	-11.7774
▁peace	-11.7774
hallenging	-11.7774
▁criti	-11.7775
oodnovel	-11.7775
avigation	-11.7775
olume	-11.7776
andalorian	-11.7778
▁accommodate	-11.7778
▁continously	-11.7778
▁inferior	-11.7778
▁multitude	-11.7778
▁productivity	-11.7778
▁rabbit	-11.7778
▁unpredictable	-11.7778
▁leisure	-11.7778
▁violence	-11.7778
▁disagree	-11.7778
▁responsible	-11.7778
▁summary	-11.7778
▁penali	-11.7778
▁shrink	-11.7778
▁mandatory	-11.7778
▁unwilling	-11.7778
emember	-11.7778
▁fundamental	-11.7779
▁tomorrow	-11.7779
otorola	-11.7779
▁splash	-11.7779
▁August	-11.7779
▁lightweight	-11.7779
▁household	-11.7779
▁agenda	-11.7779
▁shotgun	-11.7779
▁simplistic	-11.7779
▁cancellation	-11.7779
coordination	-11.7779
▁customisation	-11.7779
▁crossplatform	-11.7779
▁periodically	-11.778
▁penalty	-11.778
▁destruction	-11.778
▁downtown	-11.778
▁branch	-11.778
▁entries	-11.778
▁deselect	-11.778
▁unclear	-11.778
▁Tucker	-11.778
▁premade	-11.778
▁straw	-11.778
▁horrid	-11.778
uggy	-11.7781
▁sneak	-11.7781
▁identical	-11.7781
nough	-11.7781
▁renewal	-11.7781
egards	-11.7781
▁cellphone	-11.7781
▁curated	-11.7782
▁workflow	-11.7782
▁subtract	-11.7782
▁remarkable	-11.7782
▁rude	-11.7782
▁unfixed	-11.7782
▁substantially	-11.7783
▁commit	-11.7783
▁module	-11.7783
▁cmon	-11.7783
rigger	-11.7783
▁skewed	-11.7783
▁utility	-11.7783
▁manipulat	-11.7784
▁implementation	-11.7785
▁scatter	-11.7785
▁discouraged	-11.7786
▁polished	-11.7787
▁logic	-11.7787
▁summer	-11.7788
▁bland	-11.7788
▁published	-11.7789
▁kidding	-11.7789
▁unistalled	-11.779
▁audible	-11.779
call	-11.7792
ification	-11.7793
▁semi	-11.7794
▁tuning	-11.7794
▁programmers	-11.7794
pdating	-11.7796
▁dull	-11.7796
▁Selection	-11.7797
▁recap	-11.78
▁classical	-11.7801
ities	-11.7801
▁compressed	-11.7802
▁coworkers	-11.7802
▁intermittently	-11.7802
▁canned	-11.7805
▁warm	-11.7805
▁annotate	-11.7807
▁distorts	-11.781
▁booted	-11.781
▁subfolders	-11.7812
▁shade	-11.7812
▁intention	-11.7815
▁soothing	-11.7816
start	-11.7818
▁tik	-11.7818
▁appointments	-11.7819
▁alphabetically	-11.7819
occurring	-11.782
▁decreased	-11.7824
▁waist	-11.7825
▁duo	-11.7827
▁valid	-11.7827
▁parties	-11.7829
▁clubs	-11.783
▁maintained	-11.7831
▁execute	-11.7832
▁vertically	-11.7833
▁admins	-11.7838
ITI	-11.7838
▁responsiveness	-11.7842
▁browsers	-11.7847
rices	-11.7851
▁prepar	-11.7852
▁meaningful	-11.7852
▁fulltime	-11.7853
▁margin	-11.7858
▁Side	-11.7864
roughly	-11.7864
▁nope	-11.7866
▁meta	-11.7869
gest	-11.7873
▁mega	-11.7875
▁rev	-11.7879
▁standings	-11.788
▁mx	-11.7887
▁Images	-11.7888
▁Sling	-11.7892
▁hog	-11.7892
▁brick	-11.7893
iew	-11.7893
pg	-11.7894
▁citi	-11.7895
ua	-11.7896
▁listings	-11.7897
▁infinitely	-11.7899
riday	-11.79
▁fiddl	-11.7901
step	-11.7902
▁studying	-11.7903
▁strategi	-11.7903
icket	-11.7903
wei	-11.7904
▁attractive	-11.7906
▁overload	-11.7907
▁calculate	-11.7908
▁ships	-11.7916
she	-11.7917
▁chain	-11.7917
▁education	-11.7919
fun	-11.7919
▁automation	-11.792
▁chronological	-11.7923
▁aesthetics	-11.7925
▁altered	-11.7926
▁threads	-11.7927
illing	-11.7937
▁factors	-11.7939
arden	-11.794
▁snow	-11.7945
▁intentionally	-11.7945
▁regions	-11.7953
▁ios	-11.7956
▁professionally	-11.7962
▁rewarded	-11.7965
▁affecting	-11.7966
ooked	-11.7967
roblems	-11.7968
▁degrad	-11.7969
▁reviewed	-11.7971
▁functionally	-11.7974
ub	-11.7983
▁usernames	-11.799
▁forwards	-11.7994
▁sample	-11.7995
tick	-11.7999
exus	-11.8
▁grid	-11.8004
▁labels	-11.8005
bones	-11.8006
▁roads	-11.8015
ownloads	-11.8021
room	-11.8022
otion	-11.804
sure	-11.804
iness	-11.8055
▁stor	-11.8057
▁Top	-11.8061
▁grading	-11.8064
▁listing	-11.8065
▁cup	-11.8069
▁interfere	-11.8081
month	-11.8082
▁reli	-11.8084
▁fields	-11.8085
▁inform	-11.8094
mpire	-11.8096
▁boosts	-11.8096
iked	-11.8101
▁strip	-11.8102
▁dual	-11.8105
▁span	-11.8107
▁blink	-11.8109
▁sum	-11.8111
ier	-11.8117
▁logos	-11.8121
▁rebuild	-11.8124
▁holidays	-11.8125
songs	-11.8128
done	-11.8131
▁wipe	-11.8133
▁intelligen	-11.8142
text	-11.8145
▁comedy	-11.8146
rate	-11.8147
▁meetings	-11.815
▁hiding	-11.8155
rating	-11.816
▁restrict	-11.8167
▁instances	-11.8171
mouth	-11.8172
▁tra	-11.8174
kv	-11.8186
▁facesmi	-11.8189
nder	-11.8197
▁terr	-11.8205
roved	-11.8205
▁bang	-11.8226
▁coding	-11.8238
stream	-11.8242
▁cent	-11.8248
▁roller	-11.8252
looking	-11.8267
▁consoles	-11.8269
li	-11.8273
▁subse	-11.8275
couple	-11.828
▁ge	-11.8285
merged	-11.8296
▁facts	-11.8308
If	-11.831
▁cult	-11.8322
▁Sono	-11.8328
▁trans	-11.8337
▁hey	-11.8348
muting	-11.8351
▁tendenc	-11.8357
▁tick	-11.8363
▁career	-11.8367
eset	-11.8372
▁wrap	-11.8372
▁hosts	-11.8376
per	-11.839
▁receiver	-11.8391
lutoT	-11.8404
rows	-11.8404
▁separat	-11.841
cient	-11.8417
bug	-11.8419
second	-11.8423
▁mk	-11.8431
▁marking	-11.8431
▁sw	-11.8434
▁shortly	-11.8438
▁spa	-11.845
SSA	-11.8461
▁hitch	-11.8462
▁Talk	-11.8462
▁pros	-11.8505
▁authori	-11.8506
create	-11.851
▁fin	-11.851
check	-11.8514
ag	-11.8518
hora	-11.852
team	-11.852
icated	-11.8522
▁introduc	-11.8528
anta	-11.854
ash	-11.8544
med	-11.8547
▁entertain	-11.856
because	-11.8572
▁bann	-11.8576
▁gra	-11.8587
tried	-11.8593
▁esp	-11.8611
high	-11.8619
inking	-11.8628
▁skippe	-11.8633
▁manages	-11.8648
▁bounce	-11.8653
▁conclude	-11.8654
ep	-11.8659
em	-11.867
▁Abo	-11.868
▁reciev	-11.869
bps	-11.8693
reading	-11.8698
▁Sort	-11.8699
▁limiting	-11.87
▁graph	-11.8704
uits	-11.8718
person	-11.8731
umb	-11.8745
black	-11.8747
▁wave	-11.8749
werk	-11.8759
▁purposeful	-11.8774
▁enabl	-11.8784
stop	-11.8789
puts	-11.8792
▁cameras	-11.8793
epartment	-11.8797
▁rise	-11.8802
▁rescan	-11.8811
group	-11.8814
▁bear	-11.882
arre	-11.8821
▁litter	-11.8838
▁regrett	-11.8848
movie	-11.8854
▁math	-11.8855
▁forwarded	-11.886
▁ver	-11.8864
▁how	-11.889
mobileautomobile	-11.8895
▁bl	-11.8895
▁extrem	-11.8901
losed	-11.8906
▁attract	-11.8915
vidi	-11.8933
opped	-11.8934
finity	-11.8939
ption	-11.8953
▁tempt	-11.8961
▁spec	-11.8964
▁spit	-11.8969
▁Typical	-11.9009
fre	-11.901
otification	-11.9013
▁impress	-11.9021
space	-11.9051
give	-11.9065
▁describ	-11.907
▁flowers	-11.9085
ole	-11.9086
artist	-11.9094
▁involv	-11.9098
lick	-11.9102
▁buck	-11.9111
▁wit	-11.9117
▁ram	-11.9117
xcel	-11.9119
▁voicenote	-11.913
▁airplane	-11.9135
▁shutdown	-11.9135
▁transaction	-11.9138
▁interval	-11.9138
▁paragraph	-11.9139
▁teammate	-11.914
▁repost	-11.9153
isten	-11.9154
▁admin	-11.9162
▁referr	-11.9162
▁occurring	-11.9163
▁minigame	-11.917
▁blur	-11.9173
ertain	-11.9175
▁stranger	-11.9175
sers	-11.9178
ded	-11.9182
▁instruction	-11.9183
▁consecutive	-11.9183
▁Send	-11.9188
▁miserabl	-11.919
▁align	-11.9198
▁arm	-11.9198
elieve	-11.92
▁mailbox	-11.9201
eriod	-11.9203
avigating	-11.9203
arkour	-11.9204
ackground	-11.9205
ootball	-11.9205
▁sporadic	-11.9205
▁voltage	-11.9207
▁adventurous	-11.9207
▁anxiety	-11.9207
▁associate	-11.9207
▁atmospheric	-11.9207
▁commerical	-11.9207
▁credentials	-11.9207
▁dissapear	-11.9207
▁fascinating	-11.9207
▁megaskins	-11.9207
▁rhythm	-11.9207
▁synopsis	-11.9207
▁beneficial	-11.9207
▁maintenance	-11.9207
▁muscle	-11.9207
▁timestamp	-11.9207
▁butterflies	-11.9207
▁screensaver	-11.9207
▁flexible	-11.9207
▁maximi	-11.9207
▁lifesaver	-11.9207
▁msgs	-11.9207
▁swimming	-11.9207
▁wierd	-11.9207
▁foreground	-11.9207
▁destination	-11.9207
▁crystal	-11.9207
▁awsome	-11.9207
▁inefficient	-11.9207
drop	-11.9207
▁libraries	-11.9207
▁mileage	-11.9207
▁mechanism	-11.9207
ualities	-11.9208
▁idiotic	-11.9208
▁overpriced	-11.9208
▁dramatically	-11.9208
▁fraud	-11.9208
▁treasure	-11.9208
▁inaccessible	-11.9208
▁indication	-11.9208
▁sporadically	-11.9208
▁lunch	-11.9208
▁existence	-11.9209
▁ripoff	-11.9209
▁radar	-11.9209
▁occup	-11.9209
▁Sports	-11.9209
eird	-11.9209
▁swim	-11.9209
▁offensive	-11.9209
▁theory	-11.9209
▁overwhelmed	-11.921
nreliable	-11.921
▁latter	-11.921
▁beforehand	-11.921
▁toolbar	-11.921
▁modified	-11.921
▁faith	-11.9211
▁distortion	-11.9211
▁childish	-11.9211
▁diversity	-11.9211
▁stamp	-11.9211
▁lossless	-11.9212
▁engagement	-11.9212
▁heartbeat	-11.9212
▁hostage	-11.9212
skull	-11.9212
▁xplayer	-11.9213
▁mile	-11.9213
▁indefinitely	-11.9213
▁collage	-11.9213
▁fingertips	-11.9213
▁professor	-11.9213
▁existent	-11.9214
▁meditation	-11.9214
counterintuitive	-11.9214
▁established	-11.9214
urope	-11.9216
▁rectangle	-11.9217
▁duper	-11.9217
▁slender	-11.9217
▁tremendously	-11.9218
armin	-11.9218
cent	-11.9219
▁evolved	-11.9219
▁lbs	-11.922
▁dominos	-11.922
▁peaceful	-11.9222
▁respawn	-11.9222
▁motivating	-11.9223
▁Subtitles	-11.9224
▁dude	-11.9224
▁winter	-11.9226
▁granted	-11.9228
▁compliments	-11.923
▁donation	-11.923
▁degraded	-11.9234
▁grant	-11.9234
▁reducing	-11.9235
▁plugins	-11.9236
▁topdown	-11.9236
▁premi	-11.9237
ssentials	-11.924
▁downgrading	-11.9241
▁declined	-11.9241
▁upwards	-11.9242
print	-11.9243
▁overrid	-11.9244
uitting	-11.9244
litchy	-11.9245
▁mountains	-11.9245
▁lagg	-11.9246
▁dismiss	-11.9247
▁overtime	-11.9249
▁briefly	-11.9251
▁predator	-11.9253
▁renewed	-11.9253
▁rendered	-11.9254
▁chunks	-11.9256
▁rea	-11.9258
▁payout	-11.9258
corporate	-11.9261
▁promotion	-11.9263
▁todo	-11.9267
▁crown	-11.9268
▁him	-11.9269
oming	-11.927
▁frustat	-11.9271
▁doors	-11.9274
estarting	-11.9274
▁virus	-11.9275
▁described	-11.9275
▁consist	-11.9276
▁exclude	-11.9277
einstalled	-11.9278
▁danger	-11.9283
▁accordingly	-11.9283
▁tweaking	-11.9284
▁scenarios	-11.9289
▁leaderboards	-11.9289
▁crew	-11.9297
▁malfunctioning	-11.9297
son	-11.9297
▁estate	-11.9303
ithin	-11.9304
▁veiw	-11.9305
▁flicks	-11.9307
▁headphone	-11.9308
orlds	-11.931
oals	-11.931
ictures	-11.9312
▁falsely	-11.9313
▁scrubb	-11.9317
▁fruits	-11.9318
▁deck	-11.932
▁lvls	-11.932
▁translat	-11.9321
grab	-11.9324
▁rap	-11.9324
▁minded	-11.9327
▁checkin	-11.9328
reative	-11.9331
▁fortune	-11.9331
▁saturated	-11.9331
ai	-11.9334
avorites	-11.9334
▁Americans	-11.9334
▁centr	-11.9337
▁tank	-11.9338
▁urgent	-11.9342
▁censor	-11.9346
lots	-11.9349
▁solo	-11.9349
▁promptly	-11.9353
▁tagged	-11.9355
▁parse	-11.9356
▁controlls	-11.9357
▁attacks	-11.9359
▁assists	-11.9361
▁reconnected	-11.9365
▁transparent	-11.9369
▁expires	-11.9371
▁oriented	-11.9371
▁beauty	-11.9372
listen	-11.9375
▁engage	-11.9375
acing	-11.9378
▁poll	-11.938
asic	-11.9384
▁arrows	-11.9385
▁longtime	-11.939
ugation	-11.9391
▁crushing	-11.94
▁anger	-11.9403
▁streamed	-11.9413
▁emote	-11.9415
ron	-11.9416
▁highlighted	-11.9426
iest	-11.9441
bid	-11.9445
explod	-11.9446
served	-11.9449
paste	-11.9456
▁dubb	-11.9457
▁lg	-11.9465
▁xp	-11.9468
▁hesitate	-11.948
▁relate	-11.9483
▁backend	-11.9489
▁rotated	-11.9491
house	-11.9491
▁advertises	-11.9495
▁shirt	-11.9496
cing	-11.9496
rr	-11.9498
ase	-11.9499
▁conveniently	-11.9503
nit	-11.9506
▁thoughts	-11.9512
▁fired	-11.9531
▁sho	-11.9535
▁roam	-11.9536
▁temp	-11.954
▁banners	-11.9541
▁layers	-11.9547
▁beats	-11.9554
gs	-11.9565
igned	-11.9566
access	-11.9579
▁tele	-11.9592
ving	-11.9599
▁her	-11.9607
streaming	-11.9608
▁leg	-11.961
▁mother	-11.9613
▁mindless	-11.962
hase	-11.9621
mili	-11.9622
▁engineer	-11.9626
▁True	-11.9632
ative	-11.9638
inks	-11.9639
▁cooler	-11.9648
▁misses	-11.9648
▁learner	-11.965
pers	-11.9654
▁threat	-11.9654
▁dread	-11.9659
eeping	-11.9669
▁refreshed	-11.9672
▁lineups	-11.9674
cents	-11.9678
acking	-11.968
ISS	-11.9682
yth	-11.9685
▁potion	-11.9691
ates	-11.9698
hell	-11.9706
ife	-11.9721
intend	-11.9724
review	-11.9726
▁intros	-11.9727
▁processed	-11.9738
▁dragon	-11.9739
aggy	-11.9745
lit	-11.9751
▁pending	-11.9761
▁values	-11.9776
know	-11.9781
lol	-11.9785
▁abuse	-11.979
▁fb	-11.9792
▁sling	-11.9797
ality	-11.9812
▁prints	-11.9815
eady	-11.9817
▁presents	-11.9818
▁hyper	-11.982
▁stairs	-11.9821
▁tax	-11.9822
try	-11.9823
▁storylines	-11.9823
▁ordering	-11.9832
▁medic	-11.9834
messages	-11.9846
rich	-11.9847
▁obsess	-11.985
plit	-11.9855
▁impos	-11.9857
▁announce	-11.9862
easy	-11.9871
▁compress	-11.9871
TIS	-11.9884
▁suits	-11.9897
ully	-11.9917
mous	-11.9918
alling	-11.9921
▁Aloud	-11.9925
install	-11.9942
▁installs	-11.9964
list	-11.9969
fast	-11.9983
▁har	-11.9985
▁ske	-11.9987
▁darn	-11.9992
int	-11.9995
▁tooth	-11.9996
think	-11.9998
▁obby	-12
▁deactivate	-12.0002
▁debug	-12.0011
story	-12.0024
▁Score	-12.0036
▁bothering	-12.0042
▁gui	-12.0054
ected	-12.0056
gging	-12.006
control	-12.0064
pt	-12.0066
▁obtrusive	-12.0072
▁fe	-12.0077
ixing	-12.0077
oney	-12.0079
enter	-12.0085
res	-12.0087
lu	-12.0105
uffers	-12.0109
▁cl	-12.0112
eft	-12.0121
▁Sudden	-12.0124
rance	-12.0131
After	-12.0137
▁sever	-12.016
▁complains	-12.0163
▁performances	-12.0174
▁calendars	-12.0195
force	-12.0216
adfinger	-12.0218
▁mon	-12.0221
older	-12.0226
ags	-12.023
▁Ab	-12.0231
▁cal	-12.024
▁tw	-12.0256
▁organise	-12.0268
supported	-12.0274
▁Suggest	-12.0282
▁fl	-12.0291
bit	-12.0296
downloaded	-12.0298
obs	-12.031
city	-12.0325
download	-12.0333
▁scrap	-12.0335
allow	-12.0345
une	-12.0345
.............	-12.0346
▁producer	-12.035
earn	-12.0353
▁lotus	-12.0364
frustrating	-12.0371
▁mi	-12.0393
▁correcting	-12.0402
ank	-12.0412
▁Sub	-12.0413
ories	-12.0445
▁stone	-12.0453
▁animate	-12.0454
▁stumbl	-12.046
▁outs	-12.0464
da	-12.0466
iv	-12.0469
cha	-12.047
nts	-12.0471
roll	-12.0492
▁pur	-12.0493
speed	-12.0521
mmm	-12.0523
▁optimis	-12.0527
half	-12.0531
could	-12.0539
▁vine	-12.0542
▁anti	-12.0548
again	-12.055
▁birds	-12.0559
power	-12.056
▁indicat	-12.0589
boy	-12.0593
▁plant	-12.0604
mula	-12.0608
wifi	-12.0611
▁ramp	-12.0631
▁experi	-12.0633
▁lite	-12.0643
vent	-12.0647
pened	-12.0648
fe	-12.0666
▁ar	-12.0678
...............	-12.0686
mission	-12.0687
▁lived	-12.0693
▁tvs	-12.0704
alls	-12.0705
range	-12.0712
▁script	-12.0716
images	-12.0722
▁starter	-12.0726
break	-12.0727
Still	-12.0748
▁generat	-12.0749
working	-12.0751
▁tile	-12.0754
▁trap	-12.0761
rice	-12.0766
▁turne	-12.0775
▁pv	-12.0793
ecided	-12.0795
ancel	-12.0796
ovely	-12.0797
▁alien	-12.0798
ocused	-12.0801
▁carrier	-12.0802
▁checkmark	-12.0803
▁segment	-12.0804
▁achievement	-12.0807
estart	-12.0808
▁blam	-12.0815
▁smi	-12.0815
▁scammer	-12.0816
▁multitask	-12.0822
▁consumer	-12.0825
▁dr	-12.0827
▁typo	-12.0829
▁flyer	-12.0835
▁creep	-12.0837
olden	-12.0838
▁clickbait	-12.0841
▁musician	-12.0846
uint	-12.085
urrent	-12.0851
files	-12.0855
uffering	-12.0855
▁crowd	-12.0856
▁desperate	-12.0856
hot	-12.0858
▁evolve	-12.0859
ocket	-12.0859
cho	-12.0859
▁discontinue	-12.0863
rofessor	-12.0867
ountry	-12.0868
ibrary	-12.0869
ampaign	-12.0869
peaking	-12.087
onetheless	-12.087
▁chick	-12.087
unctionality	-12.087
isleading	-12.0871
essenger	-12.0872
aptop	-12.0872
uarantine	-12.0873
▁clumsy	-12.0873
▁dissappear	-12.0873
▁exorbitant	-12.0873
▁iTunes	-12.0873
▁inbetween	-12.0873
▁inexplicabl	-12.0873
▁predecessor	-12.0873
▁replenish	-12.0873
▁undoubtedly	-12.0873
rainbow	-12.0873
▁hindrance	-12.0873
▁outweigh	-12.0873
▁painstaking	-12.0873
▁protocol	-12.0873
▁artifact	-12.0873
▁bursts	-12.0874
▁overseas	-12.0874
▁werewol	-12.0874
▁consumption	-12.0874
▁families	-12.0874
▁Tidal	-12.0874
▁financial	-12.0874
▁unbeatable	-12.0874
▁lackluster	-12.0874
▁revamp	-12.0874
▁tiresome	-12.0874
▁hilarious	-12.0874
▁ownership	-12.0874
▁incompatible	-12.0874
▁abundan	-12.0874
▁understood	-12.0874
▁npc	-12.0874
▁comfortably	-12.0874
▁masterpiece	-12.0874
▁insulting	-12.0874
▁chainsaw	-12.0874
▁barrel	-12.0874
▁subtle	-12.0874
▁employee	-12.0874
▁investment	-12.0874
▁astonishing	-12.0874
▁manipulation	-12.0874
▁imagination	-12.0874
▁Storage	-12.0874
▁fooled	-12.0874
▁decoder	-12.0875
▁collaboration	-12.0875
▁incessant	-12.0875
▁regenerate	-12.0875
▁lambo	-12.0875
▁crappy	-12.0875
▁counterpart	-12.0875
▁hobby	-12.0875
▁digging	-12.0875
▁overnight	-12.0875
▁overkill	-12.0876
▁snack	-12.0876
tinent	-12.0876
▁niche	-12.0876
▁Supposed	-12.0876
▁mansion	-12.0876
▁datacache	-12.0877
▁nonetheless	-12.0877
▁generous	-12.0877
▁Arab	-12.0877
▁stellar	-12.0877
▁centur	-12.0878
▁overboard	-12.0878
▁calender	-12.0878
▁technological	-12.0879
▁consent	-12.0879
▁lifestyle	-12.0879
▁tagging	-12.088
▁cursed	-12.088
guitar	-12.088
▁meaningless	-12.088
▁hideout	-12.088
▁shopping	-12.088
hapters	-12.0881
▁metrics	-12.0881
▁considerably	-12.0881
▁haha	-12.0881
▁hashtags	-12.0881
▁shortcomings	-12.0881
▁earphones	-12.0881
hoever	-12.0881
▁exaggerating	-12.0882
▁illustration	-12.0882
▁warranty	-12.0882
▁shaders	-12.0882
▁strike	-12.0883
▁neighbor	-12.0883
▁beware	-12.0884
▁upfront	-12.0884
▁gamemodes	-12.0884
thank	-12.0884
▁mysterious	-12.0884
▁eaten	-12.0885
▁Access	-12.0885
▁grace	-12.0885
▁spikes	-12.0885
▁cardio	-12.0886
▁rapidly	-12.0887
▁clothing	-12.0888
ky	-12.0888
▁sniper	-12.0888
▁goodbye	-12.0888
▁strategies	-12.0889
▁stalls	-12.089
▁googling	-12.0891
dispens	-12.0891
▁thankyou	-12.0891
ploading	-12.0892
hecked	-12.0893
curring	-12.0893
▁renovate	-12.0893
▁eyesthumbs	-12.0893
▁enclosures	-12.0894
▁surroundings	-12.0894
ropped	-12.0895
▁mph	-12.0895
▁buds	-12.0897
agic	-12.0898
▁slap	-12.0898
▁factual	-12.0899
▁pissed	-12.0899
▁daters	-12.0899
▁passport	-12.09
▁fantas	-12.09
▁someday	-12.0901
▁historical	-12.0901
ASS	-12.0902
▁attain	-12.0902
▁executed	-12.0902
▁resend	-12.0903
▁deletion	-12.0903
▁orange	-12.0904
▁surface	-12.0905
▁dimensions	-12.0907
amily	-12.0907
▁unused	-12.0908
▁govern	-12.0909
essons	-12.091
▁centre	-12.0911
▁gamble	-12.0916
▁redirected	-12.0917
▁acknowledge	-12.0917
▁exceed	-12.0917
▁audiovideo	-12.0918
▁unsubscrib	-12.0918
▁renovations	-12.092
▁promoting	-12.092
▁mirror	-12.092
▁tactics	-12.092
tract	-12.0924
tsapp	-12.0925
▁multitasking	-12.0925
specific	-12.0926
▁transform	-12.0928
▁embarrassing	-12.0929
▁bcu	-12.0929
istening	-12.0933
▁wallride	-12.0933
▁neverending	-12.0936
▁checkpoints	-12.0936
▁burned	-12.0937
wide	-12.0937
▁memes	-12.0939
▁your	-12.094
▁eggs	-12.0941
▁expens	-12.0942
loor	-12.0943
▁accomplished	-12.0944
▁batch	-12.0944
▁confirmed	-12.0947
▁dys	-12.0948
▁warn	-12.0952
▁achieved	-12.0953
▁gaps	-12.0956
moving	-12.0958
▁airplanes	-12.096
media	-12.0962
uestionable	-12.0962
▁overheating	-12.097
▁taping	-12.0973
▁pickup	-12.0974
▁Along	-12.0975
▁Actual	-12.0975
▁thrilling	-12.0976
▁skippable	-12.0976
riginally	-12.0978
▁watermark	-12.098
▁upto	-12.0982
nails	-12.0986
xt	-12.0986
tions	-12.0987
▁club	-12.0987
▁posters	-12.0993
▁scanner	-12.0993
▁cartoon	-12.0998
▁idiots	-12.0999
▁cleaner	-12.0999
▁mastered	-12.1002
▁stripp	-12.1003
▁bread	-12.1003
▁underage	-12.1008
▁sta	-12.101
▁trusted	-12.101
▁columns	-12.1011
▁recovered	-12.1012
▁shake	-12.1015
▁partners	-12.1017
▁cold	-12.1019
▁flawed	-12.1021
ails	-12.1023
▁eras	-12.1027
Tube	-12.1027
▁grindy	-12.1028
▁clone	-12.1029
▁captioning	-12.1029
▁sheep	-12.1032
▁accepted	-12.1035
rewind	-12.1039
too	-12.1045
▁whatsApp	-12.1045
▁cherr	-12.1046
▁minimalist	-12.1047
▁recovery	-12.1048
▁categori	-12.1051
▁productive	-12.1052
▁unreasonabl	-12.1057
▁skiing	-12.1057
▁sorta	-12.106
▁badges	-12.106
▁moon	-12.1065
▁crawl	-12.1069
tapping	-12.107
▁Assistant	-12.1071
▁armour	-12.1074
▁patterns	-12.1076
▁remained	-12.1076
▁soul	-12.1076
▁Aim	-12.1082
▁invitation	-12.1084
▁analy	-12.1086
usive	-12.1088
▁interactions	-12.1092
▁definition	-12.1099
▁realis	-12.1099
tar	-12.1108
▁ro	-12.1109
oint	-12.111
ested	-12.1115
▁Season	-12.1122
▁yours	-12.1122
acks	-12.1122
▁scr	-12.1125
▁advantages	-12.113
▁listeners	-12.1139
si	-12.114
▁cartoons	-12.114
eart	-12.1142
▁glorif	-12.1145
wood	-12.1154
eteran	-12.1158
▁faulty	-12.116
ealth	-12.1166
radio	-12.1166
▁soundtracks	-12.1174
rcade	-12.1175
▁performing	-12.1175
tin	-12.1181
hings	-12.1192
ich	-12.1203
tweet	-12.1205
rgh	-12.1209
school	-12.1211
▁melt	-12.1218
▁filing	-12.122
▁rang	-12.1221
osing	-12.1221
▁programme	-12.1221
▁generation	-12.1222
▁smartphones	-12.1223
▁instruct	-12.1241
▁nast	-12.1252
▁ski	-12.1255
ustom	-12.1256
confused	-12.1261
ak	-12.1263
▁lift	-12.1266
▁Artist	-12.1276
many	-12.1281
▁fist	-12.1283
▁rings	-12.1283
▁politic	-12.1283
playlist	-12.1285
▁monopol	-12.1286
▁doubletap	-12.1293
▁imp	-12.1293
uide	-12.1295
effective	-12.1308
▁begining	-12.1314
▁swipes	-12.1316
itch	-12.1322
ial	-12.1328
take	-12.1328
▁becua	-12.134
ugged	-12.1343
▁desk	-12.1349
launch	-12.1351
▁drawer	-12.1353
shed	-12.1353
▁pisse	-12.1354
▁compos	-12.1357
woman	-12.1361
ort	-12.1369
Android	-12.1372
term	-12.1377
▁positioning	-12.1379
outh	-12.1381
haven	-12.1393
mode	-12.1395
▁bird	-12.1396
mg	-12.1412
▁arra	-12.1418
ssential	-12.1418
▁trimm	-12.1426
standing	-12.1429
onest	-12.1429
ton	-12.1444
lf	-12.1446
▁authenticat	-12.1452
course	-12.1455
ara	-12.1462
tech	-12.1466
itting	-12.1469
charged	-12.1471
▁exploit	-12.1476
far	-12.1481
▁gender	-12.1483
▁sl	-12.1484
crowded	-12.1495
▁tha	-12.1498
eries	-12.1501
▁noticabl	-12.1505
▁wander	-12.1515
▁wood	-12.1523
▁bumme	-12.1527
▁blox	-12.1528
▁dated	-12.1533
seeking	-12.1533
▁reviewer	-12.1536
▁nick	-12.1549
aw	-12.1552
▁snaps	-12.1555
▁ig	-12.1559
▁goof	-12.1561
file	-12.1564
sleeping	-12.157
ause	-12.157
ossibly	-12.1574
▁Androids	-12.1576
▁expression	-12.1585
▁expands	-12.1587
▁abl	-12.1593
▁Styl	-12.1594
▁shad	-12.1595
iddle	-12.1598
premium	-12.1599
▁cris	-12.162
▁boat	-12.1622
▁specially	-12.1623
▁ripp	-12.1626
▁guides	-12.1637
▁textbook	-12.1642
▁unpair	-12.1645
▁piss	-12.1654
▁visuali	-12.168
▁reloads	-12.1684
So	-12.169
ems	-12.1691
▁fade	-12.1697
his	-12.1699
▁pie	-12.1707
chat	-12.1716
Its	-12.1721
oooo	-12.1723
▁ww	-12.173
▁editable	-12.1731
▁emailing	-12.1733
audio	-12.1735
minded	-12.1736
sparkl	-12.1741
▁sa	-12.1745
clined	-12.1747
verse	-12.1774
▁irl	-12.1777
▁rec	-12.1779
▁men	-12.1782
▁flags	-12.1785
▁stumble	-12.1815
▁fakes	-12.1818
oal	-12.1821
▁ringing	-12.1821
▁leap	-12.1821
▁refunds	-12.1822
▁deactivated	-12.1828
▁gig	-12.1831
vote	-12.1836
els	-12.184
halt	-12.1842
olid	-12.1843
▁messy	-12.1879
▁sur	-12.1905
ended	-12.1907
▁nail	-12.1912
ux	-12.1912
▁rob	-12.1916
continue	-12.1921
▁fires	-12.1925
▁responds	-12.1926
lo	-12.1931
▁cook	-12.1934
nes	-12.1937
▁Sa	-12.1943
▁Through	-12.1947
▁vc	-12.1951
lity	-12.1953
lid	-12.1962
▁payto	-12.1963
ups	-12.1968
▁descen	-12.1973
▁decid	-12.1977
things	-12.1977
▁progresses	-12.1979
▁rep	-12.1987
com	-12.2007
leas	-12.2009
▁nigh	-12.2019
ans	-12.2036
pable	-12.2037
▁ill	-12.2041
friendly	-12.2044
apps	-12.205
ober	-12.206
nline	-12.2068
scription	-12.2074
reaking	-12.2074
band	-12.2075
▁inca	-12.2081
▁printer	-12.2089
▁notices	-12.2091
con	-12.2092
beam	-12.2144
▁lil	-12.2147
▁dial	-12.2157
ants	-12.2175
ambo	-12.2185
learn	-12.2188
▁maker	-12.2188
▁....	-12.2205
want	-12.2213
oop	-12.2214
▁identi	-12.2217
avi	-12.2236
ley	-12.225
eno	-12.2252
humbs	-12.2269
▁led	-12.2278
▁vibra	-12.2279
user	-12.2284
ache	-12.2289
▁scal	-12.2291
rent	-12.2294
▁scar	-12.2307
dmi	-12.2327
Thanks	-12.2331
home	-12.2339
xp	-12.2344
ami	-12.2346
▁facef	-12.2349
illion	-12.2351
▁mbs	-12.2363
▁calibrat	-12.2381
was	-12.2393
▁cares	-12.2403
▁Improve	-12.2412
ni	-12.2415
commercials	-12.2433
▁creat	-12.2441
close	-12.2452
▁reasonabl	-12.2466
▁rearrang	-12.2471
▁expects	-12.2472
ersonal	-12.248
▁conse	-12.2489
lous	-12.2519
▁spir	-12.2527
▁defin	-12.2535
editing	-12.2537
place	-12.2544
ample	-12.2549
ching	-12.2559
ides	-12.2559
▁gamer	-12.2568
▁Special	-12.2571
▁troubles	-12.2579
edited	-12.2593
oid	-12.2599
cloud	-12.2603
bby	-12.2606
▁Thumb	-12.2619
lessly	-12.262
maybe	-12.2634
▁woke	-12.2636
▁Install	-12.266
however	-12.2663
▁invalid	-12.2668
tify	-12.2672
points	-12.2682
▁flood	-12.2693
▁compa	-12.2695
▁integr	-12.2706
losing	-12.2709
onsider	-12.2709
ealing	-12.271
▁string	-12.272
hard	-12.272
anda	-12.2732
uy	-12.2734
stick	-12.2738
▁marginal	-12.2746
ormat	-12.2754
pository	-12.2755
apping	-12.276
hing	-12.2764
▁prev	-12.2766
eath	-12.2781
▁sti	-12.2784
rammer	-12.2786
▁multiplier	-12.2788
unction	-12.2788
roup	-12.279
▁surviv	-12.2791
▁spirit	-12.2791
▁schedul	-12.2792
▁filename	-12.2792
▁Sha	-12.2797
efault	-12.2797
▁chop	-12.2798
▁reput	-12.2799
▁insight	-12.28
▁Subscription	-12.2803
osts	-12.2804
▁hiccup	-12.2805
▁balloon	-12.2805
▁street	-12.2805
▁gre	-12.2806
▁appointment	-12.2807
▁decoration	-12.281
▁chunk	-12.281
▁checkpoint	-12.2814
▁weigh	-12.2819
clapp	-12.282
▁inevitabl	-12.2825
ewind	-12.2832
▁India	-12.2833
▁trailer	-12.2833
overall	-12.2834
▁tense	-12.2834
iscover	-12.2834
sparkles	-12.2839
▁efficien	-12.2841
glow	-12.2841
omplete	-12.2846
▁lit	-12.2851
▁global	-12.2853
▁Serious	-12.2854
▁strict	-12.2854
▁favour	-12.2859
▁tire	-12.286
▁mac	-12.2861
roken	-12.2862
▁confuse	-12.2864
xplore	-12.2865
rl	-12.2865
xclusive	-12.2866
dvertisement	-12.2866
▁approve	-12.2866
xpress	-12.2867
asier	-12.2867
▁discuss	-12.2867
urchased	-12.2867
ular	-12.2867
ifferent	-12.2868
ommunity	-12.2868
aramount	-12.2869
irefox	-12.2869
ekki	-12.287
ortrait	-12.287
card	-12.287
yrics	-12.287
ullscreen	-12.2871
ancelled	-12.2871
▁excess	-12.2871
orrendous	-12.2871
ecommendations	-12.2871
ompared	-12.2872
▁dramatic	-12.2873
▁egg	-12.2873
astonished	-12.2873
pikpok	-12.2873
▁burden	-12.2873
▁criteria	-12.2873
▁devastated	-12.2873
▁earliest	-12.2873
▁economy	-12.2873
▁exhaling	-12.2873
▁illegal	-12.2873
▁insufferable	-12.2873
▁niggle	-12.2873
▁nonsensical	-12.2873
▁nutrition	-12.2873
▁punctuation	-12.2873
▁reluctant	-12.2873
▁ribbon	-12.2873
▁snippet	-12.2873
▁stimulating	-12.2873
▁Immediately	-12.2873
▁trophy	-12.2873
▁dealbreaker	-12.2873
eyboard	-12.2874
▁evidence	-12.2874
fathom	-12.2874
▁illusion	-12.2874
▁vacation	-12.2874
▁Italian	-12.2874
arlson	-12.2874
▁reminisce	-12.2874
▁loudspeaker	-12.2874
▁ocean	-12.2874
▁fluff	-12.2874
▁dissatisfied	-12.2874
▁grainy	-12.2874
▁attitude	-12.2874
▁crucial	-12.2874
▁finicky	-12.2874
▁furnace	-12.2874
▁happiness	-12.2874
igeria	-12.2874
▁gadget	-12.2874
▁trolls	-12.2874
▁nudity	-12.2874
▁ladies	-12.2874
▁neglect	-12.2874
▁barcode	-12.2874
▁unwind	-12.2874
▁innovative	-12.2874
▁national	-12.2874
▁Shooter	-12.2874
▁definite	-12.2874
▁awake	-12.2874
▁greeting	-12.2874
▁detract	-12.2874
▁stylus	-12.2874
▁multimedia	-12.2874
▁vocal	-12.2874
▁relief	-12.2875
▁hahaha	-12.2875
▁excruciating	-12.2875
▁accomplishment	-12.2875
▁artificial	-12.2875
▁hungry	-12.2875
▁robotic	-12.2875
▁cousin	-12.2875
▁traction	-12.2875
▁wedding	-12.2875
once	-12.2875
▁modification	-12.2875
▁glued	-12.2875
▁ashamed	-12.2875
▁spectrum	-12.2875
▁reveal	-12.2876
▁assistant	-12.2876
▁discard	-12.2876
▁snowboard	-12.2876
▁ghost	-12.2876
▁Signal	-12.2876
▁birthday	-12.2876
▁division	-12.2877
▁interference	-12.2877
▁Alright	-12.2877
▁increments	-12.2877
▁alternat	-12.2877
▁hindi	-12.2877
▁suspect	-12.2877
▁fastpaced	-12.2877
▁starstruck	-12.2878
▁succession	-12.2878
▁stepping	-12.2878
▁rewrite	-12.2878
nlimited	-12.2879
▁unmute	-12.2879
▁chanel	-12.2879
▁cooperate	-12.2879
ixelbite	-12.2879
▁slideshow	-12.288
ledge	-12.288
▁safety	-12.288
▁violation	-12.288
▁authority	-12.2881
▁mbps	-12.2881
▁flex	-12.2881
▁incremental	-12.2881
▁advertisment	-12.2881
▁gcash	-12.2882
▁harass	-12.2882
▁alignment	-12.2882
▁adopt	-12.2882
▁lectures	-12.2883
▁exercising	-12.2883
▁cinema	-12.2883
▁interpretation	-12.2884
▁sidebar	-12.2884
ueries	-12.2884
▁lightning	-12.2885
▁heaven	-12.2885
▁domain	-12.2885
▁continent	-12.2885
▁enhancing	-12.2886
▁contemplat	-12.2886
▁Speed	-12.2886
▁swapped	-12.2886
▁popularity	-12.2888
▁heartrate	-12.2888
▁substitute	-12.2889
▁unselected	-12.289
▁echo	-12.289
▁blatant	-12.289
▁belong	-12.2891
▁retro	-12.2892
▁inch	-12.2892
▁despawn	-12.2893
▁distraction	-12.2893
▁downthumbs	-12.2893
▁goddam	-12.2893
▁webpage	-12.2893
▁whitelist	-12.2894
rashed	-12.2894
epub	-12.2895
▁disput	-12.2896
▁innovation	-12.2896
▁Superb	-12.2898
ging	-12.2898
intermediate	-12.2898
▁activating	-12.2898
▁announcement	-12.2899
▁adapter	-12.2899
▁faithful	-12.29
▁disk	-12.29
▁cutters	-12.2901
▁homework	-12.2901
▁crate	-12.2901
▁recharging	-12.2901
▁cheapest	-12.2902
▁tiring	-12.2903
▁rushed	-12.2903
▁busted	-12.2903
▁covid	-12.2904
▁ringer	-12.2904
▁deadline	-12.2905
▁inviting	-12.2906
▁beach	-12.2906
▁aligned	-12.2906
▁photoshop	-12.2906
▁warned	-12.2908
▁publishing	-12.2909
▁measurement	-12.2909
▁routinely	-12.291
▁misspelling	-12.291
▁Suggestion	-12.2911
▁coupons	-12.2912
▁costumer	-12.2914
▁dimonds	-12.2914
▁personality	-12.2916
▁whatnot	-12.2917
▁annotations	-12.2917
▁vanished	-12.2922
ummer	-12.2922
▁meantime	-12.2922
▁captured	-12.2923
▁abandoned	-12.2925
▁blaster	-12.2929
▁divide	-12.293
▁lemurs	-12.293
▁gimmicks	-12.2931
▁oppo	-12.2931
▁abc	-12.2931
aiting	-12.2932
▁pauseplay	-12.2933
▁ru	-12.2933
andomly	-12.2933
eve	-12.2936
▁scoring	-12.2936
▁interview	-12.294
▁consistency	-12.294
▁consumed	-12.294
▁defend	-12.2945
▁pathway	-12.2945
bble	-12.2949
▁avali	-12.2953
▁blinking	-12.2954
▁agreement	-12.2955
▁elon	-12.2955
ucky	-12.2959
▁rippe	-12.2959
ern	-12.2961
vents	-12.2961
Tv	-12.2962
ewer	-12.2962
▁checkmarks	-12.2963
▁underline	-12.2963
▁redesigned	-12.2964
▁predict	-12.2965
▁remakes	-12.2965
▁outlet	-12.2966
▁Artists	-12.2967
▁assured	-12.2967
▁variable	-12.2968
mu	-12.2969
ennyworth	-12.2969
▁charming	-12.2971
ollowing	-12.2971
▁glich	-12.2971
▁advised	-12.2972
▁Subscribe	-12.2974
▁flickers	-12.2977
igit	-12.2978
▁evil	-12.2981
uences	-12.2984
▁filler	-12.2984
ifting	-12.2984
▁verses	-12.2985
ontally	-12.2988
washed	-12.2989
▁Technical	-12.2992
▁mindful	-12.2992
▁advancement	-12.2994
▁thrille	-12.2996
▁Skip	-12.2997
▁variations	-12.2997
▁dive	-12.2998
▁passive	-12.3001
▁Setting	-12.3004
▁blessing	-12.3005
▁updat	-12.3007
▁enhancement	-12.3007
▁flights	-12.301
▁chasing	-12.3011
▁theaters	-12.3012
▁Spaces	-12.3012
▁measures	-12.3014
hecking	-12.3015
▁fetch	-12.3019
writing	-12.302
▁Server	-12.3021
▁trends	-12.3022
▁Sim	-12.3023
ives	-12.3024
▁workarounds	-12.3027
mount	-12.3029
▁apk	-12.3029
▁mild	-12.303
▁Step	-12.303
▁unintentional	-12.3034
▁impair	-12.3035
estarted	-12.3036
▁synching	-12.3038
▁converting	-12.304
▁brilliantly	-12.3041
got	-12.3041
▁strangely	-12.3042
▁converter	-12.3043
▁mob	-12.3048
▁suffering	-12.3048
videos	-12.3049
▁corrections	-12.3055
▁smallest	-12.3059
kan	-12.3059
▁parsing	-12.306
ptions	-12.3061
eedless	-12.3065
▁warp	-12.3065
tleast	-12.307
information	-12.3081
▁stressed	-12.3082
▁reappearing	-12.3085
correct	-12.3085
▁yall	-12.3088
minent	-12.3092
▁perspectives	-12.3093
▁satisfactory	-12.3095
▁Soo	-12.3096
met	-12.3097
▁nude	-12.3101
▁rhy	-12.3101
▁flushed	-12.3103
▁pinning	-12.3106
▁belief	-12.3108
olor	-12.3114
orces	-12.3116
without	-12.3119
▁uncheck	-12.3121
▁property	-12.3125
ection	-12.3129
▁repairing	-12.3131
except	-12.3132
▁charger	-12.3133
hanges	-12.3133
▁evolution	-12.3135
tting	-12.3136
▁controler	-12.3136
uip	-12.3137
▁clears	-12.3137
lipping	-12.3142
▁greatness	-12.3144
referred	-12.3145
▁informations	-12.3146
▁compromised	-12.3146
▁unen	-12.3149
▁pity	-12.3151
nsored	-12.3152
▁walked	-12.3155
inner	-12.3156
ga	-12.316
▁void	-12.3167
ownloading	-12.3167
▁conditions	-12.3168
▁livescore	-12.3172
▁hammer	-12.3176
▁renovat	-12.3181
▁dice	-12.3184
undan	-12.3185
▁scienti	-12.3185
browser	-12.3185
▁Alas	-12.3188
arshall	-12.3192
arlie	-12.3193
days	-12.3198
enty	-12.3198
cc	-12.3199
ines	-12.3201
fro	-12.3205
▁targeting	-12.3207
▁failures	-12.3209
▁camp	-12.3218
▁width	-12.3221
▁avoided	-12.3225
anted	-12.3227
▁america	-12.3245
alt	-12.3247
▁twin	-12.3251
▁determined	-12.3251
rrent	-12.3251
▁resync	-12.3251
▁refer	-12.3253
hit	-12.3254
ocks	-12.3255
▁stole	-12.3257
▁tube	-12.3258
▁plead	-12.326
▁boosting	-12.3263
loading	-12.3266
▁burner	-12.3268
ways	-12.3269
▁ratios	-12.3271
aske	-12.3274
inus	-12.3286
▁callers	-12.3291
▁insu	-12.3293
▁Adobes	-12.3294
link	-12.3295
▁landed	-12.3295
ude	-12.3297
lc	-12.3302
▁spammer	-12.3316
▁playability	-12.3323
▁wheels	-12.3325
▁yard	-12.3325
send	-12.3326
▁shout	-12.3329
wn	-12.3334
▁agenc	-12.334
ysteri	-12.3342
▁won	-12.3342
▁handsc	-12.3344
oked	-12.335
ecame	-12.335
▁controll	-12.3356
▁bounds	-12.3359
eave	-12.3366
watching	-12.3366
pecially	-12.3368
▁cookie	-12.337
photo	-12.337
▁await	-12.338
▁meal	-12.3392
controls	-12.3395
▁gum	-12.3397
▁sword	-12.3399
itive	-12.3401
block	-12.3416
social	-12.3416
thanks	-12.3431
subscription	-12.3436
pe	-12.3436
▁lab	-12.3449
▁kit	-12.3455
▁Sincere	-12.3457
▁gro	-12.3458
▁bike	-12.3458
▁Insta	-12.346
ouble	-12.3467
emo	-12.3476
▁goodies	-12.3479
games	-12.3483
unning	-12.3488
▁pool	-12.3501
rish	-12.3504
▁numeric	-12.3507
▁its	-12.3507
▁Scan	-12.3511
motion	-12.3516
▁eight	-12.3526
lse	-12.3526
▁Schedule	-12.3533
▁developments	-12.3547
▁bottle	-12.3554
▁restores	-12.3562
▁mus	-12.3567
aged	-12.3581
town	-12.3582
▁sheets	-12.3591
▁notifi	-12.3593
▁grabs	-12.3594
▁tear	-12.3598
▁gifter	-12.3603
▁poop	-12.3604
▁capitali	-12.361
▁brands	-12.3611
▁scams	-12.3613
▁robu	-12.3615
cifi	-12.3618
resolution	-12.3618
▁intel	-12.3629
groups	-12.3632
▁timings	-12.3633
▁reboots	-12.3635
▁tactic	-12.3643
▁.....	-12.3647
built	-12.3658
natural	-12.3661
itter	-12.3671
▁resting	-12.3673
flip	-12.3676
▁essentials	-12.3683
▁allot	-12.3683
▁crackl	-12.3684
▁bounc	-12.3692
login	-12.3696
▁violate	-12.3697
▁paths	-12.37
table	-12.3702
▁lover	-12.3702
▁warnings	-12.3705
▁pok	-12.3712
ods	-12.3718
▁Shar	-12.3726
▁signals	-12.3737
ram	-12.374
▁respective	-12.3743
▁fore	-12.3753
something	-12.3759
lace	-12.3763
who	-12.3766
▁surpass	-12.3766
▁faults	-12.3772
▁forest	-12.3776
max	-12.3781
score	-12.3783
iven	-12.3785
▁va	-12.3788
▁pane	-12.379
▁reenable	-12.3808
script	-12.3815
▁activ	-12.382
▁simulat	-12.3821
▁convinc	-12.3828
mentioned	-12.3836
▁frustrations	-12.384
ustif	-12.3843
▁serving	-12.3845
your	-12.385
static	-12.3855
craft	-12.3856
▁panic	-12.3858
▁agrees	-12.3859
tired	-12.3862
▁mixer	-12.3864
mark	-12.3864
microtransaction	-12.388
ored	-12.3887
▁sacrific	-12.3891
shows	-12.3892
▁ki	-12.3897
▁shoes	-12.3908
growing	-12.3917
rising	-12.392
▁trapp	-12.3926
▁du	-12.393
factor	-12.3932
▁sparkles	-12.3936
▁impli	-12.3936
eems	-12.394
obtrusive	-12.3948
▁reedit	-12.3949
ords	-12.3955
hole	-12.3957
weight	-12.3959
levels	-12.3964
ud	-12.3974
ounding	-12.3976
bo	-12.3978
run	-12.3983
▁simul	-12.3985
▁facec	-12.3985
lows	-12.3986
dy	-12.3988
▁pointer	-12.4001
▁nav	-12.4007
hang	-12.4026
open	-12.4029
▁dedicat	-12.4035
fic	-12.4038
▁waaa	-12.404
▁blo	-12.4045
▁soc	-12.4051
ooo	-12.4082
avoidable	-12.4084
▁Share	-12.4084
▁dish	-12.4087
longer	-12.4089
▁practic	-12.4102
▁acces	-12.4106
▁bla	-12.4108
label	-12.4119
tandard	-12.4136
▁conversational	-12.4139
▁sole	-12.4149
▁allott	-12.4152
▁bing	-12.4153
ves	-12.4156
metimes	-12.4158
▁trace	-12.4161
mes	-12.4202
▁interfaces	-12.4208
ross	-12.4231
▁touchy	-12.4232
▁ni	-12.4236
▁gross	-12.4237
ric	-12.424
▁kn	-12.428
born	-12.4283
▁hav	-12.4291
storm	-12.4316
nintuitive	-12.4353
anks	-12.4357
matic	-12.4372
▁recreat	-12.4374
always	-12.4378
nity	-12.4425
test	-12.4445
amn	-12.4449
▁Article	-12.4463
▁blacked	-12.4469
▁worrie	-12.4474
support	-12.4484
inel	-12.4491
▁abs	-12.4508
movies	-12.4509
select	-12.451
▁grip	-12.4513
fy	-12.4517
▁hv	-12.4538
rings	-12.4558
▁hol	-12.4567
settings	-12.4576
tures	-12.4587
ask	-12.4591
▁fon	-12.4596
ati	-12.4612
▁sincere	-12.4616
▁inclusi	-12.462
iling	-12.4628
ancy	-12.4629
oys	-12.463
ishing	-12.4651
atsapp	-12.467
ams	-12.4678
different	-12.4683
sibility	-12.4693
▁hap	-12.4696
▁Increase	-12.4718
buy	-12.472
hi	-12.4723
▁exept	-12.4724
▁purchas	-12.4733
grade	-12.4734
▁wink	-12.4737
▁Automatic	-12.4742
▁door	-12.4746
service	-12.4761
▁reproduce	-12.4762
min	-12.4763
simple	-12.4786
makers	-12.4786
...........	-12.479
▁definetl	-12.4791
▁renam	-12.4796
rong	-12.4799
perfect	-12.4806
▁chees	-12.4807
▁Streamer	-12.4824
left	-12.4824
year	-12.4826
▁lak	-12.4832
night	-12.4832
pening	-12.4859
▁era	-12.4862
wing	-12.4871
citing	-12.4872
uery	-12.4872
anvas	-12.4879
▁keeper	-12.491
rain	-12.4913
▁merg	-12.492
ashing	-12.4924
gg	-12.495
ourse	-12.4973
▁logins	-12.4979
▁neut	-12.4983
viously	-12.4996
▁midwa	-12.4998
▁exports	-12.5007
rashing	-12.5008
system	-12.501
save	-12.5017
▁fork	-12.5018
rains	-12.5025
dies	-12.5027
▁licens	-12.5036
▁carrie	-12.504
ght	-12.5046
playlists	-12.5052
▁Age	-12.5059
worked	-12.5082
mov	-12.5086
rty	-12.5111
▁hd	-12.5112
onnection	-12.5114
▁doable	-12.5115
raft	-12.5118
reset	-12.5124
urned	-12.5136
▁ev	-12.5154
pop	-12.517
▁chopp	-12.5172
arn	-12.5176
ouTuber	-12.5177
▁embed	-12.5179
orm	-12.5197
sy	-12.52
arning	-12.521
ys	-12.5226
▁twe	-12.5229
ined	-12.5241
ender	-12.5245
respective	-12.5246
mobile	-12.5247
uff	-12.5251
mind	-12.5254
▁magnif	-12.5258
▁para	-12.5259
▁darken	-12.5261
ocus	-12.5269
▁spark	-12.5272
unless	-12.5275
▁distort	-12.5277
dictive	-12.5283
hance	-12.5287
▁urge	-12.5288
▁tycoon	-12.5288
▁embarrass	-12.5289
▁grafi	-12.5291
▁selfie	-12.5293
▁influence	-12.5293
isplay	-12.5294
▁exclud	-12.5295
odcast	-12.5296
▁unistall	-12.5296
scroll	-12.5297
▁organisation	-12.5297
▁gimmick	-12.5301
▁lemur	-12.5301
▁disp	-12.5301
▁mountain	-12.5303
▁renovation	-12.5304
▁subfolder	-12.5305
▁condition	-12.5305
▁monster	-12.5306
▁wishes	-12.5307
▁lyric	-12.5307
ographic	-12.5307
page	-12.531
paying	-12.5311
ively	-12.5314
▁culture	-12.5317
ollow	-12.5318
pecifically	-12.532
▁powerup	-12.5324
▁dislik	-12.5328
rand	-12.533
xport	-12.5336
▁photograph	-12.5336
icted	-12.5338
same	-12.5339
▁pen	-12.5344
rit	-12.5345
▁Sigh	-12.5345
xciting	-12.5347
▁tremendous	-12.5352
▁rapid	-12.5353
▁Image	-12.5359
▁throttle	-12.536
▁interpret	-12.536
raw	-12.536
world	-12.5362
▁continual	-12.5362
▁complicate	-12.5364
veryday	-12.5364
inished	-12.5365
rogress	-12.5365
ongrat	-12.5365
magine	-12.5365
ractice	-12.5366
urchasing	-12.5367
laystation	-12.5367
ousician	-12.5368
ossible	-12.5368
rivacy	-12.5368
riendly	-12.5368
laystore	-12.5369
bnoxious	-12.5369
inimal	-12.537
evaluate	-12.537
ubbish	-12.537
efund	-12.5371
andscape	-12.5371
orgeous	-12.5372
rackle	-12.5372
▁scree	-12.5372
serfriendly	-12.5373
▁Irritating	-12.5373
▁obstruct	-12.5373
angladesh	-12.5373
oodlecake	-12.5373
uadruple	-12.5373
▁Similar	-12.5373
▁Simpsons	-12.5373
▁Tycoon	-12.5373
▁aggravation	-12.5373
▁anniversar	-12.5373
▁arripay	-12.5373
▁assortment	-12.5373
▁blockbuster	-12.5373
▁captcha	-12.5373
▁cosmetic	-12.5373
▁detriment	-12.5373
▁elaborate	-12.5373
▁emphasis	-12.5373
▁franchise	-12.5373
▁inadvertently	-12.5373
▁invaluable	-12.5373
▁luxury	-12.5373
▁mindblowing	-12.5373
▁narrative	-12.5373
▁narrator	-12.5373
▁oblivious	-12.5373
▁protagonist	-12.5373
▁restaurant	-12.5373
▁summari	-12.5373
▁tangible	-12.5373
▁transparency	-12.5373
▁treadmill	-12.5373
▁wallpaper	-12.5373
▁Tutorial	-12.5373
▁nuances	-12.5373
▁rectified	-12.5373
▁cowboy	-12.5373
▁enthrall	-12.5373
▁identification	-12.5373
▁perpetual	-12.5373
▁exhibit	-12.5374
▁disregard	-12.5374
▁fierce	-12.5374
▁religious	-12.5374
▁underwater	-12.5374
▁breathtaking	-12.5374
▁hiatus	-12.5374
▁onthego	-12.5374
▁bpm	-12.5374
▁epilep	-12.5374
▁gravity	-12.5374
▁cutscene	-12.5374
▁Alexa	-12.5374
▁flaky	-12.5374
▁exaggeration	-12.5374
▁daimond	-12.5374
▁gumball	-12.5374
▁harmless	-12.5374
▁enchant	-12.5374
▁expansive	-12.5374
▁stagger	-12.5374
▁Shadow	-12.5374
▁entrance	-12.5374
▁coincidence	-12.5374
▁chaotic	-12.5374
▁obsolete	-12.5374
▁inundate	-12.5374
▁rifle	-12.5374
▁concentration	-12.5374
▁parrot	-12.5374
▁permitted	-12.5374
▁circum	-12.5374
▁discern	-12.5374
▁dreadful	-12.5374
▁enticing	-12.5374
▁nevertheless	-12.5374
▁crouch	-12.5374
▁explosion	-12.5374
▁knockoff	-12.5374
▁Title	-12.5374
▁freinds	-12.5374
▁fluency	-12.5374
▁triangle	-12.5374
▁rigid	-12.5374
▁upnp	-12.5374
iacom	-12.5374
▁censorship	-12.5374
▁plural	-12.5374
▁defective	-12.5374
▁rogue	-12.5374
▁barrier	-12.5374
▁bogus	-12.5374
▁propaganda	-12.5374
▁singular	-12.5374
▁fingerprint	-12.5375
▁eager	-12.5375
▁appreciation	-12.5375
▁spinner	-12.5375
▁trivia	-12.5375
▁intolerable	-12.5375
▁mindfulness	-12.5375
▁vault	-12.5375
▁dumpster	-12.5375
essaging	-12.5375
▁vicious	-12.5375
▁repetative	-12.5375
proxim	-12.5375
▁yield	-12.5375
iewers	-12.5375
▁bedroom	-12.5375
▁malicious	-12.5376
▁motorsport	-12.5376
▁deceptive	-12.5376
▁unskipable	-12.5376
▁specify	-12.5376
▁silhouette	-12.5376
▁ordeal	-12.5376
▁bootleg	-12.5377
▁midnight	-12.5377
nknown	-12.5377
▁turtle	-12.5377
▁Strange	-12.5377
▁inception	-12.5377
▁swarm	-12.5377
▁remedie	-12.5377
▁cramped	-12.5377
▁standby	-12.5377
▁champ	-12.5377
appened	-12.5378
▁continuity	-12.5378
▁violent	-12.5378
▁glitchiness	-12.5378
imited	-12.5378
▁kmh	-12.5378
▁daytoday	-12.5378
▁uncontrollably	-12.5379
lowkey	-12.5379
omics	-12.5379
▁madness	-12.5379
▁lonely	-12.5379
▁moderator	-12.5379
▁paytoplay	-12.5379
▁deceiving	-12.5379
▁peeve	-12.5379
▁personalities	-12.5379
▁vod	-12.538
▁hotel	-12.538
▁unreal	-12.538
epeatedly	-12.538
errari	-12.5381
▁replayability	-12.5381
▁disheartening	-12.5381
▁perfectionist	-12.5381
▁operator	-12.5381
ravo	-12.5381
▁motivational	-12.5381
eedback	-12.5381
▁notebook	-12.5382
▁statues	-12.5382
▁horrific	-12.5382
▁serial	-12.5382
▁whack	-12.5382
▁Snapseed	-12.5382
▁skimp	-12.5382
▁adorable	-12.5382
ownside	-12.5382
▁growth	-12.5383
▁emergenc	-12.5383
▁reposition	-12.5383
▁infact	-12.5383
▁tonethumbs	-12.5383
ohn	-12.5384
▁catagor	-12.5384
▁settled	-12.5385
▁clash	-12.5385
▁participants	-12.5386
ighlights	-12.5386
▁scope	-12.5386
▁baseline	-12.5386
▁hobbies	-12.5386
▁celebrat	-12.5386
▁hideous	-12.5387
▁homescapes	-12.5387
pgraded	-12.5387
▁smartwatch	-12.5387
kraine	-12.5387
▁scarf	-12.5388
▁horse	-12.5388
ayment	-12.5388
▁honor	-12.5388
ordinary	-12.5389
arshals	-12.5389
acity	-12.5391
ressing	-12.5392
▁bearable	-12.5392
▁decreasing	-12.5393
eliable	-12.5393
ongtime	-12.5394
▁handthumbs	-12.5396
▁adverti	-12.5396
▁disorienting	-12.5397
▁playstation	-12.5397
▁pirating	-12.5397
▁gigabyte	-12.5397
nconsistent	-12.5399
▁portray	-12.5399
▁subbed	-12.54
ouple	-12.5401
▁diminish	-12.5401
▁scammed	-12.5402
lub	-12.5402
ollowed	-12.5403
▁drill	-12.5403
▁alphabeti	-12.5403
▁limitless	-12.5403
▁imperfect	-12.5405
▁acknowledged	-12.5405
▁Addons	-12.5405
▁translator	-12.5405
▁outdoors	-12.5406
▁beggining	-12.5406
▁assignments	-12.5407
▁advertisers	-12.5407
▁vanishes	-12.5408
ayout	-12.541
▁deci	-12.541
▁height	-12.541
▁newbies	-12.541
▁medal	-12.5411
▁settle	-12.5412
▁vain	-12.5412
▁spoilers	-12.5412
see	-12.5415
▁faded	-12.5416
▁tabletop	-12.5417
▁convey	-12.542
istory	-12.5421
tor	-12.5421
▁dismissed	-12.5422
▁slowness	-12.5423
▁concerts	-12.5424
▁incorporated	-12.5425
▁remake	-12.5426
ndeed	-12.5427
▁chip	-12.5427
▁Tweets	-12.5427
▁Ta	-12.5428
▁keywords	-12.5428
▁perk	-12.5428
▁pun	-12.5429
▁statements	-12.5429
track	-12.5429
▁unistalling	-12.543
▁reflow	-12.543
▁crime	-12.5433
▁bounced	-12.5435
esume	-12.5436
▁admi	-12.5436
▁Sav	-12.5437
mps	-12.5438
▁appreciat	-12.5439
▁approaches	-12.544
estimate	-12.544
▁fluently	-12.544
▁badass	-12.544
▁enthusiasts	-12.544
▁videoaudio	-12.5441
lexic	-12.5444
▁eyesight	-12.5444
▁shocking	-12.5446
einstall	-12.5446
▁gigab	-12.545
▁restoration	-12.545
▁lv	-12.5451
▁halo	-12.5452
▁bridges	-12.5453
▁sooooo	-12.5454
▁cultures	-12.5454
▁downtime	-12.5456
▁desynced	-12.5457
▁initiate	-12.5457
▁Thankyou	-12.5457
nskippable	-12.5458
▁biome	-12.5459
▁intent	-12.5461
▁loooo	-12.5463
proved	-12.5464
▁recast	-12.5464
▁silently	-12.5465
▁tenses	-12.5465
▁suffice	-12.5466
▁independently	-12.5466
▁Subscriptions	-12.5469
▁freeware	-12.547
▁represented	-12.547
▁chains	-12.5471
emoved	-12.5472
▁endure	-12.5475
▁wound	-12.5477
▁beco	-12.5479
kill	-12.5481
▁cringe	-12.5483
▁inout	-12.5487
▁plague	-12.5487
▁accompany	-12.5488
▁promotions	-12.5488
▁consumers	-12.549
▁afore	-12.5492
▁brighten	-12.5492
▁exhausting	-12.5494
▁sadden	-12.5494
building	-12.5494
iewing	-12.5495
▁webm	-12.5499
▁mistaken	-12.5502
▁discre	-12.5504
▁snake	-12.5505
▁bore	-12.5508
▁recaps	-12.5511
orror	-12.5513
cool	-12.5513
▁mash	-12.5513
▁payouts	-12.5514
auses	-12.5515
aint	-12.5515
tter	-12.5516
▁launcher	-12.5517
▁facethumbs	-12.5517
▁science	-12.5519
▁STAT	-12.5521
eeling	-12.5521
▁guidebook	-12.5521
▁spell	-12.5521
▁stabili	-12.5522
late	-12.5524
▁wings	-12.5524
▁restricts	-12.5525
▁symp	-12.5527
rift	-12.5528
heel	-12.5529
▁belt	-12.5529
proves	-12.5532
▁bog	-12.5538
▁tournaments	-12.5538
hristi	-12.554
▁whatapp	-12.5542
▁hunting	-12.5543
▁oct	-12.5545
▁losses	-12.5546
▁spi	-12.5549
business	-12.555
onus	-12.5554
wear	-12.5558
▁Tues	-12.5567
▁motive	-12.5571
▁shifted	-12.5572
▁resolv	-12.5575
▁recorder	-12.5575
ility	-12.5576
▁companions	-12.5577
compensate	-12.5579
▁chilling	-12.558
▁individuali	-12.5582
scape	-12.5583
▁outcomes	-12.5583
▁downward	-12.5586
▁expressed	-12.5588
▁captures	-12.5592
ocs	-12.5592
uying	-12.5596
▁operations	-12.56
▁bon	-12.5601
users	-12.5607
▁frontend	-12.5607
▁paywalled	-12.5607
▁Short	-12.5611
ointless	-12.5611
▁supporters	-12.5612
▁chime	-12.5612
pin	-12.5618
lost	-12.5619
selected	-12.562
▁Attempt	-12.562
▁amateurs	-12.562
▁yell	-12.5621
▁vibrations	-12.5621
raphic	-12.5623
ult	-12.5627
▁weekends	-12.5628
▁enthusiast	-12.5632
▁winnable	-12.5633
▁reccomended	-12.5635
▁dum	-12.5635
unny	-12.5636
▁lens	-12.5638
treaming	-12.564
▁Tr	-12.564
bot	-12.5641
owns	-12.5641
▁clarif	-12.5649
▁Than	-12.5652
▁debate	-12.5652
▁texted	-12.5655
▁resemble	-12.5657
▁conscious	-12.5659
rated	-12.566
▁inboxes	-12.566
▁disapoint	-12.5661
▁handled	-12.5664
▁spawning	-12.5672
ovid	-12.5672
▁boast	-12.5675
▁State	-12.5679
▁pencil	-12.568
▁garbled	-12.5681
▁dishonest	-12.5682
▁bumping	-12.5687
notification	-12.5693
▁ambien	-12.5697
▁lengthen	-12.5699
▁interm	-12.5702
▁censored	-12.5708
▁Town	-12.5709
▁shock	-12.5711
▁backround	-12.5713
▁Skin	-12.5715
▁drawings	-12.5717
▁preserv	-12.5718
▁appropriately	-12.5722
▁Set	-12.5726
▁onestar	-12.5734
thriller	-12.5734
▁Americas	-12.5743
▁notifs	-12.5745
etflixs	-12.5756
▁emotional	-12.5756
▁fullest	-12.5759
▁armors	-12.5762
burg	-12.5763
▁tether	-12.5769
oops	-12.577
▁mouthf	-12.5772
cific	-12.5773
▁combinations	-12.5773
▁eve	-12.5773
upload	-12.5779
ustrating	-12.5782
▁serv	-12.5783
▁shifting	-12.5786
ka	-12.5789
▁doom	-12.5792
▁pockets	-12.5794
arms	-12.5794
▁necessit	-12.5806
▁dumps	-12.5806
▁kindle	-12.581
▁redecorate	-12.5811
▁machines	-12.5816
▁dry	-12.5816
has	-12.582
▁minut	-12.5822
caution	-12.5827
▁bogg	-12.5832
does	-12.5832
▁blog	-12.5836
▁migrate	-12.5839
▁courte	-12.5841
innish	-12.5841
self	-12.5841
▁relearn	-12.5843
▁swapp	-12.5844
▁hu	-12.5851
▁sen	-12.5852
▁pac	-12.5853
▁fiction	-12.5854
mistakenly	-12.5854
form	-12.5855
▁esignature	-12.5859
▁abd	-12.5861
▁hills	-12.5865
tarstarstarstar	-12.587
▁scare	-12.5876
▁shi	-12.588
▁sucker	-12.5883
asted	-12.5889
ntensity	-12.5895
cise	-12.5895
▁deaths	-12.5896
▁ag	-12.5898
rushing	-12.5899
▁discourage	-12.5901
nn	-12.5912
▁prop	-12.5913
▁ai	-12.5917
▁refin	-12.5927
ural	-12.593
hall	-12.5932
▁occuring	-12.594
mance	-12.5941
iring	-12.5959
▁remodel	-12.5959
ised	-12.596
ents	-12.5961
▁murder	-12.5966
▁wen	-12.5969
▁scamm	-12.5984
▁unlockable	-12.5988
▁coff	-12.599
▁musicpodcast	-12.599
▁chromecasting	-12.5999
▁triggering	-12.6003
▁shorten	-12.6004
remember	-12.6007
▁sea	-12.6015
▁flower	-12.6018
▁beac	-12.6019
▁othe	-12.603
ocate	-12.6031
switch	-12.6035
▁buffered	-12.6044
▁yt	-12.605
▁flavo	-12.6057
▁bridge	-12.6057
▁branding	-12.606
▁poster	-12.6076
pposed	-12.608
sible	-12.6081
▁edges	-12.6088
asp	-12.6096
▁typical	-12.6098
yber	-12.6099
tty	-12.6119
fer	-12.6121
▁addressing	-12.6122
▁snail	-12.6128
fixed	-12.6136
▁easi	-12.6137
▁Somethi	-12.6143
resume	-12.6144
image	-12.6144
▁evolving	-12.615
peg	-12.6151
oking	-12.6169
ters	-12.617
▁scapes	-12.6172
option	-12.6176
version	-12.6183
scrolling	-12.6186
mium	-12.619
kers	-12.6192
▁cared	-12.6193
ib	-12.6194
▁varie	-12.6195
▁Tok	-12.6206
hip	-12.6215
ress	-12.6218
through	-12.6226
account	-12.6227
reply	-12.6232
ab	-12.6233
lingo	-12.6234
odes	-12.6247
▁reconnects	-12.6255
middle	-12.6261
ube	-12.6261
panish	-12.6263
xy	-12.6267
▁vibrat	-12.6272
icely	-12.6272
▁cached	-12.6273
als	-12.6274
awful	-12.6291
▁snoo	-12.6293
▁beep	-12.6304
album	-12.6307
wsome	-12.6307
ipping	-12.631
▁blocky	-12.6312
gen	-12.6316
eg	-12.6319
▁enlarg	-12.6321
river	-12.6322
topped	-12.6342
lin	-12.6343
dia	-12.6348
▁bull	-12.635
App	-12.635
▁caches	-12.6359
▁fx	-12.636
feed	-12.6362
eck	-12.6365
▁wil	-12.6365
▁aud	-12.637
arity	-12.6371
password	-12.6373
▁kin	-12.6376
ading	-12.6381
need	-12.6393
fed	-12.6393
der	-12.6395
▁nut	-12.6406
cky	-12.641
▁awfully	-12.641
tap	-12.6412
icing	-12.6418
▁helper	-12.6421
▁tops	-12.6426
▁resent	-12.6428
similar	-12.6429
button	-12.6431
airing	-12.6432
▁ser	-12.6433
ubbed	-12.6445
▁interupt	-12.6447
▁int	-12.645
ti	-12.6456
evis	-12.6457
▁Sho	-12.6457
▁schooler	-12.6462
friends	-12.6472
aha	-12.6486
▁unreleas	-12.649
▁Addict	-12.6495
solved	-12.6495
▁kb	-12.6501
▁Troubleshoot	-12.6501
▁Spend	-12.6503
▁ra	-12.651
song	-12.6515
whatsapp	-12.6518
ires	-12.6519
laptop	-12.6527
▁populate	-12.6529
ealistic	-12.6534
▁obligat	-12.6535
life	-12.654
▁sat	-12.6543
▁shall	-12.6546
oof	-12.6554
▁spr	-12.6554
▁speaks	-12.6563
oll	-12.657
software	-12.657
lle	-12.6576
played	-12.6578
▁peak	-12.6586
urns	-12.6595
shoot	-12.6595
nds	-12.66
found	-12.6604
▁lengths	-12.6604
atively	-12.6607
▁terminate	-12.6608
along	-12.6618
cto	-12.6623
pher	-12.6625
unt	-12.6632
trying	-12.6635
nothing	-12.664
▁scroller	-12.664
float	-12.6643
years	-12.6644
▁crunch	-12.665
glitch	-12.6655
▁backspac	-12.6658
reating	-12.6661
▁bases	-12.6663
dly	-12.6663
▁storm	-12.667
▁punishe	-12.6676
comic	-12.6677
▁publish	-12.6683
mon	-12.6691
recogni	-12.6693
▁breach	-12.6695
eel	-12.6699
▁desp	-12.6701
egas	-12.6704
complicated	-12.6705
▁pirat	-12.6706
ingers	-12.6723
checked	-12.6725
otherwise	-12.6732
▁countrys	-12.6734
▁wr	-12.6738
▁mere	-12.6749
▁splitt	-12.6756
▁fave	-12.6762
arily	-12.6781
copy	-12.679
umpy	-12.6794
▁Includ	-12.6795
▁preform	-12.6796
▁vita	-12.6799
uh	-12.6799
wav	-12.6807
erous	-12.6811
▁hint	-12.6813
people	-12.682
mil	-12.6825
▁schools	-12.6832
▁cus	-12.6836
▁y	-12.6839
▁reselect	-12.684
tarted	-12.6844
▁comple	-12.6845
iber	-12.6846
ale	-12.6847
pro	-12.6854
▁applau	-12.6861
ran	-12.6866
vr	-12.6867
ians	-12.6868
▁stretche	-12.6871
cking	-12.6872
▁Say	-12.6873
▁becu	-12.6875
av	-12.6876
▁observ	-12.6876
race	-12.688
though	-12.6882
consuming	-12.6894
eek	-12.6895
▁lap	-12.6897
▁reinforce	-12.6899
reate	-12.6901
lr	-12.6902
▁shear	-12.6907
▁compell	-12.6911
sports	-12.6914
▁father	-12.6915
arts	-12.6915
▁grin	-12.6921
loved	-12.6922
ited	-12.6927
uts	-12.6928
suggestion	-12.6928
acked	-12.6931
ont	-12.6935
▁pat	-12.6937
▁Till	-12.6937
▁cont	-12.6958
much	-12.6962
▁tim	-12.6968
from	-12.6978
▁fp	-12.698
▁against	-12.6987
lying	-12.6988
iss	-12.6992
ory	-12.6999
lights	-12.7004
horoughly	-12.701
Time	-12.7011
▁suite	-12.7014
next	-12.7021
developed	-12.7028
▁watcher	-12.7032
trigger	-12.7035
▁av	-12.7041
instead	-12.7045
▁bust	-12.7048
▁replicat	-12.7055
charge	-12.7057
▁happend	-12.7065
versa	-12.7071
ovels	-12.7071
ins	-12.7076
▁Asia	-12.7077
inal	-12.7078
▁tri	-12.7079
abulous	-12.7081
▁clickable	-12.7082
▁tre	-12.7083
anage	-12.71
▁Swip	-12.7101
Score	-12.7113
photography	-12.7116
directory	-12.7119
road	-12.7126
source	-12.7129
▁cha	-12.7133
▁wonders	-12.7144
pping	-12.7148
cell	-12.7154
takes	-12.7154
▁sandbo	-12.7154
lives	-12.7155
musical	-12.7155
▁noticeabl	-12.7163
ime	-12.7166
position	-12.7167
players	-12.7168
subscriptions	-12.7172
index	-12.7179
ulation	-12.719
proof	-12.7194
talk	-12.7196
▁Improvement	-12.7196
ared	-12.7201
Store	-12.7203
▁accessable	-12.7207
fade	-12.7208
ophi	-12.7213
come	-12.7214
ently	-12.7217
opportun	-12.7221
menus	-12.7221
arry	-12.723
▁refresher	-12.7239
etti	-12.7242
mportant	-12.7242
wasting	-12.725
nauseat	-12.726
kick	-12.7264
stairs	-12.7283
populate	-12.7298
▁surpasse	-12.7299
sensitive	-12.7316
▁Ten	-12.7317
▁collaps	-12.7317
ining	-12.7327
▁changer	-12.7334
▁aired	-12.7337
iversity	-12.7346
portion	-12.7351
ured	-12.7355
documentaries	-12.7358
cause	-12.7369
▁Tool	-12.7372
▁chal	-12.7373
▁whi	-12.7383
indi	-12.7391
▁dp	-12.7392
▁escalat	-12.7412
nned	-12.7413
site	-12.7421
har	-12.7423
logging	-12.7423
claim	-12.7432
host	-12.7432
▁resett	-12.7437
▁unsu	-12.7438
▁sol	-12.7439
▁remap	-12.7451
search	-12.7457
ota	-12.7462
issues	-12.7467
holes	-12.747
ili	-12.7473
In	-12.7478
▁halt	-12.7486
input	-12.7488
▁wire	-12.7489
▁diet	-12.7501
ella	-12.7502
obby	-12.7514
▁deter	-12.752
▁functioned	-12.7522
▁calculat	-12.7523
seful	-12.753
mulator	-12.7532
▁conserve	-12.7538
agging	-12.7545
ten	-12.7559
eeper	-12.7559
▁pains	-12.7563
sm	-12.7565
making	-12.7568
▁rub	-12.7576
hem	-12.7583
▁Import	-12.7596
purp	-12.7597
scam	-12.7597
▁revise	-12.7609
mel	-12.7612
▁prove	-12.7616
mies	-12.762
▁blacks	-12.7625
▁terminat	-12.7639
rook	-12.764
restore	-12.7644
▁dia	-12.766
▁patr	-12.7663
nytime	-12.7663
important	-12.7681
grin	-12.7693
▁ther	-12.7694
nded	-12.7697
arth	-12.7697
▁rear	-12.771
▁infr	-12.7717
▁facep	-12.7718
ploy	-12.7724
crashes	-12.7725
nks	-12.7731
series	-12.7733
porting	-12.7737
▁fixable	-12.774
▁mov	-12.7741
tes	-12.7744
▁retriev	-12.7746
▁imply	-12.7776
adly	-12.7777
aring	-12.7781
▁musicvideo	-12.7784
oftware	-12.7786
endors	-12.7798
bu	-12.7804
ogging	-12.7807
▁exaggerate	-12.7813
wink	-12.7819
verage	-12.7819
ravi	-12.7829
▁wrongly	-12.7829
heap	-12.7843
▁storys	-12.7844
photos	-12.7854
▁ref	-12.7855
ov	-12.7865
ania	-12.7865
delete	-12.7874
ough	-12.7875
inf	-12.7886
▁simula	-12.7894
ph	-12.79
eak	-12.7901
▁comm	-12.7901
..............	-12.7918
body	-12.792
▁doubl	-12.7935
ourth	-12.7935
rack	-12.7941
ced	-12.7945
nything	-12.7948
reward	-12.7953
▁lineup	-12.7959
▁hella	-12.7959
especially	-12.7962
bl	-12.7971
around	-12.7992
▁reinstalls	-12.7995
paid	-12.8002
icks	-12.8008
▁buggi	-12.8022
▁preload	-12.8023
ished	-12.8027
▁slack	-12.8032
▁backs	-12.8035
▁genera	-12.804
remov	-12.8058
▁pres	-12.806
▁heading	-12.8065
onder	-12.8066
ferent	-12.8066
▁appli	-12.8074
etry	-12.808
ooooooooooooo	-12.8087
ctively	-12.8092
dd	-12.8099
owngrade	-12.8108
others	-12.8111
▁lett	-12.8129
clusive	-12.8136
raining	-12.8146
uity	-12.8147
▁che	-12.8159
smi	-12.8164
▁dur	-12.8166
erson	-12.8167
forming	-12.8167
▁possess	-12.8172
change	-12.8178
▁cycl	-12.8182
▁silenc	-12.8206
uin	-12.8207
▁nit	-12.8211
stood	-12.8214
release	-12.8218
▁yhe	-12.8229
antly	-12.8231
dom	-12.8232
▁west	-12.8243
mbedd	-12.8244
mini	-12.8252
problem	-12.8253
▁eraser	-12.8255
▁reiterat	-12.8256
sight	-12.8256
▁featur	-12.8266
▁smoke	-12.8267
boots	-12.8285
▁determin	-12.829
▁Sci	-12.8292
attel	-12.8296
▁Ideal	-12.8304
experience	-12.8305
▁ect	-12.8318
▁cram	-12.8327
shi	-12.8333
rise	-12.8334
▁accus	-12.8341
feature	-12.8355
ibly	-12.8355
eather	-12.8356
▁cop	-12.836
seems	-12.8374
▁debat	-12.8386
latform	-12.8388
▁fri	-12.8395
▁astro	-12.8409
udo	-12.8417
works	-12.8419
▁devot	-12.8427
▁readd	-12.8428
ray	-12.8429
lightly	-12.8433
ming	-12.8436
oyful	-12.8439
lef	-12.8441
▁prov	-12.8444
▁cnn	-12.8446
onnect	-12.8449
licking	-12.8454
ush	-12.8459
▁gamifi	-12.8463
sharing	-12.8464
▁bul	-12.8468
▁Item	-12.848
▁rush	-12.8481
▁Snap	-12.8491
olls	-12.8491
ics	-12.8492
▁swi	-12.8499
▁reserve	-12.8499
▁subscrip	-12.8499
▁sore	-12.8502
rash	-12.8509
▁mock	-12.8511
▁waaaaa	-12.8512
ically	-12.8521
nest	-12.853
fine	-12.8542
▁prox	-12.8545
Touch	-12.8546
▁sinc	-12.8549
▁findings	-12.856
▁outlin	-12.856
yl	-12.8562
nstalling	-12.8563
▁reactivate	-12.8565
▁dimm	-12.8576
issed	-12.858
▁nagg	-12.8581
oncept	-12.8583
▁mask	-12.8585
rogram	-12.8585
mix	-12.8587
▁inv	-12.8587
order	-12.859
rofile	-12.859
irec	-12.8591
rypto	-12.8593
platform	-12.8595
bc	-12.8597
askbar	-12.8597
haracter	-12.8602
ocument	-12.8603
usually	-12.8605
aced	-12.8606
ists	-12.8609
▁clo	-12.8609
anag	-12.8611
training	-12.8621
▁captur	-12.8627
▁polish	-12.8628
▁explosive	-12.8629
▁bookstore	-12.8629
▁avenue	-12.8632
eover	-12.8632
▁massage	-12.8632
▁keyword	-12.8633
eamless	-12.8633
▁Tweet	-12.8634
▁dimension	-12.8635
▁coworker	-12.8637
▁polic	-12.8637
▁statement	-12.8638
enya	-12.8638
ntertaining	-12.8639
eapon	-12.8639
▁dimond	-12.8639
▁recipe	-12.864
▁mutant	-12.864
▁coupon	-12.8642
▁misspell	-12.8643
▁concert	-12.8644
▁mentions	-12.8644
▁upward	-12.8646
▁woul	-12.8647
▁intrigue	-12.8648
▁temple	-12.865
▁deduct	-12.8651
map	-12.8653
xchange	-12.8656
added	-12.8657
utton	-12.8658
▁instru	-12.866
▁hacker	-12.8661
riving	-12.8661
▁packet	-12.8664
▁memor	-12.8664
ss	-12.8666
▁truthful	-12.8668
eached	-12.8668
▁preci	-12.8671
▁Terribl	-12.8672
▁annotation	-12.8672
peria	-12.8676
complete	-12.8678
▁chrom	-12.8685
▁mult	-12.8688
uxe	-12.8689
▁reimburse	-12.8689
igure	-12.8689
▁batter	-12.8691
aded	-12.8691
▁proficien	-12.8691
▁unselect	-12.8691
ritical	-12.8692
ocal	-12.8694
▁mum	-12.8695
▁config	-12.8695
orrection	-12.8697
ccording	-12.8698
xactly	-12.8698
henomenal	-12.8701
espawn	-12.8701
articularly	-12.8701
nstructions	-12.8701
epetitive	-12.8701
omputer	-12.8701
▁xxxx	-12.8701
▁deaf	-12.8702
pgrade	-12.8702
estrictive	-12.8702
ompany	-12.8702
isturb	-12.8702
isgusting	-12.8702
pponent	-12.8703
ediocre	-12.8703
aximum	-12.8703
icrophone	-12.8703
oderation	-12.8703
reevee	-12.8703
avourites	-12.8703
▁Trouble	-12.8704
imond	-12.8704
owadays	-12.8704
egative	-12.8704
▁apocalyp	-12.8704
uld	-12.8704
slaught	-12.8704
pinion	-12.8704
eginning	-12.8705
atalog	-12.8705
▁concentrat	-12.8706
ursday	-12.8706
titude	-12.8706
nfortunate	-12.8707
ontrolling	-12.8707
ugatti	-12.8707
oyTunes	-12.8707
unkphishing	-12.8707
▁Australia	-12.8707
▁Increasing	-12.8707
▁Infuriating	-12.8707
▁Secret	-12.8707
▁Supreme	-12.8707
▁astronomical	-12.8707
▁boundaries	-12.8707
▁celebs	-12.8707
▁comprehend	-12.8707
▁convoluted	-12.8707
▁demotivated	-12.8707
▁demotivating	-12.8707
▁dissuade	-12.8707
▁exponentially	-12.8707
▁heavier	-12.8707
▁impeccable	-12.8707
▁inhibit	-12.8707
▁irreplaceable	-12.8707
▁masculine	-12.8707
▁misaligned	-12.8707
▁monotony	-12.8707
▁motorcycle	-12.8707
▁nobrainer	-12.8707
▁overbearing	-12.8707
▁privilege	-12.8707
▁rediculas	-12.8707
▁relegated	-12.8707
▁reveiw	-12.8707
▁superfluous	-12.8707
▁supervisor	-12.8707
▁therapeutic	-12.8707
▁tinkering	-12.8707
▁tornado	-12.8707
▁understatement	-12.8707
▁unstoppable	-12.8707
▁unwelcome	-12.8707
▁asinine	-12.8707
▁spectacular	-12.8707
▁diagonal	-12.8707
▁gaudy	-12.8707
▁Turbo	-12.8707
▁siblings	-12.8707
▁sprinkl	-12.8707
▁studder	-12.8707
▁Answer	-12.8707
▁Ignore	-12.8707
▁galore	-12.8707
▁inconvience	-12.8707
▁occurrence	-12.8707
stuary	-12.8707
▁Impressive	-12.8707
▁annyoing	-12.8707
▁bikini	-12.8707
▁studied	-12.8707
▁glimps	-12.8707
▁nickname	-12.8707
▁criminal	-12.8707
▁pornography	-12.8707
▁progess	-12.8707
▁regression	-12.8707
▁regressed	-12.8707
▁whisper	-12.8707
▁biometric	-12.8707
▁skindex	-12.8707
▁condense	-12.8707
▁contols	-12.8707
▁kilomet	-12.8707
▁sustain	-12.8707
▁refinement	-12.8707
employment	-12.8707
▁unencrypted	-12.8707
andarin	-12.8707
▁gamechanger	-12.8707
▁inconsistencies	-12.8707
▁palette	-12.8707
▁vedio	-12.8707
▁vanilla	-12.8707
▁trustworthy	-12.8707
▁unsafe	-12.8707
oodbye	-12.8707
▁ceases	-12.8707
▁redstone	-12.8707
▁anticipat	-12.8707
▁receipt	-12.8707
▁remedy	-12.8707
▁economical	-12.8707
▁downvote	-12.8707
▁gaslight	-12.8707
▁hastle	-12.8707
▁milestone	-12.8707
▁precision	-12.8707
▁knees	-12.8707
▁controvers	-12.8707
▁Surface	-12.8707
dominant	-12.8707
▁teeth	-12.8707
eweled	-12.8708
▁fanatic	-12.8708
▁sanity	-12.8708
▁glory	-12.8708
▁crossbones	-12.8708
▁sickening	-12.8708
▁dedication	-12.8708
▁misstep	-12.8708
ardware	-12.8708
▁Sweet	-12.8708
▁exempt	-12.8708
▁gouging	-12.8708
egends	-12.8708
radical	-12.8708
▁brodcast	-12.8708
▁migration	-12.8708
atchlist	-12.8708
▁alpha	-12.8708
▁propose	-12.8708
almart	-12.8708
▁unparalleled	-12.8708
▁ambience	-12.8708
orthless	-12.8708
▁dancing	-12.8708
▁champions	-12.8708
rightness	-12.8708
▁applicable	-12.8708
lympic	-12.8708
▁heartbreaking	-12.8708
▁titan	-12.8708
▁procedur	-12.8708
▁waveform	-12.8708
▁panoram	-12.8709
▁offputting	-12.8709
▁relentless	-12.8709
▁Smash	-12.8709
▁Atmos	-12.8709
▁stylish	-12.8709
▁cartoonish	-12.8709
▁elementary	-12.8709
▁drunk	-12.8709
▁megabytes	-12.8709
▁apocalypse	-12.871
▁technician	-12.871
▁nonfunctional	-12.871
▁Stock	-12.871
▁upadate	-12.871
▁mgmt	-12.871
ariety	-12.871
▁inactivity	-12.871
▁oversight	-12.871
▁uncover	-12.871
▁habla	-12.871
▁bruh	-12.871
att	-12.871
▁System	-12.871
▁marvelous	-12.871
▁inactive	-12.871
▁paperwork	-12.871
elpful	-12.8711
obux	-12.8711
▁constrain	-12.8711
▁distinction	-12.8711
▁oldie	-12.8711
▁weakness	-12.8711
▁standpoint	-12.8711
optimal	-12.8711
▁Argh	-12.8712
▁minecoins	-12.8712
▁midsong	-12.8712
ault	-12.8712
▁prematurely	-12.8712
▁motor	-12.8712
▁fluidity	-12.8712
▁caveat	-12.8712
▁freebies	-12.8713
▁grabbed	-12.8713
frica	-12.8713
▁fluctuation	-12.8713
▁pester	-12.8713
regulated	-12.8713
▁travelling	-12.8713
▁Thanksgiving	-12.8713
▁overrated	-12.8714
otspot	-12.8714
▁nekki	-12.8714
▁indep	-12.8714
nistalling	-12.8714
▁yousician	-12.8714
ddle	-12.8715
▁withdrawal	-12.8715
▁rollout	-12.8715
▁unhide	-12.8715
▁unoriginal	-12.8715
▁snapchat	-12.8716
▁pric	-12.8716
issue	-12.8716
▁wellknown	-12.8716
▁Showtime	-12.8716
▁sofa	-12.8716
igured	-12.8717
▁underwhelming	-12.8717
▁aggravated	-12.8717
▁scen	-12.8717
▁freevee	-12.8717
▁reccommend	-12.8717
oubt	-12.8717
▁hostess	-12.8717
▁patron	-12.8718
▁instinctive	-12.8718
▁submitting	-12.8718
▁divorce	-12.8718
▁waaaa	-12.8718
fwd	-12.8718
fortunately	-12.8718
▁sampling	-12.8719
▁duplicating	-12.8719
▁evident	-12.8719
▁elderly	-12.8719
▁marshals	-12.8719
▁touchpad	-12.8719
▁elig	-12.872
uota	-12.872
▁fiber	-12.872
▁smth	-12.872
▁robbed	-12.8721
▁retarded	-12.8721
▁onesided	-12.8721
▁italics	-12.8722
ign	-12.8722
▁hardcover	-12.8722
▁framerate	-12.8722
▁letterboxe	-12.8722
▁effortlessly	-12.8723
▁bugsglitches	-12.8723
▁Scam	-12.8723
▁compliment	-12.8723
▁reimbursed	-12.8724
▁gliches	-12.8724
▁videospictures	-12.8725
▁blurred	-12.8725
▁referrals	-12.8725
▁goodnovel	-12.8725
▁onwards	-12.8725
▁InApp	-12.8725
▁fuss	-12.8726
▁workshop	-12.8726
▁tiger	-12.8726
▁predictable	-12.8726
▁teenagers	-12.8726
▁throttl	-12.8726
▁groupchats	-12.8727
▁Sofa	-12.8727
roid	-12.8727
egret	-12.8727
▁blacklist	-12.8727
▁grass	-12.8727
▁flashlight	-12.8728
▁loophole	-12.8728
stances	-12.8728
tip	-12.8729
▁tur	-12.8729
▁periodic	-12.873
▁stalking	-12.873
▁outfits	-12.873
▁supercars	-12.8732
▁expedition	-12.8733
▁commentry	-12.8734
▁installment	-12.8734
▁observation	-12.8734
▁Sky	-12.8734
▁gardenscapes	-12.8734
esolve	-12.8735
▁collaborate	-12.8737
▁tumble	-12.8737
▁harddrive	-12.8738
▁softer	-12.8738
playback	-12.8739
▁coinspoints	-12.8739
▁teamwork	-12.8741
utstanding	-12.8742
ntegration	-12.8742
▁proofreading	-12.8742
▁ri	-12.8742
▁phonetablet	-12.8743
▁invent	-12.8743
▁viruses	-12.8744
▁wasteful	-12.8744
▁predicted	-12.8744
eekly	-12.8745
▁mailboxes	-12.8746
ournalist	-12.8746
▁ebooks	-12.8746
▁define	-12.8746
ream	-12.8747
▁infinity	-12.8747
▁lurk	-12.8747
rena	-12.8748
▁teens	-12.8748
▁conduct	-12.8749
▁unprofessional	-12.875
▁oversi	-12.875
▁tu	-12.8751
▁paycheck	-12.8752
▁complications	-12.8752
▁boyfriend	-12.8752
▁saga	-12.8752
anguish	-12.8753
▁hesitation	-12.8753
ixture	-12.8753
▁dialect	-12.8754
etails	-12.8755
easonable	-12.8755
ubi	-12.8755
▁worries	-12.8756
▁auther	-12.8756
gious	-12.8757
▁audiophiles	-12.8757
▁profitable	-12.8758
atur	-12.8759
▁myth	-12.8759
▁reliever	-12.8761
recent	-12.8761
▁corse	-12.8761
▁priorities	-12.8762
esson	-12.8763
iscovery	-12.8764
▁polishing	-12.8764
▁randomness	-12.8765
arket	-12.8765
▁consecutively	-12.8768
▁transport	-12.8768
▁styling	-12.8768
▁urgently	-12.8768
▁mistaking	-12.8769
▁island	-12.8769
▁refusal	-12.877
▁irritation	-12.8771
edium	-12.8771
alsely	-12.8772
▁axes	-12.8773
▁Stone	-12.8773
▁brainer	-12.8773
▁funnie	-12.8774
eporting	-12.8774
▁fishy	-12.8776
▁hangup	-12.8777
eapons	-12.8777
▁clickbaity	-12.8779
wield	-12.878
ropping	-12.8781
▁villager	-12.8783
▁decay	-12.8783
▁avenues	-12.8785
▁explosives	-12.8785
▁massages	-12.8786
ku	-12.879
▁formal	-12.879
▁exhausted	-12.879
▁cargo	-12.8793
▁sup	-12.8795
▁extention	-12.8795
▁overthe	-12.8798
▁unsav	-12.8801
▁gloss	-12.8801
▁cleanest	-12.8801
▁dud	-12.8802
▁planted	-12.8802
▁their	-12.8803
▁hum	-12.8804
odcasts	-12.8804
▁singer	-12.8805
▁Adam	-12.8805
▁permit	-12.8805
ormal	-12.8805
▁Indian	-12.8807
makes	-12.8807
▁autorotat	-12.8807
▁Autoplay	-12.8808
irtual	-12.8811
▁Animation	-12.8814
▁imitate	-12.8814
▁recreation	-12.8814
▁slamm	-12.8815
▁homeless	-12.8817
▁islands	-12.882
everything	-12.8821
▁suspend	-12.8821
rops	-12.8821
▁bucket	-12.8822
▁traps	-12.8825
▁wearable	-12.8825
▁autofill	-12.8827
▁singers	-12.883
dependent	-12.8831
▁visitor	-12.8832
▁patches	-12.8832
▁welcomed	-12.8834
certain	-12.8835
anceling	-12.8837
▁operated	-12.8839
▁neatly	-12.8841
▁skies	-12.8846
unctions	-12.8847
▁Inbox	-12.8848
▁unluck	-12.8849
▁inserted	-12.885
▁outbox	-12.8853
▁hid	-12.8854
lves	-12.8854
▁conferenc	-12.8855
▁oneplus	-12.8855
practical	-12.8855
▁configurat	-12.8862
▁grips	-12.8863
▁cutout	-12.8866
interupted	-12.8868
▁restricting	-12.8868
east	-12.8868
apan	-12.8868
▁customis	-12.8869
▁uneven	-12.887
first	-12.887
▁smell	-12.8871
siness	-12.8873
▁unde	-12.8875
▁Tik	-12.8875
oorly	-12.8875
▁exceeding	-12.8879
▁censors	-12.8879
▁carriers	-12.888
palm	-12.888
▁inconsistently	-12.888
uietly	-12.8882
▁furth	-12.8883
lines	-12.8884
▁diary	-12.8884
getting	-12.8886
▁peek	-12.8889
▁neg	-12.8891
▁collaborat	-12.8891
▁makeover	-12.8897
▁reposts	-12.8897
ldr	-12.8898
exploded	-12.8898
▁delivery	-12.8901
ista	-12.8902
sp	-12.8903
berg	-12.8904
▁layered	-12.8904
pisodes	-12.8905
aliasing	-12.8905
▁christ	-12.8907
▁cancelation	-12.8908
▁director	-12.891
▁shutdowns	-12.891
▁rescann	-12.891
▁experts	-12.8911
runs	-12.8914
obless	-12.8914
▁voicenotes	-12.8914
ggy	-12.8915
features	-12.8915
▁stacked	-12.8917
▁relaxed	-12.8918
ered	-12.8919
▁sensoring	-12.8922
real	-12.8923
reconfigure	-12.893
isable	-12.8933
▁nitpic	-12.8933
ener	-12.8935
▁traveled	-12.8935
rasp	-12.8936
manag	-12.8936
▁unsave	-12.894
▁dims	-12.8942
▁pushe	-12.8942
▁activated	-12.8945
lette	-12.8946
armville	-12.8946
▁sans	-12.8947
onald	-12.8956
▁nu	-12.896
▁expressions	-12.896
▁cork	-12.8962
▁shine	-12.8963
▁leaders	-12.8966
▁desirable	-12.8967
▁prec	-12.8967
rial	-12.8969
▁readded	-12.8969
glitches	-12.8972
pu	-12.8975
▁fianc	-12.8975
▁chaper	-12.8976
▁Thankful	-12.8978
▁gradi	-12.898
catch	-12.898
▁signin	-12.8981
▁peice	-12.8981
▁disallow	-12.8982
ker	-12.8982
rivate	-12.8985
▁Admin	-12.8987
validate	-12.8987
▁clipp	-12.8988
▁glide	-12.8988
▁ringtone	-12.8989
▁productions	-12.8991
imulator	-12.8992
▁ass	-12.8997
omeland	-12.9003
▁detected	-12.9004
▁Services	-12.9004
▁pronunciations	-12.9005
▁perm	-12.9005
saved	-12.9011
atches	-12.9012
▁huh	-12.9013
▁aaps	-12.9014
xes	-12.9017
▁hub	-12.9017
▁Site	-12.9019
rly	-12.9022
ffers	-12.9027
▁maby	-12.9032
▁blasted	-12.9034
▁chickens	-12.9036
▁deafen	-12.9036
uninstall	-12.9037
▁mutual	-12.9047
toms	-12.9052
listening	-12.9055
▁externally	-12.9057
▁snapp	-12.9059
declare	-12.906
ules	-12.9061
▁anxious	-12.9065
▁sharps	-12.9066
▁hurri	-12.9068
▁pov	-12.9071
esses	-12.9072
▁invoice	-12.9073
▁bio	-12.9074
unfriendly	-12.9076
xamples	-12.9076
▁trucks	-12.9079
▁plugin	-12.9081
▁Struggl	-12.9082
▁secrets	-12.9085
▁longpress	-12.9085
ppreciate	-12.9086
▁achievable	-12.9088
▁miniature	-12.9089
kind	-12.909
▁optimise	-12.9095
▁alas	-12.9095
▁modifying	-12.91
▁relationships	-12.91
▁secured	-12.9102
▁occured	-12.9106
pointed	-12.9106
▁promot	-12.911
oyal	-12.911
▁ballad	-12.9112
where	-12.9113
▁grabbing	-12.912
▁skew	-12.912
allery	-12.9122
▁conn	-12.9128
▁persever	-12.9129
▁Ask	-12.9129
▁erratic	-12.913
▁classy	-12.9132
lm	-12.9133
events	-12.9136
▁deterr	-12.9139
sup	-12.9142
▁firefire	-12.9142
▁gosh	-12.9144
neut	-12.9145
▁xx	-12.9145
stating	-12.9146
▁magnet	-12.9149
▁retired	-12.9149
▁ATT	-12.9154
▁tour	-12.9156
hours	-12.9157
▁ingredients	-12.9157
▁revent	-12.9158
tone	-12.9162
utside	-12.9166
▁comercial	-12.9166
▁agreed	-12.917
▁sug	-12.9177
▁multiply	-12.918
▁slope	-12.9186
▁unplug	-12.919
▁interiors	-12.9194
bugging	-12.9195
adar	-12.9197
▁blah	-12.9202
▁pointers	-12.9204
evices	-12.9212
▁needless	-12.9215
▁manageable	-12.9216
▁grave	-12.9218
▁Su	-12.9219
▁humans	-12.9226
▁Soun	-12.923
▁daughters	-12.923
ific	-12.923
▁definit	-12.9231
▁hom	-12.9238
▁youth	-12.924
eaders	-12.9242
certainty	-12.9244
thor	-12.9245
▁asset	-12.9251
▁dol	-12.9253
▁offerings	-12.9254
▁clues	-12.9258
▁compile	-12.9261
All	-12.9266
▁tb	-12.927
▁tearsm	-12.9274
▁reacts	-12.9275
▁AAA	-12.9278
uspect	-12.9279
▁ana	-12.9296
tax	-12.9297
cess	-12.9297
oss	-12.9299
ushing	-12.9299
enus	-12.9301
cat	-12.9307
▁funds	-12.9308
▁sabotage	-12.9309
▁contribute	-12.9312
▁subgame	-12.9314
chapter	-12.9317
uc	-12.9317
hate	-12.9318
luster	-12.932
▁respectful	-12.9323
▁catalogues	-12.9328
ham	-12.9333
▁marri	-12.9334
▁lik	-12.9338
titled	-12.934
▁Air	-12.9353
via	-12.9353
▁overtake	-12.9356
▁slee	-12.936
▁critic	-12.9363
▁readi	-12.9376
ecting	-12.9385
▁veri	-12.9386
oman	-12.939
▁dreams	-12.9393
▁previewed	-12.9397
▁irresponsib	-12.9402
▁dowload	-12.9405
arner	-12.9412
▁coll	-12.9414
▁downs	-12.9415
▁flats	-12.9418
▁stalling	-12.9423
▁acou	-12.9424
▁grate	-12.9424
▁dealer	-12.9428
▁creations	-12.9431
ucks	-12.9432
▁reupload	-12.9436
ropes	-12.9437
▁than	-12.9439
▁coops	-12.9441
egre	-12.9455
nia	-12.9463
▁deem	-12.9465
▁Subs	-12.9466
awning	-12.9468
▁rose	-12.9473
▁changelog	-12.9473
▁bid	-12.9475
iking	-12.948
▁ie	-12.9492
big	-12.95
▁fastfo	-12.9501
otential	-12.9504
tunes	-12.9505
literally	-12.9506
urs	-12.9511
▁nation	-12.9518
▁frustrat	-12.9522
ticks	-12.9524
▁balls	-12.9526
▁Swi	-12.9527
xit	-12.953
▁surprises	-12.9533
gl	-12.9535
▁descend	-12.9535
imes	-12.9542
▁crank	-12.955
▁builder	-12.9553
ditor	-12.9554
▁Spen	-12.9554
short	-12.9558
▁formed	-12.9565
▁Soul	-12.9569
boring	-12.9573
▁Tune	-12.9578
▁overwrite	-12.9579
worthy	-12.958
▁Thin	-12.958
▁bra	-12.9581
▁pursu	-12.9583
▁gate	-12.9587
lent	-12.9588
otorious	-12.9596
ustifie	-12.9601
▁beatable	-12.9607
riginals	-12.9613
rg	-12.9623
▁vin	-12.9629
▁inconveniences	-12.9634
▁Surprise	-12.964
▁shu	-12.9645
amp	-12.9646
asses	-12.9646
▁crossbo	-12.9653
easier	-12.9653
turn	-12.9655
▁Ac	-12.9659
tr	-12.9662
▁punch	-12.9672
evil	-12.9672
tensive	-12.9678
napseed	-12.9678
books	-12.968
▁ring	-12.9687
utomatically	-12.971
▁curs	-12.971
▁congratulat	-12.971
offline	-12.9711
▁irks	-12.9712
last	-12.9731
uke	-12.9736
folder	-12.9744
silenced	-12.9749
▁ounce	-12.975
▁bean	-12.9751
▁ve	-12.9754
▁evening	-12.9756
▁Seek	-12.9756
running	-12.977
▁loa	-12.9777
▁gane	-12.9781
▁gambler	-12.9783
uperior	-12.9787
▁mos	-12.9792
▁saturation	-12.9793
............	-12.9797
▁suppress	-12.9799
▁shortage	-12.98
recognised	-12.9803
stops	-12.9808
▁stuffs	-12.9818
▁Swipe	-12.982
▁wack	-12.982
chased	-12.9822
fit	-12.9823
▁defen	-12.9833
cons	-12.9838
pictures	-12.9843
ega	-12.9846
▁photovideo	-12.9848
food	-12.9851
▁slic	-12.9851
▁buyer	-12.9858
▁simplifie	-12.986
toryline	-12.9861
▁gran	-12.9865
▁appservice	-12.9868
shes	-12.9874
oids	-12.9875
▁Sw	-12.9877
▁sucky	-12.9879
lix	-12.9879
lower	-12.988
▁rail	-12.9884
navigate	-12.9887
post	-12.9887
whenever	-12.989
▁themed	-12.9902
▁limb	-12.9904
▁trashed	-12.9905
oc	-12.9908
pi	-12.991
iment	-12.9913
▁unusual	-12.9913
▁rewinded	-12.9913
pression	-12.9915
▁steamer	-12.9919
▁behav	-12.9922
▁wand	-12.9926
▁minds	-12.9926
▁Sight	-12.9927
▁ampl	-12.9927
wish	-12.993
online	-12.9931
stories	-12.9935
▁irr	-12.995
eyes	-12.9953
▁beggin	-12.9973
▁leak	-12.9973
content	-12.9973
▁bone	-12.9977
▁crackle	-12.9981
▁vouch	-12.9984
tly	-12.9998
uster	-12.9999
fair	-13.0011
▁refreshe	-13.0021
▁Sent	-13.0022
before	-13.0023
eaving	-13.0023
ormul	-13.0025
▁sideload	-13.0027
upgrade	-13.003
android	-13.003
say	-13.0038
idi	-13.0047
▁cruis	-13.005
▁Active	-13.0054
▁tran	-13.0058
▁det	-13.0059
computer	-13.0069
ikes	-13.0077
yet	-13.0087
▁costume	-13.009
forgivable	-13.0096
ringing	-13.0097
▁thou	-13.01
whatever	-13.0113
sue	-13.0117
▁devolve	-13.0119
volume	-13.0136
▁str	-13.0143
▁pushy	-13.0146
▁conce	-13.0147
ngl	-13.015
layout	-13.0154
gives	-13.0154
touch	-13.0155
▁succ	-13.0156
▁Shot	-13.0158
▁waster	-13.0175
due	-13.0183
three	-13.0188
▁presses	-13.019
▁litera	-13.0194
▁paw	-13.0201
riggin	-13.0202
fil	-13.0217
▁wid	-13.0224
▁dub	-13.0228
scanning	-13.0232
▁dip	-13.0237
stars	-13.0239
▁Sil	-13.024
yes	-13.0241
uaint	-13.0244
five	-13.0246
▁hat	-13.0254
▁volumes	-13.0258
▁Indi	-13.0258
started	-13.0259
law	-13.0261
alter	-13.0282
▁pertain	-13.0286
episodes	-13.0286
▁owl	-13.0289
ilent	-13.0306
ina	-13.0306
aging	-13.0308
▁devi	-13.031
▁lifes	-13.0312
sets	-13.0316
▁entertainer	-13.0317
nsure	-13.0323
▁detailing	-13.0324
▁execut	-13.0329
▁laggi	-13.033
etty	-13.0339
▁rotates	-13.0353
cate	-13.0359
▁professionals	-13.0366
▁ple	-13.0367
▁Afterward	-13.0368
nding	-13.0371
▁widgets	-13.0376
pass	-13.0376
▁switche	-13.0379
▁levelup	-13.038
▁compares	-13.0387
eard	-13.0391
arr	-13.0392
miss	-13.0394
family	-13.0401
rea	-13.0408
highly	-13.0409
▁Absolut	-13.041
eads	-13.0421
esk	-13.0422
▁whet	-13.0437
▁cla	-13.0452
cock	-13.0456
uat	-13.0461
▁thw	-13.0462
ched	-13.0462
anything	-13.0466
▁investigate	-13.0471
sad	-13.0475
nger	-13.0477
pd	-13.0482
nowing	-13.0482
artists	-13.0485
▁mono	-13.0491
▁tin	-13.0493
pot	-13.0496
den	-13.05
ger	-13.0501
▁platformer	-13.0503
▁nauseat	-13.0506
▁rides	-13.0514
ocking	-13.0519
nnies	-13.0531
bye	-13.0537
▁moive	-13.0565
profile	-13.0567
▁displeas	-13.0584
racy	-13.0586
aired	-13.0588
▁rel	-13.0591
moothness	-13.0592
▁faceb	-13.0592
▁pot	-13.0601
As	-13.0614
finally	-13.0614
▁toons	-13.0616
rais	-13.0622
raging	-13.0623
itness	-13.0623
ady	-13.0628
volving	-13.063
rank	-13.0631
▁inc	-13.0641
▁meter	-13.0648
constant	-13.0657
yt	-13.0661
graphic	-13.0665
▁mobil	-13.0666
Tubi	-13.0667
mination	-13.0685
▁char	-13.0685
pod	-13.0689
die	-13.069
deleting	-13.0694
▁shee	-13.0695
buttons	-13.0698
uninstalling	-13.0702
choice	-13.0705
▁sli	-13.071
ometer	-13.0718
▁skim	-13.0718
keyboard	-13.072
▁Idea	-13.0725
odu	-13.0739
lined	-13.0745
mming	-13.0748
▁Solve	-13.0753
▁timelines	-13.0765
normal	-13.0771
current	-13.0778
actic	-13.0779
▁cave	-13.0779
grim	-13.0783
must	-13.0784
▁arriv	-13.0796
urni	-13.08
laws	-13.0802
eeded	-13.0804
assed	-13.0805
rest	-13.0811
▁loo	-13.0813
oos	-13.0816
sident	-13.0823
uci	-13.0824
ien	-13.0824
▁establish	-13.0829
▁Activat	-13.083
keeper	-13.0832
completed	-13.0832
hear	-13.0836
display	-13.0837
rn	-13.0839
▁bru	-13.0843
forms	-13.0848
▁seemless	-13.0851
ula	-13.0852
hyyy	-13.0853
ened	-13.0855
yi	-13.0856
ndistinguishable	-13.0868
timate	-13.0875
ries	-13.0877
au	-13.0898
rappers	-13.0898
ffr	-13.0902
▁tasking	-13.0904
▁simpl	-13.0906
▁reinforc	-13.0909
vi	-13.0911
ours	-13.0933
although	-13.0934
net	-13.094
feedback	-13.0946
rin	-13.0956
rewards	-13.0957
▁Serve	-13.096
▁exam	-13.0962
SIT	-13.0967
▁feat	-13.097
icul	-13.0973
echnology	-13.0974
uploads	-13.0981
▁bush	-13.1011
web	-13.1018
cam	-13.1019
ses	-13.1021
cards	-13.1027
stone	-13.1035
▁fest	-13.1046
sting	-13.1049
▁systematic	-13.1055
▁Action	-13.1061
▁dv	-13.1064
▁Include	-13.1065
nite	-13.1066
includ	-13.108
▁tie	-13.1085
▁plent	-13.1088
▁fla	-13.1095
tail	-13.1096
nar	-13.1098
▁wir	-13.1101
mostly	-13.1106
▁castle	-13.1124
sort	-13.1126
▁craps	-13.1127
cu	-13.1131
▁Ton	-13.1151
row	-13.1158
▁dem	-13.1168
updates	-13.117
pointing	-13.1189
asking	-13.1195
▁reacharge	-13.1197
rm	-13.12
▁Twi	-13.1205
killed	-13.1217
iso	-13.1227
rust	-13.1229
coding	-13.1229
▁shov	-13.1243
hef	-13.1249
osting	-13.1253
▁del	-13.1262
phi	-13.1263
did	-13.1269
▁te	-13.1275
▁dood	-13.1277
ruce	-13.1278
collision	-13.1278
▁announc	-13.1283
goal	-13.1285
mmed	-13.1289
▁mak	-13.129
multiplayer	-13.13
vers	-13.1304
hiding	-13.1306
filter	-13.1307
rma	-13.1317
▁hardco	-13.1362
▁boo	-13.1378
casting	-13.1382
▁creatives	-13.1383
created	-13.139
fu	-13.1391
▁crap	-13.1406
allowe	-13.1426
driving	-13.143
▁avi	-13.1434
buffer	-13.1445
▁veg	-13.1447
ills	-13.1449
▁labell	-13.1464
bligation	-13.1476
▁Stat	-13.1479
▁rights	-13.1487
bugs	-13.149
▁speciali	-13.1505
look	-13.1511
clicking	-13.1512
tems	-13.1524
warning	-13.1524
uhh	-13.1531
actually	-13.1543
aft	-13.1551
mute	-13.1555
cked	-13.1555
them	-13.1564
▁Surviv	-13.157
▁territor	-13.1571
▁sparkl	-13.1575
tched	-13.1584
oxy	-13.1588
cheaper	-13.1588
country	-13.1594
aim	-13.16
mk	-13.1609
▁stre	-13.1611
frame	-13.1627
paused	-13.1628
▁deni	-13.1632
ungle	-13.164
chamet	-13.1641
opt	-13.1644
▁lat	-13.1654
least	-13.1656
tall	-13.1656
ells	-13.1658
▁violat	-13.167
center	-13.167
entertaining	-13.1671
consider	-13.1673
crolling	-13.1678
▁cor	-13.1685
▁sto	-13.1688
note	-13.1694
asked	-13.1708
▁breache	-13.1711
▁struggl	-13.1712
▁neur	-13.1715
▁reformat	-13.1722
▁ye	-13.1725
typing	-13.1727
▁sail	-13.1734
eac	-13.1744
▁marker	-13.1749
▁relia	-13.1757
▁ext	-13.1761
eadict	-13.1763
▁bui	-13.1764
ugue	-13.1767
laps	-13.177
sorry	-13.1783
winning	-13.179
holder	-13.1794
ontier	-13.1806
base	-13.1817
▁crowded	-13.1822
effort	-13.1823
seconds	-13.1824
advanced	-13.1828
reader	-13.1829
▁apples	-13.1831
teaching	-13.1836
▁observe	-13.1843
▁downgrad	-13.1843
Audio	-13.1856
▁una	-13.1861
▁bite	-13.1866
cal	-13.1867
▁recommends	-13.1874
▁imagin	-13.1883
▁goods	-13.1896
sound	-13.1906
mma	-13.1912
focus	-13.193
stable	-13.1931
children	-13.1931
state	-13.1933
gets	-13.1942
bt	-13.1944
critical	-13.1973
sometime	-13.1978
plet	-13.1979
message	-13.1985
bottle	-13.1988
dropping	-13.199
▁shipp	-13.1991
irl	-13.1993
hood	-13.2001
gender	-13.2005
▁acco	-13.2022
recorded	-13.2029
accessible	-13.2033
heavy	-13.2035
minds	-13.2038
locks	-13.2038
nfront	-13.204
provoking	-13.2043
falls	-13.2047
▁Tak	-13.205
tch	-13.2062
boat	-13.2064
▁pod	-13.2067
▁lux	-13.2068
logs	-13.2069
▁vis	-13.2071
written	-13.2074
planes	-13.2078
hide	-13.2084
balanced	-13.2085
yellow	-13.2085
boxes	-13.2086
sk	-13.2089
satisfied	-13.2093
tive	-13.2094
billion	-13.2096
sit	-13.2097
stand	-13.2102
▁nee	-13.2103
competitive	-13.2104
loss	-13.2106
globe	-13.211
dragon	-13.2113
gifs	-13.2116
tiktok	-13.2118
none	-13.2121
▁sided	-13.2124
comedy	-13.2128
arrow	-13.213
▁cre	-13.2133
latency	-13.2137
thro	-13.2138
saturation	-13.215
bridge	-13.215
add	-13.2153
Artist	-13.2155
grown	-13.2156
graphics	-13.2156
ders	-13.2156
▁pale	-13.2168
olitics	-13.2175
▁messe	-13.2176
lig	-13.2178
▁negat	-13.218
ya	-13.2183
▁loot	-13.2187
typical	-13.2187
during	-13.219
sticker	-13.2192
encompass	-13.2192
profit	-13.2204
truck	-13.2208
path	-13.2212
arly	-13.2212
eclutter	-13.2215
▁rain	-13.222
▁arts	-13.2227
va	-13.2228
eet	-13.223
desk	-13.2231
refer	-13.2235
spoke	-13.2244
chrome	-13.2248
emind	-13.2254
▁sha	-13.2257
had	-13.2262
topics	-13.2268
▁integra	-13.2269
contrast	-13.2275
skin	-13.228
synchroni	-13.2287
▁ec	-13.2289
▁exce	-13.2297
Insta	-13.2301
contract	-13.2303
▁recommendable	-13.2319
worth	-13.232
▁ender	-13.2321
punch	-13.2326
trade	-13.2337
bow	-13.2338
vob	-13.234
lation	-13.2342
doll	-13.2343
dressed	-13.2345
▁minimise	-13.2349
posed	-13.235
appealing	-13.2352
▁interfer	-13.2354
options	-13.2356
▁suc	-13.2356
▁plea	-13.2357
spons	-13.236
ifying	-13.2361
tapped	-13.2364
onopoly	-13.2371
stead	-13.2373
▁rem	-13.2373
special	-13.2373
stance	-13.2378
atic	-13.2379
▁ke	-13.238
bly	-13.238
signs	-13.2381
▁tones	-13.2382
shape	-13.2383
▁intr	-13.2385
▁Initial	-13.2397
impressed	-13.2398
blink	-13.24
thirds	-13.2401
ported	-13.2418
ballsoccer	-13.2419
▁upda	-13.2435
▁lea	-13.2436
ges	-13.2441
amming	-13.2442
alone	-13.245
bumper	-13.2453
▁crappie	-13.2462
bounds	-13.247
official	-13.247
texture	-13.2485
▁exc	-13.2487
hil	-13.249
rds	-13.2499
metal	-13.2499
reconnect	-13.2502
been	-13.2509
evolving	-13.2509
enough	-13.2511
▁endur	-13.2512
stalled	-13.252
▁imag	-13.2542
luey	-13.2545
▁unfold	-13.255
critic	-13.2553
rev	-13.2553
▁conf	-13.2557
descend	-13.256
nock	-13.2563
▁bow	-13.2578
oul	-13.2578
gum	-13.2579
AAAA	-13.2585
ki	-13.259
bi	-13.2593
▁pos	-13.2596
▁scrape	-13.2609
connection	-13.2613
resses	-13.2621
lder	-13.2624
orrid	-13.2632
wipes	-13.2632
okes	-13.2633
pent	-13.2641
click	-13.2644
dding	-13.2647
banned	-13.2648
▁don	-13.2656
rite	-13.2658
▁pul	-13.2659
texts	-13.2662
▁mem	-13.2666
eeeee	-13.2667
lide	-13.2668
▁den	-13.2678
agg	-13.2678
▁espa	-13.2684
▁unban	-13.2685
ward	-13.2689
▁Sea	-13.269
▁combin	-13.2693
needs	-13.2705
▁ment	-13.2712
cks	-13.2712
gger	-13.2714
▁escap	-13.2714
aggressive	-13.2719
remodel	-13.2722
almost	-13.2726
▁court	-13.2732
anning	-13.2734
▁physic	-13.2736
lands	-13.2737
sco	-13.2738
arctic	-13.2746
ition	-13.2747
▁disposa	-13.276
ensoring	-13.2768
sive	-13.2769
twitch	-13.2772
tho	-13.2778
▁fini	-13.2788
▁contribut	-13.279
boards	-13.279
▁arr	-13.2792
▁sabotag	-13.2794
lty	-13.2796
▁hood	-13.2805
cul	-13.2812
replace	-13.2815
installreinstall	-13.2818
▁Ski	-13.2824
▁explor	-13.2833
farm	-13.284
nedrive	-13.2844
ior	-13.2853
▁sn	-13.2863
eful	-13.2871
lt	-13.2877
▁issu	-13.2885
ise	-13.2888
▁degrade	-13.2891
iu	-13.2903
lapped	-13.2905
ction	-13.2916
veral	-13.293
builds	-13.293
intuitive	-13.2932
vine	-13.2947
nonsense	-13.2948
▁shoulder	-13.2959
▁origin	-13.2959
gram	-13.2959
picks	-13.2963
▁ensur	-13.2976
xcite	-13.2981
▁sci	-13.2986
war	-13.3024
resh	-13.3026
brid	-13.304
▁aftera	-13.3047
▁ir	-13.3048
mad	-13.3051
leg	-13.3051
hini	-13.3056
▁refu	-13.3062
ophobic	-13.3063
aware	-13.3068
ipe	-13.3078
eral	-13.3084
▁Ty	-13.3085
▁phon	-13.3085
▁participat	-13.3089
Spotify	-13.3093
rose	-13.3095
▁resembl	-13.3095
▁clouds	-13.3097
▁Teach	-13.3103
▁nag	-13.3124
wire	-13.3127
atin	-13.3128
▁lau	-13.3129
bla	-13.313
fx	-13.313
▁fitbits	-13.313
ising	-13.3132
hes	-13.3134
enig	-13.3138
fact	-13.3143
▁olds	-13.315
icon	-13.3155
dded	-13.3158
msung	-13.316
udu	-13.3167
som	-13.3169
Art	-13.3172
ATS	-13.3179
eaching	-13.3185
lea	-13.3188
aining	-13.3191
blur	-13.3196
▁Suc	-13.3207
lve	-13.3209
listed	-13.3222
speaking	-13.3229
▁distribut	-13.3233
bean	-13.3238
suming	-13.3243
ru	-13.3248
meri	-13.325
▁curr	-13.3279
▁costum	-13.3288
phrase	-13.3301
▁recycl	-13.3303
forest	-13.3304
▁gl	-13.3306
reo	-13.3319
crap	-13.3325
ville	-13.3332
▁dock	-13.3335
▁bur	-13.334
▁unuse	-13.3349
▁probable	-13.3355
tained	-13.3356
ience	-13.3358
▁gall	-13.3362
▁xs	-13.3365
▁timewast	-13.3368
▁Translat	-13.3371
dates	-13.3384
constantly	-13.3385
▁unfriend	-13.3389
eddit	-13.3391
▁alias	-13.3393
▁Secur	-13.3398
orc	-13.3399
biased	-13.3404
tel	-13.3407
vert	-13.341
▁cautio	-13.3412
umi	-13.3429
nice	-13.344
etho	-13.3452
▁accompan	-13.3453
▁plagu	-13.3457
feats	-13.3457
herent	-13.346
niverse	-13.3463
▁wick	-13.3464
iming	-13.3466
▁influenc	-13.3489
xpand	-13.349
▁Suit	-13.3501
xperiment	-13.3502
▁credi	-13.3509
▁frust	-13.351
hop	-13.3523
rough	-13.3523
ster	-13.3529
ogan	-13.3529
rgin	-13.353
ppe	-13.353
olo	-13.3531
▁interfac	-13.3538
reserved	-13.3547
▁Seri	-13.3549
▁sens	-13.3552
forget	-13.3555
▁audi	-13.3564
xtra	-13.357
▁pleas	-13.3572
fb	-13.3574
esponse	-13.3576
▁village	-13.3583
▁capab	-13.3584
atalogue	-13.3584
xpect	-13.3585
▁nause	-13.3588
▁poof	-13.3589
▁pol	-13.359
▁assis	-13.3594
ricing	-13.3597
mentary	-13.3598
oses	-13.3598
▁baffl	-13.3598
elay	-13.3602
▁explode	-13.3609
At	-13.3609
▁intern	-13.3611
▁profil	-13.3611
atter	-13.3612
▁infinit	-13.3614
▁achiev	-13.3618
▁applie	-13.3621
ommercial	-13.3623
▁pronounce	-13.3633
egard	-13.3634
▁outdoor	-13.3634
▁assignment	-13.3635
▁enclosure	-13.3635
eps	-13.3636
▁Subtitle	-13.3636
▁complication	-13.3636
▁statistic	-13.3636
xpert	-13.3637
▁earbud	-13.3637
ntermediate	-13.3637
▁conduc	-13.3639
▁supplie	-13.3643
▁omg	-13.3643
▁doctor	-13.3644
ournal	-13.3647
▁pronoun	-13.3647
▁mount	-13.3648
tful	-13.3648
▁tolera	-13.3651
licked	-13.3653
▁absolut	-13.3654
▁proofread	-13.3654
▁disorient	-13.3654
▁russia	-13.3654
▁declin	-13.3657
▁infuriat	-13.3657
▁surrounding	-13.3657
▁newbie	-13.3658
▁captivat	-13.3661
▁Soft	-13.3662
kward	-13.3662
nnel	-13.3662
election	-13.3664
▁compose	-13.3664
nbelievabl	-13.3665
▁impossibl	-13.3665
▁rectang	-13.3666
▁unbearabl	-13.3666
nfortunat	-13.3668
rience	-13.3668
ogin	-13.3669
egular	-13.367
ontinuous	-13.3672
▁gener	-13.3672
▁seperat	-13.3675
ffroad	-13.3676
▁innovati	-13.3677
▁warrant	-13.3677
▁Techni	-13.3678
▁userfriendl	-13.3678
▁sooooooo	-13.3679
▁incompeten	-13.368
krain	-13.368
▁unles	-13.368
ortunately	-13.3681
ntertainer	-13.3682
phon	-13.3683
ything	-13.3683
ninstal	-13.3684
unch	-13.3684
lasses	-13.3684
▁Terr	-13.3685
motes	-13.3686
udes	-13.3686
▁remaster	-13.3686
▁calori	-13.3686
▁simultaneous	-13.3687
exico	-13.3687
cidentally	-13.3687
peech	-13.3688
▁substantial	-13.3688
cenario	-13.3688
▁immerse	-13.3689
▁instinct	-13.3689
crobat	-13.369
▁divo	-13.369
▁aggravate	-13.3691
ightmares	-13.3692
ntuitive	-13.3693
▁convin	-13.3693
ange	-13.3693
ivescore	-13.3694
ragon	-13.3694
rmour	-13.3694
unkie	-13.3695
scribe	-13.3696
▁drastic	-13.3696
bandoned	-13.3697
xperiencing	-13.3698
xercise	-13.3698
chievements	-13.3699
▁snipe	-13.3699
xcuse	-13.3699
mpress	-13.3699
ntelligen	-13.3699
esponsive	-13.3699
▁radi	-13.3701
enalty	-13.3701
urchases	-13.3701
hildren	-13.3701
▁peac	-13.3701
ategory	-13.3701
xplain	-13.3701
elebrit	-13.3701
eceptive	-13.3702
ominoes	-13.3702
rammar	-13.3702
issapointed	-13.3702
onfigurat	-13.3702
▁naviga	-13.3702
eceiver	-13.3702
ompatible	-13.3702
verpriced	-13.3703
omplain	-13.3703
affling	-13.3703
onstruction	-13.3703
alicious	-13.3703
harging	-13.3703
eauty	-13.3703
erformance	-13.3703
arketplace	-13.3703
olorful	-13.3704
eccomend	-13.3704
▁explic	-13.3704
eagues	-13.3704
roadcasters	-13.3704
lurry	-13.3704
andwidth	-13.3704
lawless	-13.3704
orkaround	-13.3705
atience	-13.3705
romise	-13.3705
epair	-13.3705
nparalleled	-13.3705
ersatile	-13.3706
olidays	-13.3706
angerous	-13.3706
reedom	-13.3706
▁bugg	-13.3706
oxnews	-13.3706
tegic	-13.3707
tellar	-13.3707
ecogni	-13.3707
ositive	-13.3707
▁proprietary	-13.3707
▁abbreviat	-13.3707
▁cornfield	-13.3707
▁overshadow	-13.3707
▁pharmac	-13.3707
akistan	-13.3707
hillipines	-13.3707
negotiable	-13.3707
olorado	-13.3707
orwegian	-13.3707
uthoritarian	-13.3707
▁Algorithm	-13.3707
▁Alternative	-13.3707
▁AsiaAustralia	-13.3707
▁Audible	-13.3707
▁Irritated	-13.3707
▁Satellite	-13.3707
▁Selena	-13.3707
▁Sirius	-13.3707
▁Spoiler	-13.3707
▁Syndrome	-13.3707
▁Television	-13.3707
▁Transition	-13.3707
▁Tunisia	-13.3707
▁absorb	-13.3707
▁adrenaline	-13.3707
▁aggrevati	-13.3707
▁ammunition	-13.3707
▁arbitrarily	-13.3707
▁archaic	-13.3707
▁balancing	-13.3707
▁blossom	-13.3707
▁brotherinlaw	-13.3707
▁carnival	-13.3707
▁catastrophic	-13.3707
▁certificate	-13.3707
▁challanges	-13.3707
▁copyandpaste	-13.3707
▁daunting	-13.3707
▁dessert	-13.3707
▁devastating	-13.3707
▁diomond	-13.3707
▁disingenuous	-13.3707
▁dissapointment	-13.3707
▁dissatisfaction	-13.3707
▁duckduckgo	-13.3707
▁educated	-13.3707
▁eyecatching	-13.3707
▁fidgety	-13.3707
▁gentlem	-13.3707
▁grandmothers	-13.3707
▁grievance	-13.3707
▁haywire	-13.3707
▁illogical	-13.3707
▁imperative	-13.3707
▁indoctrinate	-13.3707
▁infrastructure	-13.3707
▁microstutter	-13.3707
▁misinterpret	-13.3707
▁misunderstood	-13.3707
▁mmorpg	-13.3707
▁monocle	-13.3707
▁multilingual	-13.3707
▁newspaper	-13.3707
▁oppressive	-13.3707
▁pedophilia	-13.3707
▁prohibit	-13.3707
▁recalibrat	-13.3707
▁sandstorms	-13.3707
▁scrambled	-13.3707
▁skeleton	-13.3707
▁subliminal	-13.3707
▁suffocate	-13.3707
▁terminology	-13.3707
▁unarmed	-13.3707
▁uncompressed	-13.3707
▁unsuccessful	-13.3707
▁untrustworthy	-13.3707
▁versatility	-13.3707
▁wrinkles	-13.3707
▁Salah	-13.3707
▁curators	-13.3707
▁illegible	-13.3707
▁sheriff	-13.3707
▁stormsnight	-13.3707
muffled	-13.3707
▁International	-13.3707
▁Tiktok	-13.3707
▁bolster	-13.3707
▁compilation	-13.3707
▁devolper	-13.3707
▁dungeon	-13.3707
▁flabbergast	-13.3707
▁mutiple	-13.3707
▁postersflyers	-13.3707
▁retention	-13.3707
▁salvag	-13.3707
▁skyrocket	-13.3707
▁toddler	-13.3707
▁unethical	-13.3707
▁Informative	-13.3707
▁biceps	-13.3707
▁disgusted	-13.3707
▁emoticons	-13.3707
▁encapsulate	-13.3707
▁narration	-13.3707
▁plagiari	-13.3707
▁prettier	-13.3707
▁promiscu	-13.3707
▁InShot	-13.3707
▁contrived	-13.3707
▁embarass	-13.3707
▁intrinsic	-13.3707
▁triumph	-13.3707
▁Swarm	-13.3707
▁shortlived	-13.3707
▁victim	-13.3707
ournalism	-13.3707
▁fragment	-13.3707
▁magnit	-13.3707
▁rythme	-13.3707
▁shitshow	-13.3707
▁valley	-13.3707
isastrous	-13.3707
xtrodinar	-13.3707
▁architect	-13.3707
▁glancing	-13.3707
▁misbehav	-13.3707
▁perplex	-13.3707
▁Sunday	-13.3707
▁irregular	-13.3707
▁unfixable	-13.3707
▁unworkable	-13.3707
annada	-13.3707
goddess	-13.3707
lympus	-13.3707
▁Screenshots	-13.3707
▁decimal	-13.3707
▁descriptive	-13.3707
Salute	-13.3707
▁deployment	-13.3707
▁disgrace	-13.3707
▁glorious	-13.3707
▁instantaneous	-13.3707
▁comprehension	-13.3707
▁irrational	-13.3707
▁reinvent	-13.3707
▁feasible	-13.3707
▁moblie	-13.3707
▁vulgar	-13.3707
clothed	-13.3707
▁onebyone	-13.3707
▁torture	-13.3707
▁expirience	-13.3707
▁nagivat	-13.3707
▁softlocked	-13.3707
▁inconvient	-13.3707
▁mitigat	-13.3707
▁begrudg	-13.3707
▁pallet	-13.3707
▁Tactics	-13.3707
▁phenom	-13.3707
▁tomato	-13.3707
▁voila	-13.3707
ohnson	-13.3707
tulip	-13.3707
▁Idiotic	-13.3707
▁caliber	-13.3707
▁truncat	-13.3707
▁alleviat	-13.3707
▁behaviour	-13.3707
▁vedeo	-13.3707
▁coaches	-13.3707
▁disappers	-13.3707
▁mimicking	-13.3707
▁circuitous	-13.3707
▁deluxe	-13.3707
▁grief	-13.3707
inimi	-13.3707
▁commutes	-13.3707
▁racial	-13.3707
▁unoptimi	-13.3707
▁demoralising	-13.3707
▁reflex	-13.3707
▁unbare	-13.3707
▁anchor	-13.3707
▁rumour	-13.3707
▁alllll	-13.3707
▁assembl	-13.3707
▁broadband	-13.3707
▁looooooooo	-13.3707
▁keybind	-13.3707
▁attending	-13.3707
onfusing	-13.3707
▁isolation	-13.3707
▁Sloooooo	-13.3708
▁divisive	-13.3708
▁compensation	-13.3708
▁midsentence	-13.3708
▁Smartphones	-13.3708
▁enviro	-13.3708
▁celebrities	-13.3708
▁compliant	-13.3708
▁consult	-13.3708
unkspam	-13.3708
▁fasci	-13.3708
▁participation	-13.3708
▁foggy	-13.3708
▁reinforcement	-13.3708
▁coffin	-13.3708
▁spilt	-13.3708
▁actionpack	-13.3708
▁gateway	-13.3708
▁rupees	-13.3708
▁gyro	-13.3708
▁retard	-13.3708
▁Insane	-13.3708
▁downscale	-13.3708
▁gfx	-13.3708
▁mxplayer	-13.3708
▁afterthought	-13.3708
▁atmos	-13.3708
gggh	-13.3708
ancelling	-13.3708
▁inexcusable	-13.3708
eadline	-13.3708
▁unchangeable	-13.3708
▁athlet	-13.3708
▁wellbeing	-13.3708
▁unpopular	-13.3708
▁unintrusive	-13.3708
▁guarentee	-13.3708
▁innocen	-13.3708
▁thickness	-13.3708
▁outshine	-13.3708
▁repetetive	-13.3708
▁liberty	-13.3708
▁overlooked	-13.3708
olitical	-13.3708
▁shaft	-13.3708
▁migraine	-13.3708
▁imposter	-13.3708
elcome	-13.3708
▁handeye	-13.3708
▁revolution	-13.3709
usband	-13.3709
▁intuiti	-13.3709
▁drug	-13.3709
▁freedomof	-13.3709
omepage	-13.3709
▁abnormal	-13.3709
ccurate	-13.3709
doenload	-13.3709
▁yoga	-13.3709
▁puppy	-13.3709
▁paytouse	-13.3709
▁disclaimer	-13.3709
▁anonymous	-13.3709
▁discriminat	-13.3709
▁insanity	-13.3709
▁cliff	-13.3709
▁unresolved	-13.3709
Spider	-13.3709
▁bikerid	-13.3709
▁postpone	-13.3709
▁elder	-13.3709
▁disruptions	-13.3709
▁secular	-13.3709
▁deceit	-13.371
▁editorial	-13.371
▁preprogrammed	-13.371
▁rival	-13.371
▁influ	-13.371
▁nationality	-13.371
▁wolf	-13.371
memeber	-13.371
owerful	-13.371
▁passcode	-13.371
▁midchapter	-13.371
▁bangers	-13.371
ongratulat	-13.371
isconnected	-13.371
nsubscribed	-13.371
▁crisis	-13.3711
▁arsenal	-13.3711
toreply	-13.3711
kenny	-13.3711
▁resourceful	-13.3711
▁comedies	-13.3712
▁Authori	-13.3712
▁uniform	-13.3712
▁advisor	-13.3712
▁userunfriendly	-13.3712
▁electro	-13.3712
▁picsvideos	-13.3712
▁extort	-13.3712
▁millisecond	-13.3712
▁slaughter	-13.3712
▁thunder	-13.3712
lunky	-13.3713
▁convient	-13.3713
▁dominoes	-13.3713
▁extraordinary	-13.3713
onsistently	-13.3713
ixelbook	-13.3713
ighway	-13.3713
▁messege	-13.3713
▁spreadsheet	-13.3714
ilter	-13.3714
apster	-13.3714
▁tinder	-13.3714
▁occurance	-13.3714
▁timesaver	-13.3714
▁flirt	-13.3714
▁prosses	-13.3714
▁unsub	-13.3714
▁reconect	-13.3714
▁robbery	-13.3714
▁midstory	-13.3715
▁nerf	-13.3715
▁swiftly	-13.3715
▁dongle	-13.3715
▁congrat	-13.3715
▁grabber	-13.3715
▁curio	-13.3715
▁unforgiving	-13.3715
▁hookers	-13.3715
raffic	-13.3715
▁reevaluat	-13.3715
▁demoted	-13.3715
▁retries	-13.3715
nstantly	-13.3716
▁unchanged	-13.3716
▁distractive	-13.3716
amond	-13.3716
▁mishap	-13.3716
raphs	-13.3716
▁Textto	-13.3716
xxxxx	-13.3716
commendable	-13.3716
▁autoreply	-13.3716
▁abhor	-13.3717
oppy	-13.3717
▁upbeat	-13.3717
bullying	-13.3717
sembl	-13.3717
▁inexpensive	-13.3717
reasure	-13.3718
hitti	-13.3718
▁brah	-13.3718
▁experimental	-13.3718
epublic	-13.3719
odbless	-13.3719
▁intact	-13.3719
onthly	-13.3719
neighbour	-13.3719
▁melod	-13.3719
▁firefox	-13.372
▁worship	-13.372
▁surfers	-13.372
laims	-13.372
▁motivator	-13.372
▁effortless	-13.372
popcorn	-13.3721
▁numb	-13.3721
▁eradicate	-13.3721
▁flashback	-13.3721
ottom	-13.3721
▁withhold	-13.3722
▁albumssongs	-13.3722
▁snipit	-13.3722
▁profound	-13.3722
▁traits	-13.3723
nusable	-13.3723
▁evreyt	-13.3723
▁dismaying	-13.3723
▁messeng	-13.3723
nnecessary	-13.3723
appening	-13.3723
hhhh	-13.3723
▁possessed	-13.3723
▁reelsvideos	-13.3723
▁Stopping	-13.3723
▁Superbike	-13.3724
adges	-13.3725
▁indulge	-13.3725
uatic	-13.3725
▁Scheduling	-13.3725
▁cancer	-13.3725
▁immersed	-13.3725
▁dictate	-13.3725
▁Surprising	-13.3725
▁infant	-13.3725
▁empt	-13.3725
nacceptable	-13.3725
owngrading	-13.3726
▁legac	-13.3726
▁depressing	-13.3726
▁circl	-13.3726
▁faild	-13.3726
▁bargain	-13.3727
▁unsyncing	-13.3727
▁Spain	-13.3727
▁corporation	-13.3727
ombine	-13.3727
ackage	-13.3727
commerc	-13.3728
▁canyon	-13.3728
ingreinstalling	-13.3728
▁supplied	-13.3728
xpected	-13.3728
sition	-13.3728
▁publisher	-13.3729
raud	-13.3729
▁synchronised	-13.3729
nfinished	-13.3729
▁annotating	-13.3729
trait	-13.373
▁Thrills	-13.373
augh	-13.373
▁presumed	-13.373
▁syn	-13.373
▁supp	-13.373
▁appswebsite	-13.3731
▁dawn	-13.3731
▁Anymore	-13.3732
amaro	-13.3732
▁widesp	-13.3733
pgrading	-13.3733
▁reshuffle	-13.3733
▁hiking	-13.3734
▁multilayer	-13.3734
▁proficient	-13.3734
bolt	-13.3734
▁typograph	-13.3734
hasms	-13.3735
tshirt	-13.3735
ightning	-13.3735
eginners	-13.3735
▁remastered	-13.3736
isaster	-13.3737
▁poco	-13.3737
▁chamber	-13.3737
olours	-13.3737
iously	-13.3737
▁relaxation	-13.3738
▁vlogs	-13.3738
▁plsss	-13.3738
▁struck	-13.3738
ecordings	-13.3738
▁entrepreneurs	-13.3739
▁ergonomics	-13.3739
▁expenditures	-13.3739
▁volunteers	-13.3739
udging	-13.3739
▁forewarn	-13.3739
▁demographics	-13.3739
onderfull	-13.3739
▁monkeys	-13.374
ealous	-13.374
▁fisher	-13.3741
utdated	-13.3741
▁offended	-13.3741
▁sailing	-13.3741
▁lockdown	-13.3741
▁Adverts	-13.3742
▁butcher	-13.3743
▁Islands	-13.3743
rankly	-13.3743
taller	-13.3744
▁foxnews	-13.3744
connect	-13.3744
▁chaos	-13.3744
▁superhard	-13.3744
▁retouch	-13.3744
▁headshot	-13.3744
ermission	-13.3744
▁sonic	-13.3745
▁costomi	-13.3745
▁refrain	-13.3745
oticed	-13.3745
ranted	-13.3746
▁pretend	-13.3746
cessary	-13.3746
▁endeavo	-13.3746
▁raids	-13.3747
▁Input	-13.3747
eturning	-13.3747
elated	-13.3747
▁outof	-13.3748
▁soundboard	-13.3748
hydrated	-13.3748
▁harm	-13.3748
▁dipping	-13.3748
ieces	-13.3748
▁glee	-13.3748
Steve	-13.3749
anually	-13.3749
peck	-13.3749
▁funner	-13.375
erification	-13.375
rts	-13.375
isabled	-13.3751
reedy	-13.3751
ccessibility	-13.3751
▁repetitiveness	-13.3751
▁teaser	-13.3752
esert	-13.3752
vril	-13.3753
▁Absolutle	-13.3753
▁robb	-13.3753
▁regulation	-13.3753
abels	-13.3754
▁socialising	-13.3754
anguages	-13.3754
ngoing	-13.3754
▁nfs	-13.3754
▁unfortunat	-13.3755
▁dung	-13.3755
▁playrix	-13.3755
onnected	-13.3755
▁waterfall	-13.3756
emocrat	-13.3757
amental	-13.3757
iping	-13.3757
▁techno	-13.3757
▁pedal	-13.3759
▁bench	-13.3759
▁forwardback	-13.3759
▁seriesshow	-13.376
imits	-13.376
▁posture	-13.3761
▁allotment	-13.3761
▁painless	-13.3762
tension	-13.3762
▁pipe	-13.3763
▁alienate	-13.3763
econnecting	-13.3763
▁inches	-13.3763
▁haunting	-13.3764
▁adblocker	-13.3765
▁metro	-13.3765
▁streamline	-13.3766
▁drown	-13.3766
▁hdd	-13.3766
ruh	-13.3766
▁celebrit	-13.3767
owered	-13.3767
▁dampen	-13.3767
navailable	-13.3768
▁outages	-13.377
▁inputting	-13.3771
asual	-13.3772
▁handsthumbs	-13.3772
▁midgame	-13.3772
▁overlapping	-13.3773
uitous	-13.3773
ustomi	-13.3773
hoice	-13.3774
estures	-13.3774
iety	-13.3775
kin	-13.3775
▁slowdown	-13.3776
▁ridden	-13.3776
▁screan	-13.3776
▁shred	-13.3776
▁deducting	-13.3777
rowser	-13.3777
▁mustang	-13.3777
identified	-13.3778
▁disorder	-13.3779
▁horde	-13.378
▁mimic	-13.378
▁thick	-13.378
attery	-13.3781
nternal	-13.3781
▁soundbar	-13.3781
▁elite	-13.3782
▁doctors	-13.3782
eserves	-13.3783
isible	-13.3783
hild	-13.3783
▁singleplayer	-13.3785
▁noobs	-13.3787
▁roleplays	-13.3787
▁therap	-13.3788
▁magnifi	-13.379
▁audioonly	-13.379
mggg	-13.3791
oneti	-13.3791
▁boun	-13.3791
▁slowdowns	-13.3792
▁webmail	-13.3793
▁disapear	-13.3794
died	-13.3794
▁expectation	-13.3795
▁blurb	-13.3795
▁photosvideos	-13.3796
▁msn	-13.3796
toplay	-13.3796
▁allround	-13.3797
playable	-13.3797
orgot	-13.3798
▁identifier	-13.3798
▁energi	-13.38
▁perma	-13.3801
▁highres	-13.3802
ulk	-13.3802
rompt	-13.3803
▁Stutter	-13.3803
ngine	-13.3805
▁prefect	-13.3805
▁null	-13.3805
reators	-13.3806
▁featire	-13.3806
▁grubb	-13.3808
▁cultur	-13.3808
▁advertiser	-13.3809
mersed	-13.3811
▁forcestopp	-13.3812
▁stupidity	-13.3814
▁venting	-13.3818
anceled	-13.3818
▁survivor	-13.3818
▁inspiring	-13.3818
▁rockin	-13.3821
▁baffling	-13.3822
▁russian	-13.3822
fulness	-13.3826
▁archived	-13.3827
waite	-13.3828
guages	-13.3829
▁usefulness	-13.383
otten	-13.383
soccer	-13.3831
xperienced	-13.3832
▁xb	-13.3832
iberal	-13.3833
▁agitat	-13.3834
▁awesomeness	-13.3835
▁temples	-13.3836
▁Igua	-13.3837
▁hight	-13.3837
▁Shout	-13.3837
pronounced	-13.3837
▁wipeout	-13.3839
▁stil	-13.384
miliar	-13.384
ctivity	-13.3842
bie	-13.3843
▁automate	-13.3845
▁lumin	-13.3847
ronic	-13.3847
▁explod	-13.3848
▁designate	-13.3848
▁Se	-13.3849
▁inevitable	-13.3849
ursed	-13.385
isit	-13.385
▁packets	-13.385
▁bookstores	-13.385
▁awaits	-13.3851
▁theirs	-13.3854
▁miserably	-13.3855
▁proble	-13.3855
enyan	-13.3855
▁leaf	-13.3856
wr	-13.3857
ricey	-13.3859
▁undone	-13.3859
▁terror	-13.386
iece	-13.386
▁Struggle	-13.3861
▁simp	-13.3862
▁psychologi	-13.3863
▁blury	-13.3863
▁shutter	-13.3863
▁seperated	-13.3866
▁revolver	-13.3868
▁lava	-13.3869
▁sensation	-13.387
▁gettin	-13.387
miths	-13.3871
green	-13.3874
▁catergor	-13.3874
tween	-13.3875
▁engross	-13.3875
attainable	-13.3876
ntage	-13.3877
▁apologi	-13.3878
▁upkeep	-13.3879
▁groupings	-13.3879
▁seperately	-13.3879
cheting	-13.388
iotic	-13.388
ibration	-13.388
▁ffs	-13.388
inish	-13.3881
▁blackmail	-13.3883
▁Solution	-13.3885
ecomes	-13.3888
▁highway	-13.3889
agnificent	-13.389
▁getaway	-13.389
▁easygoing	-13.389
▁sharpen	-13.3891
cognit	-13.3892
lim	-13.3896
▁documentation	-13.3899
▁newsletter	-13.39
▁lud	-13.39
ualify	-13.39
▁organisations	-13.3904
▁tycoons	-13.3904
uttons	-13.3907
ewinding	-13.3907
astics	-13.3909
▁accont	-13.391
stress	-13.391
stitute	-13.3912
▁diffent	-13.3915
exi	-13.3915
isp	-13.3915
▁everday	-13.3915
vertime	-13.3917
▁conceiv	-13.3919
efaults	-13.3919
ciate	-13.3922
isplays	-13.3922
oblem	-13.3923
kn	-13.3925
▁bugfree	-13.3926
andwi	-13.3928
arge	-13.3928
hrist	-13.3928
lls	-13.3929
cial	-13.393
▁adaptation	-13.3931
▁setback	-13.3932
presentation	-13.3933
▁streets	-13.3934
▁unexplain	-13.3934
epeated	-13.3936
gested	-13.3937
▁selfies	-13.3937
Track	-13.3939
▁manu	-13.3939
hows	-13.3942
ewards	-13.3944
iscu	-13.3946
▁sigh	-13.3951
▁insights	-13.3951
▁sal	-13.3953
ype	-13.3956
gravi	-13.3956
sa	-13.3957
aren	-13.3957
▁compressing	-13.3959
▁favorable	-13.3959
▁spirits	-13.3959
▁prison	-13.3959
▁multipliers	-13.396
▁pik	-13.3961
activatesign	-13.3962
▁filenames	-13.3963
beg	-13.3964
▁xl	-13.3966
▁extensively	-13.3967
▁spoiler	-13.3968
steroid	-13.3971
nfollow	-13.3972
ova	-13.3974
▁dec	-13.3978
▁posit	-13.3981
▁overlayed	-13.3981
ford	-13.3983
▁cromebook	-13.3983
▁halftime	-13.3985
▁masks	-13.3989
▁composer	-13.399
ifficulty	-13.3991
▁winded	-13.3993
ewest	-13.3993
rdered	-13.3995
▁converted	-13.3995
▁letdown	-13.3996
creating	-13.4002
inous	-13.4003
▁minuet	-13.4005
▁thos	-13.4009
▁meme	-13.4013
▁nois	-13.4014
▁noob	-13.4014
▁ramps	-13.4014
erarch	-13.4016
▁contro	-13.4016
▁reversed	-13.4018
oard	-13.4018
rati	-13.4022
▁watermarks	-13.4023
suits	-13.4024
▁videogames	-13.4025
rossplatform	-13.4026
nintalling	-13.4028
▁preroll	-13.4028
esearch	-13.4031
bb	-13.4032
sane	-13.4038
rowse	-13.4041
▁incentivi	-13.4041
▁locat	-13.4042
▁mirrors	-13.4043
lerts	-13.4044
vis	-13.4047
▁overreac	-13.4048
ranslation	-13.4049
▁conflicting	-13.4051
onderfully	-13.4052
▁pano	-13.4053
hu	-13.4055
▁beeps	-13.4058
throughs	-13.406
▁respositor	-13.406
▁rigg	-13.4061
abilities	-13.4061
hallenges	-13.4062
▁pian	-13.4065
▁bound	-13.4066
ooth	-13.4067
▁cups	-13.407
abel	-13.407
enu	-13.4071
uins	-13.4071
▁imaginative	-13.4072
dds	-13.4072
arfare	-13.4076
tom	-13.4076
▁corn	-13.4078
forgiving	-13.408
progress	-13.4082
▁slog	-13.4087
haul	-13.4088
▁patent	-13.4096
org	-13.4096
▁Stre	-13.4096
rovides	-13.4097
▁lure	-13.4097
▁reporte	-13.4101
▁inconsistenc	-13.4107
▁succeeding	-13.4109
▁notifie	-13.411
blem	-13.4113
installed	-13.4116
▁laggin	-13.4126
▁miners	-13.4126
oints	-13.4126
▁poppy	-13.4127
▁Tower	-13.4127
▁recycle	-13.4129
▁exploitati	-13.4129
▁haunt	-13.4131
▁preffer	-13.4133
onexistant	-13.4136
ousel	-13.4136
▁bord	-13.4138
ersons	-13.4138
▁bunk	-13.4139
▁undownload	-13.414
▁Task	-13.4141
▁truthfull	-13.4144
▁welcom	-13.4145
notifications	-13.4147
rowsing	-13.4149
▁wee	-13.415
▁tires	-13.4151
▁defeated	-13.4152
lox	-13.4156
eaper	-13.4161
▁cure	-13.4164
▁irrel	-13.4164
▁Archiv	-13.4164
edious	-13.4173
▁reproduc	-13.4174
▁voluntar	-13.418
hic	-13.4183
▁improper	-13.4184
evert	-13.4195
fi	-13.4197
▁babbl	-13.4198
▁Stable	-13.4199
activity	-13.4201
▁collapses	-13.4202
▁distribute	-13.4204
pawn	-13.4206
▁startling	-13.4206
▁Invit	-13.4206
ntm	-13.4207
inked	-13.4208
ml	-13.4209
rdu	-13.4212
▁authentic	-13.4213
▁superbly	-13.4214
▁flies	-13.4215
▁revolve	-13.4215
hief	-13.4216
▁unstall	-13.4221
main	-13.4222
whole	-13.4225
grammer	-13.4227
▁oldies	-13.4229
▁reflection	-13.4231
▁programmer	-13.4232
ranian	-13.4233
▁unpleas	-13.4237
uous	-13.424
ournaments	-13.424
▁tipping	-13.4249
nic	-13.425
destruct	-13.4251
▁porta	-13.4255
▁awfull	-13.4257
▁milk	-13.4259
▁adv	-13.4262
▁deteriorat	-13.4274
port	-13.4276
▁stu	-13.4276
obot	-13.4279
shot	-13.4279
ifts	-13.4281
▁berri	-13.4281
▁sociali	-13.4282
hopping	-13.4283
▁guests	-13.4283
▁creeper	-13.4284
▁relevan	-13.4284
▁pip	-13.4288
▁defect	-13.4291
▁gamify	-13.4291
fled	-13.4293
eaters	-13.4295
Stations	-13.4296
▁Intro	-13.4297
▁midst	-13.43
loper	-13.4307
▁Tablets	-13.431
elt	-13.4321
▁skid	-13.4322
apt	-13.4324
▁comput	-13.4327
lac	-13.4332
▁invalidat	-13.4334
arted	-13.4336
▁defocus	-13.4343
▁veiwer	-13.4349
▁Syn	-13.435
▁wast	-13.4356
nent	-13.4356
▁cutter	-13.4359
dent	-13.4362
ewcomer	-13.4364
ung	-13.4364
▁timeframe	-13.4365
esets	-13.4365
▁launches	-13.4368
▁audiophile	-13.4371
▁presum	-13.4372
▁flare	-13.4372
lat	-13.4373
kipping	-13.4378
▁esc	-13.4394
chnophob	-13.4395
▁racist	-13.4397
anese	-13.44
vel	-13.44
▁promt	-13.4409
▁planting	-13.4409
▁readings	-13.4411
▁editting	-13.4412
▁technologi	-13.4412
ner	-13.4417
▁courage	-13.4419
illi	-13.442
▁venture	-13.4424
▁drums	-13.4426
▁alltime	-13.4429
xcit	-13.4436
nalytic	-13.4436
▁facewe	-13.4436
▁debri	-13.4442
▁allowance	-13.4454
wi	-13.4456
hope	-13.4456
ovement	-13.4457
discovered	-13.4458
ayer	-13.4465
▁blurr	-13.4469
forward	-13.4469
eact	-13.4471
pack	-13.4474
▁administrator	-13.4475
status	-13.4478
smokes	-13.448
▁reall	-13.4483
▁Aday	-13.4496
▁legs	-13.4497
▁const	-13.4507
ruit	-13.4509
▁mach	-13.4513
▁revives	-13.4523
▁labor	-13.4524
guide	-13.4531
▁drawbacks	-13.4538
▁aids	-13.4545
▁meander	-13.4547
asio	-13.4548
▁flee	-13.4549
erify	-13.4549
▁paints	-13.4549
vity	-13.455
▁wis	-13.4551
floods	-13.4553
ago	-13.4557
▁aimless	-13.4557
bel	-13.4563
formatting	-13.4569
▁hound	-13.4569
▁obtainable	-13.4576
ypically	-13.4579
tra	-13.4585
episide	-13.4592
ramped	-13.4598
ctual	-13.4599
▁unregistere	-13.4599
reen	-13.4605
▁Shee	-13.4605
▁ahaha	-13.4609
▁roleplay	-13.461
stration	-13.4611
elayed	-13.4614
▁makeovers	-13.4625
owe	-13.4626
▁priv	-13.4627
▁reputa	-13.463
subbing	-13.4631
liability	-13.4633
ift	-13.464
▁Str	-13.4642
uds	-13.4643
▁envelop	-13.4647
kx	-13.4654
▁rager	-13.466
▁med	-13.4662
mber	-13.4665
▁appplatform	-13.4673
lain	-13.4677
aken	-13.4683
▁greatful	-13.4685
▁hist	-13.4692
ndering	-13.4692
missions	-13.4701
renc	-13.4706
▁promble	-13.4706
rious	-13.4706
▁lean	-13.4718
▁excuses	-13.4718
▁Annoy	-13.4723
▁sayin	-13.4726
▁tasteful	-13.473
adios	-13.4733
▁Afi	-13.4733
▁pixelate	-13.4736
ssss	-13.4739
▁platformservice	-13.4742
▁gri	-13.4744
crypt	-13.4747
odec	-13.4755
presenting	-13.4756
▁obt	-13.4756
silencer	-13.4766
▁trri	-13.4769
▁inspir	-13.477
cut	-13.4773
▁graduate	-13.4779
▁merc	-13.4779
plan	-13.4789
▁gram	-13.4798
allen	-13.4798
glasses	-13.4801
tically	-13.4803
xtend	-13.481
iful	-13.4817
formation	-13.4819
▁asp	-13.4835
athe	-13.4838
rid	-13.484
▁dab	-13.4846
ute	-13.4846
▁agr	-13.4847
▁curate	-13.4849
▁exe	-13.485
▁contend	-13.4854
grate	-13.4858
▁recommen	-13.4859
▁decod	-13.4861
▁chromebase	-13.4868
▁mys	-13.4871
spend	-13.4872
vised	-13.4879
▁rig	-13.4884
▁dura	-13.4885
▁mens	-13.489
▁disorgani	-13.4891
hankfully	-13.4892
▁marke	-13.4892
▁storytell	-13.4896
▁tiktoks	-13.4901
canning	-13.4904
▁merger	-13.4906
tok	-13.4907
▁enraging	-13.491
▁continu	-13.4914
▁unify	-13.4925
▁Separate	-13.4931
icking	-13.4931
▁matte	-13.4933
▁Sand	-13.4942
astic	-13.4952
thori	-13.4954
▁operat	-13.4955
litter	-13.4962
▁unf	-13.4979
▁integrations	-13.4984
AAAAA	-13.4986
▁mouthI	-13.4992
ource	-13.4994
▁flame	-13.4998
▁lagbug	-13.5008
unted	-13.5014
cords	-13.5036
ontinues	-13.5042
eptic	-13.5044
▁cripple	-13.5046
▁fam	-13.5046
ITA	-13.5047
opics	-13.5054
▁hoop	-13.5055
ulf	-13.5058
rful	-13.5063
ek	-13.5066
▁influencer	-13.5066
▁romani	-13.5067
▁strap	-13.5074
understand	-13.5074
uuuu	-13.5076
▁dare	-13.5081
lting	-13.5087
▁toh	-13.5089
dgment	-13.5092
sided	-13.5093
▁grup	-13.5095
layable	-13.5099
tell	-13.5108
ody	-13.5111
enre	-13.5113
▁simplif	-13.5113
▁filming	-13.512
▁imm	-13.5121
ident	-13.5122
omp	-13.5134
▁satif	-13.5135
waiting	-13.5142
cla	-13.5147
rue	-13.5156
ila	-13.5162
▁dx	-13.5162
ury	-13.5165
▁automobile	-13.5168
▁alongs	-13.5168
cos	-13.5171
▁graphing	-13.5176
▁fool	-13.5179
▁intri	-13.5179
oe	-13.5193
▁los	-13.52
▁moron	-13.5204
▁mate	-13.5214
▁wha	-13.5215
mas	-13.5229
thought	-13.5237
▁compli	-13.5238
▁dense	-13.5241
▁encounters	-13.5245
▁optin	-13.5246
crashing	-13.5262
▁imped	-13.5263
▁compat	-13.5269
▁astr	-13.5271
worse	-13.5273
alters	-13.5275
▁deterre	-13.5278
▁compair	-13.5285
▁scre	-13.5295
▁cheese	-13.5308
xolo	-13.5309
ushed	-13.5317
put	-13.5319
arming	-13.5319
▁eng	-13.5319
tl	-13.5327
des	-13.533
▁relie	-13.533
▁forte	-13.5338
sky	-13.5338
chase	-13.5343
press	-13.5351
ained	-13.5351
chapters	-13.5356
ools	-13.536
etail	-13.5361
▁bea	-13.5363
▁timewatch	-13.5363
ncreased	-13.5369
▁crosspla	-13.5373
verbia	-13.5378
changes	-13.538
stuck	-13.5383
organised	-13.5384
▁stride	-13.5384
▁parade	-13.5385
▁activates	-13.539
▁regrets	-13.539
log	-13.5403
▁during	-13.5406
▁anci	-13.5415
▁tiers	-13.5419
▁bleep	-13.5431
▁cert	-13.5436
▁sittings	-13.5438
▁rat	-13.5443
sync	-13.5452
oose	-13.5452
▁grader	-13.5456
▁sector	-13.5467
▁bud	-13.5476
ca	-13.548
attle	-13.5481
adation	-13.5483
▁encompass	-13.5483
aut	-13.5485
ermany	-13.5491
urr	-13.5496
rat	-13.5498
▁terri	-13.5527
aaa	-13.5531
humbnails	-13.5533
sc	-13.5541
draw	-13.5543
active	-13.5546
▁spike	-13.5546
▁spen	-13.5548
▁spy	-13.5553
sche	-13.5553
taining	-13.5559
clear	-13.5561
▁illustrat	-13.5564
▁behaviors	-13.5568
acros	-13.557
ensitivity	-13.5571
elli	-13.5576
▁dan	-13.5579
▁Stoppe	-13.5581
rst	-13.5593
riety	-13.5593
rip	-13.5595
hr	-13.5598
eos	-13.5602
nin	-13.5603
itic	-13.5606
pick	-13.5615
itiful	-13.5615
▁van	-13.5622
daily	-13.5625
▁sele	-13.563
▁downgrades	-13.5632
otation	-13.5636
random	-13.5642
uals	-13.5657
osters	-13.5665
ready	-13.5668
▁rocking	-13.5684
channels	-13.5689
aaay	-13.569
sons	-13.5697
▁imme	-13.5698
spiring	-13.5698
ogg	-13.5699
▁Alb	-13.5701
[...]
