<unk>	0
<s>	0
</s>	0
▁	-1.90886
.	-2.59076
▁I	-3.16594
▁app	-4.236
s	-4.87596
▁game	-4.90426
▁The	-4.9903
▁It	-5.01003
ing	-5.13844
▁like	-5.18155
▁is	-5.2212
▁would	-5.47316
▁get	-5.47778
▁time	-5.54521
▁one	-5.60736
▁it	-5.6142
▁good	-5.61966
▁play	-5.66047
▁am	-5.69015
▁cannot	-5.70889
▁great	-5.73499
▁use	-5.74587
▁really	-5.76787
▁have	-5.76829
▁This	-5.79313
y	-5.83462
▁even	-5.87438
ed	-5.88902
▁love	-5.93209
▁phone	-5.98827
▁back	-6.04412
▁music	-6.05102
▁new	-6.06167
▁want	-6.06807
ly	-6.08672
▁free	-6.10739
▁ads	-6.1179
▁way	-6.18018
▁update	-6.18368
ut	-6.18875
▁also	-6.2022
I	-6.20848
▁screen	-6.21109
▁work	-6.22362
▁make	-6.2306
▁still	-6.23193
▁fix	-6.23577
▁much	-6.24881
▁T	-6.25002
e	-6.25699
▁A	-6.31866
▁go	-6.34902
▁not	-6.35128
▁video	-6.35263
▁see	-6.35304
▁many	-6.36038
▁watch	-6.36255
▁playing	-6.36504
▁keep	-6.36803
▁every	-6.36955
▁problem	-6.37438
▁issue	-6.43273
▁using	-6.43383
▁that	-6.44019
...	-6.44775
▁could	-6.46583
▁better	-6.49858
▁need	-6.51245
▁find	-6.52972
▁well	-6.52976
▁lot	-6.54628
▁option	-6.57519
▁fun	-6.58541
▁used	-6.60575
ou	-6.61349
▁times	-6.61425
▁If	-6.61926
▁able	-6.63079
▁stars	-6.63154
▁thing	-6.65857
▁annoying	-6.66155
▁years	-6.6664
▁without	-6.66971
▁people	-6.67468
▁shows	-6.67592
▁And	-6.6843
▁add	-6.68855
▁There	-6.69215
o	-6.70274
▁version	-6.70638
▁songs	-6.70716
▁easy	-6.72326
▁face	-6.7348
▁give	-6.75238
▁try	-6.75671
▁something	-6.75926
▁things	-6.76744
T	-6.77124
▁games	-6.77298
▁Also	-6.78147
A	-6.7838
▁read	-6.78612
lease	-6.79044
▁sometimes	-6.79263
▁issues	-6.79317
▁there	-6.79443
d	-6.80555
▁movies	-6.82137
▁best	-6.82425
▁know	-6.82844
▁never	-6.83373
▁show	-6.83751
▁always	-6.83942
▁money	-6.85318
S	-6.85786
▁works	-6.8604
▁en	-6.86672
▁song	-6.87281
▁long	-6.88403
▁since	-6.88883
▁you	-6.89083
▁apps	-6.89591
▁think	-6.89913
▁feature	-6.90694
▁different	-6.91798
▁So	-6.92407
▁open	-6.92602
▁though	-6.93077
▁pay	-6.94223
▁watching	-6.95522
▁coins	-6.95681
▁experience	-6.95697
▁change	-6.96294
▁ad	-6.96867
▁first	-6.98012
▁everything	-6.9838
▁mobile	-6.98531
▁last	-6.98876
▁going	-6.9903
▁features	-6.99612
▁makes	-7.00183
▁getting	-7.00287
▁will	-7.02055
▁tried	-7.03902
hen	-7.04061
or	-7.04114
es	-7.04185
▁please	-7.0497
▁level	-7.05355
▁got	-7.06108
▁S	-7.06239
▁ama	-7.06259
▁nice	-7.07349
▁again	-7.08589
▁do	-7.09426
▁fixed	-7.10228
ot	-7.10811
▁hard	-7.1103
▁wish	-7.11796
▁day	-7.11841
▁start	-7.13084
▁far	-7.1444
▁pretty	-7.14602
▁trying	-7.14711
▁now	-7.14856
▁download	-7.14897
▁content	-7.15934
▁bad	-7.1628
▁right	-7.16811
▁this	-7.16853
▁me	-7.16978
▁anything	-7.1776
▁frustrating	-7.17825
▁another	-7.18285
ow	-7.18467
▁little	-7.18803
▁fine	-7.19597
▁service	-7.19824
▁movie	-7.20184
▁friends	-7.20513
oy	-7.2083
▁videos	-7.21166
▁re	-7.21894
▁turn	-7.22435
hat	-7.23131
▁player	-7.23361
reat	-7.23433
▁button	-7.23475
▁working	-7.23905
▁recommend	-7.23911
▁star	-7.24438
▁reason	-7.2493
▁account	-7.25028
▁next	-7.25692
er	-7.26245
owever	-7.26288
ust	-7.26805
i	-7.27492
▁minutes	-7.27744
▁made	-7.2783
▁files	-7.28218
▁help	-7.28252
▁ever	-7.28256
uality	-7.28934
▁controls	-7.29309
▁streaming	-7.29964
▁takes	-7.29974
▁up	-7.3081
▁all	-7.3175
▁bit	-7.32747
▁seems	-7.32987
▁mode	-7.3304
▁problems	-7.33438
▁let	-7.33665
▁two	-7.33998
▁them	-7.34614
▁device	-7.34926
▁reading	-7.35086
n	-7.35697
▁audio	-7.36052
▁levels	-7.36763
▁to	-7.37511
etflix	-7.37701
▁instead	-7.37766
▁actually	-7.37817
▁gets	-7.37919
▁put	-7.38108
▁stop	-7.38118
▁listen	-7.38221
▁feel	-7.38927
▁say	-7.38965
▁load	-7.39393
▁nothing	-7.39613
▁needs	-7.3965
▁options	-7.40304
▁old	-7.41625
▁take	-7.4224
▁Android	-7.43387
▁look	-7.43512
▁user	-7.44344
▁graphics	-7.45296
ery	-7.45489
▁enough	-7.45903
▁sure	-7.46079
▁email	-7.46559
▁message	-7.46766
▁premium	-7.47289
▁close	-7.48635
▁played	-7.49112
▁seconds	-7.49229
▁bug	-7.49231
▁point	-7.49635
▁bugs	-7.50094
▁end	-7.50546
▁are	-7.50789
▁days	-7.5097
▁subscription	-7.51128
▁started	-7.52295
▁almost	-7.5268
▁search	-7.53275
▁longer	-7.54183
ther	-7.54682
t	-7.54952
▁story	-7.55122
▁multiple	-7.55896
▁playlist	-7.55945
▁send	-7.56994
▁list	-7.57105
▁access	-7.57127
▁text	-7.57139
▁available	-7.57292
▁especially	-7.57967
▁data	-7.58083
▁etc	-7.58176
▁sound	-7.5836
▁updates	-7.58562
▁file	-7.59675
verall	-7.59979
▁i	-7.60008
▁worth	-7.60028
oogle	-7.60634
▁messages	-7.61008
▁photos	-7.61112
▁making	-7.61184
▁often	-7.61494
▁Spotify	-7.61978
▁already	-7.62123
▁live	-7.6267
▁hope	-7.62828
▁click	-7.63546
▁media	-7.63551
▁year	-7.6391
▁months	-7.63958
▁us	-7.64141
▁difficult	-7.64364
▁full	-7.65016
▁around	-7.65393
▁favorite	-7.65563
▁least	-7.65785
▁App	-7.66334
▁devices	-7.6729
▁review	-7.673
▁either	-7.67386
ove	-7.67476
▁come	-7.67949
▁support	-7.6869
▁found	-7.68775
▁save	-7.68803
▁buy	-7.689
▁left	-7.69524
ne	-7.69529
▁settings	-7.6991
▁part	-7.69983
▁fast	-7.69999
▁kind	-7.70691
▁continue	-7.70815
▁overall	-7.7098
▁seem	-7.71096
▁else	-7.7128
▁move	-7.71359
▁less	-7.71484
▁episode	-7.71733
▁soon	-7.71875
▁anymore	-7.72853
▁completely	-7.73264
▁whole	-7.73344
▁Thank	-7.74429
▁stories	-7.74548
▁awesome	-7.74954
▁progress	-7.74981
▁recently	-7.75159
▁looking	-7.75369
▁learning	-7.75407
▁view	-7.75652
▁selection	-7.75734
▁away	-7.7594
▁month	-7.75946
▁interface	-7.75989
▁crashes	-7.76011
▁downloaded	-7.76074
▁slow	-7.76769
▁several	-7.77108
▁stuff	-7.78183
▁amount	-7.7881
▁constantly	-7.78887
▁ago	-7.791
▁choose	-7.79105
▁perfect	-7.80053
▁real	-7.80367
▁others	-7.80847
▁book	-7.81005
▁run	-7.81225
▁off	-7.81317
▁done	-7.81594
▁set	-7.81697
▁page	-7.81732
▁top	-7.81737
▁simple	-7.8183
▁on	-7.81994
▁out	-7.82117
▁yet	-7.82344
▁stream	-7.82738
▁chat	-7.82934
▁learn	-7.83006
▁notifications	-7.83053
▁second	-7.83061
▁couple	-7.83302
▁lose	-7.83352
▁goes	-7.83603
▁edit	-7.84198
ood	-7.84878
▁certain	-7.85143
▁delete	-7.85158
▁Thanks	-7.85323
uite	-7.85405
▁added	-7.85445
▁allow	-7.85547
r	-7.85573
▁past	-7.85971
▁in	-7.86727
▁After	-7.86796
▁select	-7.86991
▁playlists	-7.87259
▁place	-7.87666
▁recent	-7.87821
▁system	-7.87895
▁says	-7.88063
▁cool	-7.88646
▁platform	-7.88969
▁home	-7.89129
▁impossible	-7.8915
▁absolutely	-7.8946
▁internet	-7.89685
▁however	-7.89701
▁connection	-7.90189
▁fact	-7.90387
▁big	-7.91082
▁updated	-7.91629
▁call	-7.91655
▁wrong	-7.91885
▁As	-7.92476
ould	-7.92789
▁main	-7.9282
▁loading	-7.93022
▁series	-7.93339
▁ability	-7.93647
▁control	-7.94203
▁In	-7.94903
▁they	-7.9494
▁restart	-7.95106
▁All	-7.95233
▁chapters	-7.95287
▁glitches	-7.96115
▁spend	-7.96333
▁complete	-7.96405
ulu	-7.96436
▁forward	-7.96488
▁wait	-7.965
▁stuck	-7.968
▁super	-7.96833
▁too	-7.96953
▁daily	-7.97097
▁skip	-7.97213
▁understand	-7.97862
▁pop	-7.98361
▁listening	-7.98571
▁thought	-7.98902
▁smil	-7.99126
▁Sometimes	-8.00166
▁rate	-8.00357
▁error	-8.00633
▁definitely	-8.00688
▁easier	-8.00745
▁order	-8.01075
▁someone	-8.01275
▁latest	-8.01276
▁may	-8.01286
▁channels	-8.01856
▁hours	-8.02125
▁Some	-8.02292
▁happens	-8.02298
▁small	-8.02413
▁paying	-8.02418
▁photo	-8.02738
▁pass	-8.02917
▁anyone	-8.03444
▁finish	-8.03882
▁tv	-8.04519
▁pause	-8.04546
▁changed	-8.04621
▁single	-8.04735
▁lost	-8.0488
▁points	-8.05416
▁scroll	-8.05431
▁random	-8.05478
▁plays	-8.05497
▁switch	-8.05622
▁possible	-8.05639
▁tell	-8.05764
▁world	-8.05836
▁commercials	-8.05855
▁players	-8.06133
ouTube	-8.0618
▁application	-8.06307
▁automatically	-8.06324
▁example	-8.06361
▁half	-8.06562
▁clear	-8.0666
▁maybe	-8.06789
▁news	-8.06894
▁books	-8.0717
▁later	-8.0729
▁beginning	-8.07292
en	-8.07456
▁worked	-8.07469
▁users	-8.07475
nly	-8.07745
dit	-8.07747
▁easily	-8.0794
pdate	-8.07963
▁paid	-8.08336
▁editing	-8.08388
▁unless	-8.08425
▁sync	-8.085
▁background	-8.08956
on	-8.09668
st	-8.09898
▁worse	-8.09905
▁guys	-8.10014
▁rating	-8.10033
▁extreme	-8.10113
▁gameplay	-8.10475
▁changes	-8.10655
▁because	-8.10794
▁black	-8.10999
▁high	-8.11644
hatsApp	-8.11742
▁hate	-8.11774
▁randomly	-8.11811
▁matter	-8.12031
▁storage	-8.1235
▁useful	-8.12514
able	-8.134
▁post	-8.13665
▁said	-8.1368
▁starts	-8.146
▁connect	-8.15695
▁language	-8.15897
▁business	-8.16156
▁cost	-8.16487
▁person	-8.16637
▁Its	-8.17073
▁car	-8.17085
▁track	-8.17288
▁seen	-8.17715
▁variety	-8.18671
ropbox	-8.18812
▁more	-8.18866
▁uninstall	-8.18969
▁gone	-8.19032
▁might	-8.19038
▁giving	-8.19107
▁ones	-8.19627
..	-8.19773
▁hear	-8.19832
▁eyes	-8.20096
▁design	-8.20159
▁comes	-8.20225
▁heart	-8.20263
▁previous	-8.20341
▁everyone	-8.20425
est	-8.20528
very	-8.2068
▁.	-8.21247
▁side	-8.21279
hy	-8.21318
▁speed	-8.21322
▁picture	-8.22189
ven	-8.22466
▁number	-8.22494
▁chapter	-8.22714
▁piano	-8.22771
▁due	-8.22829
▁offline	-8.22838
▁channel	-8.22993
▁notification	-8.23055
uickly	-8.23115
▁become	-8.23268
▁function	-8.23302
ame	-8.23423
ave	-8.23757
▁emails	-8.23837
▁camera	-8.24057
▁check	-8.24138
▁remove	-8.2428
▁crashing	-8.24409
▁happened	-8.24482
▁hit	-8.2511
▁tap	-8.25121
▁stops	-8.25212
ump	-8.25231
▁rather	-8.25481
▁short	-8.25637
loud	-8.25869
▁properly	-8.25913
▁trial	-8.25926
▁pick	-8.25987
▁match	-8.26345
▁create	-8.26511
▁wanted	-8.266
▁lessons	-8.2665
▁price	-8.26748
▁tablet	-8.26865
▁does	-8.27146
▁type	-8.27309
▁happy	-8.27868
▁log	-8.282
an	-8.28213
▁desktop	-8.28258
▁helpful	-8.28379
▁gives	-8.28541
AT	-8.2861
▁pictures	-8.28684
▁showing	-8.28726
it	-8.28745
▁items	-8.28937
literally	-8.29046
▁terrible	-8.29486
▁Samsung	-8.29955
▁glitch	-8.30069
▁cancel	-8.3019
▁for	-8.3028
▁space	-8.3038
▁team	-8.30383
▁phones	-8.30557
▁navigate	-8.30844
▁section	-8.30855
annot	-8.30896
▁saying	-8.31087
▁expensive	-8.31126
▁week	-8.31363
as	-8.31459
▁share	-8.31497
▁Then	-8.32037
▁sent	-8.32322
▁developers	-8.32395
ob	-8.32456
▁menu	-8.32527
▁setting	-8.32615
▁android	-8.32738
▁running	-8.33466
ee	-8.34089
▁whenever	-8.34264
▁folder	-8.3439
▁online	-8.34546
▁three	-8.34715
▁entire	-8.34725
▁purchase	-8.34757
▁worst	-8.34919
▁stopped	-8.34991
▁of	-8.35579
▁complaint	-8.35596
▁images	-8.35615
▁Still	-8.35637
ike	-8.35725
ad	-8.35934
▁went	-8.36209
▁sucks	-8.36372
▁extra	-8.36523
▁weeks	-8.36564
▁cars	-8.36632
▁ma	-8.36748
isney	-8.36861
▁took	-8.37188
▁needed	-8.37266
eally	-8.38097
▁lots	-8.38435
▁crash	-8.38462
▁original	-8.38527
▁whatever	-8.3863
▁playback	-8.38711
▁notes	-8.38945
▁usually	-8.39082
▁bar	-8.39314
▁over	-8.39459
▁card	-8.39678
▁voice	-8.39834
▁excellent	-8.3986
▁auto	-8.40002
▁except	-8.4002
▁wifi	-8.40084
....	-8.40102
▁status	-8.40198
▁unable	-8.40305
▁waste	-8.40445
▁bring	-8.40848
▁what	-8.40943
▁upload	-8.41034
▁five	-8.41197
usic	-8.41366
▁disappointed	-8.4175
▁friendly	-8.42263
▁plus	-8.42491
▁press	-8.42682
▁adding	-8.43008
▁before	-8.43113
▁deleted	-8.43232
▁minute	-8.43239
▁library	-8.43503
▁leave	-8.43725
▁computer	-8.43924
▁given	-8.43999
▁useless	-8.44006
▁Ama	-8.4401
▁win	-8.44255
a	-8.4436
▁missing	-8.44525
▁adds	-8.44535
▁At	-8.44812
▁interesting	-8.45063
▁mind	-8.45263
▁low	-8.45747
▁middle	-8.4592
▁must	-8.45983
▁To	-8.46562
▁life	-8.46754
▁ridiculous	-8.46775
▁earn	-8.47454
▁large	-8.47531
▁volume	-8.47713
ation	-8.47909
▁uninstalled	-8.48113
▁saved	-8.48263
therwise	-8.48417
▁fre	-8.48652
▁layout	-8.48694
▁unlock	-8.48813
▁reinstalled	-8.49006
uest	-8.49289
▁hands	-8.49512
▁basic	-8.49593
▁upgrade	-8.49717
▁downloading	-8.49784
AS	-8.49942
▁reinstall	-8.50022
uick	-8.5029
▁Sound	-8.50315
▁hour	-8.5038
▁episodes	-8.50807
▁s	-8.51435
▁happen	-8.51698
▁looks	-8.51728
▁character	-8.52168
▁happening	-8.52225
▁program	-8.52551
▁si	-8.53226
▁customer	-8.53747
▁remember	-8.5396
utlook	-8.54008
▁group	-8.54375
▁alot	-8.54376
▁buggy	-8.54378
▁within	-8.54387
▁spent	-8.54822
▁p	-8.5489
▁be	-8.55172
▁highly	-8.55346
h	-8.5535
▁noticed	-8.55507
▁pro	-8.55797
▁here	-8.55925
▁per	-8.55999
▁Th	-8.56423
▁gave	-8.56444
▁install	-8.56566
▁mean	-8.56815
▁Instagram	-8.56977
▁stay	-8.57278
▁specific	-8.57297
▁watched	-8.57479
▁reset	-8.57491
▁horrible	-8.57496
ith	-8.57772
▁mini	-8.57865
▁artists	-8.58066
▁loved	-8.58196
▁customi	-8.58234
▁decent	-8.58373
▁moves	-8.58572
▁touch	-8.58749
▁un	-8.58754
uire	-8.58887
▁cache	-8.58938
▁idea	-8.59395
▁liked	-8.59447
ost	-8.59561
at	-8.59688
▁image	-8.59802
▁note	-8.59996
▁weapons	-8.60004
▁suddenly	-8.60385
▁beat	-8.60509
oin	-8.60562
▁so	-8.61016
▁miss	-8.61172
▁installed	-8.61197
▁down	-8.61262
▁allows	-8.61599
▁calls	-8.61614
▁simply	-8.61905
▁forever	-8.61907
▁words	-8.61933
et	-8.61937
▁Adobe	-8.61947
▁actual	-8.62339
▁gotten	-8.62481
▁reviews	-8.62524
▁Twitter	-8.62542
▁swipe	-8.62773
▁huge	-8.63107
▁across	-8.63108
▁lag	-8.63164
verything	-8.63331
odi	-8.63528
▁break	-8.63644
▁otherwise	-8.63906
▁wonderful	-8.64074
▁hand	-8.64095
▁appear	-8.64611
▁finally	-8.64884
▁comics	-8.65175
▁name	-8.65183
▁social	-8.65242
▁family	-8.65506
▁sign	-8.65634
▁improve	-8.65919
▁reply	-8.66079
▁while	-8.66256
▁practice	-8.66657
▁removed	-8.66782
▁smooth	-8.66921
▁fantastic	-8.67058
face	-8.67091
▁prefer	-8.67154
▁challenges	-8.67306
▁resume	-8.67366
▁information	-8.67396
▁with	-8.67983
▁store	-8.68194
▁waiting	-8.68224
▁viewing	-8.68337
▁ways	-8.68349
▁deal	-8.68438
▁connected	-8.68516
▁bottom	-8.68884
▁commercial	-8.6893
▁changing	-8.69073
▁buffering	-8.69172
▁shuffle	-8.69398
▁important	-8.69468
▁server	-8.69528
▁network	-8.69731
▁contact	-8.69955
▁figure	-8.70029
▁trouble	-8.70037
but	-8.70081
▁appreciate	-8.70607
lus	-8.70684
▁normal	-8.70707
▁link	-8.70795
lay	-8.7082
▁follow	-8.71278
▁documents	-8.71417
▁boring	-8.71439
▁cable	-8.71522
▁opening	-8.71716
un	-8.7201
▁build	-8.72056
▁functionality	-8.72067
▁tracks	-8.72098
ill	-8.7215
▁helps	-8.72223
▁general	-8.72286
▁services	-8.72513
▁box	-8.72541
▁challenging	-8.72612
▁starting	-8.72723
▁via	-8.72754
▁beautiful	-8.73033
▁taking	-8.73269
▁honestly	-8.73408
itbit	-8.73609
▁perfectly	-8.7372
▁supposed	-8.73908
▁everytime	-8.73999
▁profile	-8.74037
▁runs	-8.74067
▁reinstalling	-8.74431
▁controller	-8.7445
▁care	-8.74484
▁constant	-8.74498
▁chats	-8.74529
▁older	-8.74542
▁today	-8.74548
▁along	-8.74623
oyed	-8.74639
▁came	-8.74666
▁sending	-8.74981
▁believe	-8.75119
ix	-8.75193
▁probabl	-8.75241
▁currently	-8.75403
▁loads	-8.75574
▁folders	-8.75579
▁suggest	-8.75768
▁course	-8.76234
ive	-8.76872
▁force	-8.76963
▁buttons	-8.77027
▁opinion	-8.7705
IT	-8.77412
irst	-8.77502
one	-8.77612
▁coming	-8.77688
▁guess	-8.77913
and	-8.7822
▁awful	-8.78419
▁higher	-8.78533
▁lately	-8.78569
▁choice	-8.78581
▁updating	-8.78598
▁limited	-8.78731
▁broken	-8.78734
▁cast	-8.7897
▁Tubi	-8.79239
▁sleep	-8.793
▁subtitles	-8.79312
ay	-8.79481
▁spending	-8.79557
se	-8.79704
▁current	-8.79748
▁means	-8.79877
ox	-8.79959
▁thumbs	-8.79992
luetooth	-8.80195
▁scrolling	-8.80429
▁friend	-8.8046
kept	-8.8046
▁plan	-8.80505
ell	-8.80853
▁personal	-8.8093
▁cards	-8.8094
▁totally	-8.81176
▁building	-8.81233
▁mess	-8.81349
▁weird	-8.81564
▁based	-8.81645
▁b	-8.81749
▁album	-8.81785
▁software	-8.81859
▁ok	-8.82153
▁skin	-8.8217
▁rewards	-8.82248
▁stupid	-8.82447
▁manually	-8.8249
▁limit	-8.82561
l	-8.82707
▁forced	-8.82877
▁challenge	-8.82936
▁organi	-8.82984
▁behind	-8.83141
▁default	-8.83158
▁exit	-8.83171
▁messaging	-8.83201
▁lesson	-8.83286
▁uninstalling	-8.83543
▁harder	-8.83574
▁correct	-8.83648
▁line	-8.84177
ew	-8.84348
▁format	-8.84385
ue	-8.84679
▁Since	-8.84764
▁mostly	-8.84924
▁bought	-8.85264
▁keyboard	-8.854
▁icon	-8.85433
▁improved	-8.85445
▁display	-8.85515
le	-8.85571
▁similar	-8.8568
▁map	-8.86338
▁rid	-8.8651
▁info	-8.86662
oyable	-8.86668
ST	-8.87024
▁talk	-8.87034
▁glitchy	-8.87201
▁although	-8.87559
oom	-8.87566
ombie	-8.87624
▁together	-8.87667
▁suggestion	-8.87865
een	-8.87923
aybe	-8.8795
icrosoft	-8.87995
▁thank	-8.88014
▁date	-8.8804
▁functions	-8.88085
▁basically	-8.88177
▁Telegram	-8.88259
▁events	-8.88414
oes	-8.88506
▁streams	-8.88686
k	-8.88949
▁battery	-8.89
▁taken	-8.89408
anva	-8.89552
hromecast	-8.8976
▁sense	-8.89794
▁improvement	-8.89825
▁sort	-8.89918
eep	-8.89976
▁thanks	-8.90209
▁immediately	-8.90388
▁chance	-8.90481
▁repetitive	-8.90483
▁missions	-8.90555
▁score	-8.90899
▁completed	-8.91062
▁seeing	-8.91159
▁discover	-8.91807
▁twice	-8.91865
asy	-8.92048
▁process	-8.92069
ver	-8.92135
luto	-8.92144
▁deleting	-8.92151
▁refresh	-8.92239
▁accounts	-8.92316
p	-8.92328
is	-8.92347
▁moving	-8.9253
▁poor	-8.92605
▁a	-8.92763
al	-8.92961
▁laptop	-8.93096
▁color	-8.93118
▁ask	-8.93212
IS	-8.93421
▁tool	-8.93771
▁mission	-8.93834
iscord	-8.93984
▁unusable	-8.94188
▁okay	-8.94199
▁faster	-8.94446
▁web	-8.94461
▁repeat	-8.94477
▁password	-8.94523
▁browser	-8.94527
▁offer	-8.94624
uently	-8.94896
▁future	-8.9497
▁was	-8.94984
decided	-8.95259
▁pu	-8.95271
hile	-8.95575
▁smart	-8.95832
▁reels	-8.95977
▁website	-8.95987
▁but	-8.96331
▁tab	-8.96426
▁kick	-8.96475
nce	-8.966
in	-8.96856
u	-8.97212
▁document	-8.97221
▁expect	-8.97449
▁monthly	-8.97957
lthough	-8.98022
▁finished	-8.98051
▁dark	-8.98154
▁fitbit	-8.98293
▁nearly	-8.98301
▁receive	-8.98307
▁mention	-8.98316
smil	-8.98421
espite	-8.98494
▁wants	-8.98596
▁town	-8.99488
▁characters	-9.00154
▁intuitive	-9.00684
▁w	-9.00728
▁laggy	-9.00734
▁cut	-9.00864
▁did	-9.00868
▁sharing	-9.01036
▁downloads	-9.01186
▁versions	-9.01351
▁lags	-9.01565
▁response	-9.01713
▁rewind	-9.01725
retty	-9.02078
▁appears	-9.02104
▁code	-9.02167
▁bonus	-9.02278
▁double	-9.0243
▁return	-9.02733
▁straight	-9.02954
▁cloud	-9.0298
orks	-9.03058
▁ahead	-9.03117
▁includ	-9.03193
ombies	-9.03415
▁bigge	-9.03429
▁charge	-9.03461
uolingo	-9.03785
▁finding	-9.03794
ope	-9.03799
▁casting	-9.0403
▁minor	-9.04138
▁opened	-9.04171
▁losing	-9.0425
▁word	-9.04507
▁case	-9.04545
sed	-9.04548
▁itself	-9.04851
▁syncing	-9.04977
▁posts	-9.05051
▁x	-9.06011
ice	-9.06152
▁night	-9.06168
▁consider	-9.06314
▁becomes	-9.0634
hich	-9.06457
▁confusing	-9.06596
▁four	-9.06916
▁near	-9.06988
▁convenient	-9.07424
▁company	-9.07619
▁art	-9.07745
▁reach	-9.07867
▁reopen	-9.07945
▁same	-9.0818
alaxy	-9.08191
▁types	-9.08195
▁tools	-9.08247
▁anywhere	-9.08502
▁stopping	-9.08511
▁count	-9.08772
▁th	-9.08789
ish	-9.08863
inecraft	-9.09085
▁c	-9.09186
▁coin	-9.09269
▁artist	-9.0938
▁driving	-9.09503
▁attempt	-9.09505
▁Ads	-9.09536
▁developer	-9.09682
g	-9.09741
▁area	-9.09912
oying	-9.10301
▁disable	-9.1044
▁correctly	-9.10453
▁switching	-9.1061
▁groups	-9.10661
▁provide	-9.11123
▁v	-9.11156
▁power	-9.11191
▁room	-9.11355
▁lower	-9.1148
▁throw	-9.115
▁and	-9.11501
▁platforms	-9.11621
▁kill	-9.11836
▁ruin	-9.1188
▁regular	-9.11994
▁garbage	-9.12019
▁once	-9.12062
▁disappointing	-9.12125
▁frustrated	-9.12202
▁whatsapp	-9.12463
▁report	-9.12538
▁restarting	-9.12641
▁drop	-9.12671
▁favorites	-9.12941
▁irritating	-9.12981
▁contacts	-9.13016
▁cra	-9.13125
▁devs	-9.13214
▁disappear	-9.1348
▁drive	-9.13513
▁Too	-9.13658
▁An	-9.13741
f	-9.14119
▁fan	-9.14149
▁buying	-9.14152
▁multiplayer	-9.14194
▁sounds	-9.14286
uch	-9.14328
red	-9.14385
ever	-9.14417
▁incredibl	-9.14498
▁split	-9.14609
▁choices	-9.1484
▁solid	-9.14915
▁bored	-9.15013
▁compare	-9.15104
▁turns	-9.15195
▁particular	-9.15629
▁luck	-9.1566
▁offers	-9.15704
▁Add	-9.15778
▁AS	-9.15877
▁clean	-9.15883
nother	-9.16175
till	-9.16234
▁breaks	-9.16247
▁include	-9.16749
ore	-9.16766
▁separate	-9.1692
▁feedback	-9.16934
▁light	-9.17301
▁mark	-9.17442
▁none	-9.17663
▁servers	-9.17838
▁the	-9.17932
▁reali	-9.18081
▁sports	-9.18109
▁tasks	-9.18286
▁f	-9.18489
▁which	-9.18499
▁block	-9.1853
ecause	-9.18582
▁symbol	-9.1874
▁calendar	-9.18752
▁tone	-9.18766
▁lack	-9.18767
▁thinking	-9.1877
▁accidentally	-9.18775
▁login	-9.19101
▁recommended	-9.19264
▁classic	-9.19332
▁comic	-9.19386
▁sad	-9.19614
▁push	-9.19672
▁no	-9.1974
▁hoping	-9.19852
ting	-9.20005
▁closed	-9.2003
▁resolved	-9.20108
▁fixes	-9.20193
▁steps	-9.20301
▁feed	-9.2062
▁hold	-9.20727
re	-9.20832
▁ruined	-9.20963
▁errors	-9.2099
▁rest	-9.21038
▁popup	-9.21125
▁product	-9.21173
▁goal	-9.21191
▁Am	-9.2147
▁restarted	-9.21534
ect	-9.21642
▁skips	-9.21997
▁k	-9.22063
▁communication	-9.22123
▁from	-9.22239
m	-9.22511
enrag	-9.22516
▁continues	-9.22989
▁red	-9.23269
▁results	-9.233
▁podcasts	-9.23486
▁recogni	-9.23528
▁d	-9.23657
▁Tha	-9.23832
▁interested	-9.24061
▁wide	-9.24243
any	-9.24271
▁min	-9.24357
othing	-9.24724
no	-9.24796
▁bother	-9.2488
▁addictive	-9.24904
▁whe	-9.24931
▁expected	-9.24972
▁l	-9.24985
▁copy	-9.25016
▁closing	-9.25088
▁reliable	-9.25166
▁spot	-9.25337
▁solution	-9.2546
our	-9.25632
▁enter	-9.25799
▁concept	-9.25811
▁designed	-9.25847
▁Seem	-9.25887
▁individual	-9.26068
▁fair	-9.26077
▁slightly	-9.2628
▁performance	-9.26337
▁payment	-9.2639
▁mouth	-9.26406
▁genre	-9.26524
▁fully	-9.27123
▁creators	-9.27209
▁Twitch	-9.27216
▁lives	-9.27367
▁style	-9.27454
▁as	-9.27577
aving	-9.27738
▁complaints	-9.27793
specially	-9.27998
▁improvements	-9.28015
▁hearts	-9.28191
▁selected	-9.28281
us	-9.28335
▁smoothly	-9.28457
ero	-9.28516
▁twitch	-9.28664
▁food	-9.28721
▁catch	-9.28818
▁meet	-9.29107
▁stick	-9.29157
▁locked	-9.29219
▁rarely	-9.29318
▁t	-9.29379
▁causes	-9.29442
▁tru	-9.295
laylist	-9.29508
ots	-9.2958
▁caus	-9.29655
▁through	-9.29686
▁manage	-9.29688
▁helped	-9.29718
▁switched	-9.2997
▁depend	-9.29995
▁non	-9.30053
▁albums	-9.30272
▁plenty	-9.30335
▁suggestions	-9.30404
▁exactly	-9.3046
▁bunch	-9.30471
▁demand	-9.30485
▁turning	-9.30516
▁matches	-9.30676
▁creative	-9.30822
▁radio	-9.30999
▁cash	-9.31044
▁talking	-9.31103
▁inbox	-9.31514
▁refuse	-9.31863
▁moment	-9.31912
▁anyway	-9.32081
▁reader	-9.32235
▁costs	-9.32262
xcellent	-9.32291
▁popular	-9.32614
▁titles	-9.32622
▁eventually	-9.32625
▁telegram	-9.32757
▁then	-9.32825
▁difficulty	-9.32973
▁diamonds	-9.32991
▁location	-9.33066
▁purchased	-9.33388
▁considering	-9.33437
▁interest	-9.33455
▁genres	-9.33462
▁trash	-9.33464
efinitely	-9.33563
▁loud	-9.33677
henever	-9.33679
▁m	-9.33805
▁Second	-9.33909
▁charged	-9.33993
▁site	-9.34042
▁increase	-9.34086
▁write	-9.34155
▁comments	-9.34287
▁window	-9.34405
▁closes	-9.34425
▁searching	-9.34659
onestly	-9.34751
▁unlimited	-9.34905
▁solve	-9.35106
▁notice	-9.3512
▁directly	-9.35137
▁connecting	-9.35533
▁step	-9.35541
▁creating	-9.35571
▁yes	-9.35572
▁google	-9.35575
▁places	-9.35587
▁writing	-9.35599
▁lock	-9.35657
▁backup	-9.35721
oblox	-9.35878
▁fire	-9.35881
▁pain	-9.35933
nfortunately	-9.35937
▁mix	-9.36073
▁attention	-9.36079
▁mins	-9.36133
▁discord	-9.36145
▁advance	-9.36238
x	-9.36249
akes	-9.36298
▁stays	-9.36315
▁glitching	-9.36318
▁shut	-9.36564
ast	-9.36699
uit	-9.36732
▁experienced	-9.36742
▁uni	-9.3678
▁wall	-9.36906
▁afford	-9.3723
▁goals	-9.37246
▁negative	-9.37268
▁sub	-9.3729
▁told	-9.37325
▁fee	-9.37346
▁worlds	-9.37492
▁pull	-9.37595
layer	-9.37805
▁tricks	-9.37957
▁pdf	-9.37987
▁created	-9.38106
ind	-9.38342
TI	-9.38411
▁parts	-9.3847
▁item	-9.38931
▁grammar	-9.39174
▁draw	-9.39624
▁white	-9.39688
ro	-9.39755
uired	-9.39906
▁alone	-9.39928
▁putting	-9.39985
▁looked	-9.40012
▁personally	-9.4009
▁entirely	-9.40203
▁collect	-9.40247
▁lagging	-9.40451
▁ton	-9.4055
▁purpose	-9.40679
▁languages	-9.40748
▁security	-9.40924
▁task	-9.40928
▁userfriendly	-9.40943
▁chose	-9.40959
▁realistic	-9.4097
▁fit	-9.41078
▁relaxing	-9.4122
▁details	-9.4126
▁blank	-9.41285
the	-9.41324
▁garden	-9.41491
▁comment	-9.41546
▁only	-9.4163
ity	-9.41647
▁Super	-9.41663
id	-9.41977
ake	-9.42167
▁intrusive	-9.42182
▁history	-9.42188
▁upthumbs	-9.42209
▁unfortunately	-9.42237
▁filter	-9.42381
▁fall	-9.42425
▁logging	-9.42652
▁entertainment	-9.42665
▁pages	-9.4297
▁pc	-9.42975
ers	-9.43004
▁built	-9.43178
rom	-9.43212
▁learned	-9.4324
▁honest	-9.43281
SS	-9.43302
▁tons	-9.43451
ideo	-9.4365
▁occasionally	-9.43746
ar	-9.443
▁telling	-9.44343
▁provides	-9.44382
▁addition	-9.44547
▁spam	-9.44813
▁checked	-9.44823
▁tend	-9.44951
ried	-9.45012
▁Any	-9.45065
ecently	-9.45156
▁season	-9.45449
▁sudden	-9.45828
▁products	-9.45927
▁buildings	-9.46001
▁glad	-9.46068
ueue	-9.46078
les	-9.46196
▁tired	-9.46212
▁blue	-9.46279
▁kids	-9.46531
▁heard	-9.46539
umps	-9.4657
▁aspect	-9.46658
▁sit	-9.4666
▁difference	-9.46663
▁complain	-9.46791
indows	-9.4719
less	-9.47235
▁fixing	-9.47267
▁potential	-9.47333
hone	-9.47339
▁shoot	-9.47357
▁becoming	-9.47364
box	-9.47427
▁range	-9.47453
▁forget	-9.47703
▁effects	-9.47729
mail	-9.47927
▁clearly	-9.48025
▁favourite	-9.4804
▁period	-9.48199
▁additional	-9.48308
▁why	-9.48468
am	-9.48647
▁tech	-9.48706
▁g	-9.48708
▁we	-9.48855
▁complicated	-9.48878
▁roblox	-9.4889
▁onto	-9.49265
▁alternative	-9.49345
▁ups	-9.49409
▁reasons	-9.49586
ews	-9.49655
.....	-9.49736
▁teams	-9.49758
c	-9.49855
▁Awesome	-9.50011
▁asking	-9.50062
▁community	-9.50223
▁navigation	-9.50227
▁bigger	-9.50313
▁mine	-9.50407
▁refund	-9.50442
▁upgrades	-9.50663
▁result	-9.50747
▁posted	-9.50848
▁total	-9.50851
remium	-9.51002
▁endless	-9.51248
▁yesterday	-9.5139
▁ends	-9.51419
▁fail	-9.51455
▁transfer	-9.51463
nglish	-9.51622
▁loop	-9.51683
▁Alto	-9.5171
ome	-9.51845
▁opens	-9.5186
▁IT	-9.51871
▁title	-9.521
nstead	-9.52603
inning	-9.52653
▁respond	-9.52757
▁experiencing	-9.52875
▁about	-9.52961
▁dead	-9.53022
▁strong	-9.5312
▁stable	-9.53259
▁typing	-9.53259
▁clicking	-9.53631
down	-9.53643
▁font	-9.53733
▁Always	-9.5418
▁inconvenient	-9.54186
▁local	-9.54188
▁fairly	-9.5456
▁e	-9.54652
▁previously	-9.54886
▁weapon	-9.54931
raged	-9.54981
▁purchases	-9.54982
▁slide	-9.55026
▁early	-9.55051
▁landscape	-9.55148
▁allowed	-9.55395
ightroom	-9.55453
▁record	-9.55514
▁spotify	-9.55606
▁resolution	-9.55659
ead	-9.55781
▁st	-9.55826
▁action	-9.55843
▁other	-9.55852
▁received	-9.55873
▁boosters	-9.5589
▁outlook	-9.55921
▁ease	-9.55946
▁mistake	-9.55966
umping	-9.55966
▁messed	-9.56062
▁saving	-9.56166
▁credits	-9.56203
all	-9.56261
▁avoid	-9.56423
▁fails	-9.56504
▁cleared	-9.56515
ic	-9.56923
▁trick	-9.5694
▁beyond	-9.5705
▁enemies	-9.5705
▁somehow	-9.57053
▁saw	-9.57068
▁fill	-9.57244
▁co	-9.57288
▁h	-9.57433
▁guns	-9.57514
▁finger	-9.5764
▁scan	-9.57694
▁third	-9.57718
▁reload	-9.57721
▁can	-9.57764
▁tracking	-9.5777
▁asked	-9.57899
▁gaming	-9.57975
▁key	-9.58051
▁export	-9.58163
▁pre	-9.5817
▁numbers	-9.58291
▁row	-9.58316
▁serious	-9.58336
▁absolute	-9.58353
▁gold	-9.58623
▁seriously	-9.58706
▁failed	-9.58754
▁hunter	-9.58759
▁recommendations	-9.58781
▁complet	-9.58843
▁included	-9.59102
▁ended	-9.59173
▁revert	-9.59368
▁mid	-9.5953
▁preview	-9.59578
unk	-9.59786
▁colors	-9.59812
▁die	-9.59819
▁rated	-9.60012
▁memory	-9.6002
▁Terrible	-9.60034
▁leaving	-9.60043
▁skins	-9.60094
▁round	-9.60231
▁shown	-9.60425
▁damn	-9.6043
▁authors	-9.60452
▁chromebook	-9.60509
▁called	-9.60522
▁buffers	-9.60658
▁materials	-9.60677
signed	-9.60711
▁delay	-9.60745
▁tapping	-9.6083
▁algorithm	-9.60854
▁collection	-9.60862
▁webtoon	-9.60877
▁mail	-9.60956
ects	-9.61118
▁gr	-9.61265
▁source	-9.61292
▁designs	-9.61325
opefully	-9.61364
oystick	-9.61421
▁following	-9.61437
▁advertising	-9.61544
orst	-9.61759
▁unplayable	-9.6176
▁unlike	-9.61813
▁headphones	-9.61838
▁customers	-9.6196
▁autoplay	-9.6197
▁stand	-9.62066
me	-9.62194
▁event	-9.6241
▁head	-9.62594
▁true	-9.62689
▁special	-9.62709
▁compar	-9.62714
▁shooting	-9.62812
acebook	-9.62919
▁optional	-9.63027
▁hidden	-9.63058
▁parkour	-9.63069
▁explore	-9.63239
▁dropbox	-9.63272
▁terms	-9.63275
▁dollars	-9.63314
▁disappeared	-9.63425
▁gain	-9.63475
ight	-9.63549
ree	-9.63582
▁focus	-9.63617
▁newest	-9.63937
▁frame	-9.64115
▁agree	-9.64392
uent	-9.64432
▁exact	-9.64434
verytime	-9.64485
▁private	-9.64624
▁Acrobat	-9.64627
▁Spanish	-9.6463
▁shame	-9.64662
ls	-9.64677
▁technical	-9.6475
▁upgraded	-9.6482
▁tries	-9.6489
▁dislike	-9.64945
▁programs	-9.65085
▁mute	-9.65103
▁answer	-9.65311
▁streak	-9.65525
od	-9.65556
▁hell	-9.65576
▁man	-9.6572
▁medium	-9.65933
▁register	-9.65998
▁scores	-9.66118
▁visual	-9.66218
▁hulu	-9.66313
nd	-9.66335
▁impressed	-9.66415
▁entertaining	-9.6654
b	-9.66572
▁upon	-9.66635
▁bonuses	-9.66673
▁incredible	-9.66805
▁posting	-9.66862
▁host	-9.66987
▁crashed	-9.67028
▁buffer	-9.67104
▁downside	-9.67154
▁disappears	-9.67352
time	-9.67367
▁lol	-9.6741
▁school	-9.67482
efore	-9.67521
▁launch	-9.6762
hromebook	-9.67672
▁privacy	-9.67822
▁subscribed	-9.68025
▁own	-9.68113
▁necessary	-9.68223
▁smaller	-9.68229
▁drain	-9.68252
▁templates	-9.68299
▁basics	-9.68374
▁late	-9.68454
▁articles	-9.68633
▁method	-9.6877
▁forc	-9.68777
▁article	-9.68797
▁pl	-9.68962
▁calling	-9.69274
▁safe	-9.693
▁cover	-9.69419
▁suck	-9.6963
▁kodi	-9.6972
▁consistently	-9.6979
▁r	-9.69911
eaming	-9.70073
▁cry	-9.70112
▁interact	-9.70116
▁expand	-9.70133
▁normally	-9.70133
v	-9.70166
ixel	-9.70288
▁n	-9.70291
bsolutely	-9.7037
▁de	-9.70486
▁walk	-9.70504
ought	-9.70665
▁guide	-9.70699
▁cuts	-9.70893
▁gallery	-9.71128
▁setup	-9.71162
▁apparent	-9.7117
eeds	-9.71271
▁brightness	-9.71393
▁reward	-9.71443
▁bluetooth	-9.71465
▁beside	-9.71468
▁hundreds	-9.71548
▁active	-9.71617
▁pls	-9.71782
▁credit	-9.72228
sing	-9.72323
▁proper	-9.72341
▁fro	-9.72405
▁podcast	-9.72416
hatsapp	-9.72686
oku	-9.72703
▁maps	-9.72736
▁anytime	-9.72828
▁graphic	-9.7285
▁stats	-9.72985
▁earlier	-9.73015
▁membership	-9.73076
ant	-9.73294
▁minimi	-9.73365
▁cheaper	-9.73392
th	-9.73728
▁figured	-9.73767
▁theme	-9.73778
▁position	-9.73873
▁ready	-9.73976
▁lacks	-9.73998
▁slowly	-9.74076
▁browse	-9.74291
▁country	-9.74351
▁automatic	-9.74535
▁nowhere	-9.74646
▁annoyed	-9.74722
▁football	-9.74875
▁sends	-9.75292
folded	-9.75452
▁subtitle	-9.75626
▁provider	-9.75746
▁animation	-9.75872
▁missed	-9.75882
▁front	-9.76076
▁areas	-9.76102
▁resolve	-9.76239
▁clunky	-9.76293
▁thru	-9.76293
w	-9.76311
▁regardless	-9.76313
▁inside	-9.76318
▁prevent	-9.76356
▁minecraft	-9.76369
▁continuously	-9.76383
▁displayed	-9.76838
The	-9.7687
▁mistakes	-9.77099
▁boxes	-9.7711
▁decide	-9.77123
▁professional	-9.77141
▁aim	-9.77169
▁form	-9.77205
oke	-9.77261
▁blocks	-9.77512
▁release	-9.77587
▁struggle	-9.77606
▁related	-9.77797
▁reboot	-9.77854
▁con	-9.77976
▁accurate	-9.7799
▁recording	-9.78011
▁water	-9.78078
▁addicting	-9.78088
▁awhile	-9.78106
▁watchlist	-9.78128
▁warning	-9.78195
▁health	-9.78334
▁breaking	-9.7834
▁categories	-9.78371
▁subscribe	-9.78376
It	-9.78406
▁communicate	-9.78419
▁lists	-9.78423
▁obviously	-9.78467
▁personali	-9.78467
▁emo	-9.7857
up	-9.7869
▁barel	-9.78813
▁cell	-9.78907
▁tweets	-9.7905
ability	-9.79399
▁effort	-9.79541
▁value	-9.79552
▁tracker	-9.79607
SI	-9.79665
▁timing	-9.79747
▁Though	-9.79793
▁broke	-9.79827
▁hide	-9.79829
▁unnecessary	-9.79908
▁outside	-9.79916
▁skipping	-9.79923
▁uploading	-9.80019
▁reduce	-9.80073
▁mechanics	-9.80093
here	-9.80122
▁tiny	-9.80149
▁rotate	-9.8026
▁streamers	-9.80375
▁written	-9.80387
now	-9.80427
▁lucky	-9.80437
▁pixel	-9.80554
▁green	-9.80609
▁suit	-9.80717
▁followed	-9.80845
▁animations	-9.80859
▁cu	-9.80861
▁usage	-9.80901
▁length	-9.81063
eed	-9.81124
lmost	-9.81243
▁edits	-9.81425
▁essential	-9.81474
▁remote	-9.81562
▁address	-9.81647
▁clicked	-9.81779
you	-9.81998
to	-9.82012
▁br	-9.82198
▁slower	-9.82353
▁lines	-9.82454
▁pace	-9.8267
▁ending	-9.82874
▁standard	-9.82949
▁regatta	-9.82957
▁competition	-9.82962
▁fake	-9.83048
▁exercise	-9.8311
▁direction	-9.83198
▁timer	-9.83208
▁uno	-9.8328
ally	-9.83291
▁kinds	-9.83336
▁fel	-9.8351
▁editor	-9.83561
▁throughout	-9.83648
▁galaxy	-9.83688
▁repeatedly	-9.83749
▁moved	-9.83853
▁chamet	-9.83914
▁ideas	-9.84071
▁ingame	-9.84095
▁installing	-9.84097
▁banned	-9.84182
▁wasted	-9.8429
▁hardly	-9.84439
▁unlocked	-9.84467
▁highlight	-9.8447
▁sec	-9.84513
▁paused	-9.84822
▁console	-9.8486
▁novel	-9.84912
▁redownload	-9.84982
▁uploaded	-9.85106
▁party	-9.85197
▁minimal	-9.85233
▁shooter	-9.8525
▁secure	-9.85353
ither	-9.85367
ey	-9.8546
▁programming	-9.85576
▁hooked	-9.85588
▁everyday	-9.85655
▁category	-9.85838
▁lyrics	-9.8588
ook	-9.86015
▁checking	-9.86044
▁offered	-9.86097
▁willing	-9.86256
▁custom	-9.86257
▁loss	-9.86353
▁skills	-9.86507
▁pics	-9.8679
▁instance	-9.86821
▁avatar	-9.86827
▁fault	-9.86978
▁present	-9.87048
▁drops	-9.87078
▁netflix	-9.8714
raphics	-9.87444
▁somewhere	-9.87515
▁has	-9.87549
▁visible	-9.87576
uests	-9.87589
▁chatting	-9.87642
▁million	-9.87813
▁speak	-9.87861
▁bots	-9.87991
▁morning	-9.88008
etter	-9.88035
▁winning	-9.88163
▁popp	-9.88232
ack	-9.88253
▁brand	-9.88296
▁suggested	-9.88334
▁schedule	-9.88357
▁cross	-9.88381
thumbs	-9.88507
▁shared	-9.8852
app	-9.88582
▁widget	-9.88772
ear	-9.88786
▁handle	-9.88834
▁prices	-9.8887
▁remov	-9.89048
▁stage	-9.89125
▁speaking	-9.89164
▁forces	-9.89234
▁IS	-9.8925
▁cancelled	-9.89529
uid	-9.89595
▁lead	-9.89611
AI	-9.89623
oo	-9.89641
▁toward	-9.89643
▁disconnected	-9.89663
▁elements	-9.89697
▁likely	-9.8973
▁gun	-9.89741
▁tedious	-9.89801
▁modes	-9.89876
▁conversation	-9.89915
▁matching	-9.90017
screen	-9.90077
▁addons	-9.90171
▁Start	-9.90247
▁functional	-9.90306
▁clips	-9.90315
▁rd	-9.90865
▁beginner	-9.90892
▁movement	-9.90898
▁positive	-9.90928
▁self	-9.91223
ote	-9.91229
▁insane	-9.91361
orrible	-9.91442
▁cheap	-9.9149
▁recharge	-9.91524
▁distance	-9.91553
▁elsewhere	-9.91556
▁prior	-9.91614
ness	-9.91627
▁purchasing	-9.91646
▁pausing	-9.91735
▁stress	-9.91786
▁remains	-9.91865
nable	-9.91981
▁flow	-9.92347
▁teach	-9.92601
▁confused	-9.92811
▁frustration	-9.92839
▁explain	-9.92926
▁had	-9.93118
▁li	-9.9316
▁meaning	-9.93417
arious	-9.93443
inally	-9.93636
▁nightmare	-9.9364
he	-9.93749
▁rare	-9.93818
▁test	-9.93828
▁doubt	-9.93886
ce	-9.94197
▁yeah	-9.94255
▁hearing	-9.94342
▁contacted	-9.9438
▁responding	-9.94478
▁advanced	-9.94515
nt	-9.94519
▁flip	-9.94538
ate	-9.94629
xtreme	-9.94703
▁lacking	-9.94988
used	-9.95038
▁probab	-9.95095
▁develop	-9.95192
▁sell	-9.95279
▁signal	-9.95372
▁alright	-9.95759
▁Additional	-9.95764
▁intro	-9.95778
ang	-9.95965
ninstalling	-9.96107
▁backwards	-9.96141
▁regularly	-9.9618
ard	-9.96515
▁should	-9.96813
▁supported	-9.96863
▁hassle	-9.97104
▁ran	-9.97231
▁gripe	-9.97337
ecent	-9.97496
▁sheet	-9.9755
▁circle	-9.97561
▁tweet	-9.97618
▁skill	-9.97653
▁uses	-9.97683
▁subscriptions	-9.97776
eople	-9.97786
▁loose	-9.98064
▁receiving	-9.98287
▁troubleshooting	-9.98371
▁helping	-9.98377
▁fac	-9.98386
▁blocked	-9.98427
thing	-9.98594
▁restarts	-9.98666
▁released	-9.98719
▁board	-9.98834
ion	-9.98979
ons	-9.99045
▁bare	-9.99333
ebtoon	-9.9937
▁mentioned	-9.99428
▁development	-9.99434
▁regard	-9.99494
▁pic	-9.99522
out	-9.99529
▁scene	-9.99622
ily	-9.99742
▁path	-9.99747
▁effect	-9.99765
▁advertisement	-9.99805
▁occasional	-9.9998
▁consuming	-10.002
▁advertised	-10.0023
▁halfway	-10.0023
▁xbox	-10.0047
▁television	-10.0048
▁mood	-10.0051
▁contain	-10.0058
▁films	-10.007
▁accessible	-10.0072
▁claim	-10.0077
▁barn	-10.0093
age	-10.0101
▁multi	-10.0102
▁likes	-10.0103
▁reasonable	-10.0109
▁activity	-10.0114
▁webtoons	-10.0116
▁common	-10.0127
like	-10.014
▁max	-10.0144
▁clip	-10.0161
▁annoy	-10.0166
▁tutorial	-10.0175
▁material	-10.0176
▁keys	-10.0179
▁replay	-10.0182
▁goto	-10.0187
▁import	-10.0191
ade	-10.0202
▁readers	-10.0211
rive	-10.0219
▁solved	-10.0226
ority	-10.0229
▁robux	-10.0242
▁survival	-10.0242
▁numerous	-10.0242
▁somewhat	-10.0242
▁instantly	-10.0253
▁consistent	-10.0253
▁saves	-10.0256
▁print	-10.0265
▁rules	-10.0265
▁infuriating	-10.0275
▁model	-10.0277
▁youtube	-10.0277
▁powerful	-10.0281
▁reconnect	-10.0282
▁ob	-10.0283
▁mic	-10.0289
▁exist	-10.029
▁dumb	-10.0292
▁listened	-10.0317
▁visuals	-10.0322
▁grow	-10.0332
▁teaching	-10.0364
▁filters	-10.0364
▁rock	-10.0366
ector	-10.0378
▁annoyance	-10.0404
▁noise	-10.0405
▁client	-10.0407
▁bigo	-10.0414
▁speaker	-10.0417
▁reel	-10.043
▁chromecast	-10.0432
▁vs	-10.0436
usiness	-10.0445
▁member	-10.0449
andora	-10.0461
▁avail	-10.0471
▁unavailable	-10.0475
▁Is	-10.0478
▁profiles	-10.0478
ring	-10.0479
▁pointless	-10.0484
▁gems	-10.049
▁forth	-10.0509
▁shot	-10.0511
▁provided	-10.0515
▁specifically	-10.0518
▁tips	-10.0518
ve	-10.0525
▁appreciated	-10.0535
▁reached	-10.054
▁utili	-10.0544
▁disabled	-10.055
▁occur	-10.0552
ello	-10.0559
▁road	-10.0561
▁trigger	-10.0579
▁edited	-10.058
ig	-10.0594
▁prompt	-10.0608
▁rolling	-10.0616
this	-10.0629
ser	-10.0698
▁usual	-10.0699
▁accept	-10.0706
ighly	-10.0708
▁Sorry	-10.0712
▁everywhere	-10.0714
▁memories	-10.0718
▁state	-10.0721
ninstalled	-10.0722
▁surprised	-10.0722
▁increasing	-10.0723
▁encountered	-10.0725
▁bank	-10.0739
etting	-10.0744
▁names	-10.0746
▁swiping	-10.0751
▁pack	-10.0777
ts	-10.0789
back	-10.079
▁Apple	-10.0798
ach	-10.0802
▁covers	-10.0809
▁most	-10.0821
▁begin	-10.0829
ideos	-10.0829
ingly	-10.0837
▁killing	-10.0843
▁logg	-10.0854
▁members	-10.0866
▁selections	-10.0901
▁sensitive	-10.0904
▁odd	-10.0906
▁optimi	-10.0914
▁angle	-10.0914
▁repeats	-10.0922
▁input	-10.0923
▁market	-10.0933
▁deep	-10.0936
▁efficient	-10.0944
obile	-10.0946
▁myself	-10.0955
▁twitter	-10.0956
▁Adventure	-10.0956
▁horror	-10.0956
▁management	-10.0957
▁aggravating	-10.0958
▁sentence	-10.096
▁funny	-10.0964
▁aware	-10.0979
▁vlc	-10.0988
▁portrait	-10.0992
▁detail	-10.1015
▁se	-10.1023
▁addressed	-10.1024
▁sorry	-10.1027
▁corner	-10.1029
▁hot	-10.1042
▁effective	-10.1046
▁hang	-10.1054
▁andor	-10.1055
ose	-10.1056
▁topics	-10.1061
not	-10.1076
▁base	-10.1093
te	-10.1095
▁kid	-10.1101
▁grab	-10.1107
ous	-10.1134
▁storyline	-10.1141
▁city	-10.1146
▁toggle	-10.1153
ntil	-10.1153
▁station	-10.118
▁incorrect	-10.1188
▁displays	-10.1191
▁sometime	-10.1194
pressing	-10.1204
▁minimum	-10.1206
▁opposite	-10.1206
▁instagram	-10.1206
▁campaign	-10.1206
▁empty	-10.1206
▁engaging	-10.1206
▁soundcloud	-10.1207
▁improving	-10.1214
kay	-10.1217
▁pri	-10.1221
ately	-10.123
▁thus	-10.1237
▁gift	-10.124
ooks	-10.1241
▁misleading	-10.1242
▁flaws	-10.1272
▁gifts	-10.1272
▁center	-10.1281
▁advertisements	-10.1283
▁meant	-10.1283
▁hopefully	-10.1287
▁novels	-10.1293
▁structure	-10.1294
▁native	-10.1298
▁complaining	-10.1306
▁showed	-10.1326
▁broadcast	-10.1334
ire	-10.1359
▁flaw	-10.1363
▁ten	-10.1365
▁film	-10.1369
laying	-10.1383
▁Star	-10.1387
uestion	-10.1388
▁situation	-10.1395
▁ticket	-10.1395
▁portion	-10.1399
▁canva	-10.1406
iterally	-10.1418
asks	-10.1429
▁false	-10.1438
atch	-10.144
▁interrupt	-10.1443
ies	-10.1445
▁dropped	-10.1462
ng	-10.1468
▁flawlessly	-10.1469
▁instructions	-10.1476
ext	-10.148
▁exciting	-10.1488
▁Auto	-10.1491
▁tilt	-10.1495
▁thousands	-10.1498
▁links	-10.15
▁loving	-10.1524
▁Trying	-10.1526
▁official	-10.1537
▁rocks	-10.1539
▁scenes	-10.1543
▁kicked	-10.1564
▁known	-10.1576
▁shuts	-10.1602
▁liking	-10.1609
▁folded	-10.1616
if	-10.1648
▁floor	-10.1659
TT	-10.1677
▁craft	-10.1684
▁Absolute	-10.1691
ted	-10.1701
▁formats	-10.1704
▁excessive	-10.1705
▁brilliant	-10.1707
▁transition	-10.1725
▁Soundcloud	-10.1726
▁recognition	-10.1726
▁technology	-10.1727
▁satisfied	-10.1729
▁upgrading	-10.173
▁permanently	-10.1736
▁applications	-10.1737
▁browsing	-10.1764
▁travel	-10.1772
▁Audio	-10.178
▁resets	-10.1786
▁permissions	-10.1791
▁appearing	-10.1792
▁exercises	-10.1818
▁earning	-10.1839
▁Sad	-10.1841
▁placed	-10.1844
▁versa	-10.1848
eader	-10.1873
▁sections	-10.1889
▁dog	-10.1891
ment	-10.1913
rime	-10.1927
▁permission	-10.1929
▁Stop	-10.1939
▁earned	-10.1963
old	-10.1974
igo	-10.1983
▁rigged	-10.1989
▁fitness	-10.199
▁digital	-10.199
either	-10.1998
▁fingers	-10.2001
▁lightroom	-10.2002
▁busy	-10.2003
▁opt	-10.2006
▁signing	-10.2014
astly	-10.202
▁oh	-10.2031
▁who	-10.2033
▁fox	-10.2046
ist	-10.2053
aid	-10.2066
▁air	-10.2072
▁stored	-10.2081
▁such	-10.2112
▁age	-10.2114
▁sick	-10.2117
▁weight	-10.2117
▁seasons	-10.2127
▁handy	-10.2131
▁direct	-10.2136
ia	-10.2137
▁boost	-10.2146
ui	-10.2153
▁cute	-10.2162
▁enable	-10.2171
▁downgrade	-10.2173
▁alert	-10.22
▁mb	-10.2204
▁explanation	-10.2205
▁house	-10.2211
▁ST	-10.2221
▁reccomend	-10.2242
▁league	-10.2245
▁external	-10.2247
▁infinite	-10.2249
▁...	-10.2254
▁locks	-10.2254
ltra	-10.2256
▁restore	-10.226
so	-10.2264
urrently	-10.2265
▁average	-10.2267
▁forgot	-10.2268
▁whatsoever	-10.2273
▁connectivity	-10.2273
▁Search	-10.2274
▁greedy	-10.2274
onstantly	-10.2276
amsung	-10.2277
▁screens	-10.2277
▁encourage	-10.2277
▁Two	-10.2279
▁massive	-10.2284
▁enabled	-10.2294
▁rewatch	-10.2307
▁currency	-10.2313
atching	-10.2317
▁extend	-10.2317
▁experiences	-10.2331
▁physical	-10.2341
ful	-10.2348
▁final	-10.2353
▁loaded	-10.2367
▁dee	-10.2376
▁filled	-10.2388
▁fonts	-10.2394
▁wonder	-10.2407
▁destroy	-10.2415
▁adventure	-10.242
▁drag	-10.2423
▁imagine	-10.2431
▁passes	-10.2441
▁bothers	-10.2444
▁my	-10.2456
rs	-10.246
▁courses	-10.2468
▁package	-10.2485
▁cycle	-10.2491
▁vari	-10.2548
▁sunglasses	-10.2552
▁microphone	-10.2553
▁supplies	-10.2556
▁internal	-10.2556
▁slight	-10.2558
▁desired	-10.2559
▁beta	-10.2563
▁wild	-10.2563
▁choosing	-10.2563
▁introduced	-10.2567
▁chords	-10.2571
▁among	-10.2594
▁dis	-10.2594
▁countries	-10.2599
▁Again	-10.2603
▁particularly	-10.2608
▁obstacles	-10.2609
aking	-10.2612
▁binge	-10.2623
▁bec	-10.2626
▁pauses	-10.263
▁stickers	-10.2632
▁walking	-10.2637
▁viewers	-10.2642
▁speakers	-10.2644
▁pieces	-10.2663
▁developed	-10.2664
▁sport	-10.2669
ch	-10.2672
▁aspects	-10.27
▁wasting	-10.2702
▁fresh	-10.2709
▁expecting	-10.2773
▁peoples	-10.2775
▁screenshot	-10.278
▁greatest	-10.2783
▁steam	-10.279
▁train	-10.2791
▁where	-10.2794
xcept	-10.2814
▁by	-10.2817
▁impressive	-10.2823
▁obvious	-10.2828
▁Time	-10.2836
antastic	-10.2843
▁airport	-10.2847
▁cutting	-10.2854
▁piece	-10.2856
▁public	-10.286
▁factory	-10.2871
▁research	-10.2893
ens	-10.2895
▁wear	-10.2896
▁Seriously	-10.2896
▁painful	-10.2944
eeps	-10.2947
▁poorly	-10.2962
▁feeling	-10.2964
▁competitive	-10.2974
▁tune	-10.2975
though	-10.2979
ode	-10.2992
▁designing	-10.2999
▁grind	-10.2999
▁sources	-10.3004
harge	-10.3022
▁accident	-10.3024
▁listed	-10.3025
▁killed	-10.3043
▁picked	-10.305
▁timeline	-10.306
▁weekly	-10.307
▁Team	-10.3072
▁environment	-10.3079
▁description	-10.3082
ava	-10.3118
▁wheel	-10.3119
end	-10.3126
▁guy	-10.3127
▁subscriber	-10.3128
▁casual	-10.3129
▁staying	-10.3129
▁foreign	-10.3149
▁messenger	-10.3151
▁bundle	-10.3152
▁progression	-10.3157
▁logge	-10.3158
▁compatible	-10.3159
ontrols	-10.316
▁tears	-10.3161
▁mouse	-10.3164
ersa	-10.3165
▁trust	-10.3166
▁bucks	-10.3166
▁aside	-10.3166
▁mixes	-10.3189
▁scratch	-10.3189
▁focused	-10.3193
free	-10.3203
▁trains	-10.3218
nning	-10.323
uestions	-10.323
robabl	-10.3236
▁conversations	-10.3253
uo	-10.3254
▁hundred	-10.3256
▁sorted	-10.326
▁nd	-10.3264
edia	-10.3267
▁Anyway	-10.3268
▁class	-10.3275
▁letters	-10.3276
▁originally	-10.3277
▁Their	-10.3283
▁playable	-10.3283
▁holding	-10.3296
▁replace	-10.3299
▁disconnect	-10.3318
sually	-10.333
▁moments	-10.3333
▁interests	-10.3342
▁Take	-10.3351
▁land	-10.3357
elp	-10.3364
▁attempts	-10.3378
▁static	-10.338
▁panel	-10.3394
▁scam	-10.3401
nless	-10.3403
▁di	-10.3405
▁deserve	-10.3415
▁blast	-10.3418
coming	-10.3419
▁refreshing	-10.3446
▁dev	-10.345
oining	-10.3454
▁Township	-10.3462
▁capabilities	-10.3462
▁creativity	-10.3462
▁inventory	-10.3462
▁sweat	-10.3462
▁success	-10.3467
▁surprising	-10.3472
▁comfortable	-10.3476
▁tag	-10.3477
▁duolingo	-10.348
▁arrow	-10.3486
▁continuing	-10.3487
▁resources	-10.3487
▁replaced	-10.3489
▁inapp	-10.3494
▁streamer	-10.3496
▁interrupted	-10.3497
▁talent	-10.3498
▁remind	-10.35
▁increased	-10.3504
oved	-10.3516
▁yrs	-10.3516
pix	-10.3518
▁deserves	-10.3529
▁repeated	-10.3533
ninstall	-10.3545
▁stations	-10.3546
▁assume	-10.3552
▁clients	-10.3553
▁aiming	-10.3558
▁satisfying	-10.3564
▁met	-10.3576
even	-10.3576
▁freak	-10.3585
▁collecting	-10.3588
use	-10.3615
▁texting	-10.3622
▁scale	-10.3635
▁bars	-10.3647
please	-10.3655
▁repeating	-10.3663
ong	-10.3691
▁vast	-10.3693
ain	-10.3701
▁styles	-10.3704
lon	-10.371
▁banner	-10.3716
▁pin	-10.3723
▁signature	-10.3724
▁acting	-10.3725
▁master	-10.3765
▁initial	-10.3768
▁ground	-10.3775
▁supports	-10.3776
▁timed	-10.3781
▁speech	-10.3784
apanese	-10.3785
▁vocabulary	-10.3785
▁unacceptable	-10.3785
▁downhill	-10.3785
▁activities	-10.3785
▁obnoxious	-10.3785
▁choppy	-10.3785
▁Simple	-10.3785
▁interactive	-10.3788
▁unfair	-10.3789
udos	-10.379
▁affordable	-10.3792
▁inconsistent	-10.3793
▁patient	-10.3795
▁charging	-10.3796
▁express	-10.3796
▁icons	-10.3797
▁unresponsive	-10.3799
▁strange	-10.3807
▁upset	-10.381
▁edge	-10.381
This	-10.3812
▁perform	-10.3812
▁seamless	-10.3815
▁into	-10.3815
▁intended	-10.3817
riginal	-10.3823
▁captions	-10.3824
▁viewer	-10.3835
▁perhaps	-10.3835
▁dialogue	-10.3836
ere	-10.3851
ld	-10.3856
▁documentaries	-10.3874
▁greatly	-10.3881
▁bet	-10.3897
▁careful	-10.39
▁sentences	-10.3924
▁leaves	-10.3963
▁affect	-10.3965
▁logo	-10.3977
▁eye	-10.4036
▁inconvenience	-10.4048
▁Al	-10.4051
▁diamond	-10.4051
▁blow	-10.4053
▁target	-10.4058
▁taste	-10.4067
▁possibl	-10.4084
pad	-10.4095
▁synced	-10.4097
▁heartr	-10.4109
▁cumbersome	-10.4118
▁unknown	-10.4118
▁Simply	-10.4118
▁virtual	-10.4118
▁caught	-10.4119
ent	-10.4124
▁notified	-10.4126
▁primary	-10.4131
eb	-10.4133
▁dream	-10.4134
▁distracting	-10.4136
▁competitors	-10.414
▁highest	-10.4143
▁reduced	-10.4147
ual	-10.4148
▁detailed	-10.4148
rench	-10.4155
▁..	-10.4167
oing	-10.417
uicker	-10.4172
▁mad	-10.4197
low	-10.4207
▁rip	-10.4216
▁stack	-10.4217
▁fly	-10.4219
▁corrected	-10.4225
▁AI	-10.4226
▁atlea	-10.4233
ary	-10.4233
▁uploads	-10.4251
▁knowing	-10.4256
▁practical	-10.4264
ably	-10.4273
▁usable	-10.4274
▁Show	-10.4287
ool	-10.4303
▁cord	-10.4313
▁decides	-10.4314
▁growing	-10.4336
▁motion	-10.4344
ooms	-10.436
▁Are	-10.4368
▁redo	-10.4371
▁excit	-10.4372
▁angry	-10.4378
▁rely	-10.4388
▁popups	-10.439
roblem	-10.4391
▁benefit	-10.4396
▁typical	-10.4398
▁picks	-10.4401
STA	-10.4403
▁meeting	-10.4408
▁kills	-10.4415
heart	-10.442
▁menus	-10.4425
▁suppose	-10.4428
▁recover	-10.4438
rowning	-10.4453
▁superb	-10.4454
▁tabs	-10.4457
sides	-10.4458
▁atmosphere	-10.4463
▁comparison	-10.4463
hristmas	-10.4463
▁sensitivity	-10.4463
▁addicted	-10.4463
▁phenomenal	-10.4463
▁repetition	-10.4463
▁outstanding	-10.4463
▁vector	-10.4465
▁exploring	-10.4468
▁usability	-10.4474
▁Try	-10.4474
▁relevant	-10.4476
TS	-10.4477
▁wise	-10.4479
▁race	-10.4489
▁presets	-10.4494
▁hori	-10.4498
▁anime	-10.4501
oving	-10.4503
▁interruptions	-10.4505
▁fold	-10.4507
▁genuine	-10.4513
which	-10.4517
▁paste	-10.4527
▁retry	-10.4535
▁sender	-10.4536
▁Switch	-10.4553
▁struggl	-10.4555
▁leagues	-10.4556
▁Stars	-10.4567
▁repair	-10.4572
▁ratio	-10.4582
▁scanning	-10.4591
ra	-10.4591
▁sides	-10.4596
▁pleased	-10.4611
pdated	-10.4621
▁previews	-10.4621
▁killer	-10.4624
▁under	-10.465
▁at	-10.4653
▁excite	-10.4658
▁windows	-10.4675
▁concern	-10.4677
▁rich	-10.4681
▁understanding	-10.4685
ine	-10.4685
ontinue	-10.471
when	-10.4728
▁death	-10.4749
▁tablets	-10.4749
▁some	-10.475
▁ti	-10.4756
▁Save	-10.476
▁soundtrack	-10.4763
uare	-10.4766
▁topic	-10.4766
▁six	-10.4792
▁Sure	-10.4798
▁manual	-10.4803
▁session	-10.4804
▁advise	-10.4804
idiculous	-10.4817
rustrating	-10.4817
eah	-10.4819
▁grateful	-10.482
▁opportunity	-10.482
▁unskippable	-10.482
▁tubi	-10.482
▁unreliable	-10.482
▁disappointment	-10.4821
▁bombard	-10.4821
▁patience	-10.4821
uali	-10.4822
▁knew	-10.4822
▁basis	-10.4827
▁ideal	-10.4829
▁advice	-10.4829
▁monsters	-10.4831
▁sitting	-10.4833
▁physics	-10.4837
▁office	-10.484
▁teaches	-10.4843
▁produce	-10.4844
▁neat	-10.4853
▁lie	-10.4857
▁worry	-10.4858
▁stressful	-10.4878
▁vary	-10.4887
AST	-10.496
▁orders	-10.4962
▁viewed	-10.4968
▁render	-10.4977
go	-10.5
▁doing	-10.5029
▁locations	-10.5035
▁after	-10.5045
▁colour	-10.5058
▁disappearing	-10.506
▁views	-10.5063
ling	-10.508
man	-10.5083
ames	-10.51
tv	-10.5108
▁mo	-10.5112
▁activate	-10.5117
▁thumbnail	-10.5122
▁translation	-10.5127
▁bubble	-10.5166
▁fav	-10.5169
▁enhance	-10.5171
▁field	-10.5173
......	-10.5174
▁workout	-10.5174
os	-10.5177
erfect	-10.5183
▁catalog	-10.5189
▁awkward	-10.519
▁budget	-10.519
▁enemy	-10.519
▁verification	-10.519
▁stunning	-10.5191
▁hearteyes	-10.5191
▁complex	-10.5191
▁knowledge	-10.5192
▁energy	-10.5192
▁ultra	-10.5192
▁began	-10.5192
pensive	-10.5192
▁nowadays	-10.5192
▁continually	-10.5193
▁ongoing	-10.5194
▁sliding	-10.5195
▁clock	-10.5195
▁spinning	-10.5195
▁defeat	-10.52
evelopers	-10.5202
▁bot	-10.5204
▁favor	-10.5209
game	-10.521
▁brother	-10.521
▁seamlessly	-10.5212
▁midi	-10.5215
▁detect	-10.5221
aily	-10.5222
▁roll	-10.5229
▁TI	-10.5229
▁straightforward	-10.5235
▁limits	-10.5236
▁wherever	-10.5245
▁connects	-10.525
▁spins	-10.5252
▁individually	-10.5255
ance	-10.526
ound	-10.5263
na	-10.527
▁tested	-10.5272
▁curve	-10.5274
▁searched	-10.5278
▁decorations	-10.5311
▁thinks	-10.5311
el	-10.5332
arch	-10.5333
uir	-10.5337
▁integrate	-10.5343
▁ages	-10.5344
line	-10.5352
ften	-10.5356
▁writer	-10.5363
▁nicely	-10.537
ho	-10.538
▁blocking	-10.5384
▁farm	-10.5387
▁walls	-10.5394
▁purposes	-10.5399
▁seek	-10.5439
▁knows	-10.5448
▁spin	-10.5449
ovies	-10.5459
▁pricey	-10.5463
ol	-10.5474
▁machine	-10.55
unam	-10.5517
▁flash	-10.5518
▁bc	-10.5528
▁flat	-10.5539
▁resi	-10.5547
ruly	-10.555
▁implement	-10.5551
ble	-10.5567
dyssey	-10.5575
▁explicit	-10.5575
▁unwatchable	-10.5575
▁anybody	-10.5575
▁Smart	-10.5575
▁homepage	-10.5576
uel	-10.5576
ithout	-10.5577
▁screw	-10.5578
ameplay	-10.5579
slightly	-10.5584
▁navigating	-10.5584
▁minigames	-10.5588
▁thread	-10.5591
▁implemented	-10.5597
▁achievements	-10.5601
▁living	-10.5614
▁ammo	-10.5618
▁aesthetic	-10.5625
▁smoother	-10.5628
▁sadly	-10.5642
▁spelling	-10.5643
ely	-10.5643
▁hrs	-10.5644
▁wondering	-10.5645
▁followers	-10.5645
▁workouts	-10.5646
▁manag	-10.5648
▁benefits	-10.565
pressed	-10.5655
▁packs	-10.5664
while	-10.5665
▁archive	-10.5669
way	-10.5686
▁children	-10.569
▁tutorials	-10.5691
▁dropping	-10.5691
▁failing	-10.5723
phone	-10.5754
▁slides	-10.5762
▁directions	-10.577
▁canceled	-10.5778
ating	-10.5785
▁body	-10.579
▁trend	-10.5792
video	-10.5793
▁exceptional	-10.5798
▁sight	-10.5804
king	-10.5806
▁anyways	-10.581
▁sets	-10.5826
ooking	-10.5834
gr	-10.5842
veryone	-10.585
etc	-10.5867
▁surprise	-10.588
▁cases	-10.5881
▁gear	-10.5888
▁decade	-10.589
▁table	-10.5892
▁catalogue	-10.5899
▁reread	-10.5915
▁cause	-10.593
▁paywall	-10.595
onstant	-10.5952
▁continuous	-10.5957
▁instant	-10.5958
ersonally	-10.5973
▁somebody	-10.5976
▁Should	-10.5976
▁replies	-10.5976
▁shrugging	-10.5976
▁overwhelming	-10.5976
▁lvl	-10.5978
▁verify	-10.598
▁providing	-10.5982
▁motivated	-10.5988
light	-10.5989
▁relative	-10.599
▁mis	-10.5995
▁laughing	-10.6008
▁apart	-10.6013
▁docs	-10.6015
▁tough	-10.6017
▁girls	-10.6018
▁disney	-10.6019
▁cluttered	-10.6031
▁factories	-10.6034
▁crops	-10.604
ry	-10.604
▁perks	-10.6041
▁undo	-10.6052
▁teacher	-10.6057
▁fight	-10.6059
▁testing	-10.6065
▁networks	-10.6066
▁screenshots	-10.6069
▁border	-10.6069
▁alerts	-10.6072
▁ultimate	-10.6074
▁occurs	-10.6091
▁he	-10.6098
ownload	-10.6098
▁importantly	-10.6099
omething	-10.6113
times	-10.6116
▁manager	-10.6119
▁computers	-10.6146
▁answers	-10.6149
▁filling	-10.6153
▁beginners	-10.6165
▁finishing	-10.6189
▁decrease	-10.6203
▁recorded	-10.6217
TA	-10.6223
▁when	-10.6268
ma	-10.6281
▁smartphone	-10.6323
▁decision	-10.6323
▁coop	-10.6324
▁backward	-10.6327
▁creator	-10.6329
ustment	-10.6332
▁act	-10.6335
▁bu	-10.6337
▁partner	-10.635
ical	-10.6358
▁plans	-10.6363
▁regret	-10.6374
▁bed	-10.6375
ustomer	-10.6389
asically	-10.639
alf	-10.6391
▁opportunities	-10.6391
▁heavily	-10.6392
▁women	-10.6392
▁behavior	-10.6392
▁diverse	-10.6392
ovember	-10.6392
▁manner	-10.6392
▁asleep	-10.6392
▁nobody	-10.6393
▁adobe	-10.6393
▁pocket	-10.6394
▁disgusting	-10.6394
▁intense	-10.6397
▁silly	-10.6398
▁Issue	-10.6399
▁difficulties	-10.6402
▁significantly	-10.6405
▁plain	-10.6415
▁rename	-10.6416
ur	-10.6417
▁Into	-10.642
▁pleasant	-10.6422
▁nose	-10.6423
▁compete	-10.6425
▁vertical	-10.6429
▁wrote	-10.6432
▁preferences	-10.644
atest	-10.6451
▁photography	-10.6455
▁prime	-10.646
▁raw	-10.649
▁remaining	-10.6498
oday	-10.6505
angry	-10.6505
▁states	-10.6516
eels	-10.6531
▁badly	-10.6539
▁both	-10.6542
▁releases	-10.6562
▁dollar	-10.657
▁carry	-10.6571
ps	-10.6577
▁reporting	-10.659
▁Aside	-10.6604
ty	-10.6605
▁invite	-10.6606
usted	-10.6653
▁Total	-10.6655
▁reports	-10.6665
▁sites	-10.6667
▁ap	-10.6675
▁remain	-10.6689
rror	-10.6702
▁encounter	-10.6708
▁speeds	-10.6718
▁swap	-10.6734
▁each	-10.6737
play	-10.6739
▁bands	-10.6739
▁Ad	-10.6746
▁interior	-10.6749
▁advantage	-10.6754
▁contents	-10.6771
▁modify	-10.6772
▁slider	-10.6779
▁sorts	-10.6784
▁ratings	-10.6792
layed	-10.6805
▁exclusive	-10.6809
over	-10.6809
▁participate	-10.6812
rying	-10.6816
▁recommendation	-10.6817
▁crop	-10.6823
▁childhood	-10.6826
▁folks	-10.6826
▁versatile	-10.6826
▁revenue	-10.6827
▁Support	-10.6827
▁duration	-10.6827
▁cursor	-10.6827
▁skipped	-10.6828
▁problematic	-10.6828
▁statistics	-10.6834
▁Internet	-10.6837
▁worthless	-10.6842
▁initially	-10.6854
▁miles	-10.6855
oping	-10.6874
▁stated	-10.6875
▁placement	-10.6881
▁disconnecting	-10.6898
▁edition	-10.6899
▁Streaming	-10.6913
SA	-10.6921
▁hangs	-10.6928
other	-10.6929
▁loyal	-10.693
▁fell	-10.6935
▁reminders	-10.6941
▁tiktok	-10.6946
▁simpler	-10.6956
ebtoons	-10.6957
▁runner	-10.6958
▁begins	-10.6967
▁watches	-10.6971
▁introduce	-10.6984
▁author	-10.6985
usting	-10.6986
▁saver	-10.6998
▁apple	-10.7
▁STA	-10.7002
▁ignore	-10.7012
▁Store	-10.7012
that	-10.7023
ark	-10.7024
▁directory	-10.7026
▁wa	-10.7039
▁boards	-10.7042
▁boot	-10.7043
▁spaces	-10.7068
how	-10.7072
part	-10.7075
▁tempo	-10.7087
▁increases	-10.709
▁biased	-10.7092
▁amounts	-10.7127
▁ha	-10.7129
ax	-10.7134
▁fi	-10.7158
▁patch	-10.7163
▁ex	-10.7168
................	-10.7187
▁dealing	-10.7189
▁gamers	-10.7191
by	-10.7202
▁combination	-10.7203
▁template	-10.7214
▁woman	-10.7227
▁escape	-10.7228
▁study	-10.7231
▁plot	-10.7248
▁attach	-10.7249
▁paper	-10.7249
▁permanent	-10.7262
▁helicopter	-10.7281
▁communities	-10.7281
▁accessibility	-10.7282
▁impact	-10.7283
▁modern	-10.7283
▁relieve	-10.7285
leading	-10.7285
▁younger	-10.729
▁showsmovies	-10.729
▁promote	-10.729
▁entertained	-10.7292
bility	-10.7292
▁epix	-10.7292
▁bright	-10.7297
▁heck	-10.7297
▁prepare	-10.7298
▁screwed	-10.73
▁startup	-10.7303
▁faced	-10.7305
ectives	-10.7315
▁calories	-10.7328
▁balance	-10.7329
▁weak	-10.7332
▁pleasing	-10.7334
tories	-10.7339
▁political	-10.7343
▁dates	-10.7344
▁chasms	-10.7346
▁glow	-10.7347
▁yearly	-10.7355
▁phrases	-10.736
▁training	-10.736
evs	-10.7362
▁thumbnails	-10.7365
▁ensure	-10.7368
ATI	-10.737
own	-10.737
▁pushed	-10.738
▁animals	-10.7384
▁drawing	-10.7397
om	-10.7408
▁earbuds	-10.7412
▁grinding	-10.7417
▁sky	-10.742
▁rewarding	-10.7421
ostly	-10.7427
▁trip	-10.7431
▁obscure	-10.7446
▁plane	-10.7449
ass	-10.7472
▁ac	-10.748
▁hr	-10.7486
▁systems	-10.7487
▁ride	-10.749
▁ca	-10.749
eal	-10.7506
right	-10.7545
▁covered	-10.7546
▁solutions	-10.7577
more	-10.759
side	-10.7616
▁returns	-10.7634
▁bi	-10.7645
▁ba	-10.7646
good	-10.7649
▁creation	-10.7675
based	-10.768
▁interaction	-10.7684
▁armor	-10.7685
▁thousand	-10.769
▁chasm	-10.769
▁crush	-10.7704
▁la	-10.7704
▁monitor	-10.7707
onderful	-10.7721
ated	-10.7722
ord	-10.7727
▁restrict	-10.7727
▁confirm	-10.7732
▁successful	-10.7732
▁integration	-10.7738
▁drives	-10.7738
▁according	-10.774
ontal	-10.774
▁achieve	-10.7746
▁glass	-10.7749
▁memori	-10.7749
ominos	-10.7753
esktop	-10.7754
isappointing	-10.7754
▁companies	-10.7757
▁altogether	-10.7757
▁happily	-10.7757
ourney	-10.7757
ormally	-10.7757
▁gorgeous	-10.7757
▁headache	-10.7758
▁unread	-10.7758
▁whoever	-10.776
▁expectations	-10.776
▁freedom	-10.7761
▁racing	-10.7761
▁hardware	-10.7761
▁describe	-10.7762
evel	-10.7763
▁golden	-10.7772
▁fullscreen	-10.7773
▁responsive	-10.7775
▁syncs	-10.778
▁adverts	-10.7781
▁generated	-10.7785
▁boy	-10.7789
▁former	-10.7793
▁occasions	-10.7806
▁drafts	-10.7809
▁supporting	-10.7817
▁bullet	-10.7818
▁unstable	-10.7821
▁chrome	-10.7822
▁moneti	-10.7822
lapping	-10.7826
▁counter	-10.7835
▁complained	-10.7844
eing	-10.7846
▁pi	-10.7854
▁Song	-10.7855
▁exchange	-10.7861
▁disconnects	-10.7867
ail	-10.7879
▁situations	-10.7885
▁odds	-10.7888
▁exception	-10.7897
▁functioning	-10.7907
broken	-10.791
▁tunes	-10.7915
its	-10.7916
▁highlights	-10.7921
▁stages	-10.7923
ie	-10.795
▁par	-10.7981
▁minus	-10.7985
And	-10.8019
▁passing	-10.8028
rely	-10.8038
▁graph	-10.8053
wise	-10.8057
▁beca	-10.8116
▁ab	-10.8122
▁band	-10.8127
▁brain	-10.8135
ets	-10.814
▁ban	-10.8156
▁relax	-10.8176
▁bookmark	-10.819
▁clue	-10.819
▁musical	-10.8201
outube	-10.8201
oth	-10.8202
ok	-10.821
▁chart	-10.8214
▁region	-10.8224
hotoshop	-10.8251
ultiple	-10.8253
▁percent	-10.8256
▁temporarily	-10.8257
▁April	-10.8257
▁Awful	-10.8257
▁inaccurate	-10.8257
▁maximum	-10.8257
▁forgotten	-10.8257
uency	-10.8258
▁disaster	-10.8258
▁taught	-10.8258
▁cropping	-10.8258
▁simulator	-10.8263
▁playstore	-10.8264
▁bugged	-10.8264
▁corrupted	-10.8266
▁cancelling	-10.8267
▁scammers	-10.827
▁handling	-10.8271
▁delivered	-10.8276
essages	-10.8281
▁knock	-10.8285
▁tree	-10.8286
▁convenience	-10.8288
lad	-10.829
▁tiles	-10.8292
▁blueprints	-10.8298
▁hanging	-10.8303
▁reverse	-10.8303
▁insanely	-10.8303
mp	-10.8306
▁existed	-10.8307
▁accurately	-10.831
▁strategy	-10.8315
▁candy	-10.8324
nlike	-10.8328
itro	-10.833
▁breaker	-10.833
▁bill	-10.8347
▁separately	-10.8352
▁betting	-10.8358
▁marketing	-10.8359
▁these	-10.8362
▁shorter	-10.8363
▁gifs	-10.8371
ile	-10.8372
▁visit	-10.8378
▁bombs	-10.8382
▁considered	-10.8384
▁contrast	-10.8385
▁despi	-10.8386
▁pitch	-10.839
▁statuses	-10.8395
▁exists	-10.8412
▁balanced	-10.8415
▁existing	-10.8433
eneral	-10.8453
▁gener	-10.8468
▁delays	-10.8481
▁discovery	-10.8504
▁alternatives	-10.8515
lear	-10.8516
star	-10.8534
▁ui	-10.8544
avid	-10.8557
▁dig	-10.8564
▁wake	-10.8565
▁been	-10.8575
▁or	-10.8577
▁god	-10.8587
▁eliminate	-10.8594
▁searches	-10.8603
▁classics	-10.8603
▁reopening	-10.8604
▁sorting	-10.8633
▁su	-10.8644
▁cr	-10.8653
▁translate	-10.8655
ll	-10.8658
▁cap	-10.8672
▁advertise	-10.8672
▁plug	-10.8679
ap	-10.8692
▁disappoint	-10.8708
▁drawback	-10.8708
▁bump	-10.8715
▁reads	-10.8721
▁chore	-10.8722
▁stutter	-10.8722
▁thumb	-10.8737
bs	-10.8765
▁duplicate	-10.8766
▁pair	-10.8774
eautiful	-10.878
ardenscapes	-10.878
▁presentation	-10.8782
▁child	-10.8783
▁grammatical	-10.8783
▁cellular	-10.8783
▁yourself	-10.8783
▁inappropriate	-10.8784
▁opponent	-10.8784
▁capability	-10.8784
▁sluggish	-10.8784
▁superior	-10.8785
▁risk	-10.8785
▁percentage	-10.8785
▁blurry	-10.8786
▁survive	-10.8786
▁discussion	-10.8787
▁headset	-10.8787
▁Annoying	-10.8788
▁operate	-10.8789
bout	-10.879
▁outright	-10.879
▁showmovie	-10.8793
▁linear	-10.8794
▁sh	-10.8795
▁hints	-10.8795
▁reminder	-10.8796
▁involved	-10.8799
▁insta	-10.8808
▁attached	-10.8808
▁adfree	-10.8813
▁were	-10.8815
▁recall	-10.8823
▁international	-10.8829
fore	-10.8833
rd	-10.8834
▁muted	-10.8834
▁paint	-10.8836
▁Truly	-10.884
IA	-10.8841
lack	-10.8841
▁rendering	-10.8842
▁those	-10.885
▁stutters	-10.8853
▁critical	-10.8862
▁Songs	-10.8863
ustments	-10.8876
ock	-10.8899
ifi	-10.8901
fficient	-10.8914
▁steal	-10.8935
▁raise	-10.894
▁beautifully	-10.8942
they	-10.8946
▁vids	-10.8956
▁falling	-10.8961
▁wo	-10.8962
▁park	-10.897
▁sooner	-10.8972
▁competitions	-10.8978
▁connections	-10.8981
▁thrill	-10.8984
▁utter	-10.9026
▁chase	-10.9028
dark	-10.9034
▁counting	-10.9071
▁Sync	-10.9077
▁disabl	-10.9082
▁actions	-10.9118
▁thin	-10.9131
eside	-10.9135
▁individuals	-10.9137
▁freely	-10.9141
▁unit	-10.9146
▁communicat	-10.9152
rop	-10.9163
ac	-10.9165
xperience	-10.9172
▁disc	-10.9185
lowing	-10.9192
▁pdfs	-10.924
▁context	-10.9252
ess	-10.9252
▁continued	-10.9256
icture	-10.9259
ace	-10.9266
▁failure	-10.9267
▁scheme	-10.9268
▁gesture	-10.9271
▁interruption	-10.9274
▁attack	-10.9278
▁bomb	-10.9286
▁caption	-10.9289
▁tier	-10.9313
▁reflect	-10.9315
▁alphabetical	-10.932
▁unfortunate	-10.9322
made	-10.9322
uiet	-10.933
▁bringing	-10.9334
▁capacity	-10.9339
▁replied	-10.9339
▁terrific	-10.9339
▁female	-10.9339
▁uptodate	-10.9339
▁wingsuit	-10.9339
▁wireless	-10.9339
▁immersive	-10.9339
▁unwanted	-10.9339
▁unhappy	-10.9339
▁replacement	-10.934
▁identify	-10.934
▁cropped	-10.934
▁scenery	-10.9342
amera	-10.9343
▁absurd	-10.9343
▁further	-10.9343
▁winner	-10.9344
▁fewer	-10.9345
▁invested	-10.9346
otifications	-10.9347
▁Settings	-10.935
▁hacked	-10.9351
▁entry	-10.9352
▁Tab	-10.9357
▁fps	-10.9357
▁Apps	-10.9358
data	-10.9359
▁shift	-10.9365
▁ignored	-10.937
cy	-10.937
▁stands	-10.9373
▁students	-10.94
▁route	-10.9401
▁shape	-10.9405
▁blowing	-10.9407
▁recipient	-10.9411
▁weather	-10.9412
hanged	-10.9413
uess	-10.9414
▁bookmarks	-10.9415
oor	-10.9417
▁integrat	-10.9422
ations	-10.9428
▁hi	-10.9429
▁locate	-10.9433
cast	-10.9435
▁hitt	-10.9438
▁incomplete	-10.9445
thoroughly	-10.9447
▁burn	-10.946
▁consume	-10.9464
▁stretch	-10.9475
▁faces	-10.9478
▁young	-10.9494
▁port	-10.9495
▁themes	-10.95
ower	-10.9503
▁prompts	-10.9503
diting	-10.9504
▁motivate	-10.9509
▁texts	-10.953
▁movements	-10.9534
▁term	-10.9536
▁colours	-10.9544
▁soo	-10.9545
ears	-10.9557
▁award	-10.9558
▁react	-10.9565
▁bold	-10.9574
ug	-10.9586
▁notify	-10.9588
▁algorithms	-10.9596
▁collections	-10.9597
▁erase	-10.9607
▁Sam	-10.9623
▁pinn	-10.9626
love	-10.963
▁periods	-10.963
locking	-10.9643
▁bree	-10.9651
▁vi	-10.9667
▁lighting	-10.9668
▁rates	-10.9669
▁glitched	-10.968
▁adapt	-10.9707
▁mp	-10.9726
▁vice	-10.9734
▁hel	-10.9762
fully	-10.9779
▁creates	-10.9804
▁forwarding	-10.9808
▁charges	-10.9823
music	-10.9834
▁disturb	-10.9839
▁easie	-10.9845
▁determine	-10.9853
▁pattern	-10.9858
▁shield	-10.9858
▁preference	-10.9862
▁laugh	-10.9867
▁ya	-10.9869
▁revive	-10.9871
eview	-10.9872
ip	-10.9873
▁deliver	-10.9877
▁drift	-10.9878
▁bus	-10.9885
▁letter	-10.9903
▁human	-10.991
bviously	-10.9912
tc	-10.9912
▁recieve	-10.9919
hrome	-10.992
ggest	-10.9922
▁trail	-10.9926
▁Shield	-10.9927
▁daughter	-10.9927
▁encryption	-10.9927
▁orientation	-10.9927
▁micro	-10.9927
▁combat	-10.9927
▁drama	-10.9927
▁rotation	-10.9927
▁Apparent	-10.9928
▁bummer	-10.9928
▁mainstream	-10.9929
▁artwork	-10.9929
▁firestick	-10.993
▁horribly	-10.993
▁flashscore	-10.993
aste	-10.9931
▁everybody	-10.9931
iano	-10.9934
▁stability	-10.9936
ads	-10.9939
orth	-10.994
▁pricing	-10.994
▁hiccups	-10.9946
▁sooo	-10.995
▁exclusively	-10.9952
hatever	-10.9953
▁subscribing	-10.9953
▁Incredible	-10.9957
▁truth	-10.9958
▁aliens	-10.9961
orked	-10.9963
▁significant	-10.9963
art	-10.9968
▁incorrectly	-10.9972
▁bro	-10.9973
▁persists	-10.9982
▁welcome	-10.9982
▁stock	-10.9986
my	-10.9986
▁id	-10.9989
emove	-10.9991
▁practicing	-10.9996
▁heavy	-11
▁rebooted	-11.0001
pen	-11.0007
▁endlessly	-11.001
▁refus	-11.003
▁tags	-11.0039
ull	-11.0042
▁reconnecting	-11.0045
▁wh	-11.005
▁firing	-11.0052
▁abilities	-11.0057
▁sticker	-11.0058
using	-11.0063
lean	-11.0066
▁mods	-11.0072
▁gamepad	-11.0073
▁affects	-11.0081
▁factor	-11.0083
▁tickets	-11.0087
▁Slow	-11.0089
ones	-11.0091
aming	-11.0103
▁claims	-11.0112
ian	-11.0123
▁battle	-11.0126
acing	-11.0126
▁vibe	-11.0128
▁addon	-11.0138
▁businesses	-11.0139
there	-11.015
ence	-11.0154
▁recordings	-11.0161
ground	-11.018
▁finishes	-11.0182
waited	-11.0194
▁whil	-11.0196
▁cat	-11.0205
▁verb	-11.0205
▁wi	-11.0205
hange	-11.0221
do	-11.0226
icrotransactions	-11.0227
ke	-11.0231
▁favourites	-11.0239
ownloaded	-11.024
▁extras	-11.0241
▁rank	-11.0244
▁dating	-11.0251
▁produc	-11.0258
setting	-11.0259
▁typed	-11.0261
rolling	-11.0262
▁apply	-11.0303
▁animat	-11.0312
▁treat	-11.0316
▁payments	-11.0324
▁eating	-11.0342
ping	-11.0348
de	-11.0351
▁ga	-11.0358
ending	-11.0362
for	-11.0366
▁passed	-11.0368
▁guessing	-11.0375
▁beg	-11.0378
▁pit	-11.0388
▁rais	-11.0397
▁replac	-11.0399
ontent	-11.0429
eading	-11.0438
▁engine	-11.0439
▁sleeping	-11.0442
▁wow	-11.0445
▁Text	-11.0445
style	-11.0451
▁Screen	-11.0454
▁Service	-11.0475
▁perspective	-11.0479
hannel	-11.048
▁student	-11.0484
There	-11.0488
▁chest	-11.0498
▁overlap	-11.0505
▁rule	-11.0506
are	-11.0523
▁penny	-11.0526
▁extensive	-11.0529
▁silent	-11.0532
▁independent	-11.0532
▁obtain	-11.0536
huffle	-11.0537
▁approach	-11.0538
ide	-11.0542
oice	-11.0544
▁draft	-11.0546
arbage	-11.0549
▁nostalgic	-11.0552
▁college	-11.0552
▁valuable	-11.0552
▁irrelevant	-11.0552
uipment	-11.0553
▁progressing	-11.0553
▁disruptive	-11.0553
▁lasted	-11.0553
▁construction	-11.0553
inux	-11.0553
▁shadow	-11.0554
▁mediocre	-11.0554
▁indeed	-11.0554
▁between	-11.0554
▁legit	-11.0555
▁completion	-11.0556
▁removal	-11.0557
▁girl	-11.0559
▁mechanic	-11.056
▁rotating	-11.056
▁upper	-11.056
▁annual	-11.0561
▁expire	-11.0564
▁moviesshows	-11.0565
▁epic	-11.0568
▁attachment	-11.0569
▁transferred	-11.0571
▁biomes	-11.0573
▁successfully	-11.0578
uate	-11.0578
▁controlling	-11.0585
eatures	-11.0587
uirements	-11.0587
og	-11.0595
▁retrieve	-11.061
▁mobs	-11.0613
ars	-11.0625
rking	-11.063
▁gestures	-11.063
▁alarm	-11.0632
▁damage	-11.0636
▁precise	-11.0637
▁token	-11.0642
led	-11.0645
▁reverted	-11.0645
▁delayed	-11.0646
▁contract	-11.0649
▁admit	-11.0656
eat	-11.066
▁reviewing	-11.0665
▁generate	-11.0669
day	-11.0672
▁builds	-11.0672
▁nuts	-11.0674
arely	-11.0684
▁descriptions	-11.0696
▁owned	-11.0703
▁explanations	-11.071
▁tapped	-11.0716
▁primar	-11.0724
▁yellow	-11.0729
▁globe	-11.0733
▁blind	-11.0751
uge	-11.0753
iving	-11.0766
▁parent	-11.0768
▁flips	-11.0774
▁unsubscribe	-11.0776
▁shooters	-11.0788
▁ear	-11.0789
▁pixels	-11.0796
ata	-11.0808
▁spoke	-11.0814
omescapes	-11.0815
▁priced	-11.0816
▁grey	-11.083
▁rearrange	-11.0868
▁originals	-11.0878
▁costly	-11.088
▁offering	-11.0893
▁secs	-11.0904
ooming	-11.0904
laylists	-11.0905
▁frustrate	-11.0914
▁planes	-11.0916
aster	-11.0918
▁spoil	-11.0925
core	-11.0984
▁She	-11.0989
▁shutt	-11.0993
▁displaying	-11.1017
▁label	-11.102
rate	-11.1026
▁holiday	-11.1031
▁an	-11.1036
▁badge	-11.1036
um	-11.1038
▁automat	-11.1049
emand	-11.1062
arre	-11.107
herefore	-11.1085
also	-11.1104
ber	-11.1105
egatta	-11.1113
pdates	-11.1115
▁gb	-11.1124
▁cam	-11.1127
▁gambl	-11.1129
ovel	-11.1136
▁username	-11.1145
▁represent	-11.1147
▁vehicle	-11.115
▁adult	-11.1152
▁reaction	-11.1155
▁assist	-11.1164
▁mod	-11.1167
▁hurt	-11.1171
▁eyesb	-11.1175
epeat	-11.1186
revious	-11.1194
▁accomplish	-11.1196
ros	-11.12
▁severe	-11.1206
hamet	-11.1215
lashscore	-11.1215
▁fluid	-11.1218
▁TikTok	-11.1219
▁exclamation	-11.1219
▁satisfaction	-11.1219
▁happier	-11.1219
▁bandwidth	-11.1219
▁glaring	-11.1219
▁themselves	-11.1219
▁proceed	-11.1219
▁compact	-11.1219
asily	-11.1219
▁directories	-11.1219
▁desert	-11.1219
▁possibilities	-11.1219
▁marketplace	-11.1219
▁fulfill	-11.122
▁tailor	-11.122
▁wonky	-11.122
▁unintuitive	-11.122
▁detection	-11.122
▁reliably	-11.122
▁uncomfortable	-11.122
▁unbearable	-11.1221
▁simultaneously	-11.1221
▁recomend	-11.1221
unter	-11.1221
▁aswell	-11.1221
▁steering	-11.1222
▁policy	-11.1222
▁entirety	-11.1225
▁broad	-11.1226
▁solving	-11.1226
ersion	-11.1227
urther	-11.1227
uarter	-11.1228
▁masking	-11.1235
▁calorie	-11.1237
▁musicians	-11.1238
ying	-11.124
▁dot	-11.1241
▁crates	-11.1244
▁shortcuts	-11.1245
▁cubes	-11.1249
▁eyesgri	-11.1252
▁dep	-11.1254
▁acceptable	-11.1256
uirks	-11.1256
▁cheating	-11.1258
▁commands	-11.1263
▁gather	-11.1272
▁owners	-11.1274
▁compatibility	-11.1278
▁dismiss	-11.1281
▁unexpected	-11.1282
▁forums	-11.1283
▁reactions	-11.1287
▁vehicles	-11.1288
▁Turn	-11.1294
▁argu	-11.1298
▁facebook	-11.13
▁progressive	-11.1301
▁police	-11.1304
▁flashing	-11.1306
▁appropriate	-11.1308
▁flag	-11.1314
▁reappear	-11.1316
▁reenter	-11.1319
▁installation	-11.1322
▁texture	-11.1326
▁explained	-11.1329
▁ho	-11.1333
▁Trie	-11.1333
▁donate	-11.1336
▁boom	-11.1336
▁translations	-11.1344
▁incentive	-11.1348
▁notch	-11.1351
▁tastes	-11.1355
▁shove	-11.1361
▁seeking	-11.1362
▁aap	-11.1372
▁if	-11.1373
ctually	-11.138
counts	-11.1388
rior	-11.1389
▁crossed	-11.1389
▁having	-11.1393
ter	-11.1394
▁sho	-11.1405
la	-11.1435
▁reference	-11.1445
earning	-11.1446
▁timeout	-11.1453
▁familiar	-11.1475
still	-11.1484
live	-11.1493
▁tip	-11.1508
ple	-11.151
▁shop	-11.1512
new	-11.1524
▁narrow	-11.1528
paced	-11.1549
▁pile	-11.1562
▁frames	-11.157
ually	-11.1577
▁formatting	-11.1591
spite	-11.1599
get	-11.1606
▁appeared	-11.1611
▁pad	-11.1626
▁died	-11.1628
ions	-11.1631
erally	-11.164
▁Scroll	-11.1641
▁thr	-11.1645
▁sticks	-11.1645
can	-11.1664
▁bait	-11.1695
▁convince	-11.1703
level	-11.1759
▁appeal	-11.1785
eta	-11.1789
▁Stream	-11.1792
ends	-11.1794
lays	-11.1801
▁compet	-11.1804
▁convert	-11.1806
great	-11.1808
▁Allow	-11.1811
▁vid	-11.1831
▁America	-11.1844
pp	-11.1849
▁forms	-11.1849
▁occasion	-11.1856
▁relationship	-11.1858
▁vibration	-11.1859
▁slowed	-11.1862
▁element	-11.1865
▁habit	-11.1866
▁combo	-11.1868
▁silence	-11.1868
io	-11.1868
▁animal	-11.1868
▁forum	-11.1869
▁hunt	-11.1871
▁preset	-11.1874
▁core	-11.1879
▁malfunction	-11.1881
▁streamed	-11.1883
ious	-11.1884
▁audios	-11.1893
▁beating	-11.1893
▁chill	-11.1894
▁Incredibl	-11.1897
tion	-11.19
ecommend	-11.1907
▁alter	-11.191
▁porn	-11.1913
▁flawless	-11.1918
xample	-11.1918
ccasionally	-11.1919
▁gem	-11.1922
pon	-11.1923
isappointed	-11.1923
ik	-11.1924
▁boss	-11.1925
egardless	-11.193
▁submit	-11.193
▁Think	-11.1931
▁maneuver	-11.1933
▁accuracy	-11.1933
▁approximate	-11.1933
▁facepalming	-11.1933
▁flexibility	-11.1933
▁simplicity	-11.1933
▁atrocious	-11.1933
▁temporary	-11.1933
▁intriguing	-11.1933
▁motivation	-11.1933
▁husband	-11.1933
▁conclusion	-11.1933
▁traffic	-11.1934
▁ondemand	-11.1934
▁horrendous	-11.1934
▁immensely	-11.1934
ebruary	-11.1934
▁excuse	-11.1935
hinese	-11.1935
▁unnecessarily	-11.1935
▁coverage	-11.1935
▁dvd	-11.1936
▁threw	-11.1936
▁occurred	-11.1936
▁confident	-11.1936
ussian	-11.1937
▁priority	-11.1937
▁ugly	-11.1938
▁unlink	-11.1939
▁analysis	-11.194
▁appearance	-11.194
▁ball	-11.1944
ops	-11.1946
▁beans	-11.1946
▁Account	-11.1946
umble	-11.1946
▁roku	-11.1946
reviously	-11.1948
▁desire	-11.195
▁headlines	-11.1951
▁unbelievable	-11.1952
player	-11.1952
▁Interface	-11.1956
▁sprint	-11.1957
▁encouraging	-11.1957
▁noticeable	-11.1962
▁enhanced	-11.1964
▁Interesting	-11.1964
orean	-11.1964
▁explorer	-11.1967
▁renewing	-11.1975
▁dying	-11.1977
▁charm	-11.1978
▁affected	-11.1982
▁wider	-11.1984
▁nature	-11.1985
▁mom	-11.1985
eats	-11.1988
▁tweaks	-11.1988
usk	-11.1989
▁soooo	-11.1989
▁delight	-11.1998
▁reviewers	-11.2002
▁duo	-11.2003
▁stuttering	-11.2003
▁passion	-11.2006
▁agent	-11.2006
▁attractive	-11.201
▁Installed	-11.2012
▁combine	-11.2015
▁fighting	-11.2018
▁suspicious	-11.202
▁units	-11.202
▁chronological	-11.202
▁hair	-11.2033
▁tonight	-11.2038
▁guard	-11.2043
co	-11.2054
▁lovely	-11.2055
▁income	-11.2056
be	-11.206
▁traveling	-11.2063
▁u	-11.2074
▁concerns	-11.2076
▁leader	-11.2081
▁trips	-11.2082
▁gray	-11.2086
ir	-11.2088
▁upside	-11.2096
vid	-11.2103
▁packages	-11.211
loses	-11.2112
▁dogs	-11.2116
▁decorate	-11.2119
▁reopened	-11.212
▁See	-11.2122
▁logical	-11.2122
▁few	-11.2122
▁Tri	-11.2129
▁war	-11.213
▁redownloading	-11.2134
▁nonsense	-11.2137
▁decorating	-11.2139
pending	-11.214
ked	-11.2155
▁aggressive	-11.217
▁retain	-11.217
top	-11.2173
ct	-11.218
▁handful	-11.2181
find	-11.2182
ns	-11.2183
why	-11.2186
▁avatars	-11.2192
▁regattas	-11.2203
mon	-11.2206
▁editors	-11.2207
igh	-11.221
▁nonstop	-11.2214
erman	-11.222
▁hosts	-11.2229
▁shots	-11.2236
▁index	-11.2244
victor	-11.225
▁eat	-11.2252
▁lo	-11.2253
▁streaks	-11.2254
▁enlarge	-11.2259
Also	-11.2272
▁plac	-11.2274
▁Smooth	-11.2274
▁heal	-11.2286
ailed	-11.2297
▁def	-11.2299
▁dime	-11.2302
reinstall	-11.2303
▁xp	-11.2319
▁com	-11.2328
least	-11.2333
appy	-11.2337
▁spamm	-11.2344
▁bye	-11.2356
▁bigg	-11.236
▁regards	-11.2361
▁additions	-11.2363
▁voices	-11.2364
▁fr	-11.2369
▁redirect	-11.238
cannot	-11.2392
▁spots	-11.2426
▁pe	-11.2439
▁Story	-11.2442
ks	-11.245
orking	-11.245
▁wor	-11.2469
▁processing	-11.2495
▁po	-11.2496
dge	-11.2501
ley	-11.2514
▁sav	-11.2529
▁meh	-11.2531
▁eg	-11.2531
update	-11.2539
lue	-11.2555
▁rooms	-11.2558
point	-11.2563
mails	-11.2566
▁fastforward	-11.2583
▁fish	-11.2587
▁leveling	-11.2608
▁vers	-11.2609
▁flick	-11.2616
asting	-11.2622
▁discount	-11.2635
▁succeed	-11.2644
▁calm	-11.2661
ny	-11.2669
evice	-11.2675
▁blood	-11.268
▁she	-11.2688
ertain	-11.2691
indle	-11.2694
orse	-11.2697
lassic	-11.2699
▁dialog	-11.2699
irestick	-11.2699
layback	-11.2702
▁intermittent	-11.2702
anuary	-11.2702
▁encrypted	-11.2702
▁metronome	-11.2702
▁nuisance	-11.2702
▁satellite	-11.2702
▁comprehensive	-11.2702
▁distinguish	-11.2702
▁varieties	-11.2702
▁subpar	-11.2702
▁legendary	-11.2702
▁wierd	-11.2702
▁copied	-11.2702
▁dashboard	-11.2703
▁stereo	-11.2703
arlem	-11.2703
▁Addictive	-11.2703
▁easytouse	-11.2703
▁compression	-11.2703
▁unfinished	-11.2703
▁vital	-11.2703
▁submitted	-11.2703
▁rubbish	-11.2703
▁outdated	-11.2704
▁commentary	-11.2704
▁introduction	-11.2704
▁bedrock	-11.2704
▁facility	-11.2705
▁indicator	-11.2705
pictureinpicture	-11.2705
▁Social	-11.2705
▁intervals	-11.2706
▁afterwards	-11.2706
▁nitro	-11.2706
▁unpause	-11.2706
▁cellphone	-11.2706
▁dosent	-11.2707
▁swear	-11.2708
▁reorder	-11.2709
▁anoying	-11.2716
▁downfall	-11.2717
▁dang	-11.2722
▁damaged	-11.2722
▁combined	-11.2722
▁webcomic	-11.2727
▁powerups	-11.2728
▁oppos	-11.2728
▁Sony	-11.273
▁operating	-11.273
▁meters	-11.2731
▁steep	-11.2733
▁movieshow	-11.2734
▁classes	-11.2739
ning	-11.2741
▁realms	-11.2741
two	-11.2743
andom	-11.2751
oading	-11.2752
ugs	-11.2753
▁broadcasters	-11.2754
▁pleasure	-11.2757
▁restored	-11.2763
▁var	-11.2763
pay	-11.2769
mall	-11.2773
▁persisten	-11.2773
▁pa	-11.2773
ha	-11.2773
▁billing	-11.2774
▁understandable	-11.2783
▁invasive	-11.2793
▁trees	-11.2793
▁vision	-11.2794
▁climb	-11.2794
▁charts	-11.2795
▁Tech	-11.2798
▁shapes	-11.2799
▁scary	-11.2803
▁bosses	-11.2807
▁resuming	-11.2816
▁thi	-11.2816
▁float	-11.282
▁disturbing	-11.2821
▁tolerable	-11.2827
▁decisions	-11.2833
▁strip	-11.2834
▁legal	-11.2842
▁distract	-11.2851
▁sessions	-11.2855
▁dump	-11.2862
▁indicate	-11.2866
▁panels	-11.2877
media	-11.2892
▁Trial	-11.2894
ixed	-11.2898
▁pure	-11.2912
▁forwards	-11.2914
▁bugging	-11.2915
▁canvas	-11.2916
▁counted	-11.292
ild	-11.2925
presented	-11.2932
cash	-11.294
▁exited	-11.2942
▁grown	-11.2954
▁inter	-11.2976
ings	-11.2981
eh	-11.2988
▁fo	-11.2995
▁boosts	-11.2995
▁mental	-11.2998
▁floors	-11.3
▁natural	-11.3002
▁stores	-11.3006
IST	-11.3009
▁gi	-11.301
rush	-11.3013
▁providers	-11.3023
would	-11.3026
hundred	-11.3031
▁signatures	-11.3034
▁gap	-11.3038
sometimes	-11.3044
▁persist	-11.3046
▁downsides	-11.305
▁overly	-11.3054
everal	-11.3057
after	-11.3062
▁ins	-11.3071
air	-11.3077
▁weekend	-11.3091
▁heads	-11.3094
▁gam	-11.3106
▁specials	-11.3109
▁punish	-11.3119
ittle	-11.3121
▁rounds	-11.3123
▁stat	-11.3127
fix	-11.3134
ands	-11.3139
▁grade	-11.3144
well	-11.3169
▁loops	-11.3172
▁tr	-11.3176
dited	-11.3186
otally	-11.3202
ater	-11.3205
aps	-11.3231
▁role	-11.3232
uits	-11.3236
▁hits	-11.3237
gged	-11.3238
expression	-11.324
ware	-11.3249
ul	-11.3265
case	-11.3276
▁hated	-11.3278
▁corners	-11.328
im	-11.3284
ah	-11.3284
ease	-11.3286
▁limiting	-11.3299
▁wins	-11.33
▁plann	-11.3321
▁tight	-11.3332
ible	-11.3345
▁fans	-11.3362
▁subs	-11.3364
most	-11.3364
mo	-11.3364
▁suggesting	-11.3372
ather	-11.3405
▁worthy	-11.3411
land	-11.3413
▁respect	-11.3421
lly	-11.3422
▁license	-11.3424
▁cheat	-11.3434
▁heat	-11.3436
acts	-11.3439
▁valid	-11.3446
▁Sp	-11.3452
ties	-11.3453
▁airplane	-11.3459
op	-11.346
▁companion	-11.3464
▁column	-11.3466
▁blueprint	-11.3468
▁resource	-11.347
▁flowers	-11.3474
ta	-11.3474
▁tick	-11.3476
▁workaround	-11.348
▁timely	-11.3481
have	-11.3484
because	-11.3486
▁univers	-11.3493
▁brief	-11.3517
▁backgrounds	-11.3518
ier	-11.3521
ama	-11.3521
father	-11.3525
▁surf	-11.3528
ventually	-11.3529
alendar	-11.3532
rilliant	-11.3532
▁bless	-11.3533
▁foot	-11.3534
▁Stupid	-11.3536
▁bankrupt	-11.3536
▁conservative	-11.3536
▁dynamic	-11.3536
▁pandemic	-11.3536
▁overhaul	-11.3536
ecember	-11.3536
▁database	-11.3536
▁drastically	-11.3536
▁unrealistic	-11.3536
▁acceleration	-11.3536
▁assistance	-11.3536
▁rapid	-11.3536
▁creatures	-11.3536
▁Tidal	-11.3537
▁worldwide	-11.3537
▁teleport	-11.3537
▁Alien	-11.3537
riends	-11.3537
▁studio	-11.3537
▁Shame	-11.3538
▁Austin	-11.3538
▁sketchy	-11.3538
ex	-11.3538
▁vomiting	-11.3538
▁proud	-11.3538
▁configuration	-11.3539
▁guidelines	-11.3539
▁nerves	-11.354
▁colorful	-11.354
▁hurry	-11.354
▁soft	-11.354
▁spare	-11.3541
▁renew	-11.3541
appens	-11.3541
▁intake	-11.3542
▁deducted	-11.3542
▁audible	-11.3542
▁twist	-11.3542
▁creepy	-11.3543
▁discouraging	-11.3543
▁supply	-11.3544
▁semi	-11.3544
▁polished	-11.3545
▁programmed	-11.3546
▁sister	-11.3549
▁contests	-11.3549
▁experiment	-11.355
▁gif	-11.3551
lot	-11.3552
oyment	-11.3554
▁consideration	-11.3555
▁opinions	-11.3557
onnecting	-11.3559
▁located	-11.356
▁hinder	-11.3561
ecommended	-11.3562
▁expired	-11.3563
▁flashes	-11.3564
▁trailers	-11.3565
▁flyers	-11.3565
▁billed	-11.3567
▁typos	-11.3573
▁balloons	-11.3575
▁restrictions	-11.3575
▁iron	-11.3577
▁vods	-11.3578
iles	-11.3578
▁resort	-11.3579
layers	-11.358
▁prob	-11.358
issing	-11.3581
▁attributes	-11.3581
▁spread	-11.3581
hotos	-11.3585
▁planet	-11.3586
eason	-11.3587
▁hill	-11.3589
▁suspense	-11.3593
sign	-11.3594
▁hung	-11.3598
▁yea	-11.3602
▁sprinting	-11.3602
hanging	-11.3605
▁son	-11.3607
▁ipad	-11.3613
▁accelerate	-11.3614
▁Select	-11.3615
▁designers	-11.3618
▁accent	-11.3619
▁fancy	-11.3619
▁dependable	-11.3624
▁monitoring	-11.3625
▁gmail	-11.3628
▁guest	-11.3628
▁invisible	-11.3631
▁riddle	-11.3634
▁redundant	-11.3636
▁Tablet	-11.3639
▁wreck	-11.3641
▁duplicates	-11.3643
▁possibilit	-11.3655
▁registered	-11.3656
evels	-11.3657
▁starters	-11.367
▁oldest	-11.3671
really	-11.3672
gh	-11.3676
▁refunded	-11.3678
▁capture	-11.3678
▁collected	-11.3694
▁races	-11.3701
▁landing	-11.3704
▁sold	-11.372
▁mass	-11.3721
▁touches	-11.3738
▁bloat	-11.3752
▁appealing	-11.3753
▁sp	-11.3756
▁gripes	-11.3779
organi	-11.3789
▁expanding	-11.3795
.......	-11.38
▁fed	-11.3804
▁reloading	-11.3819
▁lasts	-11.3825
▁truck	-11.3826
▁looping	-11.3832
ether	-11.386
▁fat	-11.3868
▁broadcasts	-11.3872
andy	-11.3874
▁string	-11.3881
oto	-11.3889
▁overlay	-11.3891
only	-11.3892
▁stayed	-11.3905
▁lies	-11.3916
▁yo	-11.3926
▁disrupt	-11.3927
heers	-11.3943
▁Tap	-11.3947
▁Shar	-11.3959
▁landscapes	-11.3963
rt	-11.3965
▁demo	-11.3966
board	-11.3991
▁ship	-11.3999
eft	-11.4
ages	-11.4026
▁accumulate	-11.4034
notch	-11.4042
▁rewinding	-11.4054
▁output	-11.4058
▁rough	-11.4075
▁magic	-11.4076
▁arrange	-11.4086
em	-11.4103
edit	-11.4109
uint	-11.4111
view	-11.4129
▁snap	-11.4134
hose	-11.416
▁acc	-11.4166
▁cons	-11.4171
▁ordered	-11.4173
▁redesign	-11.4194
▁afr	-11.4213
uly	-11.4232
▁bass	-11.4235
▁codes	-11.4284
▁thorough	-11.4289
read	-11.4296
lby	-11.4319
▁trim	-11.4321
abit	-11.4346
date	-11.436
▁outcome	-11.4363
▁leaderboard	-11.4375
▁repost	-11.4377
▁incom	-11.4378
arring	-11.4381
ically	-11.4384
▁backflip	-11.4389
▁troubleshoot	-11.4397
▁Stick	-11.4399
watch	-11.4399
▁insert	-11.4418
▁owner	-11.4423
▁tweak	-11.4425
tic	-11.4425
necessarily	-11.4426
▁guarantee	-11.4429
▁thankful	-11.443
ussia	-11.443
▁promise	-11.4431
▁alphabet	-11.4433
nspire	-11.4437
mpossible	-11.4438
orget	-11.4439
arvel	-11.4442
▁manipulat	-11.4445
▁beneficial	-11.4445
▁electronic	-11.4445
▁multitude	-11.4445
▁nostalgia	-11.4445
▁traditional	-11.4445
▁tennis	-11.4445
▁unpleasant	-11.4445
▁dictionar	-11.4445
▁guidance	-11.4445
▁uninterrupted	-11.4445
▁criticism	-11.4445
▁household	-11.4445
▁confidence	-11.4445
▁grasp	-11.4445
▁immersion	-11.4445
▁sleek	-11.4445
▁indication	-11.4445
▁protection	-11.4445
▁fraction	-11.4445
▁staff	-11.4445
ompletely	-11.4445
▁township	-11.4445
▁Application	-11.4446
▁bulk	-11.4446
▁educational	-11.4446
▁moderation	-11.4447
▁penali	-11.4447
▁verified	-11.4447
▁nonetheless	-11.4447
▁clever	-11.4448
lenty	-11.4448
▁streamlined	-11.4448
▁earth	-11.4449
rashes	-11.4449
adio	-11.445
onsidering	-11.445
▁loosing	-11.4452
▁shocked	-11.4452
▁Sucks	-11.4452
▁addiction	-11.4453
eleted	-11.4456
▁playpause	-11.446
▁mutants	-11.4461
▁involve	-11.4462
▁shuffling	-11.4462
▁compromise	-11.4464
▁perfection	-11.4465
▁transferr	-11.4465
▁indicated	-11.4468
▁pink	-11.4469
▁fellow	-11.4469
▁unexpectedly	-11.4471
▁applied	-11.4473
▁redeem	-11.4475
sers	-11.4479
ontacts	-11.4482
▁dms	-11.4484
▁limitations	-11.4484
▁correction	-11.4485
ffice	-11.4487
▁emotes	-11.4488
ge	-11.4488
▁clicks	-11.4493
▁remix	-11.4493
▁skew	-11.4493
▁calming	-11.4499
▁ditch	-11.45
▁audiobooks	-11.4506
▁decor	-11.4513
▁leaderboards	-11.4515
▁brush	-11.4529
▁combos	-11.4531
▁habits	-11.4534
▁intentional	-11.4537
il	-11.4539
▁categori	-11.4541
hannels	-11.4541
▁chests	-11.4541
▁dope	-11.4541
▁flexible	-11.4542
mb	-11.4543
▁varied	-11.4543
▁nope	-11.4543
▁strangers	-11.4544
▁transparent	-11.455
▁hack	-11.4553
ding	-11.4554
uck	-11.4555
▁ios	-11.4557
we	-11.4558
▁factors	-11.4569
▁presentations	-11.457
▁hole	-11.457
▁operates	-11.457
▁Thought	-11.4571
▁thankfully	-11.4575
▁locally	-11.4576
▁concerning	-11.4579
▁sucked	-11.4581
▁teammates	-11.4582
▁livestream	-11.4588
since	-11.459
▁sake	-11.4591
ownloads	-11.4597
▁Trash	-11.4603
▁concerned	-11.4607
▁practices	-11.4615
▁bubbles	-11.4621
▁irritate	-11.4621
▁inf	-11.4624
▁gradual	-11.4629
▁broadcasting	-11.4634
▁textures	-11.4636
▁bits	-11.4636
thinking	-11.4642
ustable	-11.4642
umped	-11.4642
▁sponsor	-11.4642
▁pathetic	-11.4647
▁trade	-11.4653
▁synchroni	-11.4654
▁arrows	-11.4655
▁subscribers	-11.4667
▁victor	-11.4672
▁ne	-11.468
▁inform	-11.4682
▁hop	-11.4683
▁replaying	-11.4693
▁unrelat	-11.4702
▁storylines	-11.471
▁longest	-11.4712
▁angles	-11.4712
uns	-11.4713
friend	-11.4721
▁cooler	-11.474
ception	-11.474
▁im	-11.4741
▁focusing	-11.4748
▁crack	-11.4751
▁circles	-11.4751
▁ITS	-11.4752
lex	-11.4756
bar	-11.4762
inding	-11.4772
ments	-11.4774
▁prompted	-11.4782
▁blame	-11.4796
▁possib	-11.4799
umbled	-11.4811
▁sum	-11.4814
vy	-11.4824
iked	-11.4826
▁filtering	-11.4829
▁touched	-11.4841
▁o	-11.4842
▁pla	-11.4846
▁methods	-11.4849
▁hook	-11.4855
alog	-11.4859
▁grouped	-11.486
hand	-11.486
iness	-11.4861
make	-11.4866
▁adore	-11.4869
▁lame	-11.4881
with	-11.4893
▁bothering	-11.4893
▁shortly	-11.4904
let	-11.4917
▁maintain	-11.4918
▁closer	-11.4926
full	-11.4942
▁enrag	-11.4944
what	-11.4967
▁gardens	-11.4971
ative	-11.4978
▁cris	-11.5012
entered	-11.5026
thers	-11.5044
▁differences	-11.5056
witch	-11.507
lready	-11.5076
▁Sta	-11.5107
ait	-11.5122
inner	-11.5127
ected	-11.5132
lock	-11.5134
mi	-11.5138
reinstalled	-11.5154
▁adventures	-11.5163
hey	-11.5172
hair	-11.5187
▁assum	-11.5191
aya	-11.5197
img	-11.5217
▁standing	-11.5227
▁towns	-11.5233
▁poo	-11.5236
▁networking	-11.5236
aramount	-11.5239
▁rev	-11.5245
▁sm	-11.5251
dition	-11.5255
night	-11.5259
ff	-11.5274
▁websites	-11.5295
lies	-11.5299
ean	-11.5308
▁passwords	-11.531
ure	-11.5316
inking	-11.5317
▁figur	-11.5336
ective	-11.5348
▁exits	-11.535
▁secret	-11.5361
▁robot	-11.5362
▁doc	-11.5365
avorite	-11.5367
▁amateur	-11.537
▁matters	-11.5371
ned	-11.5371
▁measure	-11.5372
▁expansion	-11.5374
▁transaction	-11.5375
▁club	-11.5376
etwork	-11.5376
▁achievement	-11.5377
▁competitor	-11.5377
▁command	-11.5381
▁variation	-11.5382
drive	-11.5382
▁American	-11.5392
Thank	-11.5398
▁St	-11.5404
▁overheat	-11.5404
opping	-11.5414
orce	-11.5416
ues	-11.5418
▁protect	-11.5422
▁fluent	-11.5425
▁af	-11.5435
sh	-11.5436
▁seperate	-11.5436
ffline	-11.5436
▁bias	-11.5439
▁abrupt	-11.5445
▁clothes	-11.5445
▁maintenance	-11.5445
▁monotonous	-11.5445
▁trophies	-11.5445
▁fashion	-11.5445
▁tiresome	-11.5445
▁toxic	-11.5445
▁informative	-11.5445
▁override	-11.5445
▁grenade	-11.5445
▁foreground	-11.5445
▁copies	-11.5445
▁productivity	-11.5445
▁awsome	-11.5445
▁clarity	-11.5445
▁sweet	-11.5445
▁audience	-11.5445
▁exposure	-11.5445
▁correspond	-11.5445
▁wrist	-11.5445
▁spawn	-11.5446
▁fabulous	-11.5446
▁Avoid	-11.5446
▁unclear	-11.5446
▁authentication	-11.5446
▁swim	-11.5446
▁pinch	-11.5446
uantity	-11.5446
▁industry	-11.5446
uggy	-11.5447
nough	-11.5447
ahoo	-11.5447
▁marvel	-11.5448
omcast	-11.5448
▁friendship	-11.5448
▁Series	-11.5449
▁sideways	-11.545
▁distorts	-11.545
▁unistalled	-11.5451
▁onoff	-11.5451
▁harvest	-11.5452
▁configure	-11.5455
▁prediction	-11.5455
ontacted	-11.5456
▁enclosures	-11.5456
▁shortcomings	-11.5456
▁remixes	-11.5458
▁touchscreen	-11.546
▁above	-11.5461
▁guaranteed	-11.5462
▁plugins	-11.5465
▁renovation	-11.5465
▁faith	-11.5466
oins	-11.5467
▁lifetime	-11.547
▁instruct	-11.547
▁smash	-11.5474
▁mirroring	-11.5475
▁accomplished	-11.5479
▁alphabetically	-11.548
▁obtained	-11.5482
▁consist	-11.5482
▁stunts	-11.5482
▁appointments	-11.5484
▁erased	-11.5485
▁chord	-11.5487
▁hype	-11.5489
▁any	-11.5489
▁horns	-11.5494
▁overheating	-11.5494
▁meals	-11.5494
▁updown	-11.5495
▁photographers	-11.5501
▁greed	-11.5501
▁dance	-11.5505
▁dm	-11.5507
otmail	-11.5509
▁controllers	-11.5511
▁downgrad	-11.5512
▁comfort	-11.5514
oad	-11.5516
avorites	-11.5516
▁backflips	-11.5522
▁mature	-11.5524
▁checkin	-11.5524
▁incorporate	-11.5525
▁informed	-11.5525
▁mega	-11.5526
▁strict	-11.5526
▁ships	-11.553
▁Sense	-11.5531
▁fift	-11.5534
▁hurts	-11.5541
▁codec	-11.5541
▁learners	-11.5547
▁remotely	-11.5551
▁baby	-11.5552
lip	-11.5554
tball	-11.5554
▁vibes	-11.5555
▁alb	-11.5555
▁commit	-11.5556
▁studying	-11.5559
▁education	-11.5559
▁safely	-11.5562
▁phishing	-11.5562
▁offroad	-11.5563
▁reconsider	-11.5564
▁distorted	-11.5564
▁shields	-11.5566
▁differentiate	-11.5566
▁patterns	-11.5566
▁bothersome	-11.5567
set	-11.5574
▁flipp	-11.5581
▁rewarded	-11.5591
▁functionally	-11.5592
▁sun	-11.5593
▁vine	-11.5609
▁merge	-11.5612
▁responded	-11.5616
▁vanish	-11.562
ture	-11.5625
came	-11.563
hold	-11.5632
coins	-11.5637
▁ignor	-11.5651
▁esp	-11.5653
elete	-11.5653
▁arrive	-11.5655
▁won	-11.5657
li	-11.566
ick	-11.5661
▁restor	-11.5661
▁pressure	-11.5675
▁le	-11.5681
▁Teams	-11.5686
ugh	-11.569
▁cup	-11.5693
▁explaining	-11.5696
▁answered	-11.5696
▁lowered	-11.5699
some	-11.5712
stop	-11.5713
▁transactions	-11.5716
▁facegri	-11.5716
▁dealt	-11.572
ffer	-11.5722
▁proof	-11.5723
▁shuffled	-11.5726
▁comedy	-11.5734
▁sd	-11.576
inor	-11.5769
roll	-11.577
eaning	-11.577
▁lovers	-11.5776
▁Issues	-11.5783
▁interfere	-11.5786
ird	-11.5788
ired	-11.5807
▁rolled	-11.5827
pl	-11.583
ucki	-11.5835
▁unlocks	-11.5843
▁farther	-11.5846
eri	-11.5848
▁Track	-11.5861
▁sex	-11.5909
▁op	-11.591
▁usb	-11.5928
▁sw	-11.5934
double	-11.5949
▁entertain	-11.5959
▁pet	-11.5968
▁fe	-11.5975
▁magical	-11.5989
▁bl	-11.599
▁models	-11.6001
ause	-11.6004
▁flagg	-11.6015
ives	-11.602
raise	-11.6057
sure	-11.607
ada	-11.6074
gun	-11.6109
▁overload	-11.6117
▁pros	-11.6118
▁sand	-11.6122
ink	-11.6126
reinstalling	-11.613
▁facesmi	-11.613
▁corrupt	-11.613
atcher	-11.6132
udge	-11.6136
ept	-11.6175
pdf	-11.6176
▁receiver	-11.6201
▁men	-11.6203
▁cl	-11.6204
gest	-11.6208
▁shares	-11.6208
▁roman	-11.6208
▁purp	-11.6219
▁lying	-11.6222
▁partial	-11.6231
ork	-11.6235
▁som	-11.6244
videos	-11.6255
going	-11.626
her	-11.6269
▁promo	-11.6285
▁powers	-11.6296
robab	-11.63
share	-11.6302
ev	-11.6303
then	-11.6309
▁elses	-11.6323
ipped	-11.6323
hoto	-11.6327
best	-11.6333
▁shorts	-11.6338
mouth	-11.6347
▁butt	-11.6383
▁til	-11.6411
▁lite	-11.6432
designed	-11.6438
ua	-11.6442
▁Skip	-11.6451
▁margin	-11.6456
▁cos	-11.6458
oads	-11.6462
▁fu	-11.6464
▁sharp	-11.6464
ite	-11.647
heck	-11.6473
eveloper	-11.6477
▁alien	-11.648
▁checkmark	-11.6482
gs	-11.6484
omi	-11.6484
▁tournament	-11.6485
▁operation	-11.6485
▁idiot	-11.6486
isten	-11.6488
▁ta	-11.6489
lips	-11.649
▁bo	-11.649
▁Space	-11.6494
▁audiobook	-11.6495
▁flight	-11.6497
pecifically	-11.6514
ag	-11.6519
▁prepar	-11.652
iscover	-11.6522
▁flicker	-11.6524
▁broadcaster	-11.6524
irect	-11.6525
orld	-11.6529
▁abandon	-11.653
▁terribl	-11.653
▁peace	-11.6536
▁mile	-11.6536
▁routine	-11.6536
▁immediate	-11.6538
▁accidental	-11.6543
▁techni	-11.6547
erhaps	-11.6548
layrix	-11.6548
▁mailbox	-11.6549
ultiplayer	-11.6551
esterday	-11.6551
▁res	-11.6552
onetheless	-11.6553
eyond	-11.6554
▁anxiety	-11.6556
▁component	-11.6556
▁credentials	-11.6556
▁degree	-11.6556
▁adventurous	-11.6556
▁strength	-11.6556
▁vague	-11.6556
▁maximi	-11.6556
▁wave	-11.6556
▁promising	-11.6556
▁inspiration	-11.6556
▁frankly	-11.6556
▁diffrent	-11.6556
▁ripoff	-11.6556
▁bummed	-11.6556
▁cancellation	-11.6556
▁assault	-11.6556
etween	-11.6556
▁inferior	-11.6556
▁Stuff	-11.6556
▁simplistic	-11.6556
▁hotspot	-11.6557
▁modified	-11.6557
▁instrument	-11.6557
▁Sleep	-11.6557
▁dramatically	-11.6557
▁reliability	-11.6557
layStation	-11.6557
▁inaccessible	-11.6557
▁destruction	-11.6557
▁execution	-11.6557
▁curious	-11.6557
▁diversity	-11.6557
▁entries	-11.6557
▁overwhelmed	-11.6558
▁matrix	-11.6558
▁tagged	-11.6558
▁relaunch	-11.6558
▁tutor	-11.6558
▁branch	-11.6558
▁rea	-11.6558
▁collage	-11.6558
▁dragging	-11.6558
▁captivating	-11.6559
▁troublesome	-11.6559
▁safety	-11.6559
▁lossless	-11.656
▁identical	-11.656
▁conversion	-11.656
▁confirmation	-11.6561
obody	-11.6561
▁colleagues	-11.6561
▁advancing	-11.6562
uirk	-11.6563
▁evolved	-11.6565
▁globally	-11.6566
▁musthave	-11.6567
▁desperately	-11.6568
▁discouraged	-11.6568
amily	-11.6569
▁meta	-11.6569
▁granted	-11.6571
▁dull	-11.6573
ommercials	-11.6573
▁annotate	-11.6574
understood	-11.6574
▁obsesse	-11.6575
▁promised	-11.6575
▁declined	-11.6575
▁dp	-11.6575
▁Subtitles	-11.6577
keep	-11.6577
▁alternate	-11.6581
▁waist	-11.6582
▁briefly	-11.6582
▁renewed	-11.6586
▁pandora	-11.6586
▁cheated	-11.6586
long	-11.6587
▁refill	-11.6589
▁Thankyou	-11.6591
learly	-11.6594
▁announce	-11.6595
▁debit	-11.6597
▁availability	-11.6599
▁router	-11.66
leared	-11.6601
▁paragraphs	-11.6602
ferred	-11.6602
▁blend	-11.6603
party	-11.6604
eware	-11.6609
ife	-11.661
roved	-11.6613
▁scenarios	-11.6618
▁faves	-11.6621
▁brick	-11.6621
▁crew	-11.6622
▁expert	-11.6622
▁headphone	-11.6622
▁Along	-11.6623
▁bat	-11.6623
▁tower	-11.6623
▁losses	-11.6625
ithin	-11.6627
▁iteration	-11.6631
▁clubs	-11.6634
▁supportive	-11.6635
▁insight	-11.6637
▁chasing	-11.6637
▁pickup	-11.6637
▁reminded	-11.6639
little	-11.6639
nitially	-11.664
▁flicks	-11.6646
▁standings	-11.6646
▁corrections	-11.6647
▁effectively	-11.6649
▁realis	-11.665
▁columns	-11.6651
▁drifting	-11.6654
▁starred	-11.6656
▁sorta	-11.6658
▁vibrate	-11.666
▁captioning	-11.6663
roughly	-11.6664
▁listings	-11.6665
▁famous	-11.6668
▁grindy	-11.6671
▁adults	-11.6674
mething	-11.6678
text	-11.6685
▁stor	-11.6685
▁highlighted	-11.6689
▁Single	-11.669
▁leftright	-11.6693
▁shifts	-11.6694
▁SA	-11.6695
▁premi	-11.6704
▁scrolls	-11.6707
uring	-11.671
▁farming	-11.672
eit	-11.6721
▁launched	-11.6721
▁bells	-11.6728
ancel	-11.6737
▁grid	-11.6739
▁wallet	-11.6744
alse	-11.6754
▁extent	-11.6757
▁potion	-11.6761
▁tok	-11.6768
▁hv	-11.677
▁clutter	-11.6772
opped	-11.6779
▁unpair	-11.6781
off	-11.6788
▁cent	-11.6792
fire	-11.6794
▁deck	-11.6801
▁toggl	-11.6806
▁fees	-11.6809
elps	-11.6818
▁triple	-11.6827
work	-11.683
▁compressed	-11.6832
▁pen	-11.6833
▁driver	-11.6852
mates	-11.6857
▁beats	-11.6861
ouse	-11.6868
▁designer	-11.6876
▁senders	-11.6883
▁trimm	-11.6903
▁breath	-11.6914
▁pm	-11.6916
earing	-11.6925
▁boat	-11.6941
▁performs	-11.6942
▁leg	-11.6943
▁hey	-11.6949
▁caller	-11.695
better	-11.696
replying	-11.6984
aying	-11.6988
uote	-11.6998
▁suffer	-11.7007
▁efforts	-11.7016
▁degrad	-11.7023
▁slot	-11.7025
ans	-11.7026
▁wind	-11.7039
vice	-11.7046
ays	-11.7047
▁pray	-11.705
▁trackers	-11.7059
load	-11.7065
▁pr	-11.7066
▁cult	-11.7077
ich	-11.7094
ify	-11.7098
▁imp	-11.7113
ified	-11.7119
▁Soon	-11.712
wei	-11.7121
ats	-11.7123
▁ch	-11.7124
▁listener	-11.7125
ank	-11.7133
▁signs	-11.7137
pped	-11.715
▁messy	-11.7159
will	-11.7163
▁pending	-11.7164
▁slip	-11.7166
speed	-11.7167
▁wrap	-11.717
▁responds	-11.7176
▁records	-11.7178
▁km	-11.722
aka	-11.7221
ond	-11.7221
arlier	-11.7229
▁metal	-11.7237
athetic	-11.7244
▁unbias	-11.7245
▁AT	-11.7251
▁bas	-11.7263
eady	-11.7272
mg	-11.7276
▁backups	-11.7284
▁grand	-11.7291
▁subse	-11.7302
iant	-11.7304
▁maker	-11.7305
▁introduc	-11.732
▁expose	-11.7327
movie	-11.7343
▁compress	-11.7363
▁insist	-11.7364
couple	-11.7373
▁Abo	-11.7375
▁unsubscribed	-11.7386
▁rap	-11.7401
ye	-11.7415
ught	-11.7416
▁differently	-11.7419
▁intend	-11.7427
auto	-11.7429
▁sta	-11.7443
▁ai	-11.7445
▁realise	-11.7447
▁behave	-11.7457
rated	-11.7503
▁plugg	-11.752
ub	-11.7544
glow	-11.7564
▁ramp	-11.7567
▁exclude	-11.7571
▁exp	-11.7571
finity	-11.7572
ors	-11.7577
▁responses	-11.7577
moving	-11.758
money	-11.7581
aw	-11.7587
▁sexual	-11.7615
▁favorited	-11.7626
▁tra	-11.7628
▁feeds	-11.7629
microtransaction	-11.7642
▁tank	-11.7651
cent	-11.7664
ities	-11.7671
▁indi	-11.7673
▁notic	-11.769
▁gross	-11.7693
▁buck	-11.7705
▁chicken	-11.7714
▁tvs	-11.7715
ISS	-11.772
▁pronunciation	-11.772
▁throat	-11.7723
▁spac	-11.7729
▁Subscription	-11.7729
oring	-11.7735
▁attribute	-11.7736
▁scenario	-11.7737
▁photographer	-11.7741
essage	-11.7741
lick	-11.7741
uirement	-11.7743
▁shrink	-11.7744
eature	-11.7744
▁drink	-11.7752
▁admin	-11.7752
▁actors	-11.7752
▁mining	-11.7753
▁multitask	-11.7754
▁censor	-11.7759
lash	-11.7762
high	-11.7763
▁sale	-11.7766
generated	-11.7771
ealth	-11.7773
▁consecutive	-11.7782
▁vod	-11.7782
umber	-11.7783
uence	-11.7785
uffering	-11.7788
▁scar	-11.779
▁ar	-11.7791
eird	-11.7792
▁prioriti	-11.7792
▁align	-11.7794
▁buff	-11.7797
aiting	-11.7798
ibrary	-11.7801
oodnovel	-11.7802
▁criti	-11.7802
ft	-11.7803
edrock	-11.7805
▁invalid	-11.7806
▁afternoon	-11.7806
▁continously	-11.7806
▁disadvantage	-11.7806
▁mechanism	-11.7806
▁predecessor	-11.7806
▁rectified	-11.7806
▁registration	-11.7806
▁Tucker	-11.7806
▁dissatisfied	-11.7806
▁nonexistent	-11.7806
▁summary	-11.7806
▁gradient	-11.7806
▁latency	-11.7806
▁chainsaw	-11.7806
▁hectic	-11.7806
▁detract	-11.7806
▁swimming	-11.7806
▁tomorrow	-11.7806
▁overpriced	-11.7806
▁masterpiece	-11.7806
▁dissapointed	-11.7806
▁lightweight	-11.7806
▁npc	-11.7806
▁August	-11.7806
▁innovative	-11.7806
▁supplement	-11.7806
▁rectify	-11.7806
▁embarrassing	-11.7806
▁unskipable	-11.7806
▁impatient	-11.7806
eleting	-11.7807
▁fundamental	-11.7807
▁lunch	-11.7807
▁regenerate	-11.7807
▁stinks	-11.7807
▁spontaneous	-11.7807
▁idiotic	-11.7807
▁unhelpful	-11.7807
▁impression	-11.7807
▁respawn	-11.7807
▁seldom	-11.7807
▁crossplatform	-11.7807
▁revisit	-11.7807
▁sporadically	-11.7807
▁existence	-11.7807
▁silhouette	-11.7807
▁dangerous	-11.7807
▁msgs	-11.7807
▁niche	-11.7808
▁interference	-11.7808
▁renewal	-11.7808
riday	-11.7808
▁compass	-11.7809
▁beforehand	-11.7809
ocket	-11.7809
pgraded	-11.7809
▁obby	-11.781
esign	-11.781
▁momentum	-11.781
▁withdraw	-11.7812
▁midway	-11.7812
▁parsing	-11.7812
▁workflow	-11.7812
▁arbitrary	-11.7812
nbelievable	-11.7812
▁established	-11.7812
litches	-11.7813
▁expense	-11.7814
▁dirty	-11.7814
▁referring	-11.7815
▁engaged	-11.7815
▁surviving	-11.7815
▁Insta	-11.7816
▁warranty	-11.7816
▁executed	-11.7817
▁drill	-11.7817
▁firm	-11.7817
▁discard	-11.7817
▁centre	-11.7818
▁slightest	-11.7818
▁summer	-11.7818
▁tuning	-11.7819
▁smoothness	-11.782
▁programmers	-11.7821
▁subfolders	-11.7821
pdating	-11.7823
▁below	-11.7823
songs	-11.7825
▁gra	-11.7826
▁Sept	-11.7828
▁whatnot	-11.7831
▁controlled	-11.7836
▁dodging	-11.7837
▁peaceful	-11.7838
▁soothing	-11.7838
▁topdown	-11.7839
▁vanished	-11.784
▁instruction	-11.7841
▁maintained	-11.7842
per	-11.7842
▁upsetting	-11.7843
hones	-11.7846
▁tik	-11.785
▁recieved	-11.7851
ltimate	-11.7853
▁segments	-11.7858
▁gaps	-11.7858
▁accordingly	-11.7858
▁him	-11.7859
einstalling	-11.786
▁advised	-11.7863
▁fetch	-11.7865
looking	-11.7866
▁patched	-11.7867
▁mountains	-11.7867
▁gen	-11.7868
▁Side	-11.7878
▁tweaking	-11.788
▁realtime	-11.788
▁sensor	-11.7882
▁litter	-11.7883
▁shy	-11.7884
▁infinitely	-11.7898
oming	-11.7899
▁alive	-11.7903
▁clone	-11.7906
iew	-11.791
▁Images	-11.7913
▁promotion	-11.7913
▁promptly	-11.7914
▁cheats	-11.7914
▁minded	-11.7915
▁pluto	-11.7919
assive	-11.792
▁intelligen	-11.7921
▁root	-11.7923
▁excel	-11.7924
▁accepted	-11.7928
▁intentionally	-11.793
▁slick	-11.7932
▁span	-11.7935
▁dated	-11.7935
▁whatsApp	-11.7937
▁imported	-11.7939
▁curated	-11.7945
▁disliked	-11.7949
▁manga	-11.7949
▁whistles	-11.795
▁underrated	-11.7952
▁labels	-11.7954
gate	-11.7958
▁realm	-11.7959
▁regions	-11.7963
▁delivers	-11.7966
dly	-11.7967
▁chores	-11.7974
▁makeup	-11.7979
▁roof	-11.798
med	-11.7985
▁goodness	-11.7994
▁listeners	-11.7998
ooked	-11.8008
▁recap	-11.8022
ovie	-11.8027
▁concepts	-11.803
▁nast	-11.8032
▁wood	-11.8035
▁dies	-11.804
messages	-11.8041
premium	-11.8043
ini	-11.8043
ea	-11.8043
▁poll	-11.8053
▁reli	-11.8055
▁fields	-11.8059
▁India	-11.806
▁logos	-11.8073
▁soccer	-11.8076
early	-11.8081
starstarstarstar	-11.8086
▁decades	-11.8088
▁banners	-11.8095
▁phase	-11.8096
▁cook	-11.8109
osing	-11.8113
▁swiped	-11.8115
▁rebuild	-11.8115
▁environments	-11.8115
▁mother	-11.8116
▁desk	-11.813
▁begining	-11.813
▁hiding	-11.8132
ec	-11.8138
▁alike	-11.8141
▁interrupts	-11.8145
▁sliders	-11.8148
▁outline	-11.8152
▁stone	-11.8169
every	-11.8171
▁Tweet	-11.8176
▁expression	-11.8182
▁earnings	-11.8189
▁construct	-11.8195
▁ske	-11.82
▁pan	-11.8205
▁replays	-11.8206
▁dread	-11.8213
▁bang	-11.8215
▁translat	-11.8219
▁listing	-11.8225
▁suits	-11.8228
▁Sort	-11.8238
▁gamer	-11.8243
▁roller	-11.8251
▁reverting	-11.8252
match	-11.8254
cient	-11.8257
ptical	-11.8262
▁wit	-11.8268
vote	-11.827
▁coding	-11.8271
gain	-11.8287
▁instances	-11.8288
▁cater	-11.8291
room	-11.8297
▁her	-11.8299
yth	-11.8306
mpire	-11.8318
▁dial	-11.8318
▁values	-11.8324
▁na	-11.8331
▁collapse	-11.8332
ep	-11.835
cious	-11.8354
▁positions	-11.8365
ler	-11.8369
▁career	-11.8377
ism	-11.8379
bug	-11.8382
▁guides	-11.8384
▁arra	-11.8392
Thanks	-11.8408
son	-11.841
learning	-11.8412
hh	-11.8416
pic	-11.8428
ab	-11.8428
▁paired	-11.8464
▁production	-11.8467
idia	-11.8475
▁al	-11.8476
downloaded	-11.8485
pls	-11.8505
fits	-11.8508
inting	-11.851
▁Sign	-11.8514
▁emailing	-11.8516
vent	-11.8526
eply	-11.8529
▁stairs	-11.8532
puts	-11.8533
▁configur	-11.8541
however	-11.8551
main	-11.8552
▁ge	-11.8581
▁wife	-11.8581
create	-11.8584
▁hesitate	-11.8586
ification	-11.8607
user	-11.8615
verse	-11.8615
▁decid	-11.8623
▁producer	-11.8638
▁scream	-11.864
da	-11.8644
person	-11.8645
printing	-11.8645
ase	-11.8651
▁rearrang	-11.8658
▁marking	-11.8673
▁authori	-11.8695
▁manages	-11.8699
losing	-11.8709
pt	-11.8721
▁cares	-11.8728
▁enabl	-11.8735
▁Thing	-11.8736
▁script	-11.8744
▁communications	-11.8747
ky	-11.875
of	-11.8751
▁ram	-11.877
▁math	-11.8777
▁Suggest	-11.8777
▁scal	-11.8782
oop	-11.8792
black	-11.8793
▁sing	-11.8811
card	-11.882
▁net	-11.8845
ship	-11.885
nyone	-11.8852
In	-11.8856
stic	-11.8863
▁purposeful	-11.8901
▁rescan	-11.8917
city	-11.8919
▁anti	-11.8921
ving	-11.8927
▁nights	-11.8935
agging	-11.8939
▁kb	-11.8947
never	-11.8953
iv	-11.8954
▁timers	-11.9017
▁da	-11.9025
▁falls	-11.9025
res	-11.9025
▁recognise	-11.905
mobileautomobile	-11.9053
ality	-11.9059
▁tile	-11.9063
call	-11.9063
files	-11.9064
tory	-11.9072
▁South	-11.9073
▁your	-11.9075
▁spir	-11.9121
pository	-11.9125
uddenly	-11.9128
home	-11.913
artist	-11.9133
▁lineups	-11.9143
xcel	-11.9148
ontact	-11.915
ontrol	-11.9155
▁multiplier	-11.9156
▁exceed	-11.9157
ecided	-11.9158
block	-11.9159
thanks	-11.9162
▁mountain	-11.9164
▁lemur	-11.9164
▁theater	-11.9165
▁balloon	-11.9165
▁restriction	-11.9167
▁cube	-11.9172
ovely	-11.9172
ested	-11.9175
▁consumer	-11.9184
▁pip	-11.9185
▁satisfy	-11.9186
ifficult	-11.9192
▁unbelievabl	-11.9198
▁stranger	-11.9199
atched	-11.9205
▁ev	-11.9207
▁Africa	-11.9207
▁booster	-11.9208
▁typo	-11.9209
▁eras	-11.921
▁meaningful	-11.9214
xceptional	-11.9225
epetitive	-11.9229
hallenging	-11.923
ecommendations	-11.9232
rigger	-11.9232
ootball	-11.9232
olume	-11.9232
▁sporadic	-11.9233
rainbow	-11.9234
▁ashamed	-11.9234
▁associate	-11.9234
▁atmospheric	-11.9234
▁clumsy	-11.9234
▁commerical	-11.9234
▁fascinating	-11.9234
▁inbetween	-11.9234
▁narrator	-11.9234
▁protocol	-11.9234
▁replenish	-11.9234
▁synopsis	-11.9234
▁voltage	-11.9234
▁dissapear	-11.9234
▁legitimate	-11.9234
▁megaskins	-11.9234
▁responsible	-11.9234
▁trophy	-11.9234
▁timestamp	-11.9234
▁parameter	-11.9234
▁vacation	-11.9234
arlson	-11.9234
▁butterflies	-11.9234
▁sloppy	-11.9234
▁rabbit	-11.9234
▁lifesaver	-11.9235
▁incompatible	-11.9235
uivalent	-11.9235
▁unwilling	-11.9235
▁ladies	-11.9235
▁trolls	-11.9235
▁investment	-11.9235
▁bypass	-11.9235
▁crystal	-11.9235
▁fantasy	-11.9235
▁shiftlock	-11.9235
▁compelling	-11.9235
▁attitude	-11.9235
▁cliff	-11.9235
▁confusion	-11.9235
▁dissapointing	-11.9235
▁splash	-11.9235
▁unbeatable	-11.9235
▁penalty	-11.9235
▁mileage	-11.9235
▁comfortably	-11.9235
omics	-11.9235
▁dissappear	-11.9235
▁anxious	-11.9235
▁Sports	-11.9235
▁peeve	-11.9235
ualities	-11.9235
▁revamp	-11.9235
▁fraud	-11.9235
▁imagination	-11.9236
▁expiration	-11.9236
▁stylus	-11.9236
▁suspect	-11.9236
▁incompetent	-11.9236
▁withdrawal	-11.9236
▁nutrition	-11.9236
▁Status	-11.9236
▁deselect	-11.9237
▁toolbar	-11.9237
nreliable	-11.9237
▁childish	-11.9237
ixelbite	-11.9237
▁radar	-11.9238
hoever	-11.9239
▁stamp	-11.9239
▁alignment	-11.9239
eriod	-11.9239
▁copyright	-11.9239
▁myster	-11.924
▁travelling	-11.924
▁heartbeat	-11.924
▁suspended	-11.924
▁embedded	-11.924
ocused	-11.9241
▁exhaust	-11.9241
▁subtract	-11.9241
▁fingertips	-11.9241
▁buried	-11.9241
▁scatter	-11.9242
▁lightning	-11.9242
▁passport	-11.9242
▁webpage	-11.9242
ms	-11.9242
▁implementation	-11.9242
▁kidding	-11.9243
▁meditation	-11.9243
▁grace	-11.9244
▁unreadable	-11.9244
▁tremendously	-11.9245
▁strategies	-11.9245
▁eaten	-11.9246
▁Suggestion	-11.9248
▁distraction	-11.9248
ral	-11.9249
▁Sincerely	-11.9249
▁thankyou	-11.925
egards	-11.9251
▁coworkers	-11.9251
▁technological	-11.9252
▁prop	-11.9252
▁advertisers	-11.9253
▁variable	-11.9253
▁disk	-11.9254
▁compliments	-11.9255
▁substitute	-11.9256
▁sc	-11.9259
▁forgetting	-11.9259
airly	-11.926
▁spell	-11.926
liberate	-11.9261
▁graphical	-11.9261
▁hackers	-11.9263
▁reviewed	-11.9265
▁occupie	-11.9267
▁protected	-11.9267
andomly	-11.9267
▁sample	-11.9267
▁irritated	-11.927
▁meantime	-11.9271
agic	-11.9272
seless	-11.9273
ude	-11.9273
ished	-11.9275
▁overtime	-11.9278
losed	-11.928
▁chain	-11.928
▁scrubb	-11.9281
▁mob	-11.9281
ollowing	-11.9288
▁predator	-11.9288
▁logic	-11.9294
▁described	-11.9296
▁checkpoints	-11.9299
▁insu	-11.9303
▁confirmed	-11.9307
rices	-11.9309
▁admins	-11.9314
ography	-11.9316
riginally	-11.932
reading	-11.9322
▁serve	-11.9323
▁doors	-11.9323
▁strangely	-11.9325
▁Sim	-11.9327
▁clears	-11.9328
▁Spaces	-11.9328
▁cartoon	-11.9328
▁idiots	-11.9329
▁tournaments	-11.9329
▁recorder	-11.9331
▁upto	-11.9332
pable	-11.9332
lu	-11.9337
oals	-11.9338
▁recovered	-11.9338
▁expansions	-11.9339
▁Americans	-11.934
▁variations	-11.934
▁begg	-11.9342
▁falsely	-11.9349
▁hd	-11.935
▁tha	-11.935
mm	-11.9353
▁uncheck	-11.9353
▁efficiently	-11.9355
▁posters	-11.9355
▁egg	-11.9356
▁saturated	-11.936
▁cleaner	-11.9362
flip	-11.9364
▁kiss	-11.9364
▁cruci	-11.9367
uip	-11.9371
▁tongue	-11.9372
▁Sling	-11.9374
▁flawed	-11.9376
▁facef	-11.9379
▁remarkable	-11.9386
▁assists	-11.939
▁thrille	-11.9392
▁Touch	-11.9393
motivating	-11.9394
▁vocab	-11.9396
▁dim	-11.9398
▁crawl	-11.9399
apping	-11.9404
▁inboxes	-11.9412
▁attacks	-11.9413
woman	-11.9419
ustom	-11.9423
▁dear	-11.9425
Android	-11.9425
▁schemes	-11.9427
▁strategi	-11.9428
friendly	-11.9431
hanges	-11.9432
▁muting	-11.9434
asic	-11.9437
▁emote	-11.9437
▁synch	-11.9439
▁professionally	-11.9439
▁snow	-11.9441
ck	-11.9456
placed	-11.9465
lt	-11.9474
▁mu	-11.9474
▁lift	-11.9476
loaded	-11.9477
▁yard	-11.9477
ped	-11.9478
▁drawings	-11.9479
ups	-11.9479
▁performing	-11.9481
▁profit	-11.9481
▁fastpass	-11.9482
bid	-11.9483
▁meal	-11.9484
house	-11.9485
fun	-11.9487
otion	-11.9488
▁advertises	-11.949
kan	-11.9491
▁drawn	-11.9504
▁lineup	-11.9508
▁minimalist	-11.9509
▁engineer	-11.9509
uares	-11.9511
roblems	-11.9523
uide	-11.9531
plus	-11.9532
▁Sent	-11.9537
▁Top	-11.9541
inks	-11.9542
▁playability	-11.9547
▁gifting	-11.9559
▁fired	-11.9559
▁Artist	-11.956
charged	-11.9562
▁respective	-11.9562
▁inconveniences	-11.9563
▁merg	-11.9564
▁conveniently	-11.9568
explod	-11.9571
▁featured	-11.9572
book	-11.9574
ath	-11.9578
ds	-11.9582
▁bann	-11.9582
▁intuitively	-11.9594
▁appreciat	-11.9607
▁fiddl	-11.9614
mode	-11.9617
sensitive	-11.9621
▁threat	-11.9629
▁tax	-11.963
eset	-11.9634
serves	-11.9636
▁mi	-11.9646
start	-11.9651
▁thoughts	-11.9651
▁sped	-11.9654
▁rent	-11.9654
▁misses	-11.9655
▁Say	-11.9656
▁structures	-11.9661
ef	-11.9663
▁portions	-11.9663
▁weirdly	-11.9669
▁prints	-11.9671
▁hire	-11.9684
▁calculate	-11.9687
▁awfully	-11.9689
▁pane	-11.9691
olid	-11.9692
onest	-11.9696
▁learner	-11.9705
▁bag	-11.9708
▁noises	-11.9709
▁ro	-11.9713
hi	-11.9715
▁monopol	-11.9723
▁rethink	-11.9733
▁woke	-11.9752
▁relate	-11.9761
intend	-11.9771
curring	-11.9777
continue	-11.9779
▁layouts	-11.9785
easy	-11.9802
▁irl	-11.9809
▁fade	-11.9813
▁consoles	-11.9815
raw	-11.9819
▁standards	-11.9821
lutoT	-11.9822
▁fb	-11.9822
▁fore	-11.9833
lous	-11.9836
mula	-11.9837
▁dragon	-11.9848
lol	-11.9849
▁discourage	-11.9849
si	-11.985
nds	-11.9856
count	-11.9856
story	-11.986
▁grading	-11.9863
▁terr	-11.9881
rich	-11.9892
▁wipe	-11.9893
ausing	-11.9894
ton	-11.99
▁yt	-11.9907
▁rage	-11.9908
▁citi	-11.9913
▁Sono	-11.9917
▁installs	-11.9922
▁rise	-11.9926
▁sa	-11.9929
clapp	-11.9932
▁beac	-11.9933
▁finds	-11.9934
team	-11.9935
▁yr	-11.9955
▁facts	-11.9956
review	-11.996
▁rush	-11.9975
nter	-11.9978
step	-11.9983
front	-11.9988
▁extrem	-11.9989
▁Aloud	-11.9991
try	-12.0004
If	-12.0017
too	-12.0017
shed	-12.0018
fast	-12.0023
▁batch	-12.0026
month	-12.0028
▁dash	-12.0029
maintaining	-12.0052
astic	-12.0067
int	-12.0076
ember	-12.0083
done	-12.0117
halt	-12.0137
ixing	-12.0142
oney	-12.0143
▁surpass	-12.0148
After	-12.0151
▁schedul	-12.0155
mium	-12.0159
▁sms	-12.0169
uffers	-12.0176
nder	-12.0177
werk	-12.019
ri	-12.0193
▁touchy	-12.0195
stream	-12.0216
rticles	-12.0221
▁fa	-12.0232
ption	-12.0235
Its	-12.0246
bit	-12.0252
▁cooperat	-12.0254
could	-12.0261
ash	-12.027
install	-12.0276
▁hyper	-12.028
▁differ	-12.0306
▁obtrusive	-12.0316
ods	-12.0317
▁Styl	-12.033
tap	-12.0347
▁mkv	-12.0354
▁Special	-12.0356
▁occurring	-12.0356
ric	-12.0363
▁descen	-12.0368
...............	-12.0374
nails	-12.0377
▁organise	-12.0378
▁curs	-12.038
▁cue	-12.04
▁complains	-12.0404
tions	-12.0407
days	-12.041
une	-12.0434
oooo	-12.0434
▁lotus	-12.0441
lid	-12.0445
▁forwarded	-12.0465
▁resync	-12.0471
▁abs	-12.0479
▁sole	-12.0489
▁relearn	-12.049
als	-12.0499
ole	-12.0503
playing	-12.0527
older	-12.0531
nts	-12.0533
exus	-12.0549
eno	-12.0551
▁shad	-12.0552
▁definetl	-12.0555
▁analy	-12.0566
▁creat	-12.0569
minded	-12.0571
icated	-12.0572
▁hesita	-12.0573
▁trap	-12.0577
▁comm	-12.0577
▁canned	-12.0582
download	-12.0584
bps	-12.0585
▁door	-12.0597
▁regrett	-12.0597
▁how	-12.0611
mount	-12.0614
▁ski	-12.0616
▁customise	-12.0622
▁inch	-12.0624
eeping	-12.0624
▁flood	-12.0639
▁Install	-12.0642
▁plead	-12.0645
tried	-12.0647
ak	-12.0648
▁bla	-12.0662
▁fin	-12.0663
pers	-12.0672
di	-12.0675
▁arriv	-12.0675
again	-12.0685
onnect	-12.0687
▁allot	-12.069
▁smi	-12.0697
wifi	-12.0718
itter	-12.0736
pened	-12.0739
▁tongues	-12.0741
▁acknowledge	-12.0746
range	-12.075
▁relie	-12.0753
▁wir	-12.0755
▁arm	-12.0759
litch	-12.0767
▁starter	-12.0773
▁lived	-12.0796
▁advert	-12.0806
unction	-12.0812
▁destination	-12.0815
▁snip	-12.0819
power	-12.0823
▁keyboards	-12.0824
uper	-12.0825
▁carrier	-12.0826
▁outfit	-12.083
▁segment	-12.083
▁paragraph	-12.0831
▁obstacle	-12.0832
▁phrase	-12.0833
▁appointment	-12.0833
▁chunk	-12.0834
▁shortcut	-12.0835
uilding	-12.0839
▁fruit	-12.0839
▁checkpoint	-12.084
▁stunt	-12.0841
olden	-12.0842
▁inevitabl	-12.0855
ocal	-12.0856
ards	-12.0858
once	-12.0864
ouble	-12.0869
▁crowd	-12.0877
urrent	-12.0879
▁invest	-12.0881
▁limitation	-12.0884
▁desperate	-12.0885
▁evolve	-12.0887
annoying	-12.089
▁Send	-12.0891
esume	-12.0893
▁impress	-12.0894
yrics	-12.0894
laystation	-12.0895
urchased	-12.0895
▁tolera	-12.0895
laystore	-12.0896
▁discuss	-12.0896
▁grant	-12.0897
▁chick	-12.0898
avigating	-12.0898
▁intent	-12.0898
xpensive	-12.0899
asier	-12.0899
arkour	-12.0899
ackground	-12.0899
essenger	-12.0899
arity	-12.09
uarantine	-12.0901
andalorian	-12.0901
▁artifact	-12.0901
▁detriment	-12.0901
▁devastated	-12.0901
▁dysfunctional	-12.0901
▁earliest	-12.0901
▁evolution	-12.0901
▁exorbitant	-12.0901
▁hindrance	-12.0901
▁libraries	-12.0901
▁mundane	-12.0901
▁reluctant	-12.0901
▁renovating	-12.0901
▁satisfactory	-12.0901
▁agenda	-12.0901
▁outweigh	-12.0901
▁twenty	-12.0901
▁leisure	-12.0901
▁happiness	-12.0901
▁werewol	-12.0901
andarin	-12.0901
▁electric	-12.0901
▁gigabyte	-12.0901
▁consumption	-12.0901
▁gumball	-12.0901
▁screensaver	-12.0901
▁censorship	-12.0901
▁families	-12.0901
▁national	-12.0901
▁steadily	-12.0901
▁daimond	-12.0901
essaging	-12.0901
▁depict	-12.0901
▁finicky	-12.0901
iewers	-12.0901
▁ownership	-12.0901
▁eager	-12.0901
▁relentless	-12.0901
▁muscle	-12.0901
▁hobby	-12.0901
▁gadget	-12.0901
▁rhythm	-12.0901
▁violence	-12.0901
otorola	-12.0901
▁maddening	-12.0902
▁redstone	-12.0902
▁fluency	-12.0902
▁department	-12.0902
▁rediculous	-12.0902
▁astonishing	-12.0902
ology	-12.0902
guitar	-12.0902
imited	-12.0902
▁Storage	-12.0902
▁gym	-12.0902
▁shotgun	-12.0902
▁customisation	-12.0902
▁mansion	-12.0902
▁mandatory	-12.0902
▁counterpart	-12.0902
▁treasure	-12.0903
▁assistant	-12.0903
▁crate	-12.0903
▁digging	-12.0903
▁excitement	-12.0903
▁inefficient	-12.0903
▁theory	-12.0904
▁increments	-12.0904
▁offensive	-12.0904
▁sneak	-12.0905
▁histor	-12.0905
▁consent	-12.0905
▁inspire	-12.0905
tinent	-12.0905
▁garage	-12.0905
▁cutscene	-12.0905
▁generous	-12.0905
nlimited	-12.0905
▁unavoidable	-12.0905
eedback	-12.0905
▁beef	-12.0905
▁slender	-12.0905
▁modification	-12.0906
▁overboard	-12.0906
▁bursts	-12.0906
▁sidebar	-12.0906
▁hostage	-12.0907
▁module	-12.0907
▁lifestyle	-12.0907
▁misspelling	-12.0907
▁spotty	-12.0908
▁spikes	-12.0908
▁hideout	-12.0908
▁neighbor	-12.0909
▁accomm	-12.0909
▁earphones	-12.0909
▁insulting	-12.091
▁decline	-12.091
▁beware	-12.091
▁reveal	-12.0911
▁utility	-12.0912
▁Speed	-12.0912
arshalls	-12.0912
▁discontinued	-12.0913
nconsistent	-12.0913
▁glich	-12.0914
▁gamemodes	-12.0914
▁separat	-12.0914
▁Superb	-12.0914
▁alphabeti	-12.0916
▁blinking	-12.0917
▁pissed	-12.0917
thank	-12.0917
▁wiped	-12.0917
▁innovation	-12.0918
▁controler	-12.0918
▁activating	-12.0918
▁greeting	-12.0919
▁height	-12.0919
roid	-12.092
▁buds	-12.092
▁conditions	-12.0922
▁surroundings	-12.0922
▁bingo	-12.0923
▁mph	-12.0924
▁eyesthumbs	-12.0924
▁adapter	-12.0925
dispens	-12.0925
▁photoshop	-12.0926
▁turne	-12.0926
▁divide	-12.0926
▁smh	-12.0927
▁faded	-12.0928
ache	-12.0928
▁factual	-12.093
litchy	-12.0931
▁tenses	-12.0932
▁Selection	-12.0933
▁tactics	-12.0933
round	-12.0933
ploading	-12.0934
▁extensions	-12.0934
intermediate	-12.0935
ssentials	-12.0935
orced	-12.0936
▁degraded	-12.0936
bot	-12.0937
▁warm	-12.0938
▁promoting	-12.0938
▁rushed	-12.0939
▁reducing	-12.094
▁captured	-12.094
xp	-12.0941
▁halo	-12.0942
uitting	-12.0943
▁blatant	-12.0943
▁mirror	-12.0944
▁outlet	-12.0946
corporate	-12.0946
▁conflicts	-12.0946
▁cherr	-12.0947
▁intention	-12.0949
▁chime	-12.095
▁audiovideo	-12.0952
▁ranking	-12.0953
▁crown	-12.0954
▁chains	-12.0954
▁mutual	-12.0955
▁Inbox	-12.0955
▁warn	-12.0956
▁trivia	-12.0957
▁wallride	-12.0958
▁assured	-12.0962
▁parties	-12.0963
▁responsiveness	-12.0964
▁booted	-12.0964
▁recommending	-12.0966
▁consistency	-12.0966
▁burned	-12.0968
▁bloody	-12.097
▁upwards	-12.0971
▁memes	-12.0971
▁Technical	-12.0972
▁multitasking	-12.0973
▁advancement	-12.0973
▁skippable	-12.0973
▁chunks	-12.0973
allow	-12.0974
▁snoo	-12.0977
iewing	-12.0978
uys	-12.0978
▁verses	-12.0981
▁lemurs	-12.0986
▁vertically	-12.0986
ontally	-12.0987
▁Artists	-12.099
▁stabili	-12.099
▁charming	-12.0995
nything	-12.0996
without	-12.0999
▁remained	-12.1001
▁estate	-12.1004
▁defend	-12.1006
service	-12.1006
▁fulltime	-12.1007
▁apk	-12.1007
▁attain	-12.1009
▁detected	-12.101
▁desync	-12.1011
▁mild	-12.1012
▁operations	-12.1013
orlds	-12.1013
▁involv	-12.1024
▁fence	-12.1025
▁emotional	-12.1029
▁thrilling	-12.1029
▁malfunctioning	-12.103
▁trusted	-12.1034
▁bread	-12.1036
▁unfollow	-12.1043
▁pairing	-12.1043
▁frust	-12.1048
▁dum	-12.1049
▁cold	-12.1051
▁workarounds	-12.1052
▁companions	-12.1052
xpress	-12.1054
served	-12.1056
▁twin	-12.1056
▁bell	-12.1057
▁skiing	-12.1061
▁mx	-12.1064
▁spa	-12.1064
▁recovery	-12.1066
many	-12.1066
▁sheep	-12.1066
specific	-12.1077
controls	-12.108
▁alto	-12.1081
▁darn	-12.1082
▁reput	-12.1083
▁interpret	-12.1085
▁moon	-12.1085
reative	-12.1088
▁coordination	-12.1093
▁beauty	-12.1094
▁fl	-12.1095
▁copypaste	-12.1096
mous	-12.1096
▁blah	-12.1105
▁altered	-12.1108
▁invitation	-12.1109
▁fool	-12.1109
▁dude	-12.111
▁recipes	-12.1112
ictures	-12.112
▁mastered	-12.1121
▁dimonds	-12.1122
ial	-12.1125
people	-12.1133
▁greatness	-12.1135
pe	-12.1148
▁cop	-12.115
ged	-12.1154
plit	-12.1157
▁moderate	-12.1163
▁yours	-12.1166
arden	-12.1175
▁hog	-12.1177
▁cartoons	-12.1179
▁affecting	-12.1185
oint	-12.1187
▁mindless	-12.1192
▁inspired	-12.1193
▁Ab	-12.1193
▁politic	-12.12
▁advantages	-12.12
▁virus	-12.1205
ides	-12.1207
▁hitch	-12.1207
ai	-12.1213
▁smartphones	-12.1214
▁roam	-12.1217
built	-12.1219
▁bird	-12.122
▁landed	-12.1224
▁pinning	-12.1227
▁printer	-12.1232
odate	-12.1233
▁dr	-12.1236
▁boosting	-12.1253
device	-12.1254
iff	-12.1283
▁dedicate	-12.1292
▁integr	-12.1293
▁flower	-12.1296
wing	-12.1298
▁poster	-12.1308
▁gre	-12.131
▁bounce	-12.1316
ecame	-12.132
▁scams	-12.1324
▁Server	-12.1336
com	-12.1341
lots	-12.1348
list	-12.1351
▁rig	-12.136
▁edges	-12.136
wood	-12.1362
▁fist	-12.1363
▁cycles	-12.1365
▁stell	-12.1369
▁caches	-12.137
▁branding	-12.137
term	-12.1374
▁dual	-12.1375
▁sounding	-12.1378
▁houses	-12.1384
static	-12.1387
els	-12.139
listen	-12.1391
lose	-12.1395
▁rerun	-12.1406
▁holidays	-12.1412
lf	-12.1423
found	-12.1427
▁grabs	-12.1428
▁publish	-12.1435
▁cha	-12.1435
▁inputs	-12.1437
▁bike	-12.1444
atsapp	-12.1448
▁positioning	-12.1458
▁....	-12.1468
▁annoyances	-12.1468
▁refreshed	-12.1469
▁mistaken	-12.147
mkv	-12.148
occurring	-12.1482
▁presses	-12.1483
▁bottle	-12.1484
type	-12.1487
ries	-12.1491
▁musicpodcast	-12.1512
rising	-12.1516
▁cached	-12.1518
oops	-12.1519
So	-12.152
av	-12.152
chats	-12.1521
obtrusive	-12.1522
tar	-12.1529
▁wack	-12.1533
▁Sa	-12.1537
▁attract	-12.1539
▁vibrat	-12.1548
ection	-12.1563
umb	-12.1579
▁faults	-12.1586
▁reproduce	-12.1595
oal	-12.1597
einstalled	-12.161
thor	-12.1627
skull	-12.1631
▁sheets	-12.1632
▁Thi	-12.1633
▁larg	-12.1634
ords	-12.1646
▁doubletap	-12.1646
nowing	-12.1649
scored	-12.1663
▁ww	-12.1663
rice	-12.1669
nline	-12.1671
▁sling	-12.1673
called	-12.168
claim	-12.1683
tary	-12.1691
▁tests	-12.1692
▁leak	-12.1695
lity	-12.1697
cing	-12.1699
graphs	-12.1701
lights	-12.1715
▁presents	-12.1715
wiping	-12.1721
audio	-12.1723
▁textbook	-12.1738
▁veiw	-12.1744
cc	-12.1748
eath	-12.1755
sparkl	-12.1757
know	-12.1762
▁bull	-12.1768
ersonal	-12.1769
ility	-12.177
▁anger	-12.1771
▁snail	-12.1772
▁conversational	-12.1792
wink	-12.1793
rong	-12.1821
ves	-12.1824
▁layers	-12.1832
▁simulat	-12.1832
▁Score	-12.1844
▁deactivate	-12.1845
directed	-12.1856
▁lit	-12.186
▁deactivated	-12.1864
▁tea	-12.1869
▁stuffs	-12.1874
▁inca	-12.188
ron	-12.1882
▁refunds	-12.1888
▁pertain	-12.189
▁capab	-12.1896
▁rec	-12.1903
itting	-12.1904
cs	-12.1905
log	-12.192
fre	-12.192
▁despise	-12.1932
rance	-12.1943
▁sen	-12.1949
▁ru	-12.195
▁stumbl	-12.1963
▁draws	-12.1972
▁fires	-12.1986
▁conclude	-12.1987
▁acces	-12.1988
rain	-12.199
rr	-12.1994
▁progresses	-12.1998
▁ple	-12.1998
pposed	-12.2009
▁sur	-12.2019
print	-12.203
▁exept	-12.2044
ossibly	-12.2054
ba	-12.2055
▁mentioning	-12.2088
elt	-12.2089
forward	-12.2094
want	-12.2096
▁comp	-12.2101
▁serv	-12.2102
band	-12.2108
space	-12.2114
year	-12.212
ins	-12.2123
ress	-12.2124
▁scare	-12.2126
▁tendenc	-12.2146
ricket	-12.2162
dd	-12.2166
peg	-12.2169
▁cameras	-12.2174
tty	-12.2196
ging	-12.2197
cu	-12.2205
learn	-12.2212
▁googl	-12.2234
ara	-12.2241
▁simulati	-12.2244
playlist	-12.2249
▁interfaces	-12.2251
▁.....	-12.227
▁allott	-12.2271
playlists	-12.2275
▁experi	-12.2276
illing	-12.2277
▁Automatic	-12.2278
apps	-12.2297
▁vibra	-12.23
ded	-12.2301
▁pisse	-12.2312
▁lg	-12.2323
▁cal	-12.2328
▁kit	-12.233
control	-12.2344
second	-12.2357
▁gig	-12.2365
earn	-12.2386
ently	-12.2398
alt	-12.2419
ics	-12.2423
▁literal	-12.2436
table	-12.2437
▁animate	-12.2465
▁pur	-12.2466
obs	-12.2477
pening	-12.2481
was	-12.2482
▁dish	-12.2483
▁assign	-12.2486
▁lagg	-12.2488
▁Improve	-12.249
▁gui	-12.2507
track	-12.2512
▁clipp	-12.2517
reaking	-12.2528
played	-12.2531
world	-12.2532
▁ver	-12.2538
▁toss	-12.2559
ems	-12.2575
reating	-12.2591
check	-12.2603
points	-12.2607
▁addresse	-12.2638
▁featur	-12.264
otification	-12.2655
▁embed	-12.2658
▁sup	-12.2667
reset	-12.267
mmm	-12.267
overall	-12.2678
▁browsers	-12.2686
▁ig	-12.2698
▁spec	-12.2705
▁cake	-12.2713
chapter	-12.2724
half	-12.2724
▁hu	-12.2731
place	-12.2734
eems	-12.274
▁identi	-12.2744
▁ra	-12.2745
hard	-12.2746
con	-12.275
▁troubles	-12.2752
kind	-12.276
rash	-12.2764
▁hoop	-12.2765
osts	-12.2768
▁Soo	-12.2783
▁mask	-12.2784
voice	-12.2785
show	-12.2794
sparkles	-12.2805
▁furnace	-12.2815
▁watermark	-12.2815
xchange	-12.2816
tsapp	-12.2816
rovide	-12.2817
roup	-12.2818
▁spirit	-12.2819
hallenge	-12.2821
▁polish	-12.2822
▁gimmick	-12.2822
isplay	-12.2824
▁chip	-12.283
efault	-12.2832
▁hiccup	-12.2832
▁monster	-12.2833
▁teammate	-12.2833
▁upward	-12.2834
▁shutdown	-12.2835
▁weigh	-12.2836
citing	-12.2844
▁powerup	-12.2847
▁Sigh	-12.285
estart	-12.2853
▁dive	-12.2854
ewind	-12.2859
▁trailer	-12.2859
▁flyer	-12.2868
▁miserabl	-12.287
▁Sometime	-12.2872
nit	-12.2875
ortunately	-12.2875
omplete	-12.2876
▁minigame	-12.2877
running	-12.288
▁unselect	-12.2881
▁global	-12.2882
▁Serious	-12.2883
▁Image	-12.2885
ummy	-12.289
avigation	-12.2891
▁elevat	-12.2892
▁murder	-12.2894
elieve	-12.2894
rofessor	-12.2894
echnology	-12.2895
Tunes	-12.2895
ifferent	-12.2895
andscape	-12.2896
ommunity	-12.2896
refore	-12.2896
ampaign	-12.2897
atrix	-12.2897
unctionality	-12.2898
ekki	-12.2898
iamonds	-12.2898
ubbish	-12.2898
ancelled	-12.2898
rammer	-12.2899
orrendous	-12.2899
aptop	-12.2899
▁dramatic	-12.29
rightness	-12.2901
obux	-12.2901
▁excess	-12.2901
akistan	-12.2901
astonished	-12.2901
oodlecake	-12.2901
▁Infuriating	-12.2901
▁assortment	-12.2901
▁concentrate	-12.2901
▁concentration	-12.2901
▁criteria	-12.2901
▁dungeon	-12.2901
▁enthrall	-12.2901
▁illegal	-12.2901
▁paytowin	-12.2901
▁restaurant	-12.2901
▁stimulating	-12.2901
▁painstaking	-12.2901
▁perpetual	-12.2901
▁Italian	-12.2901
▁disagree	-12.2901
▁galore	-12.2901
▁hustle	-12.2901
▁reminisce	-12.2901
▁fluff	-12.2901
▁expansive	-12.2901
▁enchant	-12.2901
▁ocean	-12.2901
▁receipt	-12.2901
▁unsafe	-12.2901
▁principle	-12.2901
▁banknote	-12.2901
▁thirty	-12.2901
▁hilarious	-12.2901
▁enticing	-12.2901
▁science	-12.2901
igeria	-12.2901
▁coincidence	-12.2902
▁Strange	-12.2902
▁dancing	-12.2902
▁barrel	-12.2902
▁fingerprint	-12.2902
▁propaganda	-12.2902
▁yield	-12.2902
▁Shooter	-12.2902
▁abysmal	-12.2902
▁barcode	-12.2902
▁subtle	-12.2902
▁thumbstick	-12.2902
▁hahaha	-12.2902
ownside	-12.2902
▁accomplishment	-12.2902
armin	-12.2902
▁decoder	-12.2902
▁legend	-12.2903
▁collaboration	-12.2903
▁deceptive	-12.2903
▁definite	-12.2903
▁glued	-12.2903
▁robotic	-12.2903
▁grafic	-12.2903
▁spectrum	-12.2903
▁gamified	-12.2903
▁vocal	-12.2903
▁unwind	-12.2903
▁moderator	-12.2903
▁standby	-12.2903
▁substantially	-12.2904
▁snowboard	-12.2904
▁someday	-12.2904
▁despawn	-12.2904
▁evil	-12.2904
▁paytoplay	-12.2904
▁inception	-12.2904
nistalling	-12.2904
▁Access	-12.2905
epeatedly	-12.2905
▁latter	-12.2905
emember	-12.2905
▁lonely	-12.2905
▁succession	-12.2905
▁personalities	-12.2905
▁swapped	-12.2906
▁denied	-12.2906
▁harass	-12.2906
▁engagement	-12.2906
▁straw	-12.2906
▁motivational	-12.2906
▁operator	-12.2906
width	-12.2906
▁fastpaced	-12.2906
▁replayability	-12.2906
▁canyon	-12.2907
▁interpretation	-12.2907
▁statues	-12.2907
▁duplicating	-12.2908
▁fuss	-12.2908
▁Arab	-12.2908
▁infact	-12.2908
ollowed	-12.2909
▁hideous	-12.2909
▁scammed	-12.2909
▁starstruck	-12.2909
▁restrictive	-12.2909
▁blurred	-12.291
▁meaningless	-12.291
ueries	-12.291
counterintuitive	-12.291
▁adopt	-12.291
▁ghost	-12.291
▁cookies	-12.291
▁underline	-12.2911
▁indefinitely	-12.2911
▁haha	-12.2911
▁exaggerating	-12.2911
▁flashlight	-12.2911
▁incremental	-12.2911
▁baseline	-12.2912
▁shopping	-12.2912
▁upfront	-12.2913
▁cardio	-12.2914
▁exercising	-12.2915
urope	-12.2915
▁goodbye	-12.2915
▁fooled	-12.2916
ags	-12.2917
▁financially	-12.2917
▁portray	-12.2917
▁filename	-12.2918
frustrating	-12.2918
▁gamble	-12.2919
ordinary	-12.2919
▁prov	-12.292
▁belong	-12.292
▁recharging	-12.292
▁echo	-12.292
▁heartrate	-12.292
▁retro	-12.292
▁danger	-12.292
▁mimic	-12.2921
ster	-12.2921
▁remake	-12.2921
▁perk	-12.2922
ointless	-12.2922
▁downthumbs	-12.2922
epub	-12.2923
hecked	-12.2923
ayout	-12.2924
▁translator	-12.2924
▁curse	-12.2925
▁tiring	-12.2925
▁newbies	-12.2926
uestionable	-12.2927
▁cutters	-12.2928
▁voicenotes	-12.2928
▁published	-12.2929
▁ringer	-12.2929
▁biome	-12.2932
▁warned	-12.2932
ledge	-12.2933
▁dominos	-12.2933
utler	-12.2934
▁daters	-12.2935
▁hammer	-12.2935
▁resend	-12.2937
▁slowness	-12.2938
▁routinely	-12.2939
ugations	-12.2941
▁donation	-12.2942
▁dimensions	-12.2942
▁personality	-12.2944
▁African	-12.2946
▁whitelist	-12.2947
▁slap	-12.2947
▁central	-12.2948
nskippable	-12.295
▁participat	-12.2951
▁av	-12.2955
▁inviting	-12.2956
▁refer	-12.2956
▁pauseplay	-12.2957
xplayer	-12.2957
▁deadline	-12.2957
errari	-12.2957
▁sniper	-12.2957
▁unused	-12.2958
▁blaster	-12.2958
▁keywords	-12.2959
tapping	-12.296
▁costumer	-12.2961
▁scoring	-12.2962
▁gri	-12.2962
▁downtime	-12.2963
▁programme	-12.2965
▁consumed	-12.2969
▁streets	-12.2969
▁comeback	-12.297
▁exhausting	-12.2971
▁scanner	-12.2971
▁redirected	-12.2971
▁tidy	-12.2972
emoved	-12.2974
▁confuse	-12.2975
▁elon	-12.2978
▁bog	-12.2978
▁bridges	-12.2979
▁agreement	-12.298
▁brighten	-12.2981
▁sigh	-12.2985
loor	-12.2987
▁shu	-12.2987
ewer	-12.2992
▁outfits	-12.2993
vents	-12.2993
▁payout	-12.2994
ennyworth	-12.2995
▁todo	-12.2996
ggy	-12.2997
anky	-12.2997
▁guidebook	-12.2999
armville	-12.2999
▁enhancement	-12.2999
tandard	-12.3003
▁permit	-12.3005
▁mindful	-12.3007
▁theaters	-12.3007
▁consumers	-12.3007
▁remakes	-12.3008
▁camp	-12.3009
orror	-12.3009
▁sales	-12.3013
▁forwardrewind	-12.3013
uences	-12.3015
▁censors	-12.3017
▁sim	-12.3017
Still	-12.302
group	-12.3021
▁preferable	-12.3022
has	-12.3028
▁whatapp	-12.3028
▁surface	-12.3036
▁onthe	-12.3036
▁effortless	-12.3036
▁cont	-12.3036
▁flights	-12.304
oints	-12.3043
lm	-12.3045
rage	-12.3049
▁transform	-12.3049
▁Step	-12.3051
▁shine	-12.3054
▁measures	-12.3056
▁nonsens	-12.3057
▁eviden	-12.3058
Tube	-12.3058
▁street	-12.3058
▁converting	-12.3059
▁lobby	-12.3059
▁blessing	-12.306
▁scratched	-12.306
▁converter	-12.3062
▁hunting	-12.3065
▁fortune	-12.3066
▁brilliantly	-12.3067
anted	-12.3069
▁impair	-12.3076
▁unsave	-12.3076
▁unreasonabl	-12.308
▁releas	-12.3086
▁breach	-12.3087
▁backround	-12.3088
▁existent	-12.309
▁blur	-12.3094
▁hub	-12.3096
▁gl	-12.3097
add	-12.3098
▁shifting	-12.31
▁activated	-12.3103
▁lecture	-12.3103
cking	-12.3104
need	-12.3108
locked	-12.3109
▁tube	-12.3111
adly	-12.3111
▁winter	-12.3114
▁territor	-12.3114
caution	-12.3125
peaking	-12.313
▁traction	-12.3131
information	-12.3135
▁bullying	-12.3138
▁Assistant	-12.3138
▁varies	-12.3139
lance	-12.3141
friends	-12.3142
except	-12.3143
▁armour	-12.3143
photo	-12.3145
▁browsed	-12.3148
▁bumping	-12.3151
▁panic	-12.3151
▁informations	-12.3154
ownloading	-12.3154
ustrating	-12.3155
▁perspectives	-12.3156
▁authenticat	-12.3157
▁ill	-12.3159
▁ni	-12.3159
▁revives	-12.3162
▁censored	-12.3163
attel	-12.3165
▁asset	-12.3166
▁ploy	-12.3167
▁engage	-12.3167
ppreciate	-12.3167
▁offerings	-12.317
▁xx	-12.317
portable	-12.317
▁tempt	-12.3175
▁conce	-12.3175
▁Subscribe	-12.3177
▁vc	-12.318
ents	-12.3182
▁soul	-12.3183
▁failures	-12.319
ibly	-12.3192
fer	-12.3198
ision	-12.3202
ph	-12.3202
button	-12.3205
▁disput	-12.3207
hit	-12.3212
tting	-12.3212
▁True	-12.3214
▁livescore	-12.3217
▁Anime	-12.3219
▁walked	-12.322
▁roads	-12.3222
▁era	-12.3222
alling	-12.3225
▁clues	-12.3227
ni	-12.3229
ipping	-12.3231
arlie	-12.324
▁void	-12.3246
▁faulty	-12.3246
▁dock	-12.3252
▁incline	-12.3253
cho	-12.3255
pg	-12.3256
ealing	-12.3257
▁Subs	-12.326
▁dubb	-12.326
inus	-12.3262
iddle	-12.3262
acked	-12.3264
boy	-12.3265
solved	-12.3266
▁soundtracks	-12.327
▁handsc	-12.3272
watching	-12.3277
his	-12.3285
▁hills	-12.3286
▁unusual	-12.3292
eart	-12.3295
▁mount	-12.3301
working	-12.331
▁pun	-12.331
▁backend	-12.3325
▁des	-12.3325
similar	-12.3328
give	-12.3332
asted	-12.3333
ditor	-12.3336
▁pie	-12.334
▁shader	-12.3342
ased	-12.3343
▁deaths	-12.3349
mps	-12.3349
▁remodel	-12.335
▁recommends	-12.3356
▁possess	-12.3362
▁slack	-12.3363
▁burner	-12.3367
▁esignature	-12.3369
▁shorten	-12.337
laptop	-12.3371
▁Scan	-12.3374
glasses	-12.3378
arly	-12.3384
canned	-12.3385
▁goodies	-12.3388
iber	-12.3389
▁gum	-12.339
▁Alas	-12.3399
▁snaps	-12.3401
▁bridge	-12.3404
▁swipes	-12.3406
nent	-12.3406
wn	-12.3412
▁ecl	-12.3415
▁Spend	-12.3421
▁poop	-12.3427
▁cared	-12.343
▁filing	-12.3434
lc	-12.3441
der	-12.345
▁waster	-12.3451
song	-12.3461
social	-12.3462
inal	-12.3481
▁wan	-12.3488
ti	-12.3495
▁belief	-12.3495
loading	-12.3505
cifi	-12.3512
she	-12.3526
▁doable	-12.3544
▁pool	-12.3545
▁spr	-12.3554
▁practic	-12.356
▁notif	-12.3565
otic	-12.3566
radio	-12.3581
▁pixelat	-12.3586
▁prem	-12.3591
▁compos	-12.3593
▁processed	-12.3599
▁scroller	-12.36
hings	-12.3625
ustif	-12.3635
▁lab	-12.3639
▁reinforc	-12.3642
ssential	-12.3645
ys	-12.3646
haven	-12.3646
▁developments	-12.3647
resolution	-12.3648
▁wonders	-12.3657
ysteri	-12.3662
next	-12.3666
uat	-12.3673
mbs	-12.3674
sp	-12.3675
▁wonderfully	-12.3675
panish	-12.3681
▁signals	-12.3692
lying	-12.3696
ires	-12.3699
▁reselect	-12.3701
order	-12.371
▁reviewer	-12.3711
▁gro	-12.3713
ptions	-12.3721
humbs	-12.3721
ghin	-12.3723
.............	-12.3725
confused	-12.3728
much	-12.3729
suggestion	-12.3732
pecially	-12.3743
subscription	-12.3746
▁meter	-12.3749
years	-12.3759
scape	-12.3769
ober	-12.3771
▁drawer	-12.3776
motion	-12.378
series	-12.3781
▁scann	-12.3784
rating	-12.3788
▁nauseat	-12.3788
▁rotates	-12.38
etty	-12.3805
heap	-12.3815
▁flushed	-12.3819
▁expir	-12.3821
▁agenc	-12.3827
anage	-12.3829
▁lengths	-12.3847
life	-12.3849
▁passive	-12.3852
▁truthful	-12.3856
oked	-12.3857
▁countrys	-12.3865
▁sha	-12.3883
hole	-12.3889
dollar	-12.3891
supported	-12.3893
ectic	-12.3898
levels	-12.3901
▁fp	-12.3908
▁surpasse	-12.3912
craft	-12.3925
▁Addict	-12.3927
▁changer	-12.3964
▁collaborat	-12.3965
file	-12.3965
mark	-12.3981
standing	-12.3991
▁sparkles	-12.4004
stairs	-12.401
▁impli	-12.4013
▁visuali	-12.402
tly	-12.4027
▁holder	-12.4027
hell	-12.4033
twitch	-12.4037
frontf	-12.4047
worthy	-12.4052
tech	-12.4061
speaking	-12.4063
cto	-12.407
edited	-12.4071
leg	-12.4074
aske	-12.4087
common	-12.4088
bre	-12.4105
▁State	-12.4108
eg	-12.4118
tes	-12.4119
▁Alex	-12.4121
leas	-12.4122
▁contribute	-12.4131
ATS	-12.4149
saved	-12.4152
seas	-12.4156
tify	-12.4167
▁trace	-12.418
ram	-12.4181
acking	-12.4183
ised	-12.4186
eve	-12.42
▁worrie	-12.4204
ully	-12.4206
write	-12.4221
sible	-12.4222
ories	-12.4228
▁diet	-12.423
▁impos	-12.4237
▁noticabl	-12.4243
asp	-12.4247
pointing	-12.4256
longer	-12.4257
skin	-12.4261
▁tooth	-12.4267
ntensity	-12.4269
tin	-12.4277
▁punishe	-12.4291
ort	-12.4291
▁cus	-12.4301
does	-12.4304
aaaa	-12.4308
logs	-12.4312
▁fixable	-12.432
▁sincere	-12.4337
seful	-12.4339
ident	-12.434
feature	-12.4361
around	-12.4362
lve	-12.4363
▁shade	-12.4365
mu	-12.4367
▁readd	-12.4383
turning	-12.4389
run	-12.4391
emo	-12.4393
bugs	-12.4394
▁spi	-12.4395
▁Sha	-12.4429
▁outs	-12.4431
access	-12.4435
especially	-12.4436
delete	-12.4436
▁stead	-12.444
hromecasting	-12.4454
fro	-12.4454
photos	-12.4464
ashing	-12.4469
select	-12.4472
▁performances	-12.4476
▁wink	-12.4477
▁pac	-12.4482
▁sore	-12.4487
course	-12.4491
▁Through	-12.4499
▁str	-12.4511
eel	-12.4523
production	-12.4523
riding	-12.4524
▁pok	-12.4532
ocking	-12.4533
had	-12.4535
▁hav	-12.4537
▁mon	-12.4564
▁homescape	-12.4568
▁Swip	-12.4568
listed	-12.4572
▁dodg	-12.4573
handed	-12.4573
▁debug	-12.46
cha	-12.4602
▁explode	-12.4607
different	-12.462
anta	-12.4622
▁isolate	-12.4626
ogging	-12.4644
ited	-12.4665
alls	-12.4667
▁retract	-12.4668
▁mor	-12.4671
▁predict	-12.4677
▁Thumb	-12.4693
settings	-12.4693
▁flags	-12.4713
▁disp	-12.4723
▁shall	-12.4725
▁obstruct	-12.4727
ticks	-12.473
▁correcting	-12.473
hot	-12.4731
▁leap	-12.4737
chat	-12.4742
▁defin	-12.4743
forming	-12.4749
tho	-12.4751
editable	-12.4752
ching	-12.476
▁mov	-12.4763
▁purchas	-12.4764
▁mouthf	-12.477
ferent	-12.4774
▁sift	-12.4779
perfect	-12.4787
lent	-12.4794
ib	-12.4794
fi	-12.4799
shes	-12.4808
ied	-12.481
▁pushe	-12.4812
left	-12.4818
ended	-12.4819
▁int	-12.482
▁logins	-12.4823
aha	-12.4825
writing	-12.4827
tarstarstarstar	-12.4828
▁bru	-12.4838
▁stretche	-12.4844
experience	-12.4848
▁generat	-12.4852
▁puls	-12.4879
▁notices	-12.488
▁sandbo	-12.4884
things	-12.4888
▁sink	-12.4889
mies	-12.4901
▁compa	-12.491
▁halt	-12.4918
▁exports	-12.4919
ASS	-12.4919
▁Schedul	-12.4929
pu	-12.493
▁champ	-12.4942
▁crackl	-12.4945
▁fon	-12.4947
lightly	-12.495
ouTuber	-12.4955
▁wash	-12.4959
▁its	-12.496
▁kin	-12.496
arn	-12.4963
ior	-12.498
rains	-12.4986
uota	-12.4989
▁scr	-12.4992
formatting	-12.4998
▁dec	-12.5003
rings	-12.5017
ishing	-12.5017
▁lak	-12.5024
▁header	-12.5037
▁goof	-12.5041
system	-12.5052
rust	-12.5062
matic	-12.5067
TIS	-12.5074
▁bing	-12.5084
▁endure	-12.5096
ways	-12.5096
mobile	-12.5098
▁fixture	-12.5101
sibility	-12.5103
ouple	-12.5114
win	-12.5115
horoughly	-12.5118
▁pres	-12.5127
glitches	-12.5128
oid	-12.5135
nes	-12.5148
heel	-12.5155
rackle	-12.5156
nity	-12.5172
▁Sub	-12.518
latform	-12.5184
ians	-12.5185
raphic	-12.5186
▁calculat	-12.5187
ga	-12.5198
▁exploit	-12.5204
arning	-12.5206
▁accelerat	-12.5214
features	-12.5218
licking	-12.5224
anks	-12.5232
▁mus	-12.5234
▁abus	-12.5241
▁para	-12.5252
everything	-12.5254
ressing	-12.526
▁describ	-12.5261
riving	-12.5261
wear	-12.5271
commercials	-12.5273
ung	-12.5278
ormat	-12.5287
▁influence	-12.529
pping	-12.5294
haracter	-12.5301
▁exhibit	-12.5315
ocument	-12.5315
onsider	-12.5315
▁selfie	-12.5319
▁tycoon	-12.5322
▁plague	-12.5325
▁deduct	-12.5325
▁avenue	-12.5327
▁keyword	-12.5328
aced	-12.533
late	-12.533
▁concert	-12.5331
▁achiev	-12.5332
▁lyric	-12.5334
▁scammer	-12.5335
▁headline	-12.5337
▁decoration	-12.5339
▁surround	-12.5341
▁conflict	-12.5341
▁Ta	-12.5342
▁culture	-12.5344
▁reciev	-12.5345
▁declin	-12.5347
utton	-12.5347
nded	-12.5348
rashed	-12.5353
first	-12.5353
evised	-12.5354
ati	-12.5361
▁Terribl	-12.5368
ntertaining	-12.537
xport	-12.537
▁hint	-12.5372
▁urge	-12.5372
▁periodic	-12.5374
met	-12.5378
▁unsubscrib	-12.5379
▁batter	-12.538
▁financial	-12.5381
▁tremendous	-12.5382
▁urgent	-12.5382
cool	-12.5383
▁efficien	-12.5385
pop	-12.5387
riendly	-12.5387
▁continual	-12.5388
xperiment	-12.539
magine	-12.5393
xactly	-12.5393
xperiencing	-12.5393
▁du	-12.5393
xplore	-12.5393
mbedded	-12.5393
▁discontinue	-12.5393
ongrat	-12.5394
erformance	-12.5395
urchasing	-12.5395
articularly	-12.5395
ractice	-12.5395
ousician	-12.5396
ortrait	-12.5396
omputer	-12.5396
esponse	-12.5396
hapters	-12.5397
ountry	-12.5397
irefox	-12.5397
oderation	-12.5398
owadays	-12.5398
egative	-12.5398
▁apocalyp	-12.5398
efund	-12.5398
▁pat	-12.5399
ighlights	-12.5399
ontrolling	-12.5399
ossible	-12.54
garbled	-12.5401
pikpok	-12.5401
uadruple	-12.5401
▁Similar	-12.5401
▁Simpsons	-12.5401
▁adrenaline	-12.5401
▁cosmetic	-12.5401
▁embarrassed	-12.5401
▁inadvertently	-12.5401
▁inexplicabl	-12.5401
▁insufferable	-12.5401
▁invaluable	-12.5401
▁miniscule	-12.5401
▁misaligned	-12.5401
▁narrative	-12.5401
▁oblivious	-12.5401
▁protagonist	-12.5401
▁punctuation	-12.5401
▁reimburse	-12.5401
▁renovate	-12.5401
▁rudimentary	-12.5401
▁sheriff	-12.5401
▁starstarstar	-12.5401
▁transparenc	-12.5401
▁unpredictable	-12.5401
▁versatility	-12.5401
▁veteran	-12.5401
▁illusion	-12.5401
▁privilege	-12.5401
▁studder	-12.5401
▁studies	-12.5401
▁summari	-12.5401
▁Turbo	-12.5401
▁cowboy	-12.5401
ullscreen	-12.5401
▁criminal	-12.5401
▁glimps	-12.5401
▁niggle	-12.5401
▁breathtaking	-12.5401
▁cashgrab	-12.5401
▁diagonal	-12.5401
▁disregard	-12.5401
▁feasible	-12.5401
▁kilomet	-12.5401
▁deterrent	-12.5401
▁abundan	-12.5401
▁distortion	-12.5401
xygen	-12.5401
lympic	-12.5401
▁underhanded	-12.5401
▁horrific	-12.5401
▁division	-12.5401
▁motorsport	-12.5401
▁explosion	-12.5401
▁grainy	-12.5401
▁remedy	-12.5401
▁neglect	-12.5401
▁bpm	-12.5401
▁Surface	-12.5401
▁cyber	-12.5401
▁accompany	-12.5401
▁amplif	-12.5401
▁knockoff	-12.5401
▁dumpster	-12.5402
▁lackluster	-12.5402
▁circum	-12.5402
▁mysterious	-12.5402
▁freinds	-12.5402
▁resemble	-12.5402
▁dropouts	-12.5402
▁upnp	-12.5402
▁harsh	-12.5402
▁kitchen	-12.5402
iacom	-12.5402
▁triangle	-12.5402
▁alias	-12.5402
▁flair	-12.5402
▁rogue	-12.5402
▁deceiving	-12.5402
▁govern	-12.5402
▁nitpick	-12.5402
▁artificial	-12.5402
▁elementary	-12.5402
▁mindfulness	-12.5402
▁vault	-12.5402
▁identification	-12.5403
▁swarm	-12.5403
▁repetative	-12.5403
eyboard	-12.5403
isleading	-12.5403
▁cinematic	-12.5403
▁manipulation	-12.5403
▁awake	-12.5403
▁appreciation	-12.5403
▁unmute	-12.5403
▁offputting	-12.5403
anda	-12.5403
▁retention	-12.5403
▁transmission	-12.5403
▁scarf	-12.5403
▁barrier	-12.5403
▁Signal	-12.5403
▁downtown	-12.5403
▁ordeal	-12.5403
▁redecorate	-12.5404
▁anticipated	-12.5404
▁minimap	-12.5404
innish	-12.5404
▁throttling	-12.5404
▁overkill	-12.5404
▁continuity	-12.5404
nknown	-12.5404
▁robbed	-12.5404
ern	-12.5404
▁instinctive	-12.5404
▁specify	-12.5404
▁snack	-12.5405
▁remedie	-12.5405
▁timeconsuming	-12.5405
▁Supposed	-12.5405
▁daytoday	-12.5405
▁nekki	-12.5406
▁oldschool	-12.5406
▁kmh	-12.5406
▁becua	-12.5406
▁datacache	-12.5406
▁Trump	-12.5406
▁madness	-12.5406
▁Snapseed	-12.5406
▁advertisment	-12.5406
▁musician	-12.5406
▁aggravation	-12.5406
▁slideshow	-12.5407
▁stepping	-12.5407
▁hotel	-12.5407
▁vivid	-12.5407
lowkey	-12.5407
▁glitchiness	-12.5407
▁overnight	-12.5407
▁grammer	-12.5408
▁perfectionist	-12.5409
▁whack	-12.5409
aggy	-12.5409
▁necessity	-12.541
▁professor	-12.541
▁diary	-12.5411
ohn	-12.5411
▁authority	-12.5411
▁Scam	-12.5411
▁skimp	-12.5411
▁favour	-12.5411
▁relation	-12.5411
▁smth	-12.5411
▁innocen	-12.5412
▁revised	-12.5412
▁grass	-12.5412
▁chaos	-12.5412
▁Admin	-12.5413
▁participants	-12.5413
▁referrals	-12.5413
▁Alright	-12.5414
▁hobbies	-12.5414
▁onwards	-12.5414
▁horse	-12.5414
kraine	-12.5415
shows	-12.5416
▁shirts	-12.5416
▁heaven	-12.5416
▁calender	-12.5418
eliable	-12.5418
ummer	-12.5419
▁unfixed	-12.5419
▁wearable	-12.5419
ugatti	-12.5419
▁spoilers	-12.5419
xciting	-12.5419
▁gliches	-12.5419
▁Sudden	-12.542
▁abnormal	-12.5421
▁urgently	-12.5421
▁playstation	-12.5422
eekly	-12.5423
essons	-12.5425
▁handthumbs	-12.5426
ondering	-12.5427
platform	-12.5428
▁infinity	-12.543
▁considerably	-12.543
sfx	-12.5431
big	-12.5431
▁gardenscapes	-12.5431
ormal	-12.5432
xcruciating	-12.5432
▁italics	-12.5433
▁phonetablet	-12.5433
▁outdoors	-12.5434
▁emphasis	-12.5434
▁mailboxes	-12.5434
▁assignments	-12.5434
▁imperfect	-12.5436
hip	-12.5436
▁bounced	-12.5437
▁continent	-12.5437
▁bookstore	-12.5437
▁viol	-12.5437
▁homework	-12.5438
▁randomness	-12.5438
▁enthusiast	-12.5439
▁obsolete	-12.544
▁medal	-12.5441
ili	-12.5441
eek	-12.5442
▁tre	-12.5442
▁singer	-12.5443
▁pricy	-12.5443
▁capitali	-12.5445
unless	-12.5446
▁convey	-12.5447
▁aligned	-12.5448
▁photograph	-12.5449
amn	-12.545
▁announcement	-12.545
▁magnifi	-12.5451
▁crime	-12.5452
▁flipped	-12.5452
ndeed	-12.5453
▁compromised	-12.5455
▁decreasing	-12.5455
▁explosives	-12.5455
▁hashtags	-12.5456
▁statements	-12.5457
▁sooooo	-12.5457
▁planted	-12.5457
▁annotations	-12.5458
▁disallow	-12.5458
▁incentivi	-12.5458
▁incorporated	-12.5458
▁grips	-12.5459
einstall	-12.5459
▁orange	-12.546
▁fluently	-12.5462
▁funnie	-12.5463
▁simplifie	-12.5464
▁deletion	-12.5467
▁poses	-12.5467
▁enthusiasts	-12.5468
▁visitor	-12.547
▁optimal	-12.547
▁mac	-12.5471
▁concerts	-12.5472
▁reflow	-12.5473
vidi	-12.5476
rack	-12.5476
▁avenues	-12.5477
▁interview	-12.5479
maybe	-12.5481
▁cultures	-12.5482
▁slamm	-12.5483
▁manageable	-12.5483
udo	-12.5487
hird	-12.5488
▁uneven	-12.549
▁rights	-12.5491
▁independently	-12.5492
htm	-12.5492
▁outbox	-12.5492
▁reversed	-12.5495
▁persisted	-12.5502
▁pathway	-12.5506
▁wound	-12.5507
▁singers	-12.5507
▁flex	-12.551
▁neverending	-12.5513
▁fruits	-12.5514
▁plagu	-12.5519
▁bore	-12.5521
ewest	-12.5522
▁webm	-12.5522
▁reflected	-12.5523
istening	-12.5526
ucky	-12.5527
estarting	-12.5529
▁achieved	-12.553
ross	-12.5534
▁beast	-12.5535
▁Tower	-12.5538
▁masks	-12.5539
▁fades	-12.554
All	-12.5543
▁recaps	-12.5543
▁tear	-12.555
editing	-12.5556
▁conferenc	-12.5556
▁creep	-12.5557
▁scree	-12.5557
▁delivery	-12.5558
utside	-12.556
▁filler	-12.5564
▁Seamless	-12.5567
atches	-12.5569
eeling	-12.557
▁suffering	-12.5571
▁warp	-12.5571
▁debat	-12.5577
▁checkmarks	-12.5587
▁iterations	-12.5587
estarted	-12.559
uying	-12.5593
▁chilling	-12.5594
irtual	-12.5596
▁clover	-12.5599
cise	-12.5601
eave	-12.5604
▁wishes	-12.5606
unny	-12.5606
▁solo	-12.5606
▁amateurs	-12.5607
▁unsu	-12.5607
▁externally	-12.5609
▁shock	-12.5615
▁casually	-12.5615
rift	-12.5619
▁execute	-12.562
▁excessively	-12.5621
users	-12.5628
▁robu	-12.5628
▁ans	-12.5628
▁snapp	-12.5629
orm	-12.5632
▁hol	-12.564
▁adorabl	-12.5646
tuck	-12.5647
▁marginal	-12.5648
▁yell	-12.565
▁discounts	-12.5655
▁clothing	-12.5656
▁airplanes	-12.5656
▁trucks	-12.5657
▁individuali	-12.5662
▁smallest	-12.5666
▁Town	-12.5671
xt	-12.5676
▁mono	-12.5681
▁violate	-12.5682
mel	-12.5686
hite	-12.5692
▁relationships	-12.5694
▁vibrations	-12.5695
▁gender	-12.5696
▁trustworthy	-12.5697
▁partners	-12.5698
▁Americas	-12.5705
▁underage	-12.5706
▁dishonest	-12.5706
ances	-12.5708
▁billion	-12.5708
▁tour	-12.571
adar	-12.5713
▁usernames	-12.5716
▁stole	-12.572
lost	-12.5727
▁trends	-12.5727
▁defined	-12.5728
ells	-12.5728
▁contest	-12.5735
nimation	-12.5736
▁grabbing	-12.5737
▁dimm	-12.5739
▁appropriately	-12.5739
▁modifying	-12.5753
▁funds	-12.5756
▁interm	-12.5759
▁humans	-12.576
whenever	-12.5778
▁tele	-12.5778
▁Sho	-12.5789
come	-12.5789
▁onestar	-12.5792
▁licens	-12.5793
uaint	-12.5794
▁caps	-12.5797
▁ATT	-12.5799
nite	-12.5805
ambo	-12.5805
sup	-12.5809
option	-12.5816
reply	-12.5818
far	-12.5821
ctivity	-12.5822
▁tiers	-12.5823
whatever	-12.5824
▁suppress	-12.5829
▁sucker	-12.5832
android	-12.5835
▁eve	-12.5837
▁bogg	-12.5838
iest	-12.5842
▁armors	-12.5845
ka	-12.5849
notification	-12.5852
▁tray	-12.5852
▁ect	-12.5853
cause	-12.5854
▁interactions	-12.5856
▁accessable	-12.5866
aged	-12.5869
owngrade	-12.5878
images	-12.5879
▁easi	-12.5879
▁avoided	-12.588
tails	-12.5881
uates	-12.5881
bt	-12.5886
three	-12.5886
▁courte	-12.5888
fixed	-12.5889
rew	-12.5892
▁doom	-12.5893
▁nation	-12.5895
computer	-12.5895
▁Schedule	-12.5897
▁evolving	-12.5905
iking	-12.5906
▁coops	-12.591
▁makeover	-12.591
▁dry	-12.5911
ooo	-12.5914
▁dice	-12.5918
ough	-12.592
▁await	-12.5925
got	-12.5927
▁hides	-12.5929
mil	-12.5932
ech	-12.5939
▁disco	-12.594
eyes	-12.5944
▁exceptions	-12.5944
▁nick	-12.5945
▁reasonabl	-12.5947
lit	-12.5947
▁Adobes	-12.5951
▁shear	-12.5952
missing	-12.5953
▁unen	-12.5957
▁machines	-12.5958
▁scienti	-12.5961
▁waaa	-12.5963
▁shake	-12.5965
wsome	-12.5965
send	-12.5967
lace	-12.5969
asses	-12.5985
▁Spen	-12.5986
▁teen	-12.5986
streaming	-12.5988
▁forest	-12.5989
ompare	-12.599
pet	-12.5993
▁surprises	-12.5998
touch	-12.5998
▁frick	-12.6004
▁melt	-12.6016
▁preserv	-12.6016
evert	-12.6019
opics	-12.602
lix	-12.6026
TIA	-12.6035
▁diminish	-12.604
▁blasts	-12.605
▁Talk	-12.6068
▁lambo	-12.6071
self	-12.6073
atur	-12.6074
scrolling	-12.6081
▁noticeabl	-12.6089
▁amend	-12.609
urs	-12.6094
▁blam	-12.6097
sharing	-12.6102
▁approve	-12.6103
▁yay	-12.6115
xes	-12.6135
allen	-12.6138
highly	-12.6139
correct	-12.6139
▁kn	-12.6141
▁nut	-12.6142
▁grinds	-12.6154
▁oriented	-12.6165
switch	-12.617
▁migrate	-12.617
icely	-12.6176
▁trashy	-12.6181
cloud	-12.6185
war	-12.6188
verage	-12.6199
▁fluctuat	-12.62
▁cur	-12.6206
▁celebrate	-12.6211
▁crypt	-12.6211
icing	-12.6211
urns	-12.6216
▁autosave	-12.6217
▁chal	-12.6221
▁mere	-12.6225
uy	-12.6226
▁flavo	-12.6235
ates	-12.6237
unning	-12.6243
▁gla	-12.6243
ges	-12.6247
▁avali	-12.6247
▁restores	-12.6255
▁addressing	-12.6255
▁rings	-12.6262
uild	-12.6263
oss	-12.6264
from	-12.6269
link	-12.627
▁gate	-12.6276
▁aggravate	-12.6277
act	-12.6277
▁othe	-12.6278
▁oppo	-12.6288
▁grin	-12.6296
▁feelings	-12.6296
▁Skin	-12.63
▁accepts	-12.6305
▁wr	-12.6313
ocks	-12.6317
ube	-12.6319
▁investigate	-12.6319
take	-12.6321
▁escalat	-12.6333
awful	-12.6334
▁costume	-12.6335
▁faceb	-12.6338
▁prove	-12.6342
▁optimis	-12.6353
cons	-12.6355
▁nail	-12.6362
ndering	-12.6367
glitch	-12.6372
▁lap	-12.6373
amp	-12.6375
ming	-12.6375
script	-12.6376
alm	-12.6398
account	-12.6407
▁wil	-12.6419
▁determin	-12.6421
▁fiction	-12.6428
rank	-12.6433
river	-12.6446
▁frustrat	-12.6446
▁Action	-12.6447
icket	-12.6447
kin	-12.6451
uninstalling	-12.6459
tor	-12.6482
software	-12.6482
rl	-12.6495
▁widgets	-12.6498
mostly	-12.6505
▁brands	-12.6506
▁storm	-12.651
odes	-12.6525
enter	-12.6527
▁platformer	-12.653
oll	-12.6534
▁STAT	-12.654
rote	-12.6544
▁frustrations	-12.6546
along	-12.6548
▁hom	-12.6553
color	-12.6559
▁pour	-12.6563
gle	-12.6572
bby	-12.6573
web	-12.6577
whatsapp	-12.6582
tracks	-12.6582
nfront	-12.6592
▁essentials	-12.6599
▁timings	-12.6599
▁blo	-12.6601
eye	-12.6603
▁imagin	-12.6605
▁sane	-12.6605
▁positives	-12.6613
ines	-12.6614
version	-12.6617
onday	-12.6626
▁warnings	-12.6632
born	-12.6636
▁island	-12.6639
abulous	-12.6639
▁Ac	-12.6647
wide	-12.6671
▁unreleas	-12.6672
fac	-12.6675
rave	-12.6682
▁loo	-12.6683
▁distan	-12.6683
▁shower	-12.6692
drop	-12.6702
...........	-12.6721
aint	-12.6723
ifting	-12.6734
map	-12.6737
▁unfriend	-12.6746
▁expands	-12.6753
otherwise	-12.6763
rent	-12.6763
▁peak	-12.6765
icking	-12.6769
▁facecr	-12.6773
▁ordering	-12.6779
▁schools	-12.678
▁watcher	-12.6784
town	-12.6786
▁waaaa	-12.6786
▁Absolut	-12.6794
recogni	-12.6796
▁aired	-12.6805
▁fave	-12.6806
lin	-12.6806
runchy	-12.6819
▁ringing	-12.6824
kill	-12.6825
▁revolve	-12.6829
makers	-12.6838
ingers	-12.684
▁enforce	-12.684
eads	-12.6849
des	-12.6849
ealistic	-12.6849
▁textbox	-12.6886
last	-12.6899
App	-12.6913
ana	-12.6914
under	-12.6917
▁bow	-12.6917
▁mixer	-12.6923
warning	-12.6953
your	-12.6958
functional	-12.6959
falls	-12.6961
rough	-12.6963
lo	-12.6971
loved	-12.6972
▁reupload	-12.6977
itch	-12.6981
ophi	-12.6983
umpy	-12.6984
▁mk	-12.6989
checked	-12.699
reate	-12.6993
igned	-12.6994
oys	-12.6997
rma	-12.6999
▁invert	-12.7002
ravi	-12.7017
▁pv	-12.7018
▁una	-12.702
▁monet	-12.7023
▁nav	-12.7026
▁Steve	-12.7032
bait	-12.7037
........	-12.7037
▁pointer	-12.7038
Audio	-12.7047
rint	-12.7049
Time	-12.7051
▁te	-12.7053
▁androids	-12.7059
▁pale	-12.7063
trigger	-12.7069
uin	-12.7073
added	-12.7082
meter	-12.7084
effective	-12.7085
wasting	-12.709
▁vin	-12.7097
ux	-12.7103
players	-12.7105
nothing	-12.7106
who	-12.7107
marks	-12.7107
▁marker	-12.7113
bble	-12.7114
ray	-12.7117
xy	-12.7118
AAA	-12.7124
bel	-12.7129
versa	-12.7129
▁Aim	-12.7136
mance	-12.7141
ters	-12.7141
directory	-12.7143
▁suite	-12.7145
▁outer	-12.7146
recorded	-12.7157
holes	-12.716
▁xl	-12.7161
Score	-12.7164
search	-12.7164
growing	-12.7168
musical	-12.7169
hef	-12.718
ella	-12.7183
▁gifter	-12.7183
presenting	-12.7184
competitive	-12.7189
weight	-12.7193
rrent	-12.7196
ise	-12.7208
tter	-12.7209
aaa	-12.721
raid	-12.721
▁lover	-12.722
tell	-12.722
graphics	-12.7221
index	-12.7225
▁va	-12.7228
ams	-12.7234
▁ser	-12.7235
truck	-12.7241
green	-12.7247
host	-12.7248
▁neut	-12.725
▁systematic	-12.725
▁autorotat	-12.7251
Store	-12.7253
pens	-12.7254
▁bur	-12.7257
opportun	-12.7262
creating	-12.7269
▁sti	-12.7273
activity	-12.7277
flushed	-12.7283
▁preload	-12.7289
▁prox	-12.729
▁Asia	-12.729
subscriptions	-12.729
familiar	-12.7291
chrome	-12.7294
synchroni	-12.7297
▁deter	-12.7297
sad	-12.7305
fade	-12.7308
▁skull	-12.7312
▁Ten	-12.7316
arts	-12.7317
ota	-12.7319
close	-12.7323
nauseat	-12.7324
something	-12.7327
osting	-12.7347
ten	-12.7354
nice	-12.7361
▁refresher	-12.7372
arth	-12.7373
indi	-12.738
▁pains	-12.7381
▁shoes	-12.7387
charge	-12.7388
problem	-12.7388
via	-12.7391
▁med	-12.7395
▁activ	-12.7395
▁sword	-12.7397
▁elaborat	-12.7399
been	-12.7411
score	-12.7412
▁Includ	-12.7418
games	-12.7421
▁switche	-12.7423
▁mash	-12.7439
▁reformat	-12.7439
▁shoulder	-12.7445
▁degrade	-12.7448
▁distribut	-12.7454
▁applau	-12.7455
tone	-12.7463
dis	-12.7463
tal	-12.7468
▁procedur	-12.7468
▁ripp	-12.7476
iven	-12.7476
▁designate	-12.748
doll	-12.7488
hrist	-12.7493
▁blacked	-12.7493
Then	-12.7495
▁ki	-12.7501
storm	-12.7503
▁char	-12.7512
▁feat	-12.7515
opup	-12.7516
▁Impressive	-12.7526
▁reinforce	-12.7535
▁lett	-12.7538
▁spic	-12.7541
isual	-12.7545
▁conserve	-12.7552
test	-12.7555
▁minimise	-12.7559
ud	-12.7561
▁cas	-12.7565
aggressive	-12.7565
ything	-12.757
rook	-12.7574
ov	-12.7582
body	-12.7582
hang	-12.7583
▁keeper	-12.7585
bl	-12.7588
▁overcom	-12.7595
▁splitt	-12.7612
▁sug	-12.7612
emoving	-12.7635
▁prescripti	-12.7636
movies	-12.7637
almost	-12.7646
▁selects	-12.7647
▁lud	-12.7648
playback	-12.7652
▁spo	-12.7664
lines	-12.7668
ss	-12.7685
▁eraser	-12.7687
▁fork	-12.769
▁costum	-12.7693
Add	-12.7693
hes	-12.7704
▁etern	-12.7715
▁breathe	-12.7718
shooting	-12.7722
rand	-12.7723
nclusion	-12.7733
▁pod	-12.7733
▁porta	-12.7738
▁readi	-12.7746
▁hella	-12.7757
open	-12.7758
nintuitive	-12.7762
ift	-12.7775
lide	-12.7776
ourse	-12.7799
▁whi	-12.7801
bur	-12.7807
others	-12.7813
▁tones	-12.7815
ger	-12.7821
pher	-12.7825
▁patr	-12.7826
runs	-12.7828
ikes	-12.7831
imes	-12.7842
ses	-12.7844
lows	-12.785
shoot	-12.785
icks	-12.7853
cars	-12.7865
▁dur	-12.7867
▁notifi	-12.787
▁Su	-12.787
rows	-12.7882
Spotify	-12.7886
▁att	-12.7902
outh	-12.7904
uh	-12.7914
gl	-12.7919
ght	-12.792
ener	-12.7923
▁inclusi	-12.7927
▁blacks	-12.7942
▁plant	-12.7946
nn	-12.7951
▁bea	-12.7989
oc	-12.7992
always	-12.7994
xcite	-12.7994
▁recycle	-12.7995
dressed	-12.7995
▁vanishe	-12.8012
fy	-12.8019
▁Increase	-12.8027
gger	-12.8044
uts	-12.8047
crap	-12.8049
▁Thankful	-12.805
udu	-12.805
eptic	-12.8058
nding	-12.806
takes	-12.8066
gging	-12.8068
ute	-12.809
oking	-12.8091
anvas	-12.8095
making	-12.81
▁ie	-12.812
▁sk	-12.8121
support	-12.8159
▁optimise	-12.8178
▁heading	-12.8181
▁rep	-12.8184
rit	-12.8187
ission	-12.8189
works	-12.8196
▁storys	-12.8203
▁slim	-12.8237
har	-12.8249
ocus	-12.8253
seems	-12.8253
iously	-12.8255
▁fir	-12.8255
▁grouping	-12.8263
alled	-12.8266
ilities	-12.8266
rashing	-12.8268
dom	-12.8271
▁bin	-12.8271
▁dam	-12.8274
▁smoke	-12.8278
▁doubl	-12.8282
populat	-12.8299
ndly	-12.8299
stakes	-12.8307
utting	-12.8312
▁backspac	-12.8315
purp	-12.8316
ker	-12.8317
▁rub	-12.832
▁appli	-12.8321
ists	-12.8327
▁populat	-12.8333
related	-12.8345
owns	-12.8347
put	-12.8348
▁Ideal	-12.8365
▁ke	-12.8381
bo	-12.8387
▁cnn	-12.84
graphy	-12.8404
mov	-12.841
▁Sw	-12.8415
▁furth	-12.8416
▁conse	-12.8417
▁mentions	-12.8418
oubt	-12.8428
▁phon	-12.8428
ogg	-12.8432
catch	-12.844
cks	-12.8444
▁dedicat	-12.8446
vel	-12.8457
trying	-12.846
▁recreat	-12.8464
oyful	-12.8464
▁birds	-12.8471
pro	-12.8474
arry	-12.8476
▁controll	-12.8477
▁Sci	-12.8479
▁meme	-12.8481
chase	-12.8484
▁subscrip	-12.8493
change	-12.8506
▁ty	-12.8507
▁pleas	-12.8511
▁indicat	-12.8511
raft	-12.8513
▁dud	-12.8522
yl	-12.8527
▁fam	-12.8531
▁cram	-12.8534
▁sat	-12.8539
ifying	-12.8547
pload	-12.8552
wning	-12.8558
▁lat	-12.8559
mini	-12.8565
lef	-12.8583
▁sinc	-12.8585
buy	-12.8585
▁scen	-12.8589
▁rescann	-12.8593
grade	-12.8598
ured	-12.8599
▁Ty	-12.8601
▁desir	-12.8609
▁audi	-12.8612
▁reserve	-12.8613
erky	-12.8614
xpand	-12.8617
irec	-12.8619
▁identifi	-12.8619
see	-12.8621
tall	-12.863
▁scrub	-12.8633
simple	-12.8634
ali	-12.8635
ails	-12.8636
rofile	-12.8639
pisode	-12.864
ositive	-12.8648
▁pronounce	-12.8651
aring	-12.8653
▁unl	-12.8653
▁occup	-12.8653
▁organisation	-12.8655
▁unistall	-12.8656
ommercial	-12.8656
▁hashtag	-12.866
▁compensate	-12.866
▁explosive	-12.8661
▁dimension	-12.8662
ntermediate	-12.8662
▁extension	-12.8662
▁spark	-12.8663
▁chop	-12.8663
▁coupon	-12.8663
▁Subtitle	-12.8664
▁succes	-12.8665
eapon	-12.8665
▁statement	-12.8666
▁mutant	-12.8666
▁statistic	-12.8667
▁tactic	-12.8668
▁dimond	-12.8669
▁russia	-12.867
▁scope	-12.8671
▁Spin	-12.8672
▁critic	-12.8675
phon	-12.8675
issue	-12.8675
▁temple	-12.8675
▁disorient	-12.8678
▁senses	-12.868
atic	-12.8681
ouch	-12.8681
ographic	-12.8681
culation	-12.8682
▁omg	-12.8682
▁arise	-12.8684
ugation	-12.8686
▁sociali	-12.8686
egard	-12.8687
▁woul	-12.8688
▁memor	-12.8688
usive	-12.869
▁annotation	-12.8692
▁hacker	-12.8692
▁packet	-12.8694
▁dislik	-12.8696
ollow	-12.8696
election	-12.8699
unctional	-12.8699
urned	-12.8702
▁calori	-12.8704
▁warrant	-12.8704
▁incessant	-12.8711
▁instantaneous	-12.8711
▁chrom	-12.8713
▁lv	-12.8715
▁proficien	-12.8715
syncing	-12.8716
▁tense	-12.8716
anon	-12.8718
ragon	-12.872
▁dirt	-12.8723
▁compliment	-12.8724
mobi	-12.8725
▁complicate	-12.8726
espawn	-12.8726
xercise	-12.8726
mili	-12.8726
xclusive	-12.8727
▁promi	-12.8727
rogress	-12.8728
nstructions	-12.8728
chievements	-12.8728
henomenal	-12.8728
urchases	-12.8728
pgrade	-12.8729
hildren	-12.8729
▁econom	-12.8729
▁xxxx	-12.8729
isturb	-12.873
mmediately	-12.873
ompany	-12.873
imond	-12.873
ompatible	-12.873
bnoxious	-12.8731
igital	-12.8731
inimal	-12.8731
aximum	-12.8731
lawless	-12.8731
orgeous	-12.8732
▁beco	-12.8732
pinion	-12.8732
kn	-12.8732
eginning	-12.8732
onfusing	-12.8733
titude	-12.8733
proved	-12.8734
ault	-12.8734
▁Irritating	-12.8734
▁eyebrow	-12.8734
angladesh	-12.8734
urnett	-12.8734
▁Australia	-12.8734
▁Television	-12.8734
▁Tycoon	-12.8734
▁abomination	-12.8734
▁ammunition	-12.8734
▁boundaries	-12.8734
▁captcha	-12.8734
▁carnival	-12.8734
▁celebs	-12.8734
▁certificate	-12.8734
▁convoluted	-12.8734
▁daunting	-12.8734
▁discrepanc	-12.8734
▁dissuade	-12.8734
▁enviroment	-12.8734
▁erroneous	-12.8734
▁exempt	-12.8734
▁exhaling	-12.8734
▁exponentially	-12.8734
▁franchise	-12.8734
▁impeccable	-12.8734
▁inhibit	-12.8734
▁insomnia	-12.8734
▁intellectual	-12.8734
▁irreplaceable	-12.8734
▁luxury	-12.8734
▁marathon	-12.8734
▁masculine	-12.8734
▁monocle	-12.8734
▁narration	-12.8734
▁overbearing	-12.8734
▁panorama	-12.8734
▁rectangle	-12.8734
▁rectangular	-12.8734
▁rediculas	-12.8734
▁reveiw	-12.8734
▁spectacular	-12.8734
▁splendid	-12.8734
▁superfluous	-12.8734
▁supervisor	-12.8734
▁tangible	-12.8734
▁terminology	-12.8734
▁therapeutic	-12.8734
▁tinkering	-12.8734
▁tornado	-12.8734
▁treadmill	-12.8734
▁understatement	-12.8734
▁voluntar	-12.8734
▁victim	-12.8734
uisition	-12.8734
▁shrunk	-12.8734
▁steroids	-12.8734
▁underwhelming	-12.8734
▁burden	-12.8734
▁occurrence	-12.8734
▁siblings	-12.8734
▁disapointed	-12.8734
▁eyestraining	-12.8734
▁nickname	-12.8734
▁nuances	-12.8734
▁pregnancy	-12.8734
▁religious	-12.8734
stuary	-12.8734
▁Sweet	-12.8734
fathom	-12.8734
▁begrudg	-12.8734
▁whisper	-12.8734
▁disgrace	-12.8734
▁behaviour	-12.8734
▁comprehension	-12.8734
▁onebyone	-12.8734
▁complications	-12.8734
▁dictate	-12.8734
▁pixilated	-12.8734
▁samba	-12.8734
▁alleviat	-12.8734
▁condense	-12.8734
▁truncat	-12.8735
▁fluke	-12.8735
▁emergenc	-12.8735
▁Typical	-12.8735
ohnson	-12.8735
▁inconsistencies	-12.8735
▁skindex	-12.8735
▁exaggeration	-12.8735
▁anchor	-12.8735
▁vedio	-12.8735
ournalism	-12.8735
▁wallpaper	-12.8735
▁harmless	-12.8735
▁pornography	-12.8735
▁broadband	-12.8735
▁gamechanger	-12.8735
▁entrance	-12.8735
▁fierce	-12.8735
▁vanilla	-12.8735
▁brodcast	-12.8735
▁outrageous	-12.8735
atchlist	-12.8735
uibble	-12.8735
▁controvers	-12.8735
▁dedication	-12.8735
▁nobrainer	-12.8735
▁inundate	-12.8735
▁foggy	-12.8735
▁rupees	-12.8735
▁overcrowded	-12.8735
▁sanity	-12.8735
serfriendly	-12.8735
▁plural	-12.8735
▁nudity	-12.8735
▁muddle	-12.8735
▁repetetive	-12.8735
▁sickening	-12.8735
▁Title	-12.8735
▁rifle	-12.8735
▁furious	-12.8735
▁capitalism	-12.8735
▁godawful	-12.8735
almart	-12.8735
ottom	-12.8735
▁habla	-12.8735
▁unparalleled	-12.8735
▁defective	-12.8736
▁fanatic	-12.8736
▁robbery	-12.8736
▁unhide	-12.8736
▁singular	-12.8736
▁rebrand	-12.8736
▁deluxe	-12.8736
▁adamant	-12.8736
▁arsenal	-12.8736
▁waveform	-12.8736
▁atmos	-12.8736
▁titan	-12.8736
radical	-12.8736
elpful	-12.8736
▁slaughter	-12.8736
▁bogus	-12.8736
▁nationality	-12.8736
▁functionalities	-12.8736
▁divorce	-12.8737
▁Smash	-12.8737
▁stylish	-12.8737
▁vehiche	-12.8737
▁nevertheless	-12.8737
▁obligated	-12.8737
▁sideswipe	-12.8737
orthless	-12.8737
▁prettier	-12.8737
▁malicious	-12.8737
▁megabytes	-12.8737
▁bedroom	-12.8737
igured	-12.8737
ariety	-12.8737
▁wedding	-12.8737
▁paperwork	-12.8737
▁heartbreaking	-12.8737
▁bingewatching	-12.8737
▁cartoonish	-12.8737
▁hungry	-12.8738
▁weakness	-12.8738
▁oldie	-12.8738
criminate	-12.8738
▁illustration	-12.8738
▁comedies	-12.8738
▁demoted	-12.8738
▁apocalypse	-12.8738
▁predictable	-12.8739
▁prematurely	-12.8739
▁crappy	-12.8739
bc	-12.8739
hhhh	-12.8739
▁inactive	-12.8739
▁retries	-12.8739
▁achievable	-12.8739
▁scummy	-12.8739
▁fluidity	-12.874
▁pester	-12.874
▁withhold	-12.874
▁birthday	-12.874
otspot	-12.874
▁vouch	-12.8741
ccessibility	-12.8741
▁curio	-12.8741
▁unforgiving	-12.8741
▁Thanksgiving	-12.8741
▁marshals	-12.8742
▁centur	-12.8742
▁sampling	-12.8742
▁yousician	-12.8742
ared	-12.8742
nnecessary	-12.8743
▁indep	-12.8743
▁settled	-12.8744
▁replicate	-12.8744
▁crippling	-12.8744
udging	-12.8744
atalog	-12.8744
▁intrigued	-12.8744
▁socialising	-12.8745
▁submitting	-12.8745
▁Showtime	-12.8745
▁illustrated	-12.8745
▁notebook	-12.8745
▁reccommend	-12.8745
riod	-12.8746
▁elderly	-12.8746
▁reposition	-12.8746
▁observation	-12.8747
▁supplied	-12.8747
▁pretend	-12.8747
▁reshuffle	-12.8747
▁cramped	-12.8747
▁onesided	-12.8747
▁retarded	-12.8748
▁forcefully	-12.8749
oyTunes	-12.8749
▁hiking	-12.8749
▁updat	-12.8749
▁cancer	-12.875
ravo	-12.875
▁workshop	-12.875
olours	-12.8751
▁hardcover	-12.8751
hem	-12.8751
▁crank	-12.8751
▁challanges	-12.8752
▁pirating	-12.8752
▁caveats	-12.8752
▁noobs	-12.8753
▁rollout	-12.8753
▁metrics	-12.8753
▁miniplayer	-12.8753
▁panda	-12.8753
▁adsupported	-12.8753
▁growth	-12.8754
tshirt	-12.8754
▁overlooked	-12.8754
▁smartwatch	-12.8754
▁consult	-12.8754
▁flies	-12.8754
▁loophole	-12.8755
▁superhard	-12.8755
ranted	-12.8755
▁blacklist	-12.8756
rowser	-12.8756
reedy	-12.8756
inished	-12.8757
▁teenagers	-12.8757
egends	-12.8757
▁strike	-12.8757
▁remap	-12.8757
▁stalking	-12.8757
▁enhancing	-12.8757
▁framerate	-12.8758
▁Among	-12.8758
interupted	-12.8758
▁terminat	-12.8759
▁soundbar	-12.8759
▁ridden	-12.8759
▁weaponry	-12.8759
▁blurb	-12.876
▁reduction	-12.876
▁economy	-12.876
▁fluctuation	-12.8761
▁commentry	-12.8762
▁installment	-12.8762
avi	-12.8762
utstanding	-12.8762
veryday	-12.8762
▁subbed	-12.8763
itchen	-12.8763
▁supercars	-12.8763
▁Sky	-12.8763
▁mum	-12.8764
▁expedition	-12.8764
▁waterfall	-12.8764
▁genera	-12.8765
▁viruses	-12.8765
▁tiger	-12.8766
ndless	-12.8766
▁predicted	-12.8766
▁singleplayer	-12.8767
▁snapchat	-12.8767
▁paycheck	-12.8767
▁ebooks	-12.8767
▁harddrive	-12.8767
▁Surprising	-12.8767
▁audioonly	-12.8769
rn	-12.877
▁coinspoints	-12.877
ustomi	-12.877
▁stub	-12.8771
▁planks	-12.8772
▁lurk	-12.8772
oneti	-12.8773
▁slowdown	-12.8773
▁unprofessional	-12.8774
▁tumble	-12.8774
▁priorities	-12.8778
▁overlapping	-12.8778
lub	-12.8778
▁auther	-12.8778
AAAA	-12.8778
▁drug	-12.8779
▁Addons	-12.8779
▁saga	-12.8779
▁allround	-12.8781
aining	-12.8782
▁audiophiles	-12.8783
▁worries	-12.8783
▁apologi	-12.8783
▁unselected	-12.8783
ploaded	-12.8783
▁thereof	-12.8784
▁sea	-12.8784
alsely	-12.8785
▁boyfriend	-12.8785
▁beggining	-12.8786
▁Info	-12.8787
▁christ	-12.8788
▁flac	-12.8789
ropped	-12.8789
arket	-12.8791
▁respectively	-12.8791
▁disorienting	-12.8791
▁tabletop	-12.8791
▁busted	-12.8792
▁cheapest	-12.8792
▁axes	-12.8793
▁Autoplay	-12.8793
pisodes	-12.8794
▁covid	-12.8794
▁Stone	-12.8794
▁unistalling	-12.8797
▁transport	-12.8798
ualify	-12.8798
▁instructor	-12.8799
dvertisement	-12.8801
▁irritation	-12.8802
egas	-12.8802
ropping	-12.8803
▁suffered	-12.8803
▁variant	-12.8804
▁temples	-12.8805
napchat	-12.8805
estimated	-12.8805
eapons	-12.8806
▁reliever	-12.8806
▁undone	-12.8807
idgets	-12.8807
▁coupons	-12.8808
ush	-12.8808
etails	-12.8809
iring	-12.8811
▁autofill	-12.8811
efaults	-12.8812
▁styling	-12.8812
▁villager	-12.8814
ya	-12.8814
▁slowdowns	-12.8814
▁formal	-12.8815
▁theirs	-12.8815
▁impro	-12.8816
idget	-12.8817
▁badass	-12.8817
▁fading	-12.8819
arge	-12.882
▁abandoned	-12.8821
▁approaches	-12.8822
▁overthe	-12.8822
laws	-12.8824
achel	-12.8825
ran	-12.8828
▁decay	-12.8828
▁gigab	-12.8829
▁neg	-12.8829
▁Adam	-12.8829
▁cargo	-12.883
▁spotlight	-12.883
▁suspend	-12.8831
▁videoaudio	-12.8832
▁teens	-12.8834
page	-12.8837
productiv	-12.8838
▁polishing	-12.8839
fx	-12.884
▁imitate	-12.8842
iscovery	-12.8844
▁traps	-12.8845
▁tycoons	-12.8845
▁freeware	-12.8846
▁their	-12.8846
imulator	-12.8846
andwi	-12.8847
▁sideload	-12.8848
▁publishing	-12.885
▁cleanest	-12.885
▁restoration	-12.8851
▁magnif	-12.8857
▁homeless	-12.8857
▁hardwork	-12.8859
pass	-12.886
dependent	-12.886
▁cutout	-12.8864
▁configurat	-12.8865
▁silently	-12.8865
uietly	-12.8866
rovides	-12.8869
▁oneplus	-12.887
cat	-12.8871
▁bucket	-12.8872
▁converted	-12.8873
▁sensoring	-12.8874
▁hid	-12.8874
▁geni	-12.8874
complete	-12.8876
▁mistaking	-12.8876
▁shutdowns	-12.8877
▁gimmicks	-12.8877
▁payouts	-12.8877
usually	-12.8879
▁murderer	-12.8879
▁innovat	-12.888
evices	-12.8884
apan	-12.8884
▁y	-12.8887
▁polls	-12.8887
▁employee	-12.8888
understand	-12.8888
▁operated	-12.8888
▁conduct	-12.8888
stick	-12.8888
▁layered	-12.8891
position	-12.8891
▁oct	-12.8891
bu	-12.8892
▁glide	-12.8895
▁boun	-12.8895
▁prev	-12.8895
worked	-12.8896
▁dims	-12.8899
ddy	-12.89
▁drinking	-12.8901
ku	-12.8902
▁neatly	-12.8902
▁represented	-12.8903
manag	-12.8903
arol	-12.8905
▁carriers	-12.8908
▁rankings	-12.8909
▁inout	-12.8912
▁settle	-12.8915
lette	-12.8916
▁suffice	-12.8916
▁slic	-12.8917
▁ambien	-12.8919
forgiving	-12.8921
▁Tik	-12.8923
layable	-12.8925
▁parrot	-12.8927
▁Air	-12.8929
ounding	-12.893
rown	-12.8931
ersey	-12.8939
▁multipliers	-12.8939
gested	-12.8943
▁leaders	-12.8945
rch	-12.8945
▁humbl	-12.8945
▁Site	-12.8946
▁cancelation	-12.8949
Tv	-12.895
▁tu	-12.895
ham	-12.8951
▁Age	-12.8952
ranslation	-12.8954
ovid	-12.8955
▁definit	-12.8956
atin	-12.8956
siness	-12.896
getting	-12.8961
▁aaps	-12.8962
evaluate	-12.8963
▁oof	-12.8965
▁schooler	-12.8968
▁gloss	-12.8969
▁Subscriptions	-12.897
▁cork	-12.8971
▁director	-12.8971
▁launcher	-12.8973
SSA	-12.8973
▁grave	-12.8975
max	-12.8975
At	-12.8975
rdu	-12.8976
▁horri	-12.898
▁paywalled	-12.8984
▁flee	-12.8986
hecking	-12.8988
▁greet	-12.8989
▁blink	-12.8989
respective	-12.8992
▁sharps	-12.8993
▁wings	-12.8993
reconfigure	-12.8997
rops	-12.8997
▁sci	-12.8999
▁encourag	-12.9
▁exploiter	-12.9002
rful	-12.9006
ocs	-12.9008
▁messe	-12.901
▁startling	-12.9011
▁Setting	-12.9012
sembl	-12.9013
era	-12.9013
▁thirst	-12.9016
▁remaster	-12.9018
auses	-12.902
Sometimes	-12.902
makes	-12.9024
▁chickens	-12.9024
recent	-12.9025
real	-12.9026
luster	-12.9036
icul	-12.9036
tures	-12.9036
▁hurr	-12.9039
▁blasted	-12.904
▁supporters	-12.9046
▁expressions	-12.9048
tick	-12.9053
▁deafen	-12.9057
▁reposts	-12.9063
atus	-12.9065
▁observe	-12.9066
wo	-12.9066
▁pot	-12.9072
▁unintentional	-12.9077
▁acknowledg	-12.9081
▁stumble	-12.9083
orces	-12.9085
▁ballad	-12.9085
uggl	-12.9086
▁respects	-12.9089
olls	-12.9093
▁reccomended	-12.9095
▁unplug	-12.9095
▁plugin	-12.9097
ustifi	-12.9102
▁moto	-12.9105
▁miniature	-12.9105
stars	-12.9112
▁raid	-12.9112
▁belt	-12.9114
▁handled	-12.9114
▁alltime	-12.9115
▁rhy	-12.9118
▁dowload	-12.9119
allery	-12.912
ady	-12.9121
▁lengthen	-12.9132
onald	-12.9138
urely	-12.9139
casting	-12.9143
hic	-12.9147
rin	-12.9148
▁slope	-12.9149
▁conscious	-12.9153
elling	-12.9153
ffers	-12.9156
▁persever	-12.9156
▁retired	-12.9158
▁parse	-12.9158
▁evening	-12.9162
▁forte	-12.9163
▁pencil	-12.9166
▁definition	-12.9168
tra	-12.9169
▁magnet	-12.9177
▁comercial	-12.9181
▁grabb	-12.9181
▁Albums	-12.9186
▁exceeding	-12.9187
▁property	-12.9192
olor	-12.9192
mara	-12.9199
super	-12.92
▁Sofa	-12.9201
▁multiply	-12.9202
▁crushing	-12.9204
▁agreed	-12.9206
▁controlls	-12.9207
hate	-12.9209
▁downward	-12.9209
▁ingredients	-12.921
▁neck	-12.9217
▁boast	-12.922
▁bio	-12.9221
▁follower	-12.9223
▁throttle	-12.9225
▁irresponsib	-12.9226
▁lik	-12.9226
▁callers	-12.9227
▁Services	-12.9229
▁dense	-12.9234
where	-12.9235
▁deci	-12.9241
▁define	-12.9244
rimar	-12.9249
vr	-12.9249
▁synching	-12.9249
▁slee	-12.925
▁crowded	-12.9257
▁motive	-12.9264
▁dumps	-12.927
certainty	-12.9277
lable	-12.9279
scroll	-12.928
▁overwrite	-12.928
▁rose	-12.9282
aught	-12.9288
▁fullest	-12.9291
easier	-12.9296
▁charger	-12.9297
▁commu	-12.9298
istic	-12.9308
forgivable	-12.9312
books	-12.9313
oids	-12.9318
thought	-12.932
tail	-12.9322
leasant	-12.9324
▁drawbacks	-12.9325
▁sever	-12.933
▁prom	-12.933
orphe	-12.9332
orgi	-12.9332
▁fab	-12.9338
otes	-12.9344
▁youth	-12.9346
▁coff	-12.9348
uuuu	-12.9351
pod	-12.9354
▁observ	-12.9358
mind	-12.936
▁clarif	-12.9362
▁revent	-12.9366
▁dealer	-12.9371
▁respectful	-12.9373
▁Indi	-12.9373
▁flats	-12.9375
declare	-12.9376
▁ring	-12.9381
▁authentic	-12.9383
▁violen	-12.9385
▁intr	-12.9393
▁integrations	-12.9401
hdr	-12.9412
▁restricts	-12.9416
▁champions	-12.9419
uninstall	-12.942
▁combinations	-12.9423
▁rang	-12.9429
skip	-12.943
▁creations	-12.9431
▁elig	-12.9435
subbing	-12.944
▁imm	-12.9442
nks	-12.9453
▁interiors	-12.9454
edometer	-12.9455
▁pity	-12.9456
row	-12.9458
▁ag	-12.9469
uld	-12.9473
xcit	-12.948
draw	-12.9485
business	-12.9489
▁accou	-12.949
▁ratios	-12.9494
▁disorgani	-12.9497
▁hello	-12.9505
▁sens	-12.9505
oman	-12.9514
rena	-12.9519
▁than	-12.9524
▁catalogues	-12.9526
▁los	-12.9532
ometer	-12.9532
acks	-12.9533
lves	-12.9539
▁bounds	-12.9544
▁exclud	-12.9546
▁wen	-12.9552
▁facewe	-12.9558
uke	-12.9559
phi	-12.9565
iversity	-12.9569
▁filtered	-12.9569
▁eng	-12.9571
abbing	-12.9571
cade	-12.9574
kipping	-12.9574
aker	-12.958
▁influencer	-12.9594
▁generation	-12.9604
▁collaborate	-12.9609
east	-12.9618
hil	-12.9624
paying	-12.9625
rite	-12.9632
▁Soul	-12.9633
▁blocker	-12.9641
ibbe	-12.9642
templat	-12.9644
▁builder	-12.9652
form	-12.9652
▁retweet	-12.9652
▁del	-12.9653
▁bid	-12.9663
channel	-12.9672
▁initiate	-12.9672
▁blackmail	-12.9673
▁issu	-12.9677
▁Twi	-12.9677
▁overlook	-12.9681
▁calibrat	-12.9689
organised	-12.9692
pts	-12.9697
riginals	-12.9706
▁needless	-12.9706
selected	-12.9709
▁chromecasting	-12.9716
▁blip	-12.9716
▁spit	-12.9731
tarted	-12.9734
upload	-12.9735
▁backs	-12.9742
ches	-12.9744
▁punch	-12.9748
▁ounce	-12.9755
▁temp	-12.9756
yes	-12.9782
▁sacrific	-12.9782
▁congratulat	-12.9783
▁Struggl	-12.9784
▁rob	-12.9785
▁amusing	-12.9786
▁wand	-12.9787
▁satif	-12.9789
▁wire	-12.9793
▁cords	-12.9798
rushing	-12.98
▁wheels	-12.9802
yt	-12.9803
agon	-12.981
▁gambler	-12.9816
▁buyer	-12.9823
▁shi	-12.9825
▁Type	-12.9827
▁changelog	-12.9827
▁refine	-12.9833
pictures	-12.9837
▁firefire	-12.9842
navigate	-12.9846
▁Set	-12.9851
calibrate	-12.9854
bits	-12.9855
▁catagor	-12.9859
ange	-12.986
▁glo	-12.9865
folder	-12.9867
fe	-12.9872
trait	-12.9881
remove	-12.9889
aging	-12.9894
hall	-12.9898
mes	-12.9898
uals	-12.99
developers	-12.9901
rrow	-12.9903
food	-12.9905
fit	-12.9907
lower	-12.9921
unt	-12.9934
ford	-12.9944
utomatically	-12.9946
mbo	-12.9954
ency	-12.9956
▁rewinded	-12.9957
cess	-12.9959
▁bean	-12.996
▁agr	-12.9967
ula	-12.9969
▁pushy	-12.9978
say	-12.9978
▁Arg	-12.9982
▁har	-12.9994
alter	-12.9997
isable	-12.9998
eaving	-13.0007
disappointed	-13.0009
▁litera	-13.0012
ource	-13.0022
▁cruis	-13.0038
ours	-13.005
uity	-13.005
uplicate	-13.0052
▁eight	-13.0073
▁convinc	-13.0076
▁capes	-13.0079
▁Activat	-13.0081
▁thou	-13.0087
sy	-13.0089
ngl	-13.009
needed	-13.0094
▁seemless	-13.0104
stops	-13.0106
▁Sight	-13.0111
▁lingo	-13.0118
▁prog	-13.0118
▁wth	-13.0118
ner	-13.012
▁sl	-13.012
ago	-13.0133
▁twe	-13.0134
▁undownload	-13.0138
▁connector	-13.0145
▁lifes	-13.0146
upgrade	-13.0158
before	-13.0165
sent	-13.0174
▁grim	-13.0195
▁owl	-13.0195
▁paths	-13.0196
▁dem	-13.0199
▁dress	-13.0203
▁volumes	-13.0204
nnies	-13.0209
airing	-13.0211
▁empti	-13.0215
▁blocky	-13.0219
ips	-13.022
▁seriesshow	-13.0225
content	-13.023
adfinger	-13.023
eeding	-13.0235
volume	-13.0236
▁Tool	-13.0248
chased	-13.0267
▁lea	-13.0269
▁ko	-13.0276
elative	-13.0276
remember	-13.0289
layout	-13.0292
topped	-13.0309
break	-13.032
installreinstall	-13.0335
ont	-13.0336
rm	-13.0339
uds	-13.035
episodes	-13.0357
illion	-13.036
feed	-13.0371
pot	-13.0374
▁piss	-13.0379
▁employ	-13.0385
lands	-13.0386
oggle	-13.0389
▁conf	-13.039
▁finals	-13.0401
ural	-13.0402
nger	-13.0404
▁whet	-13.0407
mission	-13.0408
▁labell	-13.0409
▁documentar	-13.0417
▁consol	-13.0423
etic	-13.0432
▁detailing	-13.0433
tive	-13.0435
▁mobil	-13.0436
bones	-13.0438
egular	-13.045
uc	-13.0456
ringing	-13.0459
eth	-13.0459
▁timelines	-13.0463
dits	-13.0467
▁skim	-13.049
▁highlighter	-13.0496
▁playin	-13.0497
hing	-13.0502
▁readings	-13.0506
▁Solve	-13.0508
resume	-13.0512
▁avi	-13.0513
challenges	-13.0514
hear	-13.0516
▁dv	-13.0518
▁wars	-13.0523
Adobe	-13.0533
sion	-13.0534
▁Ask	-13.0546
family	-13.055
▁defen	-13.0553
▁grows	-13.0555
▁ass	-13.0571
action	-13.0572
pur	-13.0573
▁Tak	-13.0575
▁tie	-13.0576
wish	-13.0576
▁professionals	-13.0581
▁faceang	-13.059
ills	-13.0592
▁toil	-13.0593
▁toons	-13.0594
train	-13.0594
dah	-13.0605
▁Afterward	-13.0606
documents	-13.0608
rade	-13.0613
rea	-13.0616
raining	-13.0627
grim	-13.063
▁carrie	-13.0632
▁Shot	-13.0632
profile	-13.0659
constant	-13.0661
nk	-13.0662
▁dip	-13.0667
▁conn	-13.067
▁blog	-13.0671
▁AAA	-13.0673
gb	-13.0676
force	-13.0682
▁unsync	-13.0684
▁entertainer	-13.0685
killed	-13.0689
look	-13.069
▁thw	-13.0693
ubbed	-13.0703
▁cod	-13.0704
▁hap	-13.0706
epend	-13.0714
dies	-13.0718
iling	-13.0722
▁bul	-13.0724
esk	-13.0727
through	-13.0728
▁scrap	-13.0734
started	-13.0759
current	-13.076
ulk	-13.0761
ementioned	-13.0769
normal	-13.0769
▁intens	-13.0775
assed	-13.0776
▁resett	-13.0781
choice	-13.0797
rewards	-13.0798
pd	-13.0801
die	-13.0808
ining	-13.081
cam	-13.0811
▁swing	-13.0811
▁contribut	-13.0818
▁Idea	-13.083
▁marke	-13.0835
fair	-13.0843
emind	-13.0851
display	-13.0852
nned	-13.0858
▁tasking	-13.086
▁recast	-13.0861
status	-13.0863
▁envelop	-13.0866
Tubi	-13.0872
eaching	-13.0877
cards	-13.088
▁offens	-13.0881
cal	-13.0882
nytime	-13.0884
▁usages	-13.089
uploads	-13.089
▁lov	-13.0894
ilt	-13.0897
ori	-13.0907
▁compli	-13.0908
▁err	-13.091
▁plent	-13.0916
deleting	-13.0923
password	-13.0925
ingle	-13.0927
wer	-13.0928
▁sol	-13.0928
vine	-13.0932
▁afor	-13.0941
tched	-13.0942
buttons	-13.0946
browser	-13.0951
gets	-13.0952
▁compil	-13.0956
yi	-13.0957
completed	-13.0965
ien	-13.0966
road	-13.0968
▁crosspla	-13.1002
min	-13.1005
▁epi	-13.1013
eases	-13.1014
▁chee	-13.1019
cell	-13.1022
typical	-13.1032
cover	-13.1035
lan	-13.1057
▁perm	-13.1057
dictive	-13.1063
▁bases	-13.1072
iming	-13.1072
▁ana	-13.1076
gg	-13.1079
▁hardco	-13.1083
▁mar	-13.1083
mix	-13.1084
▁scanne	-13.1091
▁Tv	-13.1099
▁finest	-13.1104
▁rel	-13.1108
▁goodbut	-13.1112
shi	-13.1114
uff	-13.1122
multiplayer	-13.1123
coding	-13.1128
downloads	-13.1141
oftware	-13.1141
ixture	-13.1141
graphic	-13.1142
moothness	-13.1143
▁facew	-13.1162
▁scrape	-13.1162
sort	-13.1163
includ	-13.1164
▁suc	-13.1167
middle	-13.1186
changed	-13.1186
paid	-13.1191
ecting	-13.1205
▁Than	-13.1205
clicking	-13.1206
▁ungo	-13.1208
▁Serve	-13.1214
earned	-13.1219
post	-13.122
▁cheer	-13.1235
▁medic	-13.1241
topping	-13.1245
comic	-13.1253
▁ender	-13.1256
asking	-13.1259
site	-13.127
▁damp	-13.128
▁enlarg	-13.1281
▁boo	-13.1285
ream	-13.1286
▁terminate	-13.1286
agnate	-13.129
▁ref	-13.1292
fu	-13.1292
arily	-13.1297
▁bite	-13.1306
▁castle	-13.1309
▁led	-13.1314
active	-13.1319
breaks	-13.1323
▁crunch	-13.1343
installing	-13.1346
ined	-13.135
stand	-13.1352
apped	-13.1361
▁tract	-13.1383
▁speciali	-13.1385
thriller	-13.1397
fill	-13.1398
lle	-13.1402
angu	-13.1404
.........	-13.1406
everyone	-13.1412
groups	-13.1415
itive	-13.1427
connected	-13.1436
▁trans	-13.144
▁alt	-13.1455
▁establish	-13.1461
filter	-13.1464
created	-13.1469
sive	-13.1473
ders	-13.1477
▁tim	-13.1477
blank	-13.1481
ugue	-13.1485
race	-13.1497
anything	-13.1498
▁neur	-13.15
▁collaps	-13.1512
owing	-13.1515
▁mak	-13.1525
rotate	-13.1526
▁sparkl	-13.1527
driving	-13.1527
▁centr	-13.153
▁resting	-13.1535
ional	-13.1538
▁bra	-13.1542
posed	-13.1542
▁Ton	-13.1542
products	-13.1543
bye	-13.1555
note	-13.1567
▁shee	-13.1573
resolved	-13.158
mk	-13.1582
ively	-13.1587
▁darken	-13.159
dia	-13.159
att	-13.1591
chromebook	-13.1592
stood	-13.1592
▁ye	-13.1599
urni	-13.1605
mute	-13.1606
titles	-13.1613
replace	-13.1614
school	-13.1619
flow	-13.164
loads	-13.1641
actually	-13.1648
anned	-13.165
▁cre	-13.1654
..............	-13.1658
▁forcestopp	-13.1659
mportant	-13.1659
mming	-13.1664
cheaper	-13.1667
porting	-13.1673
dislike	-13.1679
country	-13.1681
bow	-13.1688
▁cor	-13.1691
telling	-13.1692
amm	-13.1697
nspira	-13.17
ina	-13.1701
▁spinn	-13.1704
buffer	-13.1705
▁physic	-13.1705
center	-13.1709
lling	-13.1715
eak	-13.1721
stating	-13.1725
▁totals	-13.1726
rantic	-13.1727
ovels	-13.1728
▁simpl	-13.1735
ssss	-13.1742
▁tops	-13.1742
ru	-13.1748
▁truthfull	-13.1749
damn	-13.1759
sity	-13.1761
asked	-13.1761
subscribe	-13.1762
▁Tr	-13.1767
▁Sav	-13.1777
nivers	-13.1783
autom	-13.179
ample	-13.1794
winning	-13.1795
▁moron	-13.1796
orest	-13.1801
breaking	-13.1802
advanced	-13.1804
aft	-13.1826
ki	-13.1831
▁arc	-13.1832
hankfully	-13.1849
fish	-13.1856
rified	-13.1857
lone	-13.1858
▁inc	-13.1858
natural	-13.1862
reader	-13.1863
ungle	-13.1867
▁functioned	-13.1867
ws	-13.1875
AA	-13.1879
▁unde	-13.1879
scription	-13.188
instead	-13.1881
fa	-13.1893
uci	-13.1896
fil	-13.1897
teaching	-13.1898
sorry	-13.1899
▁devi	-13.1904
sentence	-13.1906
▁reall	-13.1906
▁Sea	-13.1912
eeper	-13.1918
four	-13.1919
illi	-13.1921
liding	-13.193
▁thre	-13.1933
onts	-13.1948
written	-13.1953
effort	-13.1954
lives	-13.1958
sc	-13.1959
hopefully	-13.197
bottle	-13.1971
throughs	-13.1973
humbnails	-13.1977
▁blan	-13.1978
state	-13.1979
ibration	-13.1981
killer	-13.1982
letters	-13.1985
▁chopp	-13.1989
building	-13.1992
decorations	-13.1992
weekly	-13.1994
menus	-13.2
wav	-13.2001
▁drown	-13.2002
▁advances	-13.2006
children	-13.2009
▁expos	-13.2011
options	-13.2012
▁longpress	-13.2021
battle	-13.2021
satisfying	-13.2022
stories	-13.203
centered	-13.2031
loss	-13.2032
dropping	-13.2034
▁eternal	-13.2038
accessible	-13.2044
vi	-13.2045
filled	-13.2057
sometime	-13.2058
stalled	-13.2061
earbuds	-13.2067
them	-13.2068
▁sel	-13.207
ruth	-13.2075
mapping	-13.2077
runner	-13.2078
▁refin	-13.2079
provoking	-13.2088
acy	-13.2089
yeah	-13.2091
globe	-13.2097
▁comple	-13.2105
message	-13.211
balanced	-13.2115
documentaries	-13.2123
rolled	-13.2124
developed	-13.2125
dragon	-13.2126
yellow	-13.2129
▁arr	-13.2129
▁apples	-13.2133
inel	-13.2134
hood	-13.2135
planes	-13.2138
decorating	-13.2144
fight	-13.2145
sticker	-13.2147
banned	-13.2147
tiktok	-13.2151
ntolerable	-13.2152
firefire	-13.2152
ripping	-13.2153
eclutter	-13.2157
meeting	-13.2157
▁violat	-13.2159
▁rewrit	-13.2161
Art	-13.2162
comedy	-13.2163
ubbing	-13.2165
piece	-13.2178
belief	-13.2178
▁plea	-13.2183
oriented	-13.2186
proof	-13.219
ora	-13.2194
grown	-13.2197
Artist	-13.2197
▁compile	-13.2197
bridge	-13.2201
resses	-13.2203
▁vot	-13.2212
▁migrat	-13.2216
prompted	-13.2216
ressed	-13.2218
estore	-13.222
regards	-13.2222
▁rear	-13.2226
topics	-13.2229
encompass	-13.223
intuitive	-13.2236
remov	-13.225
▁incident	-13.2251
proportiona	-13.2252
contrast	-13.2262
desk	-13.2266
hr	-13.2268
arm	-13.227
punch	-13.2282
erefore	-13.2282
lingo	-13.2291
lee	-13.2308
texture	-13.2313
▁vis	-13.2321
olitics	-13.2321
tapped	-13.2321
▁archiv	-13.2326
▁cro	-13.2336
needs	-13.2338
rag	-13.234
▁Actual	-13.234
boat	-13.2342
▁royal	-13.2347
path	-13.235
▁bounc	-13.2351
sight	-13.2368
▁Tru	-13.2374
▁ears	-13.2382
▁don	-13.2384
sons	-13.2388
spoke	-13.2395
focus	-13.2409
odu	-13.2409
▁facep	-13.2418
▁merc	-13.2421
official	-13.2425
▁Twic	-13.2426
igit	-13.2428
alone	-13.2429
cel	-13.243
vob	-13.2432
luey	-13.2436
yearly	-13.2437
hiding	-13.2439
installed	-13.2447
enough	-13.2449
▁craps	-13.2462
wipes	-13.2464
▁pirat	-13.2466
tedly	-13.2469
recap	-13.2481
trade	-13.2486
sponsor	-13.2488
bumper	-13.2489
▁eater	-13.2493
pdfs	-13.2503
head	-13.2511
▁Ski	-13.2521
▁west	-13.2524
rob	-13.253
eact	-13.2537
eral	-13.2539
arrow	-13.2543
seconds	-13.2545
ered	-13.2547
metal	-13.2557
closed	-13.2569
▁wing	-13.2569
calculate	-13.2572
tain	-13.2578
gum	-13.2579
ontier	-13.2582
label	-13.2587
ballsoccer	-13.2588
uash	-13.2591
ican	-13.2601
etho	-13.2612
ces	-13.2613
▁Import	-13.2614
changeable	-13.2616
▁upda	-13.2619
isp	-13.2621
aaaay	-13.2628
▁captur	-13.2634
bounds	-13.2634
uation	-13.2636
ication	-13.2647
scan	-13.2658
▁clo	-13.2664
▁fini	-13.2669
forget	-13.267
sk	-13.2676
▁laggin	-13.2677
etflixs	-13.2683
resh	-13.2687
amount	-13.2694
virus	-13.2696
▁court	-13.2723
compressed	-13.273
arby	-13.2738
nuseable	-13.2739
vity	-13.2742
▁upadat	-13.2743
▁swi	-13.2746
important	-13.2746
worth	-13.275
sco	-13.275
▁reopens	-13.2752
remodel	-13.2754
▁Ill	-13.2757
▁ensur	-13.2767
endors	-13.2784
source	-13.2787
wr	-13.2791
▁slash	-13.2792
▁extrac	-13.2792
logging	-13.2802
enig	-13.2803
▁explor	-13.2803
ime	-13.2805
stopper	-13.2816
▁dia	-13.2819
▁discon	-13.2827
veral	-13.2827
owngrad	-13.284
readable	-13.2849
stalling	-13.2857
issues	-13.2857
picks	-13.2858
farm	-13.2873
ahh	-13.2879
biased	-13.2889
dering	-13.2896
▁lux	-13.29
▁combin	-13.29
lapped	-13.2917
▁espa	-13.2922
▁unstall	-13.2926
▁deliveri	-13.2944
▁cave	-13.2944
smi	-13.2947
ward	-13.2958
compress	-13.2969
orrid	-13.2973
ractical	-13.2985
oos	-13.2996
▁grip	-13.3026
▁Scr	-13.3028
▁Se	-13.3039
▁bubbl	-13.3045
until	-13.3046
▁ben	-13.305
inf	-13.3052
rug	-13.3057
▁hood	-13.306
nonsense	-13.3062
▁relat	-13.3079
cky	-13.3084
hopping	-13.3089
shape	-13.3097
reo	-13.31
ashed	-13.31
rap	-13.3131
think	-13.3133
floors	-13.3134
▁incorporat	-13.3142
eet	-13.3146
mad	-13.3149
oogl	-13.3151
blur	-13.316
lled	-13.3173
key	-13.3182
nedrive	-13.3187
▁bear	-13.3194
lim	-13.3201
berg	-13.3205
ale	-13.3212
ense	-13.3213
men	-13.3221
laps	-13.3224
msung	-13.3233
rial	-13.3237
▁fri	-13.3256
vert	-13.3266
▁orig	-13.3284
fb	-13.3284
▁nam	-13.3286
ret	-13.3295
updates	-13.3301
pression	-13.3316
oxnews	-13.3319
▁faild	-13.3325
▁execut	-13.3326
aaaaay	-13.3329
fea	-13.3331
▁contend	-13.3335
wire	-13.3337
▁peri	-13.3338
▁enters	-13.3344
ek	-13.3351
scam	-13.3366
strating	-13.3369
bi	-13.337
▁eco	-13.337
esthetic	-13.3372
ask	-13.3372
▁refu	-13.3373
▁Translat	-13.3377
▁cow	-13.3386
suming	-13.3389
lover	-13.3391
dates	-13.3392
▁chees	-13.3395
▁resolv	-13.3401
▁debate	-13.3407
occer	-13.3409
▁aftera	-13.3409
scapes	-13.3411
omp	-13.3416
ading	-13.3421
evis	-13.3423
▁reevaluat	-13.3433
abilities	-13.3438
▁priv	-13.344
isco	-13.3444
downloading	-13.3448
▁influenc	-13.3462
pth	-13.3463
click	-13.3466
▁Secur	-13.3481
▁reiterat	-13.3483
▁conduc	-13.3488
hu	-13.3495
unner	-13.3514
▁invoic	-13.3515
▁findings	-13.352
isabled	-13.3522
rgin	-13.3523
reas	-13.3524
▁ext	-13.3526
mulator	-13.3528
ingenu	-13.353
▁buggi	-13.3537
▁curr	-13.3542
onal	-13.3544
▁Swi	-13.3545
▁impl	-13.3545
▁uninstal	-13.3557
▁poof	-13.3558
mpress	-13.3559
died	-13.3559
ready	-13.356
ducing	-13.3561
eck	-13.3562
eaches	-13.3564
sable	-13.3565
▁interfac	-13.3567
udy	-13.357
resum	-13.3582
nlock	-13.3585
▁automate	-13.3586
ult	-13.3592
▁xs	-13.3592
▁Snap	-13.3593
oncept	-13.3599
rab	-13.3602
rogram	-13.3602
▁village	-13.3607
▁assis	-13.3609
atalogue	-13.3609
xpect	-13.361
oppy	-13.3616
pan	-13.3618
eans	-13.3621
oard	-13.363
typing	-13.3641
nel	-13.3643
▁fla	-13.3646
▁profil	-13.3646
▁unskip	-13.3646
▁infinit	-13.3648
askbar	-13.3648
▁biometric	-13.3649
▁ringtone	-13.3649
▁slam	-13.3649
▁Improvement	-13.3651
ighttime	-13.3654
▁loooo	-13.3655
▁presum	-13.3655
odcast	-13.3655
wl	-13.3656
▁credi	-13.3656
▁ingredient	-13.3659
▁audiophile	-13.3659
▁emphasi	-13.3659
▁assignment	-13.3661
▁outdoor	-13.3661
▁italic	-13.3662
▁cli	-13.3662
▁coworker	-13.3663
▁landscap	-13.3663
▁enclosure	-13.3664
▁polic	-13.3664
xpert	-13.3665
hitti	-13.3665
odge	-13.3666
▁recipe	-13.3666
▁subfolder	-13.3667
▁wha	-13.3667
▁voicenote	-13.3668
clip	-13.3668
▁breache	-13.3669
▁condition	-13.3669
▁newbie	-13.3671
ystem	-13.3671
▁doctor	-13.3673
▁supplie	-13.3673
▁proofread	-13.3675
enya	-13.3679
sthetic	-13.3684
▁absolut	-13.3685
▁feats	-13.3686
Show	-13.3686
nfortunat	-13.3689
motes	-13.369
vers	-13.369
rience	-13.3694
nbelievabl	-13.3694
loper	-13.3695
emocrat	-13.3698
▁programmer	-13.3701
devices	-13.3701
▁tur	-13.3703
▁arbitrar	-13.3705
▁dose	-13.3705
▁reporter	-13.3705
ffroad	-13.3706
▁Advert	-13.3706
▁unluck	-13.3708
ontinuous	-13.3708
▁userfriendl	-13.3708
affi	-13.3709
ecogni	-13.3709
▁distinct	-13.371
krain	-13.3711
▁Techni	-13.3711
▁peac	-13.3711
neck	-13.3711
bvious	-13.3712
▁sooooooo	-13.3712
lasses	-13.3712
▁swift	-13.3713
nterior	-13.3714
ecorating	-13.3714
isappearing	-13.3714
blem	-13.3715
ightmares	-13.3716
▁simultaneous	-13.3716
▁impossibl	-13.3717
▁immerse	-13.3717
scribe	-13.3718
ricing	-13.3718
▁intrigue	-13.3718
dvanced	-13.3719
aunch	-13.3719
igure	-13.3719
▁coincide	-13.3719
ntuitive	-13.372
crobat	-13.372
ffects	-13.3722
▁naviga	-13.3722
rmour	-13.3722
▁pronoun	-13.3722
cessary	-13.3723
▁fwd	-13.3724
unkie	-13.3724
▁config	-13.3724
▁seperat	-13.3725
orrection	-13.3725
▁revise	-13.3726
xcessive	-13.3726
xternal	-13.3726
gnore	-13.3726
ntelligen	-13.3727
elebrit	-13.3727
▁Trouble	-13.3727
xcuse	-13.3727
ncreasing	-13.3727
commendable	-13.3727
arrier	-13.3728
vatar	-13.3728
▁shortcoming	-13.3728
ccording	-13.3729
ritical	-13.3729
ategory	-13.3729
eceptive	-13.3729
xplain	-13.3729
espise	-13.3729
omplicated	-13.3729
rammar	-13.373
isgusting	-13.373
angerous	-13.373
▁deaf	-13.373
onfigurat	-13.373
arshals	-13.373
alicious	-13.373
hysics	-13.373
esponsive	-13.373
ommunities	-13.373
ontroller	-13.3731
reevee	-13.3731
evertheless	-13.3731
undamental	-13.3731
icrophone	-13.3731
eauty	-13.3731
arketplace	-13.3731
pponent	-13.3731
olorful	-13.3731
eagues	-13.3731
rivacy	-13.3731
eccomend	-13.3731
ebsite	-13.3731
▁cinema	-13.3731
estrictive	-13.3732
roken	-13.3732
lashlight	-13.3732
onstruction	-13.3732
omplain	-13.3732
orkaround	-13.3732
nparalleled	-13.3733
egions	-13.3733
▁Surviv	-13.3733
romise	-13.3733
ersatile	-13.3733
uxe	-13.3733
▁drastic	-13.3734
andatory	-13.3734
reedom	-13.3734
servation	-13.3734
verybody	-13.3734
▁retard	-13.3734
lamethrower	-13.3734
▁Transition	-13.3734
▁Transport	-13.3734
▁abbreviat	-13.3734
▁comprehend	-13.3734
▁elder	-13.3734
▁nagivat	-13.3734
▁salvag	-13.3734
▁underlining	-13.3734
bisoft	-13.3734
buntu	-13.3734
ebToon	-13.3734
ecollision	-13.3734
emorrhoid	-13.3734
inaccuracies	-13.3734
negotiable	-13.3734
olorado	-13.3734
orwegian	-13.3734
uboptimal	-13.3734
uckduckgo	-13.3734
uthoritarian	-13.3734
▁Alternative	-13.3734
▁Arripay	-13.3734
▁AsiaAustralia	-13.3734
▁International	-13.3734
▁Satellite	-13.3734
▁Selena	-13.3734
▁Sirius	-13.3734
▁Spoiler	-13.3734
▁Supreme	-13.3734
▁Swedish	-13.3734
▁Syndrome	-13.3734
▁Tiktok	-13.3734
▁administrat	-13.3734
▁alpha	-13.3734
▁anniversar	-13.3734
▁annyoing	-13.3734
▁blossom	-13.3734
▁brotherinlaw	-13.3734
▁copyandpaste	-13.3734
▁crochet	-13.3734
▁devastating	-13.3734
▁devolper	-13.3734
▁diomond	-13.3734
▁disheartening	-13.3734
▁dissapointment	-13.3734
▁dissatisfaction	-13.3734
▁divisive	-13.3734
▁elliptical	-13.3734
▁embarass	-13.3734
▁embarrassment	-13.3734
▁fireflies	-13.3734
▁grandmothers	-13.3734
▁grievance	-13.3734
▁haywire	-13.3734
▁heavier	-13.3734
▁hitormiss	-13.3734
▁illogical	-13.3734
▁indoctrinate	-13.3734
▁infrastructure	-13.3734
▁interwsting	-13.3734
▁leaflets	-13.3734
▁motorcycle	-13.3734
▁nauseous	-13.3734
▁pharmac	-13.3734
▁postersflyers	-13.3734
▁prohibit	-13.3734
▁railroad	-13.3734
▁relegated	-13.3734
▁ribbon	-13.3734
▁sandstorms	-13.3734
▁scrambled	-13.3734
▁shitshow	-13.3734
▁sidebyside	-13.3734
▁unencrypted	-13.3734
▁unkillable	-13.3734
▁unneccesary	-13.3734
▁unstoppable	-13.3734
▁unsuccessful	-13.3734
▁volunteer	-13.3734
emerges	-13.3734
▁arripay	-13.3734
▁asinine	-13.3734
▁Tunisia	-13.3734
▁educated	-13.3734
▁illegible	-13.3734
▁keybind	-13.3734
▁mindblowing	-13.3734
▁overshadow	-13.3734
▁plummet	-13.3734
▁studied	-13.3734
▁toddler	-13.3734
isastrous	-13.3734
muffled	-13.3734
▁InShot	-13.3734
▁Informative	-13.3734
▁biceps	-13.3734
▁curators	-13.3734
▁encapsulate	-13.3734
▁friendliness	-13.3734
▁gentlem	-13.3734
▁piercing	-13.3734
▁promiscu	-13.3734
▁sprinkl	-13.3734
▁Swarm	-13.3734
▁contrived	-13.3734
▁gunsmith	-13.3734
▁placeholder	-13.3734
▁triumph	-13.3734
lympus	-13.3734
▁dealbreaker	-13.3734
▁unethical	-13.3734
bbath	-13.3734
▁wepons	-13.3734
▁Sunday	-13.3734
▁perplex	-13.3734
reasure	-13.3734
▁architect	-13.3734
▁intrinsic	-13.3734
▁monotony	-13.3734
▁unbare	-13.3734
▁underwater	-13.3734
▁valley	-13.3734
▁eyecatching	-13.3734
▁stormsnight	-13.3734
▁looooooooo	-13.3734
▁multilingual	-13.3734
▁Shadow	-13.3734
▁descriptive	-13.3734
▁mesaage	-13.3734
▁mutiple	-13.3734
▁relevent	-13.3734
▁Screenshots	-13.3735
▁pickaxe	-13.3735
annada	-13.3735
substitutions	-13.3735
▁irrational	-13.3735
▁pornographic	-13.3735
▁crossbones	-13.3735
▁regression	-13.3735
uarrel	-13.3735
▁celebrities	-13.3735
▁modifiers	-13.3735
▁preformance	-13.3735
▁slabs	-13.3735
▁torture	-13.3735
Salute	-13.3735
▁mitigat	-13.3735
▁moblie	-13.3735
▁pallet	-13.3735
▁regressed	-13.3735
ulgar	-13.3735
▁Swift	-13.3735
▁streamvod	-13.3735
▁voila	-13.3735
▁caliber	-13.3735
▁lmao	-13.3735
▁subcription	-13.3735
▁circuitous	-13.3735
tulip	-13.3735
▁phenom	-13.3735
▁freebies	-13.3735
▁migration	-13.3735
▁vedeo	-13.3735
▁biom	-13.3735
▁Alpha	-13.3735
▁Idiotic	-13.3735
▁flaky	-13.3735
▁philo	-13.3735
▁balancing	-13.3735
▁deteriorating	-13.3735
▁bullied	-13.3735
▁dahood	-13.3735
▁alllll	-13.3735
▁actionpack	-13.3735
▁rumour	-13.3735
▁discern	-13.3735
▁palette	-13.3735
▁unoptimi	-13.3735
▁glorious	-13.3735
▁maniac	-13.3735
elcome	-13.3735
▁milestone	-13.3735
▁magnit	-13.3735
▁opposition	-13.3735
▁isolation	-13.3735
▁applicable	-13.3735
▁fasci	-13.3735
▁turbo	-13.3735
▁mult	-13.3735
▁culos	-13.3735
▁precision	-13.3735
▁Smartphones	-13.3735
▁unregistere	-13.3735
▁abroad	-13.3735
▁reinforcement	-13.3735
▁gateway	-13.3735
ongratulat	-13.3735
▁misstep	-13.3735
▁racial	-13.3735
▁knees	-13.3735
▁humour	-13.3735
▁telephone	-13.3736
▁cavern	-13.3736
▁assure	-13.3736
olitical	-13.3736
▁inexcusable	-13.3736
▁acclaim	-13.3736
▁painkiller	-13.3736
▁hamper	-13.3736
▁wellbeing	-13.3736
▁prosper	-13.3736
▁messege	-13.3736
▁ambience	-13.3736
▁guarentee	-13.3736
▁gyroscope	-13.3736
▁sponser	-13.3736
hoosing	-13.3736
usband	-13.3736
▁gfx	-13.3736
▁unintrusive	-13.3736
▁Survival	-13.3736
▁migraine	-13.3736
▁freedomof	-13.3736
▁revolutionary	-13.3736
▁unpopular	-13.3736
▁resubscribing	-13.3736
oodbye	-13.3736
▁anonymous	-13.3736
▁licence	-13.3736
▁disposable	-13.3736
▁invulnerable	-13.3736
doenload	-13.3736
▁yoga	-13.3736
racist	-13.3736
▁liberal	-13.3736
emory	-13.3736
owerful	-13.3736
▁nonfunctional	-13.3737
▁gaslight	-13.3737
▁somethin	-13.3737
▁repeatitive	-13.3737
▁uninterested	-13.3737
▁Silent	-13.3737
▁postpone	-13.3737
▁participation	-13.3737
▁puppy	-13.3737
▁certin	-13.3737
▁calculation	-13.3737
ardware	-13.3737
▁wolf	-13.3737
▁preprogrammed	-13.3737
▁permitted	-13.3737
▁vicious	-13.3737
▁thickness	-13.3737
▁cousin	-13.3738
▁tnx	-13.3738
▁rampant	-13.3738
▁electro	-13.3738
▁unnatural	-13.3738
▁chatsgroups	-13.3738
▁editorial	-13.3738
▁deceit	-13.3738
▁dawn	-13.3738
▁Shift	-13.3738
toreply	-13.3738
atience	-13.3738
▁recalibrat	-13.3739
▁boaring	-13.3739
kenny	-13.3739
ancelling	-13.3739
▁marvelous	-13.3739
▁passcode	-13.3739
▁Stock	-13.3739
tegic	-13.3739
▁divo	-13.3739
▁Authori	-13.3739
▁uniform	-13.3739
▁nerfed	-13.3739
nsubscribed	-13.374
▁competions	-13.374
▁demotivated	-13.374
decisi	-13.374
odbless	-13.374
▁reconect	-13.374
▁constraint	-13.374
ccurate	-13.374
memeber	-13.374
▁tempera	-13.3741
▁pannel	-13.3741
▁debrid	-13.3741
▁mgmt	-13.3741
▁disclose	-13.3741
▁deteriorated	-13.3741
▁prosses	-13.3741
raffic	-13.3741
▁rival	-13.3741
▁congrat	-13.3741
▁timesaver	-13.3742
▁unsub	-13.3742
▁bangers	-13.3742
▁mentality	-13.3742
▁cringe	-13.3742
▁tacky	-13.3742
ivestream	-13.3742
isitor	-13.3742
▁Signature	-13.3742
apster	-13.3742
▁hindi	-13.3743
▁unbreak	-13.3743
▁Smh	-13.3743
▁buddy	-13.3743
▁occurance	-13.3743
▁nullifie	-13.3743
▁intact	-13.3743
eceived	-13.3743
▁dongle	-13.3743
xxxxx	-13.3744
▁programsapps	-13.3744
regulated	-13.3744
▁autoreply	-13.3744
▁gunman	-13.3744
▁inconvient	-13.3744
▁humor	-13.3744
▁familiarity	-13.3744
▁unneeded	-13.3744
▁comparatively	-13.3745
▁minecoins	-13.3745
laims	-13.3745
▁crisis	-13.3745
▁experimental	-13.3745
amond	-13.3745
▁firefox	-13.3745
▁worship	-13.3745
isconnected	-13.3745
▁towncash	-13.3745
▁remarkabl	-13.3746
fwdb	-13.3746
▁corporation	-13.3746
▁oversight	-13.3746
▁upbeat	-13.3746
▁surfers	-13.3746
▁inexpensive	-13.3746
▁Annoyed	-13.3746
▁mxplayer	-13.3746
▁manipulative	-13.3747
epublic	-13.3747
▁peraon	-13.3747
▁disgusted	-13.3747
▁somthing	-13.3747
▁scoreboard	-13.3747
▁songalbum	-13.3747
hords	-13.3747
▁intuiti	-13.3748
▁frusterat	-13.3748
▁rooftop	-13.3748
▁infant	-13.3748
neighbour	-13.3748
▁aux	-13.3748
ilderness	-13.3748
▁glory	-13.3748
▁loudspeaker	-13.3748
▁flashback	-13.3749
incarnat	-13.3749
▁deposit	-13.3749
▁bytes	-13.3749
▁freevee	-13.375
▁lottery	-13.375
yyyyy	-13.375
ocations	-13.375
▁staple	-13.3751
▁profound	-13.3751
▁nada	-13.3751
byte	-13.3751
ackage	-13.3751
▁indulge	-13.3751
appening	-13.3751
▁wellknown	-13.3752
▁unreinstalling	-13.3752
▁immersed	-13.3752
onthly	-13.3752
genious	-13.3752
tension	-13.3753
▁overdone	-13.3753
▁speechless	-13.3753
ontinuously	-13.3753
ermission	-13.3753
▁exempl	-13.3753
gines	-13.3753
▁Spain	-13.3753
▁unreal	-13.3754
▁turtle	-13.3754
▁bargain	-13.3754
▁haunt	-13.3754
▁attending	-13.3754
eached	-13.3755
▁constitu	-13.3755
▁annotating	-13.3755
peria	-13.3755
▁handicapp	-13.3755
nfair	-13.3755
▁Superbike	-13.3755
▁disconnection	-13.3756
▁seriousness	-13.3756
▁extraordinary	-13.3756
nstable	-13.3756
nfortunate	-13.3756
▁avator	-13.3756
▁bandw	-13.3756
▁swiftly	-13.3756
▁circl	-13.3757
▁critici	-13.3757
▁Stutter	-13.3757
▁misbehaving	-13.3757
▁appswebsite	-13.3757
nswer	-13.3757
▁convin	-13.3758
ealms	-13.3758
educed	-13.3758
ightning	-13.3758
▁distinction	-13.3758
raud	-13.3759
mina	-13.3759
▁availab	-13.3759
▁messeng	-13.3759
ealous	-13.376
▁rediscover	-13.376
▁elevator	-13.376
rrrrrr	-13.376
ulti	-13.376
▁baffling	-13.3761
▁enterior	-13.3762
▁impairment	-13.3762
augh	-13.3762
hasms	-13.3763
▁stroke	-13.3763
lueprints	-13.3763
▁clamp	-13.3763
peck	-13.3764
▁pubg	-13.3764
▁sailing	-13.3764
▁nudes	-13.3765
▁chamber	-13.3765
▁goodnovel	-13.3765
uccumb	-13.3765
▁proble	-13.3765
▁proficient	-13.3766
▁patron	-13.3766
▁reenabled	-13.3766
▁presumed	-13.3766
▁songsartists	-13.3766
▁relaxation	-13.3766
▁metres	-13.3766
▁cornfields	-13.3766
▁entrepreneurs	-13.3766
▁ergonomics	-13.3766
▁expenditures	-13.3766
▁InApp	-13.3767
▁instal	-13.3767
▁motivator	-13.3767
▁reiterate	-13.3767
ecordings	-13.3768
▁catagory	-13.3768
nfollow	-13.3769
▁widesp	-13.3769
▁labor	-13.3769
▁hotmail	-13.377
▁stoppage	-13.377
▁clash	-13.377
ania	-13.377
▁harm	-13.377
▁publisher	-13.377
lific	-13.377
▁intern	-13.377
▁roleplays	-13.3771
eplies	-13.3771
▁synchronised	-13.3771
▁unlucky	-13.3771
▁assumption	-13.3772
▁intuitiveness	-13.3772
▁whip	-13.3772
▁butcher	-13.3773
▁Islands	-13.3773
▁incessantly	-13.3773
▁instantaneously	-13.3773
▁honor	-13.3773
ular	-13.3773
hydrated	-13.3774
▁depressing	-13.3774
▁accola	-13.3774
irrors	-13.3774
abels	-13.3774
▁adverti	-13.3774
eedless	-13.3774
utdated	-13.3775
pital	-13.3776
▁repetitiveness	-13.3776
▁sym	-13.3776
▁headshot	-13.3776
▁disapear	-13.3777
ieces	-13.3778
▁brakes	-13.3779
▁Alarm	-13.3779
▁whitegr	-13.378
▁frag	-13.378
▁playrix	-13.3781
▁dandy	-13.3781
▁retouch	-13.3781
▁dipping	-13.3781
ombine	-13.3782
▁endeavo	-13.3782
▁sensation	-13.3782
▁refining	-13.3783
▁kiddo	-13.3783
▁imposes	-13.3783
eports	-13.3783
icturein	-13.3784
▁painless	-13.3784
▁wav	-13.3784
▁astron	-13.3784
stances	-13.3785
▁hangout	-13.3786
▁struck	-13.3786
esert	-13.3786
ayment	-13.3786
▁irr	-13.3787
▁huh	-13.3787
▁psychologi	-13.3787
anually	-13.3788
onger	-13.3789
imits	-13.379
▁invent	-13.379
onnected	-13.379
attery	-13.3791
esolve	-13.3792
logue	-13.3792
nicorn	-13.3792
▁tran	-13.3792
isible	-13.3793
▁posture	-13.3793
▁wasteful	-13.3794
▁sliver	-13.3794
▁lau	-13.3794
hoice	-13.3794
ooooow	-13.3795
adass	-13.3795
▁leaf	-13.3796
▁metro	-13.3797
▁exploited	-13.3797
eserves	-13.3798
albumssongs	-13.3798
▁proofreading	-13.3798
▁turnoff	-13.3799
▁teamwork	-13.38
▁surrounding	-13.38
navailable	-13.3801
onsidered	-13.3801
▁advertiser	-13.3801
▁inputting	-13.3802
▁wel	-13.3804
estures	-13.3804
▁exaggerate	-13.3806
▁cautio	-13.3806
▁glee	-13.3806
mbits	-13.3806
▁enduring	-13.3807
▁intel	-13.3807
▁allotment	-13.3807
▁thick	-13.3808
fortunately	-13.3808
▁alienate	-13.3808
▁doctors	-13.3808
▁horde	-13.3809
▁handsthumbs	-13.381
▁prettie	-13.3811
▁adblock	-13.3811
odcasts	-13.3811
▁therap	-13.3812
▁webmail	-13.3813
▁worsened	-13.3814
▁exceeded	-13.3815
▁streamline	-13.3815
▁senseless	-13.3816
issions	-13.3816
ondon	-13.3816
ptic	-13.3816
▁unfix	-13.3816
uhh	-13.3817
▁obv	-13.3818
▁Improvements	-13.382
▁lib	-13.382
kward	-13.3821
▁Steer	-13.3821
▁ringtones	-13.3821
▁biometrics	-13.3821
▁automati	-13.3822
▁awaited	-13.3824
▁snipit	-13.3824
▁shred	-13.3826
▁msn	-13.3827
▁miscon	-13.3828
enyan	-13.3829
toplay	-13.383
▁Apr	-13.3834
▁signingin	-13.3834
nstru	-13.3835
▁Tune	-13.3835
▁inconvien	-13.3836
▁highres	-13.3836
reators	-13.3836
▁hdd	-13.3836
ngine	-13.3837
eddit	-13.3837
▁misclick	-13.3838
▁miserably	-13.3838
▁hopeful	-13.3839
ubi	-13.384
tween	-13.384
▁meaningfully	-13.3842
▁exhausted	-13.3842
mggg	-13.3842
uined	-13.3842
▁plat	-13.3843
▁haunting	-13.3843
▁hesitation	-13.3843
▁rockin	-13.3844
olors	-13.3845
▁threaten	-13.3847
▁simplifi	-13.3847
▁cultur	-13.3849
▁consecutively	-13.385
▁xb	-13.3851
▁emotion	-13.3852
▁arises	-13.3853
▁submenu	-13.3853
▁snatch	-13.3853
▁usefulness	-13.3853
rp	-13.3853
words	-13.3854
▁oversi	-13.3856
▁upgr	-13.3857
▁prison	-13.3857
ldr	-13.386
ositives	-13.386
▁wipeout	-13.386
▁specifi	-13.3861
▁scopes	-13.3862
▁straf	-13.3862
▁awaits	-13.3863
ricey	-13.3864
frica	-13.3865
istory	-13.3865
▁deducting	-13.3866
hase	-13.3866
▁awesomeness	-13.3867
oosts	-13.3867
▁improvment	-13.3869
▁terror	-13.3872
opian	-13.3874
▁cromebook	-13.3874
ovements	-13.3874
▁digits	-13.3875
▁organisations	-13.3876
ubtract	-13.3876
▁storms	-13.3876
sm	-13.3876
▁seperated	-13.3876
ppe	-13.3876
▁seperately	-13.3876
pears	-13.3877
▁Shout	-13.388
▁packets	-13.3881
waite	-13.3881
oise	-13.3883
eporting	-13.3883
lutooth	-13.3884
bearable	-13.3886
xperienced	-13.3887
▁cables	-13.3888
ifficulty	-13.3888
▁posit	-13.389
▁lava	-13.3891
▁fishy	-13.3893
guages	-13.3894
isit	-13.3894
rofiles	-13.3894
▁sharpen	-13.3895
▁composer	-13.3896
okes	-13.3896
inted	-13.3896
▁artis	-13.3896
otten	-13.3897
▁lumin	-13.3898
ened	-13.3899
oblem	-13.3899
stead	-13.39
▁emoti	-13.3901
▁inevitable	-13.3901
▁exhi	-13.3902
▁mater	-13.3902
▁preform	-13.3905
cognit	-13.3906
▁russian	-13.3906
umm	-13.3907
ocuments	-13.3908
chnophob	-13.3909
▁myth	-13.3909
inish	-13.391
▁hurd	-13.3912
abe	-13.3913
▁upkeep	-13.3913
▁pik	-13.3915
▁diam	-13.3915
inous	-13.3916
▁sil	-13.3916
▁handhe	-13.3916
ova	-13.3917
pronounced	-13.3917
hope	-13.3918
▁inserted	-13.3921
munit	-13.3923
▁corp	-13.3924
▁highscore	-13.3925
▁currenc	-13.3926
▁Stable	-13.3926
▁recreation	-13.3927
etry	-13.3927
lder	-13.3927
▁stil	-13.393
iece	-13.3931
▁forwardback	-13.3931
▁easygoing	-13.3932
▁spru	-13.3933
ewinding	-13.3933
▁exhibits	-13.3934
▁adaptation	-13.3935
▁typograph	-13.3941
gravi	-13.3941
▁prefect	-13.3942
▁poke	-13.3943
▁diffent	-13.3944
▁everday	-13.3945
▁documentation	-13.3946
▁getaway	-13.3949
▁chatter	-13.3949
▁laser	-13.3952
edium	-13.3952
hallenges	-13.3953
▁selfies	-13.3954
lagging	-13.3955
▁accont	-13.3955
meri	-13.3956
weeks	-13.3956
▁identifier	-13.3956
▁den	-13.3961
compensated	-13.3962
▁welcomed	-13.3963
▁supp	-13.3964
▁winded	-13.3964
▁chips	-13.3965
oorly	-13.3966
blox	-13.3966
▁offscreen	-13.3969
▁apartment	-13.3971
▁extensively	-13.3972
vis	-13.3976
cting	-13.3978
nock	-13.3981
forced	-13.3981
verlay	-13.3981
commerc	-13.3985
epeated	-13.3986
restore	-13.3986
hop	-13.3988
iping	-13.3988
▁spirits	-13.3988
▁furnaces	-13.3991
▁watermarks	-13.3992
▁rol	-13.3992
uttons	-13.3992
▁negat	-13.3993
▁bugfree	-13.3993
▁prep	-13.3994
▁acccount	-13.3997
radual	-13.3998
▁unwatch	-13.3998
soccer	-13.3998
▁verifi	-13.3999
▁somet	-13.3999
▁berri	-13.3999
▁necessit	-13.4
▁digit	-13.4001
crolling	-13.4002
▁unexplain	-13.4002
▁skies	-13.4004
haps	-13.4006
▁crevice	-13.4012
▁conplete	-13.4012
nintalling	-13.4014
rati	-13.4017
lessly	-13.4017
eather	-13.4019
timate	-13.402
▁internationally	-13.402
acting	-13.4022
▁obs	-13.4022
▁dominate	-13.4022
ntage	-13.4023
▁corn	-13.4024
▁groupings	-13.4029
bligation	-13.4031
issed	-13.4032
unctions	-13.4033
▁destin	-13.4035
▁foward	-13.4036
▁vlog	-13.4036
uildings	-13.4036
▁endcredit	-13.4039
▁shrinking	-13.4041
enom	-13.4044
▁radi	-13.4044
▁analytic	-13.4047
▁halftime	-13.4048
▁destinations	-13.4049
aren	-13.405
▁simula	-13.405
recently	-13.4052
▁nois	-13.4054
iotic	-13.4054
▁reevaluate	-13.4055
▁thos	-13.4056
▁admi	-13.4057
▁overreac	-13.4058
udes	-13.406
▁texted	-13.4062
▁hover	-13.4063
ninstalle	-13.4063
▁cramp	-13.4064
▁wid	-13.4065
tel	-13.4065
▁useable	-13.4066
▁exam	-13.4066
onderfully	-13.4066
▁imaginative	-13.4069
▁videogames	-13.407
scanning	-13.4071
▁divice	-13.4071
gious	-13.4073
▁mirrors	-13.4075
esearch	-13.4076
ista	-13.4077
▁compressing	-13.408
▁Sincere	-13.4081
owered	-13.4083
rdered	-13.4083
ndo	-13.4085
evelop	-13.4086
▁experts	-13.4087
eaper	-13.4087
▁participated	-13.409
▁creeper	-13.409
escue	-13.409
▁slant	-13.4094
▁pian	-13.4094
▁gran	-13.4099
▁tire	-13.4099
▁downs	-13.4103
hief	-13.4105
▁energi	-13.4106
▁miners	-13.4107
▁goods	-13.4108
▁intelligibl	-13.411
arner	-13.4111
cert	-13.4113
personal	-13.4116
▁asf	-13.4117
▁widest	-13.4117
▁devour	-13.4117
▁relaxed	-13.412
▁tester	-13.4121
sho	-13.4122
tract	-13.4122
crashes	-13.4132
esses	-13.414
bugging	-13.414
▁shortfall	-13.414
earc	-13.4141
dding	-13.4143
▁blurr	-13.4146
▁lin	-13.4147
▁oldies	-13.4148
▁nigh	-13.4149
▁throats	-13.4153
▁signin	-13.4158
kw	-13.4162
▁pronunciations	-13.4167
itbits	-13.4169
▁upt	-13.4172
arr	-13.4173
▁tin	-13.4186
▁superbly	-13.4186
minds	-13.4188
uffer	-13.4191
umn	-13.4192
▁lure	-13.4201
▁slog	-13.4202
▁Tutorial	-13.4202
onexistant	-13.4202
▁stones	-13.4206
lox	-13.4207
▁respositor	-13.4208
▁bust	-13.4209
herent	-13.4212
ulated	-13.4219
▁shocking	-13.4221
▁succeeding	-13.4224
dy	-13.4225
ropes	-13.4226
▁cups	-13.4231
onus	-13.4232
rig	-13.4238
▁autosuggest	-13.424
peech	-13.4247
▁Invit	-13.4248
▁hos	-13.4249
▁impressively	-13.4251
ovement	-13.4253
orthy	-13.4253
▁pipe	-13.4254
away	-13.4255
▁furthe	-13.4256
▁levelup	-13.4261
whole	-13.4262
▁secrets	-13.4262
ntm	-13.4263
warf	-13.4264
▁unlockable	-13.4266
exi	-13.4274
▁welcom	-13.4278
▁foxnew	-13.428
▁timeframe	-13.4282
▁robots	-13.4285
▁servive	-13.4285
destruct	-13.4286
▁buttom	-13.4287
▁inconsistenc	-13.4288
lexic	-13.4288
▁cycl	-13.4294
selves	-13.4295
▁representing	-13.4295
fetched	-13.4296
sic	-13.4296
mentioned	-13.43
▁ropes	-13.43
heat	-13.4301
▁descend	-13.4304
▁sn	-13.4305
agg	-13.4306
▁expressed	-13.4316
▁shareable	-13.4321
▁Theme	-13.4322
▁cheese	-13.4322
▁disba	-13.4324
rossplatform	-13.4335
notifications	-13.4338
guide	-13.4343
sided	-13.4348
ormer	-13.435
▁develope	-13.435
▁incre	-13.4351
pate	-13.4355
asio	-13.4355
▁reenable	-13.4355
▁outcomes	-13.4357
uspect	-13.436
ules	-13.436
mate	-13.4361
▁simul	-13.4362
▁clon	-13.4364
▁cutter	-13.4371
▁numer	-13.4374
llllee	-13.4379
hows	-13.438
volving	-13.4382
▁technologi	-13.4382
anag	-13.4386
democrat	-13.4387
▁contr	-13.4387
erify	-13.4388
ulf	-13.4388
▁editting	-13.439
▁flare	-13.439
▁bord	-13.4394
▁smiley	-13.4396
ica	-13.4404
oper	-13.4404
iment	-13.4404
esets	-13.4411
car	-13.4411
▁launches	-13.4415
▁gamify	-13.4416
ifts	-13.4419
dgment	-13.4426
▁Archiv	-13.4429
▁bene	-13.4429
idal	-13.4431
▁Short	-13.4436
choose	-13.4437
uessing	-13.4447
tch	-13.4451
exico	-13.4455
▁deployment	-13.4457
awyer	-13.4461
▁drums	-13.4464
▁guests	-13.4466
fled	-13.4467
▁steer	-13.4478
▁platformservice	-13.448
reign	-13.4481
▁secured	-13.4488
▁peek	-13.4494
grate	-13.4496
▁handshake	-13.4497
▁popcorn	-13.4498
▁obtainable	-13.4499
▁athlete	-13.4505
▁Spider	-13.4507
▁rager	-13.4509
iss	-13.4509
▁uninspir	-13.451
press	-13.4524
▁giveaways	-13.4526
iful	-13.4526
▁ec	-13.453
missions	-13.4533
▁stre	-13.4534
▁allowance	-13.4536
smokes	-13.4538
▁occured	-13.4539
▁mach	-13.454
▁overs	-13.4552
▁reassur	-13.4557
ducative	-13.4563
nx	-13.4565
▁hairs	-13.4568
unted	-13.4572
▁hist	-13.4573
▁tape	-13.4574
▁vile	-13.4577
aut	-13.4578
▁und	-13.4579
eled	-13.458
opt	-13.4583
▁untru	-13.4591
arab	-13.4591
▁reas	-13.4594
As	-13.4601
▁Sup	-13.4604
▁until	-13.4604
evi	-13.4612
▁classy	-13.4617
certain	-13.4617
▁pointers	-13.462
enu	-13.4623
▁ahaha	-13.4627
▁defect	-13.4627
▁cab	-13.4628
▁Stage	-13.4628
connection	-13.4631
▁during	-13.4637
eviews	-13.4637
▁venting	-13.464
ecoming	-13.4644
▁venture	-13.4645
▁minut	-13.4645
▁synchronis	-13.4648
fulness	-13.4651
▁crappie	-13.4668
▁expires	-13.467
▁nu	-13.4671
sting	-13.4674
ruit	-13.4674
▁promot	-13.468
kx	-13.4683
▁bald	-13.4699
▁anci	-13.4702
owning	-13.4712
▁promt	-13.4719
bber	-13.4724
arted	-13.4732
▁vechi	-13.4732
opy	-13.4733
aloud	-13.4741
▁stru	-13.4742
formation	-13.4744
cially	-13.4749
▁veri	-13.4755
resent	-13.4759
▁bound	-13.4762
▁rou	-13.4775
▁exe	-13.4779
▁Suit	-13.4779
▁mill	-13.4782
xtend	-13.4785
SIS	-13.479
▁hound	-13.4791
tipping	-13.4792
▁provok	-13.48
erk	-13.481
▁sayin	-13.4812
cked	-13.4816
sky	-13.4816
▁paints	-13.4816
ounds	-13.4818
▁sadden	-13.4819
▁flame	-13.4828
ocate	-13.4835
ament	-13.4836
▁reused	-13.4838
eac	-13.4847
luxe	-13.485
▁ranks	-13.4871
▁probable	-13.4876
▁operat	-13.4884
wi	-13.4888
▁mate	-13.489
ocity	-13.4893
eco	-13.4897
▁aff	-13.4906
▁alongs	-13.4907
cific	-13.4909
▁Afi	-13.491
lander	-13.491
ployment	-13.4911
▁devo	-13.4911
▁spammer	-13.4913
▁sto	-13.4914
▁bleep	-13.4922
▁frea	-13.4927
floods	-13.4936
enus	-13.494
owers	-13.4942
▁targeting	-13.4944
arking	-13.4948
▁boggl	-13.4949
▁goug	-13.4957
rie	-13.4959
abel	-13.4959
▁alas	-13.4962
▁rad	-13.4968
ITA	-13.497
llar	-13.4973
▁curate	-13.4977
grin	-13.4979
▁saturat	-13.4986
otorious	-13.4987
▁Sticker	-13.4988
lame	-13.4998
stress	-13.4999
▁flop	-13.5011
sssss	-13.5012
▁recommen	-13.5014
hul	-13.5015
inema	-13.5019
▁graduate	-13.5019
▁grate	-13.502
mple	-13.5035
▁productiv	-13.5036
ushed	-13.504
▁hat	-13.5042
mported	-13.5044
ega	-13.5045
▁Spy	-13.5066
sche	-13.507
eaders	-13.5078
▁recycl	-13.5078
canning	-13.5087
▁backdrop	-13.5095
enre	-13.5096
bly	-13.5116
▁impass	-13.5117
▁papers	-13.5118
▁unify	-13.5122
▁mouthI	-13.5129
▁activates	-13.5141
To	-13.5145
▁chromebase	-13.5147
▁endorse	-13.5149
▁balls	-13.5153
▁automobile	-13.5156
ddle	-13.5158
▁checker	-13.5159
▁straighten	-13.5163
▁idio	-13.517
ucks	-13.5171
▁preci	-13.5172
chapters	-13.5174
▁chaper	-13.5185
▁scamm	-13.5187
oh	-13.5191
▁parade	-13.5194
gent	-13.5194
▁toh	-13.5198
events	-13.5204
▁regrets	-13.522
▁strap	-13.5222
liant	-13.5223
▁van	-13.5228
▁escapes	-13.523
▁encounters	-13.5244
▁courage	-13.5246
rue	-13.5247
▁frontend	-13.5248
ixes	-13.5248
wall	-13.5251
md	-13.5253
napseed	-13.5256
fic	-13.5257
▁sail	-13.5268
mailing	-13.5278
ontra	-13.528
nnel	-13.5284
reatest	-13.5285
▁escalati	-13.5289
pathetic	-13.5292
py	-13.5295
▁devot	-13.5296
listening	-13.5299
▁inher	-13.5307
xolo	-13.5315
▁diver	-13.5315
▁formed	-13.5319
silenced	-13.532
▁Sh	-13.5325
liability	-13.5327
▁Troubleshoot	-13.533
▁timewatch	-13.5331
brainer	-13.5336
oose	-13.5346
itness	-13.5346
vaible	-13.5348
▁Advertise	-13.5371
▁explana	-13.5381
▁initiat	-13.5382
▁overlapp	-13.5384
▁wee	-13.5387
bb	-13.5394
ualifie	-13.54
lessen	-13.5413
spend	-13.5418
ths	-13.5424
dle	-13.5438
▁bush	-13.544
nonym	-13.5445
mas	-13.5447
rivate	-13.5451
▁coll	-13.5453
▁nit	-13.5454
▁stride	-13.5459
yard	-13.5462
ites	-13.5463
▁speck	-13.5464
finger	-13.5465
ivements	-13.5467
[...]
