<unk>	0
<s>	0
</s>	0
▁	-1.84214
.	-2.58493
▁I	-3.18011
▁app	-4.2346
s	-4.87081
▁game	-4.97557
▁The	-4.97581
▁It	-5.0118
ing	-5.24363
▁is	-5.24939
▁like	-5.27105
▁get	-5.4551
▁time	-5.50489
▁cannot	-5.5451
▁would	-5.55388
▁am	-5.62565
▁play	-5.63291
▁it	-5.64514
▁one	-5.66618
▁good	-5.70299
▁even	-5.76825
▁have	-5.79917
▁use	-5.81716
▁This	-5.84604
▁really	-5.85847
▁back	-5.9077
y	-5.90801
▁phone	-5.91588
ed	-5.91921
▁great	-5.97087
ly	-6.00021
▁update	-6.0356
▁fix	-6.05849
▁ads	-6.07232
o	-6.0845
▁new	-6.0975
▁want	-6.09857
▁screen	-6.10514
▁work	-6.12471
I	-6.12637
▁free	-6.14303
▁way	-6.15864
ut	-6.22704
▁still	-6.23281
▁music	-6.23629
▁go	-6.26708
▁video	-6.26892
▁every	-6.27057
▁make	-6.27995
▁love	-6.28928
e	-6.30336
▁not	-6.305
▁issue	-6.30756
▁also	-6.31987
▁problem	-6.33281
▁playing	-6.33837
▁watch	-6.34951
▁much	-6.3572
▁see	-6.36109
▁keep	-6.38259
▁many	-6.38263
▁A	-6.39522
...	-6.41725
▁annoying	-6.47813
▁times	-6.48715
▁using	-6.49615
▁used	-6.51931
▁need	-6.53567
▁T	-6.54158
T	-6.5526
▁that	-6.56436
▁could	-6.56466
▁option	-6.57445
▁find	-6.57507
▁If	-6.59175
A	-6.59497
▁better	-6.59795
▁stars	-6.59952
▁give	-6.61992
▁lot	-6.62711
▁version	-6.62741
▁without	-6.63974
lease	-6.64641
▁able	-6.64843
▁try	-6.64844
ou	-6.67038
▁issues	-6.67962
▁And	-6.69065
▁songs	-6.69496
▁There	-6.70683
▁Also	-6.71958
▁shows	-6.73437
▁show	-6.73873
▁open	-6.75148
▁thing	-6.75227
d	-6.75556
▁fun	-6.75613
▁well	-6.75647
▁years	-6.76505
▁something	-6.76627
▁sometimes	-6.76835
▁song	-6.77091
▁money	-6.78553
▁read	-6.80068
▁there	-6.80125
▁know	-6.82829
▁add	-6.83133
▁ad	-6.84036
▁things	-6.85236
▁pay	-6.85838
▁last	-6.87803
▁works	-6.87823
▁people	-6.88029
▁since	-6.88498
hen	-6.88996
▁never	-6.89746
▁change	-6.8979
▁games	-6.89999
▁going	-6.90588
▁coins	-6.91401
▁will	-6.91724
▁long	-6.92047
▁always	-6.92361
▁frustrating	-6.92447
ot	-6.92796
▁watching	-6.93367
▁getting	-6.93565
es	-6.93747
▁first	-6.93808
▁again	-6.94088
▁tried	-6.9509
▁though	-6.9663
▁face	-6.96767
▁trying	-7.00232
▁makes	-7.00685
or	-7.0089
▁feature	-7.01226
▁fine	-7.01327
▁you	-7.0161
▁start	-7.01696
▁level	-7.02005
▁this	-7.02985
▁hard	-7.03499
▁please	-7.03987
▁mobile	-7.04013
▁en	-7.04024
ow	-7.0413
▁apps	-7.04154
▁think	-7.04392
▁movies	-7.04619
▁different	-7.04987
▁experience	-7.05844
▁bad	-7.06332
▁fixed	-7.06565
▁anything	-7.07715
▁reason	-7.0787
▁got	-7.07997
▁minutes	-7.08626
▁turn	-7.0918
▁another	-7.09379
▁download	-7.11228
▁working	-7.11585
▁now	-7.11975
▁everything	-7.12363
▁day	-7.14278
▁movie	-7.15509
▁features	-7.15773
▁button	-7.1718
▁videos	-7.17819
▁seems	-7.18356
▁do	-7.18409
▁load	-7.186
▁right	-7.18824
▁next	-7.18854
▁pretty	-7.1912
▁account	-7.19577
▁me	-7.19957
▁content	-7.2131
▁star	-7.21862
▁nothing	-7.22164
▁service	-7.22721
▁easy	-7.23058
▁re	-7.23374
▁files	-7.23415
owever	-7.24908
▁audio	-7.25792
▁two	-7.25949
i	-7.26271
▁controls	-7.26477
▁player	-7.27051
▁let	-7.27311
n	-7.2741
▁stop	-7.27486
▁nice	-7.28582
▁instead	-7.2864
▁up	-7.28769
takes	-7.29293
▁problems	-7.2931
▁all	-7.29407
▁made	-7.29444
▁close	-7.3121
▁seconds	-7.3126
▁help	-7.31671
▁gets	-7.31716
▁mode	-7.31905
▁device	-7.32212
▁them	-7.32561
▁take	-7.33069
ust	-7.33165
▁actually	-7.33918
▁needs	-7.34095
▁levels	-7.35124
▁far	-7.3579
▁wish	-7.36539
er	-7.37
▁little	-7.37228
▁message	-7.37329
▁point	-7.37555
▁longer	-7.38908
uality	-7.39756
▁best	-7.40949
▁to	-7.41793
oy	-7.41996
▁bugs	-7.42384
▁Android	-7.42466
▁bug	-7.42939
▁end	-7.43086
▁sure	-7.43123
▁email	-7.43626
▁days	-7.43735
▁old	-7.43837
▁put	-7.44026
▁subscription	-7.44119
▁started	-7.44143
▁listen	-7.44596
▁text	-7.45447
▁streaming	-7.46782
▁difficult	-7.46882
▁reading	-7.47139
▁bit	-7.47222
▁data	-7.47813
▁are	-7.48531
▁send	-7.48714
▁enough	-7.48755
etflix	-7.48868
▁list	-7.49039
▁click	-7.49246
▁multiple	-7.50016
▁premium	-7.50152
▁almost	-7.50246
▁user	-7.5036
▁often	-7.50543
▁search	-7.50592
▁options	-7.51655
▁anymore	-7.51831
▁completely	-7.52178
▁say	-7.52253
▁crashes	-7.52518
ery	-7.52661
▁ever	-7.52869
▁photos	-7.5367
▁either	-7.53836
▁messages	-7.5395
▁already	-7.54446
▁least	-7.54513
▁look	-7.55478
▁episode	-7.55488
▁playlist	-7.55613
▁months	-7.55624
▁story	-7.5614
▁file	-7.56376
▁access	-7.56683
▁constantly	-7.56851
▁updates	-7.57841
▁i	-7.57925
▁That	-7.57964
oogle	-7.58236
▁recently	-7.58315
▁sound	-7.58318
▁making	-7.58456
reat	-7.59169
▁full	-7.59395
▁move	-7.59513
▁save	-7.6036
▁friends	-7.60801
▁notifications	-7.61216
▁soon	-7.61244
▁played	-7.6137
▁support	-7.61864
▁App	-7.61884
▁page	-7.61885
▁ama	-7.62448
▁impossible	-7.62739
▁left	-7.6304
▁settings	-7.63815
▁slow	-7.64609
▁downloaded	-7.64863
▁especially	-7.64926
▁off	-7.65473
▁whole	-7.65636
ther	-7.65733
▁buy	-7.65752
▁month	-7.65815
▁else	-7.66041
▁etc	-7.67213
▁continue	-7.67254
▁hope	-7.67267
▁review	-7.67457
▁come	-7.67482
▁book	-7.67704
▁worth	-7.68157
▁available	-7.68258
▁several	-7.68441
▁lose	-7.68537
▁graphics	-7.68586
▁less	-7.68745
▁view	-7.68815
▁year	-7.69186
▁progress	-7.69526
▁recent	-7.69895
hat	-7.70553
▁delete	-7.71292
▁says	-7.71441
▁loading	-7.71709
potify	-7.71808
▁connection	-7.71823
▁us	-7.71834
▁call	-7.71923
▁live	-7.71927
▁past	-7.72199
▁seem	-7.72495
▁on	-7.733
▁out	-7.73622
▁run	-7.73646
▁away	-7.73828
▁around	-7.73923
▁amount	-7.74293
▁fast	-7.74424
▁ago	-7.74518
▁stream	-7.74566
▁restart	-7.7494
▁done	-7.75648
▁stuck	-7.76151
▁devices	-7.76253
▁goes	-7.76517
▁internet	-7.76594
▁wrong	-7.77353
▁part	-7.77511
▁top	-7.78229
▁second	-7.78251
▁worse	-7.79227
▁recommend	-7.79351
▁kind	-7.79522
▁select	-7.79655
▁spend	-7.80299
verall	-7.80345
▁After	-7.80349
▁updated	-7.81573
▁error	-7.82023
▁couple	-7.82255
uite	-7.82381
▁control	-7.82801
▁edit	-7.82928
▁feel	-7.83326
▁system	-7.83673
▁scroll	-7.84085
▁allow	-7.84262
▁stories	-7.84291
▁pass	-7.84578
▁in	-7.84627
▁set	-7.84651
▁however	-7.85169
▁chat	-7.85381
▁skip	-7.85397
▁choose	-7.86571
▁big	-7.86868
▁happens	-7.86905
▁randomly	-7.86962
▁pop	-7.86992
▁fact	-7.87057
▁random	-7.87144
▁selection	-7.87161
▁main	-7.87212
▁paying	-7.8726
▁pause	-7.87538
ould	-7.87634
ometimes	-7.87746
▁changed	-7.87987
ne	-7.88446
▁switch	-7.88812
▁overall	-7.88815
▁latest	-7.88891
▁starts	-7.89078
▁home	-7.89117
▁stuff	-7.89318
▁looking	-7.89642
▁complete	-7.89644
hy	-7.89726
▁glitches	-7.89925
▁found	-7.90076
▁place	-7.90388
▁they	-7.90846
▁uninstall	-7.91193
▁hours	-7.91269
▁In	-7.91336
▁real	-7.91375
▁order	-7.91416
r	-7.91525
▁forward	-7.91798
▁media	-7.91806
▁terrible	-7.91872
▁series	-7.92362
▁certain	-7.92476
▁half	-7.92515
▁worked	-7.92702
▁lost	-7.92803
▁matter	-7.93752
▁automatically	-7.93826
▁understand	-7.93998
ome	-7.94302
▁others	-7.94397
▁As	-7.94412
▁sync	-7.94442
▁black	-7.94756
▁beginning	-7.94946
▁plays	-7.95053
▁high	-7.95275
ood	-7.95422
▁single	-7.95506
▁wait	-7.9627
▁yet	-7.9646
▁daily	-7.96647
▁notification	-7.96745
▁learning	-7.96987
▁added	-7.97226
▁super	-7.97306
▁playlists	-7.97603
▁interface	-7.97771
▁stops	-7.98355
▁finish	-7.98489
▁clear	-7.98556
▁someone	-7.98707
▁chapters	-7.9874
▁gone	-7.98948
▁rating	-7.99903
▁All	-7.99937
ame	-8.0019
very	-8.00845
▁hit	-8.0149
▁hear	-8.01554
▁unles	-8.0163
t	-8.01842
▁favorite	-8.01849
▁properly	-8.02046
▁photo	-8.02227
▁changes	-8.02689
▁tell	-8.02731
▁rate	-8.02896
▁extreme	-8.03366
▁background	-8.03483
▁absolutely	-8.03886
▁listening	-8.04091
▁example	-8.0415
▁possible	-8.04215
en	-8.04306
▁paid	-8.04472
▁said	-8.04503
▁hate	-8.04847
▁happened	-8.05229
▁because	-8.05505
ump	-8.06086
▁commercials	-8.06211
▁crashing	-8.0644
▁learn	-8.06682
▁later	-8.06987
▁post	-8.07236
ven	-8.07488
▁thought	-8.07525
▁stopped	-8.07666
▁chapter	-8.07681
▁become	-8.07691
pdate	-8.07927
till	-8.08396
▁platform	-8.08443
▁sucks	-8.08792
▁too	-8.09607
ulu	-8.09669
▁Then	-8.09813
annot	-8.10198
amsung	-8.10373
on	-8.11027
▁simple	-8.11168
ove	-8.11201
▁due	-8.11402
▁previous	-8.1177
▁picture	-8.12012
▁maybe	-8.12013
▁users	-8.12251
▁ability	-8.12502
▁points	-8.12909
▁remove	-8.13005
▁does	-8.13307
▁small	-8.13531
▁camera	-8.1361
dit	-8.13868
▁car	-8.14615
ouTube	-8.14661
▁emails	-8.14671
▁showing	-8.15087
▁may	-8.15284
▁rather	-8.15666
▁ridiculous	-8.15675
▁editing	-8.15744
▁side	-8.1584
▁cost	-8.15968
▁connect	-8.16006
▁worst	-8.1602
▁cool	-8.16026
▁perfect	-8.1629
▁giving	-8.1649
▁uninstalled	-8.1682
▁entire	-8.17589
▁useless	-8.17608
▁number	-8.17815
▁track	-8.18194
▁storage	-8.18198
▁desktop	-8.185
ave	-8.18686
▁channels	-8.18802
▁saying	-8.18989
▁tap	-8.19073
▁gameplay	-8.19084
▁went	-8.19214
▁speed	-8.19786
▁awesome	-8.19945
▁function	-8.20059
ad	-8.20177
▁match	-8.20367
▁players	-8.20385
▁tablet	-8.20627
▁tv	-8.20816
▁menu	-8.21084
as	-8.21121
▁disappointed	-8.21187
▁comes	-8.21213
nly	-8.21409
▁type	-8.21568
▁channel	-8.21588
▁books	-8.21802
▁folder	-8.21859
▁bar	-8.21957
▁deleted	-8.22461
▁week	-8.22493
▁wifi	-8.22499
▁reinstalled	-8.22642
▁weeks	-8.22921
▁section	-8.23347
st	-8.23395
▁wanted	-8.23538
▁reinstall	-8.23653
▁three	-8.2373
▁middle	-8.23814
▁over	-8.23822
▁whenever	-8.24171
▁space	-8.24209
▁playback	-8.24314
▁android	-8.24318
▁glitch	-8.24453
▁buggy	-8.24468
▁Thanks	-8.24489
▁upload	-8.24687
it	-8.24744
▁trial	-8.24784
▁more	-8.24851
▁images	-8.24853
▁expensive	-8.24861
▁log	-8.25281
ropbox	-8.25322
▁minute	-8.25329
▁lessons	-8.25581
▁Thank	-8.25922
▁sent	-8.25924
▁for	-8.25981
▁unable	-8.26034
▁easier	-8.26722
AT	-8.26923
▁purchase	-8.26954
▁check	-8.26962
able	-8.27027
▁pictures	-8.27189
▁application	-8.27623
▁seen	-8.27716
▁ones	-8.28177
▁design	-8.2838
..	-8.28553
▁Its	-8.28831
▁what	-8.28838
▁card	-8.2903
▁literally	-8.2917
▁crash	-8.29546
▁guys	-8.29611
▁happening	-8.29879
▁might	-8.2989
▁before	-8.30093
▁setting	-8.30146
▁auto	-8.30204
▁cache	-8.30289
▁win	-8.304
▁.	-8.305
▁waste	-8.30893
▁bring	-8.30899
▁useful	-8.31034
▁original	-8.31227
uickly	-8.31437
▁anyone	-8.31511
▁running	-8.31794
▁phones	-8.31799
▁short	-8.31972
▁At	-8.32038
▁offline	-8.32059
▁news	-8.32267
▁easily	-8.32747
▁definitely	-8.3278
▁ma	-8.33181
hatsApp	-8.34652
▁except	-8.34922
▁volume	-8.35582
▁fre	-8.35921
▁person	-8.36563
▁press	-8.36914
▁share	-8.37234
ike	-8.37299
an	-8.37464
▁pick	-8.37577
....	-8.37651
▁cancel	-8.37915
▁basic	-8.38073
▁world	-8.38102
▁layout	-8.38346
loud	-8.38434
▁create	-8.39285
▁leave	-8.39378
▁notes	-8.39467
▁horrible	-8.39611
▁saved	-8.39752
▁image	-8.40014
▁five	-8.40266
▁developers	-8.40522
▁business	-8.40571
▁suddenly	-8.4066
▁language	-8.40782
▁computer	-8.40926
▁price	-8.41185
▁given	-8.41586
a	-8.41616
▁took	-8.41937
▁items	-8.42123
▁buffering	-8.42639
▁episodes	-8.42763
▁usually	-8.42989
▁adding	-8.43165
▁character	-8.43532
▁navigate	-8.43842
▁piano	-8.44128
▁mini	-8.44179
▁reset	-8.44251
▁needed	-8.44299
▁upgrade	-8.44498
▁loved	-8.44542
▁forever	-8.44613
▁library	-8.44675
▁program	-8.44695
▁online	-8.44747
▁happen	-8.4481
▁missing	-8.44818
▁liked	-8.4504
▁downloading	-8.45066
▁down	-8.45272
▁feels	-8.45373
ix	-8.45508
▁of	-8.45562
▁variety	-8.46479
isney	-8.47203
▁pro	-8.47468
▁whatever	-8.47611
▁mind	-8.47633
▁everytime	-8.47651
▁broken	-8.47688
▁sign	-8.47696
▁hour	-8.47726
▁box	-8.47869
▁swipe	-8.48058
▁adds	-8.48136
▁removed	-8.48182
▁extra	-8.48273
▁spent	-8.48399
▁cars	-8.48475
▁consider	-8.48486
▁si	-8.48729
▁be	-8.49292
▁force	-8.49582
probably	-8.49606
▁decent	-8.49713
▁everyone	-8.50249
▁gave	-8.5039
▁looks	-8.50728
▁installed	-8.51026
▁stay	-8.511
▁per	-8.51187
eally	-8.51422
▁lately	-8.52001
▁To	-8.52448
▁touch	-8.52889
▁huge	-8.53425
▁s	-8.5347
▁calls	-8.54038
▁lots	-8.54071
▁contact	-8.5411
▁boring	-8.54113
▁voice	-8.54385
▁stupid	-8.54473
▁resume	-8.54545
▁idea	-8.54677
▁install	-8.54765
▁reply	-8.54779
▁customer	-8.54845
▁noticed	-8.55048
▁team	-8.55066
▁appear	-8.55215
▁so	-8.55367
▁gotten	-8.55437
ost	-8.5558
▁large	-8.55643
ation	-8.5565
▁reinstalling	-8.56211
ee	-8.56241
▁actual	-8.56387
▁break	-8.56532
▁within	-8.56546
uire	-8.56704
▁specific	-8.5681
▁shuffle	-8.56986
▁higher	-8.57104
▁low	-8.57572
▁moves	-8.57731
▁remember	-8.57794
▁must	-8.57796
▁otherwise	-8.57832
▁miss	-8.57847
▁bottom	-8.58129
▁un	-8.58595
▁complaint	-8.58621
▁manually	-8.58622
▁figure	-8.59047
ince	-8.59064
oin	-8.59284
▁status	-8.59528
▁awful	-8.59664
▁deal	-8.59711
▁supposed	-8.59729
▁buttons	-8.59837
▁beat	-8.59862
▁name	-8.59909
usic	-8.59991
▁p	-8.6019
▁words	-8.60267
therwise	-8.60376
ill	-8.60689
ound	-8.61193
▁watched	-8.61308
▁while	-8.61765
▁plus	-8.62335
▁constant	-8.62409
▁commercial	-8.62436
▁lag	-8.62533
▁mean	-8.62934
▁connected	-8.62941
▁simply	-8.6299
▁opening	-8.62995
▁uninstalling	-8.63164
▁important	-8.63234
h	-8.63262
▁care	-8.63417
▁friendly	-8.64037
▁network	-8.64098
▁note	-8.64728
alaxy	-8.64731
utlook	-8.64851
▁changing	-8.64896
▁starting	-8.64931
ith	-8.65021
odi	-8.65044
▁glitchy	-8.65071
▁exit	-8.65178
et	-8.65418
▁normal	-8.65701
▁store	-8.65778
▁alot	-8.65836
▁today	-8.65844
luetooth	-8.66163
▁poor	-8.66309
▁via	-8.66448
▁album	-8.66551
▁ok	-8.66789
▁forced	-8.66869
▁unusable	-8.6697
▁deleting	-8.67098
▁earn	-8.67246
ob	-8.67726
▁eyes	-8.67845
verything	-8.67856
▁loads	-8.6786
▁spending	-8.68067
▁scrolling	-8.68149
▁happy	-8.68192
oes	-8.68313
▁browser	-8.68429
▁weird	-8.6852
▁group	-8.68857
▁mission	-8.68899
▁default	-8.69333
▁interesting	-8.69531
▁viewing	-8.69962
▁helpful	-8.70006
▁finally	-8.70079
irst	-8.70313
▁unlock	-8.70324
▁comics	-8.7039
▁functionality	-8.71245
▁twice	-8.71727
▁okay	-8.71753
▁sending	-8.72168
▁dark	-8.72545
kept	-8.72823
▁controller	-8.72907
▁line	-8.72963
▁server	-8.73005
▁tracks	-8.73079
▁web	-8.73114
▁older	-8.73125
but	-8.73338
▁harder	-8.73347
▁waiting	-8.73369
▁display	-8.73489
▁folders	-8.73595
▁artists	-8.73624
▁updating	-8.73759
▁moving	-8.73782
lay	-8.74024
hromecast	-8.74177
▁decide	-8.74222
▁mess	-8.74342
▁means	-8.74344
▁general	-8.74391
▁guess	-8.74418
▁sleep	-8.7452
itbit	-8.74617
▁profile	-8.75023
▁correct	-8.75036
▁taking	-8.75097
▁with	-8.75111
un	-8.75319
▁current	-8.75494
▁trouble	-8.75952
▁behind	-8.76106
▁completed	-8.76111
lus	-8.76146
▁challenges	-8.76147
▁cast	-8.76204
▁Adobe	-8.76359
▁practice	-8.76422
se	-8.76533
▁Ama	-8.76914
▁tab	-8.76967
▁came	-8.77025
▁rid	-8.7713
▁reviews	-8.77665
▁improve	-8.77809
▁format	-8.78205
▁subtitles	-8.78309
▁limited	-8.78349
▁currently	-8.78358
▁chats	-8.7859
▁across	-8.78801
▁repetitive	-8.78811
▁follow	-8.79223
▁Twitter	-8.79356
▁Too	-8.79575
▁a	-8.7962
▁logg	-8.7991
nce	-8.79985
▁refresh	-8.80007
oyed	-8.8003
▁process	-8.80091
▁heart	-8.80096
▁lesson	-8.80116
▁battery	-8.80132
▁perfectly	-8.80438
hile	-8.80494
▁here	-8.80562
▁cards	-8.80615
ver	-8.80741
▁icon	-8.80797
IT	-8.80836
uick	-8.80996
▁push	-8.81005
▁losing	-8.81189
uently	-8.81283
▁immediately	-8.8138
▁was	-8.81523
▁honestly	-8.81558
▁customi	-8.81668
sed	-8.81714
ew	-8.81747
▁finished	-8.81982
▁Instagram	-8.82037
▁information	-8.82349
TI	-8.82406
▁bought	-8.82717
▁irritating	-8.82735
▁basically	-8.83432
▁hands	-8.83505
▁reopen	-8.83508
▁repeat	-8.83571
▁course	-8.83792
▁sense	-8.84079
▁link	-8.84167
▁response	-8.84227
k	-8.84701
▁disappointing	-8.84841
▁reels	-8.85089
▁color	-8.85107
▁hand	-8.85211
▁date	-8.85274
▁laggy	-8.85479
▁functions	-8.85535
▁excellent	-8.86207
▁streams	-8.86245
less	-8.86254
▁keyboard	-8.86265
▁nearly	-8.86328
▁becomes	-8.8634
and	-8.86364
ay	-8.86457
face	-8.86849
l	-8.86973
▁syncing	-8.87059
▁mostly	-8.87276
▁build	-8.87431
▁casting	-8.87766
▁weapons	-8.87875
▁smil	-8.88065
▁pu	-8.88129
▁versions	-8.88232
een	-8.88281
▁based	-8.88471
espite	-8.88788
ive	-8.88967
▁cause	-8.8901
▁itself	-8.89048
▁garbage	-8.89052
▁mention	-8.89114
▁appears	-8.89185
▁kick	-8.89199
▁sort	-8.89348
▁c	-8.89457
▁cut	-8.89486
uest	-8.89711
▁limit	-8.89984
▁runs	-8.90271
▁document	-8.90455
▁info	-8.90485
▁life	-8.90527
▁reach	-8.90558
▁ruined	-8.90611
▁website	-8.90677
▁choice	-8.90799
est	-8.91175
ting	-8.91251
▁lags	-8.91412
▁receive	-8.91499
▁password	-8.91671
ell	-8.91817
aybe	-8.91876
▁downloads	-8.92086
▁allows	-8.92475
▁wants	-8.92564
icrosoft	-8.92591
▁rewards	-8.926
▁frustrated	-8.92797
▁bigge	-8.92932
▁documents	-8.92937
one	-8.92963
▁restarting	-8.93043
le	-8.93049
▁map	-8.93177
▁skin	-8.93216
▁code	-8.93362
▁w	-8.93431
▁accounts	-8.93532
▁double	-8.93543
▁taken	-8.93553
p	-8.93603
▁missions	-8.93733
oom	-8.93748
▁rewind	-8.93775
▁offer	-8.93958
▁ways	-8.94128
▁restarted	-8.94343
▁attempt	-8.94354
▁disable	-8.94529
▁seeing	-8.94564
▁coming	-8.94673
▁incredibl	-8.94696
▁laptop	-8.94712
▁confusing	-8.95049
▁along	-8.95266
▁correctly	-8.95312
▁smart	-8.95625
▁g	-8.95774
▁services	-8.95864
▁case	-8.96097
▁did	-8.96336
▁but	-8.96955
▁x	-8.96994
▁disappear	-8.97352
ope	-8.97401
▁fitbit	-8.975
▁four	-8.97585
▁challenge	-8.97945
oyable	-8.98127
is	-8.98133
▁prefer	-8.98137
▁building	-8.98217
▁stopping	-8.98261
▁friend	-8.98324
ox	-8.98417
▁posts	-8.98575
▁opened	-8.98689
retty	-8.98759
▁score	-8.99083
▁switching	-8.99474
▁totally	-8.99915
▁similar	-9.00044
▁software	-9.00175
▁lower	-9.00183
▁plan	-9.00307
▁believe	-9.00606
▁monthly	-9.00637
▁although	-9.00729
▁ahead	-9.01404
▁company	-9.01423
▁improvement	-9.01568
▁split	-9.01706
▁same	-9.01746
▁and	-9.02197
▁pain	-9.02259
▁Ads	-9.02484
▁turns	-9.02565
▁continues	-9.0258
al	-9.02586
▁kill	-9.02672
▁straight	-9.02867
▁none	-9.03052
▁compared	-9.03138
▁luck	-9.03771
▁return	-9.03868
▁fixes	-9.04265
▁charge	-9.04279
▁whatsapp	-9.04346
▁closed	-9.04414
▁b	-9.04636
▁opinion	-9.04758
▁includ	-9.04831
▁together	-9.04831
▁near	-9.04835
ever	-9.04907
▁cloud	-9.04934
▁ask	-9.05099
▁login	-9.05285
▁feed	-9.0542
inecraft	-9.05423
▁word	-9.05469
▁drop	-9.05547
▁feedback	-9.06184
nfortunately	-9.06308
▁appreciate	-9.06361
▁night	-9.06513
▁which	-9.06739
▁caus	-9.06791
▁organi	-9.07034
▁errors	-9.07133
▁wonderful	-9.07151
hich	-9.07215
▁family	-9.07344
▁count	-9.07429
▁faster	-9.07606
▁contacts	-9.07616
▁diamonds	-9.07681
▁suggest	-9.07837
in	-9.0816
▁rest	-9.08239
▁once	-9.08247
▁closing	-9.08271
▁spot	-9.08313
▁buying	-9.08366
▁popup	-9.08436
▁driving	-9.08463
▁breaks	-9.08627
▁area	-9.08812
othing	-9.08942
▁locked	-9.09032
▁finding	-9.09093
▁Although	-9.0911
▁cash	-9.09184
▁fantastic	-9.09205
▁hoping	-9.0922
▁improved	-9.09316
▁tool	-9.09569
▁power	-9.09604
▁block	-9.09809
nother	-9.09816
▁separate	-9.1005
▁closes	-9.1016
▁coin	-9.10206
▁expect	-9.10373
▁shut	-9.1062
ecause	-9.10727
▁pull	-9.11166
▁artist	-9.11293
▁enter	-9.11453
▁smooth	-9.11546
▁sad	-9.1226
▁cable	-9.12309
▁events	-9.12327
u	-9.12356
▁lack	-9.12405
▁challenging	-9.12754
▁chance	-9.13104
g	-9.13706
▁resolved	-9.13771
▁anywhere	-9.138
ect	-9.13872
▁sounds	-9.14203
eems	-9.14258
iscord	-9.14384
▁min	-9.1441
▁drive	-9.14705
uit	-9.14763
▁Am	-9.15116
▁trash	-9.15121
▁skips	-9.15166
▁reali	-9.15323
uolingo	-9.15324
ueue	-9.15457
▁inbox	-9.15546
▁Twitch	-9.15703
▁backup	-9.15915
▁developer	-9.15978
▁concept	-9.15995
▁Tubi	-9.16351
▁f	-9.16374
▁cra	-9.16562
▁copy	-9.16747
▁solution	-9.17026
▁fully	-9.17049
▁loud	-9.1754
▁report	-9.1756
our	-9.17596
▁Telegram	-9.17596
▁no	-9.17826
▁the	-9.18438
▁recogni	-9.18449
anva	-9.18569
enrag	-9.18573
▁designed	-9.18644
▁blank	-9.1887
▁why	-9.19033
▁bare	-9.19181
ice	-9.1919
▁v	-9.19241
f	-9.19637
▁checked	-9.19638
▁d	-9.19639
▁google	-9.19794
▁personal	-9.20053
▁lagging	-9.2016
▁light	-9.20203
re	-9.20403
▁bother	-9.20439
▁unfortunately	-9.20457
▁provide	-9.2046
▁pages	-9.20711
▁site	-9.20732
▁steps	-9.20947
umps	-9.2103
▁whe	-9.21078
▁fails	-9.21143
▁sudden	-9.21184
▁switched	-9.21184
▁comic	-9.21215
▁parts	-9.21252
henever	-9.2131
▁thanks	-9.21312
▁inconvenient	-9.21389
▁accidentally	-9.21408
ero	-9.21437
▁th	-9.21525
▁glitching	-9.21544
▁interested	-9.21557
econd	-9.21612
▁t	-9.21629
▁calendar	-9.21685
▁through	-9.21777
▁bonus	-9.22239
akes	-9.22299
▁as	-9.22301
▁white	-9.22344
▁social	-9.22449
▁sharing	-9.22684
▁mark	-9.22717
▁connecting	-9.22852
▁characters	-9.22877
▁entirely	-9.22923
▁cleared	-9.23075
▁talk	-9.23151
▁becom	-9.23256
▁favorites	-9.23366
▁albums	-9.23573
▁non	-9.23653
▁product	-9.23767
▁result	-9.23778
▁anyway	-9.239
▁slide	-9.23903
oying	-9.23922
▁goal	-9.24078
▁opens	-9.2423
▁potential	-9.24442
▁mins	-9.24642
ecently	-9.24689
ue	-9.2475
▁intuitive	-9.24794
▁purpose	-9.24936
▁payment	-9.24973
m	-9.25088
▁only	-9.25166
oblox	-9.25305
▁thinking	-9.25347
▁room	-9.25436
ish	-9.2544
▁lives	-9.2554
▁servers	-9.25577
▁bunch	-9.25618
▁k	-9.25668
▁moment	-9.25832
▁ups	-9.25951
luto	-9.26042
▁selected	-9.26186
▁fan	-9.26344
the	-9.2636
▁multiplayer	-9.26542
▁solid	-9.26552
ore	-9.26556
▁discord	-9.26582
▁charged	-9.26634
▁window	-9.27077
ake	-9.27145
▁Add	-9.27187
▁particular	-9.27409
▁shame	-9.27684
ombies	-9.27779
▁performance	-9.2795
▁season	-9.28003
▁increase	-9.28004
▁saving	-9.28005
▁thank	-9.28044
▁buffer	-9.28196
▁turning	-9.2825
▁results	-9.28294
aving	-9.28408
nstead	-9.28464
▁messaging	-9.28743
▁include	-9.28825
▁unplayable	-9.28849
▁telling	-9.29196
▁clicking	-9.29349
▁purchased	-9.29469
▁regular	-9.2957
▁stick	-9.29784
▁devs	-9.30077
▁pc	-9.30115
▁tasks	-9.30433
▁podcasts	-9.30508
▁suggestion	-9.30801
▁rarely	-9.30922
▁buffers	-9.30966
▁telegram	-9.31027
nd	-9.31151
▁location	-9.31271
▁matches	-9.31278
▁task	-9.31385
▁lock	-9.314
▁fail	-9.31732
▁told	-9.32017
▁keeping	-9.32022
▁thumbs	-9.32131
▁looked	-9.32235
▁expected	-9.32244
no	-9.32259
▁item	-9.32446
▁hold	-9.32524
▁platforms	-9.3293
orks	-9.33073
▁somehow	-9.33108
▁experiencing	-9.33161
uired	-9.33288
specially	-9.33392
▁An	-9.33409
▁mouth	-9.33542
uper	-9.3359
▁then	-9.33798
▁worlds	-9.33878
ried	-9.33959
▁asking	-9.34009
▁helps	-9.34091
▁throw	-9.34266
▁difference	-9.34371
▁fall	-9.34431
▁red	-9.34449
▁received	-9.34457
▁shoot	-9.34527
▁fro	-9.34607
▁solve	-9.34725
▁comments	-9.34808
▁town	-9.35031
any	-9.35185
▁sit	-9.35194
▁pdf	-9.35298
▁filter	-9.35346
▁roblox	-9.35398
▁directly	-9.35439
▁putting	-9.35564
▁individual	-9.35598
▁manage	-9.35966
ro	-9.36017
▁beautiful	-9.36348
ast	-9.36436
▁choices	-9.3644
▁fixing	-9.36461
▁future	-9.36534
▁occasionally	-9.36808
▁writing	-9.36866
▁stays	-9.36928
▁clearly	-9.37236
▁minor	-9.37385
TA	-9.37405
▁history	-9.37708
▁row	-9.37761
▁slightly	-9.37775
▁collect	-9.37784
▁step	-9.37912
us	-9.37991
▁disappeared	-9.38034
▁messed	-9.3812
▁style	-9.38188
▁advance	-9.38189
▁revert	-9.38296
▁export	-9.38436
unk	-9.38457
▁sub	-9.38539
▁wall	-9.38564
▁spam	-9.38807
▁failed	-9.39126
laylist	-9.39275
▁typing	-9.39275
▁seriously	-9.39348
▁we	-9.39432
▁total	-9.39523
▁previously	-9.39589
ombie	-9.39603
▁groups	-9.39634
▁searching	-9.39774
▁tools	-9.39827
▁demand	-9.40282
▁smoothly	-9.40353
▁garden	-9.40615
▁reasons	-9.41045
verytime	-9.41064
▁register	-9.41121
onestly	-9.41155
▁buildings	-9.41164
les	-9.41224
▁ends	-9.41243
▁apparent	-9.41371
▁symbols	-9.41475
▁eventually	-9.41562
▁loop	-9.41652
▁forget	-9.41692
▁draw	-9.4171
▁twitch	-9.41776
▁round	-9.42094
▁plent	-9.42385
▁respond	-9.42402
▁autoplay	-9.42498
▁dropbox	-9.42717
▁tech	-9.42765
ideo	-9.4285
▁asked	-9.42892
▁preview	-9.43073
▁algorithm	-9.43108
▁tapping	-9.43186
▁avoid	-9.43547
▁Th	-9.43548
▁costs	-9.43561
uent	-9.43583
▁disappears	-9.43642
▁Terrible	-9.43816
▁advertising	-9.43833
▁write	-9.44022
▁following	-9.44035
▁answer	-9.44153
▁clean	-9.44193
id	-9.44279
▁talking	-9.44371
▁heard	-9.44392
▁font	-9.44597
▁tricks	-9.44613
▁places	-9.44633
hone	-9.44636
▁created	-9.44647
▁key	-9.45203
▁titles	-9.45248
▁chromebook	-9.45309
▁alone	-9.45324
▁drain	-9.45401
▁hell	-9.45528
▁alternative	-9.45664
box	-9.45697
▁comment	-9.45833
▁landscape	-9.45858
▁stable	-9.45867
efore	-9.45927
▁suggestions	-9.46073
▁serious	-9.46171
▁grammar	-9.46346
▁damn	-9.46354
▁headphones	-9.46442
▁creators	-9.46498
eeds	-9.46547
▁tracking	-9.46628
▁tries	-9.46634
▁refund	-9.46692
▁m	-9.46724
x	-9.46814
▁title	-9.46903
▁depend	-9.46978
▁blue	-9.47004
umping	-9.47007
▁ended	-9.47045
▁difficulty	-9.47053
▁genre	-9.47155
▁fee	-9.47259
▁notice	-9.47343
▁record	-9.47442
▁st	-9.47485
c	-9.47539
▁yesterday	-9.47654
▁fair	-9.47727
layer	-9.4787
▁newest	-9.4803
▁from	-9.48115
▁aspect	-9.48268
▁fire	-9.48334
▁tired	-9.48373
▁radio	-9.48478
▁reader	-9.48556
▁mix	-9.48626
▁tend	-9.48634
▁improvements	-9.48744
▁trick	-9.48849
▁interest	-9.4888
▁h	-9.49084
▁annoyed	-9.49089
▁import	-9.49408
▁experienced	-9.49561
▁customers	-9.49816
▁art	-9.49988
all	-9.50066
▁convenient	-9.50402
▁resolve	-9.50462
▁popular	-9.50491
▁effort	-9.50648
▁creating	-9.50788
▁event	-9.50904
▁period	-9.5094
▁shown	-9.50954
▁article	-9.5096
raged	-9.50963
▁tweets	-9.51207
▁forc	-9.51225
▁exact	-9.51443
▁paused	-9.51488
▁l	-9.51542
▁allowed	-9.51552
▁hidden	-9.51637
▁gallery	-9.51647
▁addictive	-9.51654
▁forces	-9.51729
▁action	-9.51785
▁exactly	-9.51833
▁complicated	-9.51902
orst	-9.52007
▁posting	-9.52104
▁complet	-9.522
▁posted	-9.5253
▁frame	-9.52764
▁recommended	-9.52843
indows	-9.52863
▁goals	-9.52915
rying	-9.53014
▁boosters	-9.53102
▁dollars	-9.53411
▁aim	-9.53477
▁delay	-9.53516
▁pls	-9.53699
▁mid	-9.5392
▁catch	-9.53922
uch	-9.53931
▁tone	-9.54022
▁shooting	-9.54282
▁clunky	-9.54397
▁unnecessary	-9.54411
▁saw	-9.54415
▁nowhere	-9.54488
▁pl	-9.54713
▁mute	-9.54774
▁late	-9.54785
▁focus	-9.54908
▁Any	-9.54911
▁yes	-9.54973
▁fill	-9.55159
▁built	-9.55172
▁purchases	-9.55477
▁addition	-9.5572
▁cuts	-9.55768
▁afford	-9.55775
▁co	-9.55796
▁memory	-9.55805
▁security	-9.5581
▁gold	-9.55914
▁navigation	-9.56045
▁infuriating	-9.56048
omething	-9.56087
▁resolution	-9.56117
me	-9.56147
▁ton	-9.56249
▁transfer	-9.56343
▁ruins	-9.56441
▁lines	-9.56582
▁wide	-9.56909
▁broke	-9.5715
▁types	-9.57211
▁numbers	-9.57253
▁continuously	-9.57316
▁strong	-9.57481
▁reload	-9.5785
am	-9.57961
▁reward	-9.58122
onto	-9.58449
▁slowly	-9.58505
hatsapp	-9.58527
▁die	-9.58862
▁about	-9.58895
▁skipping	-9.58949
▁bigger	-9.59024
▁brightness	-9.59161
▁agree	-9.59216
▁classic	-9.59446
▁reel	-9.59587
rom	-9.59896
mail	-9.59933
▁rated	-9.59942
▁spotify	-9.59943
▁offers	-9.60068
▁automatic	-9.60143
▁calling	-9.60145
▁unlimited	-9.60158
ots	-9.60274
▁fairly	-9.60435
▁details	-9.60467
▁suck	-9.60642
▁minimi	-9.60712
▁wasted	-9.6072
ixel	-9.60781
▁basics	-9.60995
ight	-9.61066
▁learned	-9.61146
ant	-9.61253
▁sends	-9.61257
▁absolute	-9.61462
▁skins	-9.61639
▁beyond	-9.61641
▁repeatedly	-9.61733
▁technical	-9.61787
▁early	-9.61857
▁other	-9.6187
▁uploading	-9.61871
▁dislike	-9.61965
remium	-9.62008
▁suggested	-9.62026
▁mistake	-9.62188
▁included	-9.62202
▁ruin	-9.62249
▁timer	-9.62365
▁third	-9.62396
▁IT	-9.62487
▁visual	-9.62547
▁can	-9.62874
top	-9.63274
▁consistently	-9.63296
▁fit	-9.63315
▁reliable	-9.63351
▁scan	-9.63752
sing	-9.63972
▁missed	-9.64029
▁favourite	-9.6406
signed	-9.64354
ews	-9.6438
oystick	-9.64581
▁negative	-9.64698
ninstalled	-9.64709
▁tons	-9.64777
▁bored	-9.64997
▁refuse	-9.65554
▁articles	-9.65633
▁upgrades	-9.65656
▁ready	-9.65717
▁special	-9.65737
▁areas	-9.65994
▁host	-9.6603
▁front	-9.66264
▁leaving	-9.66287
▁prevent	-9.66296
nglish	-9.6639
w	-9.66483
▁clicked	-9.66525
oke	-9.66558
ls	-9.66566
▁clips	-9.66782
▁displayed	-9.66797
▁credits	-9.66908
▁refuses	-9.6692
ar	-9.67025
▁position	-9.67103
▁method	-9.67136
▁webtoon	-9.67173
.....	-9.67706
▁hunter	-9.67871
▁intrusive	-9.68005
▁food	-9.68073
ninstalling	-9.68137
▁willing	-9.68139
▁hundreds	-9.68157
▁active	-9.68243
▁mine	-9.68446
▁helped	-9.68477
▁tweet	-9.68491
▁tru	-9.68503
▁expand	-9.68527
▁programs	-9.68594
▁address	-9.68622
▁streak	-9.68765
▁podcast	-9.69037
▁lacks	-9.69071
▁lacking	-9.6909
time	-9.69211
▁attention	-9.69458
▁banned	-9.69466
▁nightmare	-9.69469
▁complaints	-9.69482
▁kodi	-9.69723
▁subscribe	-9.69756
here	-9.69882
v	-9.70114
▁remov	-9.70131
b	-9.70163
▁crashed	-9.7037
▁regatta	-9.704
▁fac	-9.70523
▁present	-9.70572
▁r	-9.70622
▁additional	-9.70678
opeful	-9.70755
▁browse	-9.7084
▁colors	-9.70922
▁honest	-9.70927
acebook	-9.70946
ightroom	-9.70948
▁proper	-9.71186
ers	-9.7133
▁noise	-9.7134
▁angle	-9.71379
▁bluetooth	-9.7145
▁recharge	-9.715
▁upon	-9.71572
▁slower	-9.71654
ity	-9.71699
▁teams	-9.71723
eep	-9.71776
▁materials	-9.71781
▁languages	-9.71952
▁stand	-9.71967
▁hide	-9.72111
▁struggle	-9.72372
▁mail	-9.72686
▁discover	-9.72692
▁elsewhere	-9.72762
▁membership	-9.72762
▁earlier	-9.72763
▁throughout	-9.72773
▁local	-9.72809
▁source	-9.72932
▁checking	-9.72957
▁breaking	-9.73004
▁loose	-9.73122
▁moved	-9.73302
▁kids	-9.73314
ree	-9.73359
lmost	-9.73698
▁rotate	-9.7382
to	-9.73967
ought	-9.74058
▁warning	-9.74286
▁edits	-9.7437
▁enemies	-9.74448
▁Acrobat	-9.74452
▁remote	-9.74471
▁obviously	-9.74607
▁terms	-9.74691
▁pausing	-9.74695
▁lucky	-9.75001
▁setup	-9.75379
▁theme	-9.75433
▁signal	-9.75487
ve	-9.75621
▁products	-9.75856
▁likely	-9.76009
hromebook	-9.76026
▁complain	-9.76039
▁related	-9.76067
uid	-9.7611
▁avail	-9.76139
▁private	-9.76172
▁alright	-9.76173
▁winning	-9.76201
▁storyline	-9.76253
▁relaxing	-9.76285
▁subscribed	-9.7642
▁glad	-9.76433
▁categories	-9.76473
▁sec	-9.76555
▁guns	-9.76556
▁chamet	-9.76724
ability	-9.76739
▁disabled	-9.76808
▁frustration	-9.77181
▁tutorial	-9.77236
▁provider	-9.77327
▁credit	-9.77329
▁called	-9.77353
▁functional	-9.77411
▁ob	-9.77604
▁uploaded	-9.77698
app	-9.77699
orrible	-9.77799
▁cover	-9.78008
▁regardless	-9.78082
▁dead	-9.78253
▁pressing	-9.78268
▁cell	-9.7829
▁cu	-9.7852
ind	-9.78547
▁contacted	-9.78661
nable	-9.78712
▁reboot	-9.7875
▁followed	-9.78851
▁hardly	-9.79044
ither	-9.7908
▁direction	-9.79146
▁highlight	-9.79161
▁meaning	-9.79291
▁guide	-9.79369
oku	-9.79573
he	-9.7962
▁restarts	-9.7968
▁programming	-9.79735
▁awhile	-9.79735
▁increasing	-9.79766
▁test	-9.79775
▁con	-9.79827
▁hearts	-9.79834
▁pointless	-9.79889
▁stats	-9.79913
▁pixel	-9.79957
▁creative	-9.80001
▁matching	-9.80079
▁smaller	-9.80081
▁n	-9.80262
▁man	-9.80291
▁boxes	-9.80479
▁normally	-9.80522
fully	-9.80563
▁own	-9.80572
eed	-9.80814
▁weapon	-9.80821
▁subtitle	-9.80844
▁brand	-9.80848
▁exist	-9.80865
▁explain	-9.80876
▁some	-9.8091
ally	-9.81054
▁tracker	-9.81188
▁country	-9.81362
ook	-9.81383
▁watchlist	-9.81586
▁Alto	-9.81627
▁advertised	-9.81631
▁meet	-9.8172
▁community	-9.81816
▁troubleshooting	-9.81926
▁upgraded	-9.81973
▁bonuses	-9.82059
▁redownload	-9.82124
▁effects	-9.82131
▁templates	-9.82161
▁barn	-9.82169
▁lead	-9.8236
ion	-9.82396
▁launch	-9.82493
▁provides	-9.82827
▁li	-9.83027
ects	-9.83088
▁claim	-9.8321
▁endless	-9.83367
▁thru	-9.83372
▁safe	-9.83394
▁consuming	-9.83426
▁prior	-9.83435
▁visible	-9.83444
▁elements	-9.83554
▁reduce	-9.83571
down	-9.83702
▁personally	-9.83834
▁shot	-9.83885
▁pre	-9.84149
▁loss	-9.84205
The	-9.84293
▁fake	-9.84321
▁true	-9.84349
▁length	-9.84521
▁odd	-9.8467
now	-9.84735
▁designs	-9.84782
▁figured	-9.84837
▁value	-9.84851
▁stage	-9.84879
indly	-9.84908
▁insane	-9.85064
efinitely	-9.85117
▁popp	-9.85257
▁unavailable	-9.85272
▁cheaper	-9.85304
▁realistic	-9.85344
▁gain	-9.85435
▁tiny	-9.85437
▁recommendations	-9.85457
▁decid	-9.85499
▁pic	-9.85529
ard	-9.85642
▁toward	-9.85852
▁unlocked	-9.85937
asks	-9.85958
▁responding	-9.86078
▁timeline	-9.86095
▁rd	-9.862
▁genres	-9.86261
▁widget	-9.86348
you	-9.8637
▁conversation	-9.86496
▁ticket	-9.86497
▁Auto	-9.86617
▁emo	-9.86646
▁advertisement	-9.86802
▁drops	-9.8695
▁scores	-9.87004
▁hot	-9.87042
▁timing	-9.87049
▁novel	-9.8708
▁morning	-9.87181
▁userfriendly	-9.872
▁cancelled	-9.87202
▁greedy	-9.87247
▁beside	-9.87363
▁e	-9.87494
▁regularly	-9.87521
▁backwards	-9.87581
▁flip	-9.87587
▁unlike	-9.87685
▁clip	-9.87722
▁reached	-9.87835
up	-9.88005
▁mistakes	-9.88086
ead	-9.88118
▁sports	-9.88247
xtreme	-9.8834
▁installing	-9.88349
▁collection	-9.88467
▁rolling	-9.88589
▁shuts	-9.88641
etting	-9.8866
▁ending	-9.88744
▁essential	-9.88936
▁chose	-9.89028
▁canceling	-9.89132
▁rigged	-9.89142
▁somewhere	-9.89147
▁Always	-9.89149
▁explore	-9.89233
▁hulu	-9.89261
▁soundcloud	-9.89294
▁lists	-9.89303
▁authors	-9.89436
▁replay	-9.89472
▁receiving	-9.89493
▁optional	-9.8953
▁release	-9.89553
▁names	-9.89692
▁common	-9.89849
th	-9.90054
▁handle	-9.90072
▁broadcast	-9.90349
▁ran	-9.90439
▁regard	-9.90463
▁movement	-9.90473
▁scene	-9.90586
▁path	-9.90595
▁standard	-9.90622
▁walk	-9.90675
▁Try	-9.9069
ecent	-9.90704
ntil	-9.90803
age	-9.90861
ately	-9.90957
▁maps	-9.91
obile	-9.91019
▁halfway	-9.91214
▁toggle	-9.91216
▁forth	-9.91436
▁misleading	-9.91463
▁outlook	-9.91645
▁bots	-9.91697
▁necessary	-9.91743
ate	-9.91959
ong	-9.92056
▁reconnect	-9.92225
asy	-9.92286
▁downside	-9.92491
▁speaker	-9.92567
ce	-9.92604
▁should	-9.92684
▁finger	-9.92831
▁edited	-9.92877
▁head	-9.92894
▁accurate	-9.93103
ies	-9.93156
▁recording	-9.93173
▁numerous	-9.9318
▁hassle	-9.9319
▁anytime	-9.9319
▁dropped	-9.9319
onstantly	-9.93196
▁custom	-9.93251
▁minecraft	-9.93264
▁de	-9.93371
▁editor	-9.93484
▁remains	-9.93531
▁entertaining	-9.93561
It	-9.93585
▁flow	-9.93615
▁blocked	-9.93684
▁form	-9.93763
▁animations	-9.93863
▁subscriptions	-9.94323
▁usage	-9.94382
robably	-9.94473
▁pics	-9.9453
▁effect	-9.94558
ir	-9.94602
▁communication	-9.94875
▁animation	-9.94894
▁chromecast	-9.94924
▁mentioned	-9.94973
▁incorrect	-9.95075
raphics	-9.95173
▁max	-9.9519
▁aggravating	-9.95281
▁links	-9.95429
▁disconnected	-9.9547
▁uni	-9.95471
ily	-9.95546
▁sorry	-9.95723
te	-9.95769
▁impressed	-9.95776
▁offered	-9.95848
▁self	-9.95935
ote	-9.96411
▁dumb	-9.96422
▁streamers	-9.96569
▁resets	-9.96586
▁competition	-9.96694
▁circle	-9.97015
▁cry	-9.97043
AI	-9.97099
panish	-9.9732
▁medium	-9.97382
▁outside	-9.97411
▁package	-9.97431
▁purchasing	-9.97465
▁confused	-9.97656
if	-9.97661
▁yeah	-9.97707
▁tedious	-9.97714
▁category	-9.97717
▁written	-9.97879
ach	-9.98114
not	-9.98384
▁poorly	-9.98403
▁versa	-9.9843
▁suit	-9.98465
▁teach	-9.98472
ideos	-9.98473
▁rock	-9.98524
▁keys	-9.98565
▁destroy	-9.98601
▁supported	-9.98694
ebtoon	-9.9875
elp	-9.98761
ic	-9.98781
▁showed	-9.98923
▁ease	-9.9893
▁readers	-9.99018
▁uno	-9.99255
▁felt	-9.99541
▁privacy	-9.99559
▁seemingly	-9.99592
▁instantly	-9.99656
ring	-9.99679
▁bank	-9.997
▁rules	-9.99788
▁accessible	-9.99801
back	-10.0021
▁speak	-10.003
ority	-10.0046
▁final	-10.0055
▁begin	-10.0055
▁br	-10.0062
▁grab	-10.0078
folded	-10.0103
▁boost	-10.011
▁graphic	-10.0158
▁blocks	-10.0162
▁bec	-10.0172
▁xbox	-10.0178
▁everywhere	-10.018
ely	-10.019
▁restore	-10.0191
▁enabled	-10.0196
▁print	-10.0206
▁multi	-10.0207
▁green	-10.0212
▁youtube	-10.0214
▁swiping	-10.0218
▁appreciated	-10.0219
▁specifically	-10.0223
▁loaded	-10.0231
▁listened	-10.0232
▁water	-10.0237
▁appearing	-10.0242
▁released	-10.0259
▁disconnect	-10.0267
▁communicate	-10.0268
▁prompt	-10.0297
▁has	-10.0298
▁uses	-10.0308
ons	-10.0312
▁selections	-10.0313
▁center	-10.033
▁scam	-10.0336
▁positive	-10.0342
▁filters	-10.0345
▁rocks	-10.0348
▁vs	-10.0356
uests	-10.036
▁earned	-10.0361
▁state	-10.0379
▁false	-10.0385
either	-10.0386
▁Though	-10.0392
▁minimum	-10.0405
▁downhill	-10.0405
▁repeats	-10.0405
kay	-10.0406
▁permanently	-10.0415
▁downgrade	-10.0427
ooks	-10.0457
▁films	-10.046
▁permissions	-10.0472
ey	-10.0475
▁advertisements	-10.0488
▁school	-10.0489
▁webtoons	-10.0506
▁playable	-10.0512
▁prices	-10.0526
even	-10.0529
▁sensitive	-10.0533
▁gaming	-10.0534
▁flaw	-10.0542
▁entertainment	-10.0553
▁disappearing	-10.0567
rime	-10.0591
▁member	-10.0618
▁obvious	-10.0618
▁placed	-10.0627
▁robux	-10.0637
▁opposite	-10.0637
▁unreliable	-10.0638
▁unacceptable	-10.0638
▁sentence	-10.0641
▁compatible	-10.0642
▁unresponsive	-10.065
arious	-10.0657
▁party	-10.0669
▁addressed	-10.0671
ent	-10.0676
▁everyday	-10.0686
▁gifts	-10.0697
▁kicked	-10.0702
▁se	-10.072
ire	-10.0725
▁enable	-10.0741
▁sick	-10.0761
▁wasting	-10.0764
ext	-10.0772
▁solved	-10.0772
▁annoyance	-10.08
▁console	-10.0802
▁instance	-10.0806
▁permission	-10.0807
at	-10.0808
▁pauses	-10.0816
please	-10.0821
▁annoy	-10.0823
▁locks	-10.083
▁exercise	-10.0835
▁fault	-10.0842
▁bars	-10.085
▁schedule	-10.0851
ig	-10.0869
inally	-10.0874
▁health	-10.0875
▁empty	-10.0876
▁distance	-10.0876
▁Additional	-10.0876
▁inside	-10.0878
▁internal	-10.0881
like	-10.0883
smil	-10.0889
▁model	-10.0909
▁million	-10.0912
▁portrait	-10.0913
▁Is	-10.0916
▁signing	-10.0917
▁netflix	-10.092
▁andor	-10.093
uir	-10.0935
ear	-10.0935
▁road	-10.0949
▁arrow	-10.0961
bsolutely	-10.0982
▁speaking	-10.1002
▁repeating	-10.1035
▁cycle	-10.1078
▁wear	-10.1079
▁mic	-10.1089
▁attempts	-10.1092
▁external	-10.1098
▁vlc	-10.1111
▁football	-10.1119
▁connectivity	-10.112
▁Again	-10.1124
▁continuing	-10.1134
▁chatting	-10.1135
▁introduced	-10.1141
▁mechanics	-10.1148
orry	-10.1149
ade	-10.118
▁paste	-10.1189
ello	-10.1241
▁fonts	-10.1246
aid	-10.1247
rive	-10.1265
▁range	-10.1303
▁pri	-10.1305
▁structure	-10.1325
▁wheel	-10.1332
xcept	-10.1336
▁excessive	-10.1349
eople	-10.1355
▁accept	-10.1363
▁sometime	-10.1367
▁inventory	-10.1369
▁hooked	-10.1373
▁wild	-10.1379
▁opt	-10.1384
▁chords	-10.1387
▁reduced	-10.1389
▁logo	-10.1395
▁atleast	-10.1406
▁input	-10.1416
▁activity	-10.1418
▁gems	-10.1419
eeps	-10.1441
▁flaws	-10.1443
▁aiming	-10.146
▁angry	-10.1476
▁occur	-10.148
▁saves	-10.1488
rs	-10.1498
out	-10.1506
ersa	-10.1528
ack	-10.1532
▁listed	-10.1548
uestion	-10.1548
▁alert	-10.1549
▁client	-10.1555
▁beginner	-10.1558
▁who	-10.1563
▁wonder	-10.1581
ng	-10.1584
▁had	-10.1592
coming	-10.1592
▁skill	-10.1607
▁perform	-10.1612
ltra	-10.162
▁somewhat	-10.1625
▁campaign	-10.1625
▁ongoing	-10.1628
▁Two	-10.1629
ontrols	-10.163
▁consistent	-10.1637
▁strange	-10.1638
▁massive	-10.165
▁displays	-10.1652
▁topics	-10.1664
▁bigo	-10.1665
▁filled	-10.1701
▁known	-10.1711
laying	-10.1717
▁...	-10.1727
▁sorted	-10.1731
▁likes	-10.1777
ui	-10.1781
▁pace	-10.1783
▁station	-10.1784
▁passes	-10.1812
▁resi	-10.1813
▁avatar	-10.1815
▁screens	-10.1816
▁board	-10.1817
▁material	-10.1819
▁canva	-10.1822
▁menus	-10.1852
usiness	-10.1855
▁popups	-10.1865
▁gripe	-10.1873
▁ten	-10.1876
rustrating	-10.1878
aking	-10.1882
screen	-10.1884
▁steam	-10.1884
▁twitter	-10.1887
▁average	-10.1888
▁microphone	-10.1888
atest	-10.1889
▁lightroom	-10.1893
▁charging	-10.1895
▁optimi	-10.1898
▁encountered	-10.1901
▁presets	-10.1912
▁gift	-10.1925
▁provided	-10.1929
▁cross	-10.1957
▁lol	-10.1964
▁addons	-10.1979
▁where	-10.1983
▁holding	-10.1992
▁film	-10.2036
atch	-10.2046
▁drag	-10.2063
oved	-10.2078
▁members	-10.2095
old	-10.2108
▁sections	-10.2108
▁subscriber	-10.2127
▁profiles	-10.2128
onstant	-10.2128
oundcloud	-10.2132
nt	-10.2132
▁manual	-10.2133
ninstall	-10.2136
▁usual	-10.2143
▁myself	-10.2151
▁corner	-10.2151
▁unfair	-10.2152
▁unwatchable	-10.2158
▁obnoxious	-10.2158
▁notified	-10.2159
▁cutting	-10.216
▁busy	-10.2162
ness	-10.219
▁decides	-10.2194
▁development	-10.2199
ure	-10.2205
▁testing	-10.2214
▁tilt	-10.2217
ava	-10.2218
end	-10.2223
▁ingame	-10.2235
inning	-10.2258
▁earning	-10.2259
▁grow	-10.2295
ment	-10.2303
▁oh	-10.2308
▁interact	-10.232
▁retry	-10.232
▁leaves	-10.2341
▁peoples	-10.2344
hould	-10.2346
ang	-10.2349
▁explanation	-10.2366
eriously	-10.2378
▁recover	-10.2379
ted	-10.2389
▁suppose	-10.2404
▁league	-10.2407
▁synced	-10.2409
xcellent	-10.2421
▁behavior	-10.2429
▁currency	-10.243
▁skipped	-10.2432
iterally	-10.2432
▁doubt	-10.2437
▁choosing	-10.2438
▁instructions	-10.2444
tion	-10.2444
▁roll	-10.2445
▁minimal	-10.2446
▁distracting	-10.245
▁painful	-10.2456
▁rewatch	-10.2476
▁transition	-10.2478
▁browsing	-10.2479
▁lyrics	-10.2483
▁tips	-10.2485
▁pieces	-10.2486
▁contain	-10.249
▁walking	-10.249
▁tabs	-10.2494
▁tested	-10.2501
uested	-10.2506
▁meant	-10.251
ist	-10.2519
▁dis	-10.2523
▁stored	-10.2525
body	-10.254
▁Apple	-10.2547
▁accident	-10.2547
▁land	-10.2548
▁timed	-10.2552
ften	-10.2554
▁reasonable	-10.2559
etter	-10.2561
▁di	-10.2564
▁dev	-10.2566
▁fingers	-10.2575
TT	-10.2582
oo	-10.2596
▁slides	-10.2619
▁hang	-10.2622
when	-10.2644
▁situation	-10.2645
▁portion	-10.2658
▁gun	-10.2659
ia	-10.2662
▁intro	-10.2684
▁inconsistent	-10.2695
▁screenshot	-10.2696
▁initial	-10.2697
oing	-10.2699
atching	-10.2704
▁detect	-10.2709
▁stress	-10.2712
▁courses	-10.2714
▁cumbersome	-10.2715
▁parkour	-10.2716
▁recognition	-10.2716
▁disappointment	-10.2722
▁edge	-10.2728
riginal	-10.2734
▁stickers	-10.2745
▁factory	-10.2746
▁interruptions	-10.2748
▁cheap	-10.2753
▁thus	-10.2757
▁trigger	-10.2761
▁such	-10.2766
▁particularly	-10.2767
This	-10.278
tar	-10.2791
▁aware	-10.2792
▁letters	-10.28
ere	-10.2801
▁race	-10.2808
▁skills	-10.2838
▁research	-10.2841
▁sell	-10.2847
ary	-10.2875
▁badly	-10.2882
low	-10.2897
▁field	-10.2932
▁assume	-10.294
▁dog	-10.2984
▁guy	-10.2986
▁train	-10.2988
rowning	-10.3
▁altogether	-10.3009
▁unskippable	-10.3009
▁target	-10.3009
▁management	-10.3009
▁choppy	-10.301
▁beta	-10.3019
▁struggling	-10.3019
▁primary	-10.302
▁after	-10.3022
▁hori	-10.3027
▁resources	-10.3037
▁captions	-10.3048
▁extend	-10.3052
▁television	-10.3059
▁dropping	-10.3061
▁teaching	-10.307
▁Audio	-10.3096
edia	-10.3102
ose	-10.3108
▁scenes	-10.3121
▁uploads	-10.3126
▁failing	-10.3133
▁canceled	-10.3155
eb	-10.3161
ass	-10.3167
▁gr	-10.3168
▁answers	-10.3173
▁killed	-10.3201
▁reread	-10.3202
▁ap	-10.321
▁windows	-10.321
▁weekly	-10.3211
▁Are	-10.3217
▁modes	-10.322
earch	-10.322
▁kinds	-10.3225
▁inconvenience	-10.324
▁banner	-10.3241
▁sheet	-10.3243
▁goto	-10.3249
▁signature	-10.3252
▁base	-10.3257
ld	-10.3258
▁paywall	-10.3285
▁at	-10.3289
▁occasional	-10.3293
urrently	-10.3312
▁instagram	-10.3312
▁replies	-10.3313
▁horror	-10.3313
▁screw	-10.3314
▁blurry	-10.3314
▁icons	-10.3319
▁aside	-10.3327
tv	-10.3333
▁compare	-10.3335
▁thousands	-10.3343
▁sensitivity	-10.3344
▁advanced	-10.3351
▁increased	-10.3357
▁defeat	-10.3373
▁hangs	-10.3375
▁trains	-10.3383
this	-10.3386
upport	-10.3394
▁odds	-10.3422
▁native	-10.3455
▁air	-10.3457
▁Time	-10.3465
▁my	-10.3476
pressed	-10.3499
▁AI	-10.3523
sually	-10.3526
▁Absolute	-10.3552
▁thinks	-10.3554
▁panel	-10.3555
▁helping	-10.3566
▁craft	-10.3585
▁diamond	-10.3604
▁secure	-10.3608
▁crop	-10.3612
▁bot	-10.3619
▁enemy	-10.3624
▁verification	-10.3624
▁virtual	-10.3625
alf	-10.3625
▁spinning	-10.3625
▁binge	-10.3628
▁desired	-10.3629
▁usability	-10.3633
▁stated	-10.366
▁imagine	-10.3664
▁mood	-10.3673
▁redo	-10.3674
▁unstable	-10.3676
▁dialogue	-10.3677
▁ground	-10.3682
▁obstacles	-10.3697
▁personali	-10.37
▁exercises	-10.3716
▁connects	-10.3719
▁disconnects	-10.3724
pad	-10.3729
▁speakers	-10.3733
▁ideas	-10.3739
▁collecting	-10.3742
ch	-10.3743
▁scanning	-10.375
ine	-10.376
amused	-10.3769
▁finishing	-10.3776
▁mad	-10.3778
▁liking	-10.3787
▁excite	-10.3792
which	-10.3804
ating	-10.3814
▁..	-10.3818
▁balance	-10.3837
▁detail	-10.3855
▁effective	-10.3857
roblem	-10.3871
▁death	-10.3875
▁benefit	-10.3878
▁practical	-10.3889
▁visuals	-10.3896
▁direct	-10.3898
thumbs	-10.3906
▁kills	-10.3915
▁market	-10.3925
▁tablets	-10.3943
asically	-10.3945
▁survival	-10.3947
▁addicting	-10.3947
▁sweat	-10.3948
▁technology	-10.3948
▁sliding	-10.3952
▁navigating	-10.3954
▁Tab	-10.3954
▁sitting	-10.3963
▁replaced	-10.3973
▁occasions	-10.3973
ts	-10.3975
▁produce	-10.399
free	-10.3992
▁shorter	-10.4005
▁dee	-10.4038
▁viewers	-10.4045
▁static	-10.405
od	-10.4052
▁official	-10.4053
▁public	-10.4053
▁incredible	-10.4097
▁ti	-10.41
▁tune	-10.4107
ous	-10.4113
▁aspects	-10.4119
▁usable	-10.4127
▁by	-10.4129
▁previews	-10.4129
▁grind	-10.4131
pix	-10.4143
▁utili	-10.4152
▁ratio	-10.4154
▁moments	-10.4164
▁Take	-10.4172
▁acting	-10.4195
▁messing	-10.4199
▁thumbnail	-10.4211
ser	-10.4227
▁shooter	-10.4229
ens	-10.4239
▁deep	-10.4267
▁fox	-10.4269
oining	-10.4269
▁city	-10.4272
▁repetition	-10.4281
▁homepage	-10.4282
▁continually	-10.4284
▁supplies	-10.4284
more	-10.4285
▁upgrading	-10.4286
▁Township	-10.4286
adly	-10.4286
▁advice	-10.4287
▁Today	-10.4291
▁competitors	-10.4308
▁interrupted	-10.431
▁upset	-10.4314
▁inapp	-10.4317
▁stack	-10.4319
▁into	-10.4324
▁fold	-10.4327
▁viewer	-10.4333
▁tag	-10.4352
▁weak	-10.4377
▁physical	-10.4385
arely	-10.4387
how	-10.4413
▁rename	-10.4414
▁colour	-10.4415
▁knowing	-10.4421
▁advertise	-10.443
astly	-10.4434
▁greatly	-10.4435
ho	-10.4445
▁blocking	-10.4453
harge	-10.4458
▁despi	-10.4463
▁picked	-10.449
▁developed	-10.4509
▁bothers	-10.4512
▁advise	-10.4535
▁introduce	-10.4536
▁activate	-10.454
uo	-10.4541
▁environment	-10.4552
▁refreshing	-10.4552
▁description	-10.4555
▁six	-10.4556
▁floor	-10.4557
▁travel	-10.4561
ustment	-10.4562
rely	-10.4596
▁lie	-10.4613
isappointing	-10.462
ustomer	-10.4622
apanese	-10.4625
▁explicit	-10.4625
▁Awesome	-10.4625
▁ultra	-10.4627
▁nobody	-10.4628
▁flawlessly	-10.4632
▁Internet	-10.4636
rench	-10.4637
▁physics	-10.464
▁mouse	-10.4646
▁nose	-10.4652
▁stressful	-10.466
▁eye	-10.4671
▁spins	-10.4673
▁fitness	-10.468
▁loving	-10.468
▁counter	-10.4683
▁flat	-10.4697
▁repeated	-10.4716
uestions	-10.472
▁raise	-10.4721
▁mis	-10.4729
▁novels	-10.4752
▁piece	-10.4754
▁searched	-10.4758
▁most	-10.4759
▁linked	-10.4772
▁seek	-10.4779
▁kid	-10.4799
angry	-10.4824
▁mo	-10.484
▁rely	-10.4848
red	-10.4848
▁expecting	-10.4851
▁returns	-10.4906
▁dealing	-10.4912
▁chasm	-10.4913
▁experiences	-10.4924
times	-10.4932
▁template	-10.4953
so	-10.4954
andora	-10.4976
idiculous	-10.4979
▁whatsoever	-10.4982
▁pattern	-10.4982
▁women	-10.4982
▁cursor	-10.4983
▁asleep	-10.4983
▁cancelling	-10.4988
▁basis	-10.4991
▁progression	-10.4993
▁golden	-10.4994
▁highest	-10.4999
▁startup	-10.5001
▁worthless	-10.5008
▁adverts	-10.5012
▁blast	-10.5015
▁intended	-10.5019
▁anime	-10.5019
▁rare	-10.5028
▁streamer	-10.5028
▁drafts	-10.5034
use	-10.5039
▁countries	-10.5039
▁possibl	-10.5061
▁sadly	-10.5069
▁screenshots	-10.5074
▁focused	-10.5078
▁complaining	-10.5081
▁discovered	-10.5082
▁utter	-10.5094
▁begins	-10.511
▁rip	-10.5111
oth	-10.5136
▁folded	-10.5138
▁sentences	-10.5146
pensive	-10.518
▁ignore	-10.5197
▁heck	-10.5197
▁unknow	-10.5209
▁recorded	-10.5215
▁seasons	-10.5215
▁spaces	-10.5252
▁act	-10.5257
▁username	-10.5281
▁adventure	-10.5282
▁la	-10.5283
sides	-10.5295
ence	-10.5303
▁slider	-10.5307
▁deserve	-10.5309
▁plain	-10.5317
▁pdfs	-10.5317
▁professional	-10.533
▁paper	-10.533
▁continuous	-10.5334
▁remind	-10.5334
▁infinite	-10.5335
▁unfortunate	-10.5336
▁careful	-10.5345
esktop	-10.5348
▁Awful	-10.5352
▁vocabulary	-10.5352
▁Adventure	-10.5352
▁genuine	-10.5353
▁revenue	-10.5353
▁engaging	-10.5353
▁patience	-10.5354
▁risk	-10.5354
▁forgot	-10.5354
▁success	-10.5356
▁Annoying	-10.5356
▁patient	-10.5357
▁verify	-10.5358
▁surprised	-10.5362
▁bet	-10.5362
▁comfortable	-10.5371
▁implemented	-10.5372
▁bucks	-10.5372
▁trust	-10.5384
▁vertical	-10.5391
▁placement	-10.5391
ling	-10.5392
▁mixes	-10.5392
▁hundred	-10.5392
▁apart	-10.5395
ax	-10.54
▁age	-10.5404
▁individually	-10.5415
▁ratings	-10.5434
▁repair	-10.544
▁undo	-10.5464
ap	-10.5464
▁gear	-10.5466
▁corrected	-10.5483
phone	-10.5489
▁releases	-10.5493
▁covers	-10.5496
▁replace	-10.5504
▁pin	-10.5508
▁gifs	-10.5518
way	-10.5521
▁edition	-10.5524
▁Trie	-10.5528
▁picks	-10.5539
▁pack	-10.5561
▁scale	-10.5562
▁affect	-10.5577
▁fresh	-10.5582
▁reports	-10.5584
▁locations	-10.5591
▁render	-10.5603
ty	-10.5615
▁when	-10.5631
ooking	-10.565
▁decade	-10.5664
▁decision	-10.5667
vid	-10.5676
▁develop	-10.5683
▁motion	-10.5688
▁views	-10.5712
while	-10.572
▁efficient	-10.5722
▁backward	-10.5723
eah	-10.5734
ector	-10.5737
▁foreign	-10.5737
▁shrugging	-10.5738
▁bombard	-10.5738
▁cropping	-10.5738
▁typically	-10.5742
▁bright	-10.5743
ode	-10.5744
▁statistics	-10.5744
▁bugged	-10.5745
otifications	-10.5749
▁chosen	-10.5759
tories	-10.576
▁were	-10.5761
▁tiktok	-10.5765
▁yrs	-10.5766
▁accurately	-10.5773
▁limits	-10.5778
▁cluttered	-10.5804
▁funny	-10.5807
▁spelling	-10.5807
▁deserves	-10.5809
▁fullscreen	-10.581
▁chasms	-10.5812
▁manager	-10.5828
ifi	-10.5851
▁competitive	-10.5861
▁directory	-10.5861
go	-10.5867
pdated	-10.5917
▁sources	-10.5934
▁pitch	-10.5938
ably	-10.5947
mber	-10.5952
▁weight	-10.5958
ark	-10.5989
▁concern	-10.5998
el	-10.6
▁remain	-10.6002
▁class	-10.6024
▁excit	-10.6029
bar	-10.6032
▁mb	-10.6042
▁integration	-10.605
▁headache	-10.6057
eader	-10.6059
▁Team	-10.6069
▁flash	-10.6079
os	-10.6091
▁amounts	-10.6096
▁staying	-10.6114
▁happi	-10.6115
▁pair	-10.6119
ontal	-10.6121
isappointed	-10.6127
▁workout	-10.6128
▁catalog	-10.6136
▁awkward	-10.6137
▁opportunity	-10.6137
▁airport	-10.6137
▁budget	-10.6137
▁horrendous	-10.6138
▁heavily	-10.6138
▁energy	-10.6139
▁disgusting	-10.6139
ithout	-10.6139
▁began	-10.6139
▁nowadays	-10.6139
▁cheat	-10.6143
▁study	-10.6143
▁digital	-10.6144
▁stretch	-10.616
▁factor	-10.6165
▁smoother	-10.617
▁rendering	-10.6172
ectives	-10.6173
▁under	-10.6175
▁ages	-10.6181
▁tough	-10.6183
igo	-10.6184
▁chrome	-10.619
tory	-10.6195
over	-10.6197
tars	-10.6205
▁hrs	-10.6208
▁workouts	-10.6209
▁disconnecting	-10.6219
▁minigames	-10.622
▁vary	-10.6221
▁thumbnails	-10.6222
oving	-10.6226
▁fight	-10.6232
▁endlessly	-10.6239
▁nicely	-10.6244
uare	-10.6257
▁nonsense	-10.6259
▁collections	-10.6282
▁label	-10.6284
▁or	-10.6285
▁existing	-10.6289
igh	-10.6293
ry	-10.6305
▁viewed	-10.6309
▁carry	-10.6333
uel	-10.6335
▁introduc	-10.6336
game	-10.6336
laylists	-10.6342
▁freak	-10.635
......	-10.6354
▁house	-10.6418
▁cute	-10.643
▁solutions	-10.6433
▁ba	-10.6435
▁watches	-10.6435
▁unlocking	-10.6438
other	-10.6439
▁applications	-10.6441
bout	-10.6454
▁each	-10.6455
▁wise	-10.6464
▁interior	-10.6478
▁smartphone	-10.6483
mart	-10.6484
▁chore	-10.6487
ff	-10.649
ool	-10.6491
▁speeds	-10.6499
▁cases	-10.6501
right	-10.6505
ble	-10.6517
ance	-10.6526
▁implement	-10.653
usting	-10.6548
hristmas	-10.6554
▁duration	-10.6554
▁irrelevant	-10.6554
▁wrote	-10.6554
▁tubi	-10.6554
▁accessibility	-10.6555
uency	-10.6555
▁tears	-10.6556
▁favor	-10.6556
▁completion	-10.6557
▁preferred	-10.6558
▁attack	-10.656
▁handling	-10.6562
▁controlling	-10.6578
▁clock	-10.658
▁coop	-10.658
▁Issue	-10.6585
▁initially	-10.6585
aily	-10.659
▁persists	-10.6592
▁reverse	-10.6593
▁docs	-10.6595
▁muted	-10.6598
▁girls	-10.6603
cast	-10.6604
ual	-10.6616
▁token	-10.6626
that	-10.6639
▁vid	-10.6645
▁leagues	-10.666
▁sender	-10.666
▁among	-10.6664
▁table	-10.6676
▁hopeful	-10.668
▁earbuds	-10.6688
ide	-10.6692
▁crops	-10.6701
▁exists	-10.6709
▁claims	-10.6712
▁reporting	-10.6719
▁vari	-10.6746
▁tempo	-10.6752
lad	-10.6762
core	-10.6768
oor	-10.6772
▁periods	-10.6774
▁directions	-10.6779
▁killer	-10.6792
rror	-10.6796
ain	-10.6813
▁rounds	-10.6819
▁purposes	-10.684
ooms	-10.6849
arch	-10.685
▁interrupt	-10.6856
▁encounter	-10.687
man	-10.6878
▁bc	-10.6888
▁fi	-10.689
▁contents	-10.6912
▁swap	-10.6914
▁partner	-10.6915
▁bookmark	-10.692
ames	-10.6926
▁he	-10.694
▁texts	-10.6943
▁crush	-10.6945
▁region	-10.6947
io	-10.6952
op	-10.6957
tarted	-10.6962
▁attach	-10.6969
▁according	-10.6969
▁Ad	-10.697
▁permanent	-10.697
▁instant	-10.6972
▁bubble	-10.6976
▁child	-10.6988
▁opponent	-10.6989
▁caught	-10.699
▁horribly	-10.6991
▁candy	-10.6991
ameplay	-10.6996
▁linear	-10.6998
▁silly	-10.6998
▁epix	-10.6999
ownloaded	-10.6999
▁duplicate	-10.7001
▁scammers	-10.7002
▁significantly	-10.7003
▁encourage	-10.7004
▁knock	-10.701
▁screwed	-10.7011
uess	-10.7016
eneral	-10.702
▁rich	-10.7032
▁graphs	-10.7042
▁Incredibl	-10.7045
▁breaker	-10.7051
▁designing	-10.7055
▁counts	-10.7055
▁trend	-10.7059
▁locate	-10.706
▁stations	-10.7101
▁reads	-10.7113
▁packs	-10.7117
▁states	-10.7134
▁critical	-10.7138
▁tutorials	-10.7165
ownload	-10.7179
▁both	-10.718
▁considered	-10.7184
▁fly	-10.7204
▁returning	-10.7215
▁feeling	-10.7218
lon	-10.7226
▁texting	-10.7227
▁notify	-10.7237
▁walls	-10.7238
▁boards	-10.7238
▁react	-10.7242
▁audios	-10.7262
▁god	-10.727
▁author	-10.7302
veryone	-10.7311
▁stutter	-10.7329
▁fed	-10.7332
▁TI	-10.7341
▁patch	-10.735
▁vice	-10.7361
ept	-10.7361
▁machine	-10.7363
own	-10.7363
tore	-10.7368
▁if	-10.737
▁clue	-10.7371
▁knows	-10.7376
▁wi	-10.7383
setting	-10.7395
▁prepare	-10.7397
▁chart	-10.7398
▁connections	-10.7411
▁bed	-10.7417
▁confirm	-10.7419
▁casual	-10.7421
▁session	-10.7423
▁memori	-10.7429
hrome	-10.7436
▁slight	-10.7438
ersonally	-10.7439
uali	-10.7442
▁topic	-10.7443
▁childhood	-10.7443
▁comparison	-10.7443
▁capabilities	-10.7443
▁monitor	-10.7443
▁folks	-10.7443
▁activities	-10.7443
ormally	-10.7444
▁sluggish	-10.7444
▁Third	-10.7444
▁Apparent	-10.7444
▁outdated	-10.7444
▁steering	-10.7446
▁unbearable	-10.7446
▁bundle	-10.7447
▁problematic	-10.7448
▁surprising	-10.7449
▁showsmovies	-10.7451
▁improving	-10.7453
▁relative	-10.7459
▁formats	-10.7459
▁reappear	-10.7466
▁duolingo	-10.7467
▁miles	-10.7472
▁forums	-10.7474
evelopers	-10.7476
▁supporting	-10.7482
▁stuttering	-10.7488
▁interrupting	-10.7491
▁scratch	-10.7492
▁former	-10.7494
ile	-10.7497
waited	-10.7507
▁moneti	-10.751
▁stutters	-10.7514
ongs	-10.7516
▁compete	-10.7518
▁bi	-10.7522
▁relevant	-10.7528
▁participate	-10.7528
ets	-10.7529
▁taste	-10.7529
ma	-10.7532
data	-10.7539
▁networks	-10.754
ra	-10.7547
▁contrast	-10.7565
▁clients	-10.7568
▁ga	-10.7568
▁powerful	-10.7574
▁ultimate	-10.7574
▁yearly	-10.7585
▁children	-10.7585
▁describe	-10.7596
▁lame	-10.7597
▁recordings	-10.7603
▁greatest	-10.7606
▁throwing	-10.7613
leading	-10.7629
play	-10.7637
etc	-10.7658
▁finishes	-10.7684
▁minus	-10.7686
▁computers	-10.769
▁ac	-10.7699
▁caller	-10.771
▁interests	-10.7711
▁spoil	-10.7734
▁vast	-10.7739
▁systems	-10.7748
▁increases	-10.7754
▁cr	-10.7755
▁saver	-10.7764
▁transferr	-10.7793
▁continued	-10.7802
▁meh	-10.781
ontinue	-10.7812
▁ban	-10.7839
ac	-10.7839
mp	-10.7842
▁interaction	-10.7843
▁catalogue	-10.7844
▁revive	-10.7847
▁failure	-10.7847
▁doing	-10.7853
▁invite	-10.7854
▁thread	-10.7855
▁translation	-10.7859
▁spin	-10.7868
▁hurt	-10.7868
▁reopening	-10.788
▁shift	-10.7889
▁beca	-10.7898
star	-10.7902
▁charges	-10.7905
▁draft	-10.7906
antastic	-10.7916
▁atmosphere	-10.7919
▁temporarily	-10.7919
▁maximum	-10.792
▁nonstop	-10.792
▁disaster	-10.792
rashes	-10.792
▁bummer	-10.792
▁uncomfortable	-10.7921
▁cropped	-10.7921
urther	-10.7921
▁adobe	-10.7922
▁neat	-10.7922
▁headset	-10.7922
▁ugly	-10.7923
▁policy	-10.7923
▁freedom	-10.7925
▁corrupted	-10.7926
▁outright	-10.7926
▁showmovie	-10.7928
uiet	-10.7932
▁rotation	-10.7938
hatever	-10.7942
▁tree	-10.7945
orked	-10.7947
▁detailed	-10.7952
▁magic	-10.7957
▁Aside	-10.7965
▁insanely	-10.7968
▁bu	-10.7969
▁disney	-10.797
uicker	-10.7972
▁ammo	-10.7986
▁speech	-10.7988
▁ch	-10.7989
day	-10.7994
pon	-10.7996
▁bait	-10.8012
▁benefits	-10.8023
layed	-10.8024
broken	-10.8044
▁statuses	-10.8048
▁grinding	-10.8051
▁occurs	-10.8054
▁plane	-10.8057
om	-10.8062
▁unsubscribe	-10.8062
▁dates	-10.8071
▁Total	-10.8078
ostly	-10.8092
▁conversations	-10.8096
▁stages	-10.8101
▁filling	-10.8115
aste	-10.8128
▁growing	-10.8142
▁sta	-10.8152
▁delays	-10.8165
▁handy	-10.8183
▁soo	-10.8183
▁alternatives	-10.8186
▁manag	-10.8196
lear	-10.8205
hange	-10.8218
▁band	-10.8228
na	-10.823
part	-10.8237
▁actions	-10.8239
▁orders	-10.8242
▁term	-10.8252
ible	-10.827
▁rank	-10.8289
do	-10.8294
▁forwarding	-10.831
▁vi	-10.833
asting	-10.8356
▁eliminate	-10.8362
▁reflect	-10.8362
outube	-10.8368
ense	-10.8375
▁unit	-10.838
ull	-10.8383
▁thumb	-10.8398
▁silent	-10.8401
▁percent	-10.8416
arbage	-10.8416
▁trail	-10.8418
▁nuisance	-10.8419
▁overwhelming	-10.8419
ecember	-10.8419
▁addicted	-10.842
▁unintuitive	-10.842
▁occurred	-10.842
▁complex	-10.8421
▁modern	-10.8421
▁impact	-10.8422
▁unread	-10.8422
amera	-10.8423
▁removal	-10.8424
▁providing	-10.8425
▁younger	-10.8428
▁upthumbs	-10.8429
▁memories	-10.8435
▁seamlessly	-10.8435
▁difficulties	-10.8436
▁delivered	-10.8439
▁monsters	-10.8439
essages	-10.8449
▁stock	-10.8453
▁ideal	-10.846
▁Tri	-10.846
emove	-10.8462
▁boot	-10.8479
▁rebooted	-10.8481
▁vector	-10.8488
▁restricted	-10.8489
▁marketing	-10.8489
▁cellular	-10.8489
▁gray	-10.8492
▁perhaps	-10.8493
▁worry	-10.8493
▁drives	-10.8494
▁perks	-10.8498
▁discovery	-10.8504
▁wondering	-10.8508
▁inter	-10.8515
▁shape	-10.8515
▁documentaries	-10.852
▁wa	-10.8522
loses	-10.8528
reinstall	-10.8532
▁loyal	-10.8535
▁these	-10.8535
▁prime	-10.8543
▁remaining	-10.8547
▁alerts	-10.8556
▁satisfied	-10.8568
▁sky	-10.8568
used	-10.8581
▁gb	-10.8591
▁training	-10.8598
▁tickets	-10.8605
▁bold	-10.8611
▁addon	-10.8632
▁stayed	-10.8642
ug	-10.8642
▁disabl	-10.8661
▁ex	-10.8671
eview	-10.8685
▁regret	-10.8703
▁pricey	-10.8735
ros	-10.8735
▁glitched	-10.8742
▁been	-10.8752
▁met	-10.8752
▁sorting	-10.8788
video	-10.8798
▁hr	-10.88
▁ride	-10.8801
eels	-10.8825
▁woman	-10.8827
▁bands	-10.8848
▁scheme	-10.8872
▁soundtrack	-10.8873
▁lvl	-10.8875
▁symbol	-10.8876
▁blueprint	-10.8876
▁shield	-10.8892
imple	-10.8898
▁caption	-10.8901
thing	-10.8904
▁glass	-10.8915
▁reccomend	-10.8921
▁brilliant	-10.8923
▁exclusive	-10.8928
▁ha	-10.8928
▁achieve	-10.8937
▁TikTok	-10.8946
▁atrocious	-10.8946
▁April	-10.8946
▁unnecessarily	-10.8946
▁dashboard	-10.8946
▁themselves	-10.8946
▁bandwidth	-10.8946
▁unhappy	-10.8946
▁manner	-10.8946
▁anybody	-10.8946
▁disruptive	-10.8946
▁reliably	-10.8946
▁wonky	-10.8946
▁inaccurate	-10.8946
▁messenger	-10.8947
▁yellow	-10.8947
▁wherever	-10.8948
▁absurd	-10.8949
▁further	-10.895
tarting	-10.8951
▁proceed	-10.8952
▁router	-10.8953
▁stability	-10.8954
▁affordable	-10.8955
▁motivated	-10.8956
ying	-10.8958
▁invested	-10.8958
▁sets	-10.8963
▁brother	-10.8964
▁frustrate	-10.8966
ord	-10.8971
▁ca	-10.8972
▁achievements	-10.8979
▁sides	-10.898
▁decrease	-10.8982
▁convenience	-10.8983
▁living	-10.8986
▁midi	-10.8988
▁lowest	-10.8991
▁fell	-10.8993
▁acceptable	-10.8994
▁deliver	-10.8995
▁existed	-10.9007
IA	-10.901
▁su	-10.9027
▁writer	-10.9029
▁delayed	-10.9031
▁bookmarks	-10.9031
▁precise	-10.9033
▁flag	-10.9042
▁tags	-10.9043
▁tiles	-10.9043
▁thrill	-10.9044
▁output	-10.9061
▁satisfying	-10.9065
▁grey	-10.9068
orse	-10.9072
eat	-10.9082
cannot	-10.9083
▁redownloading	-10.9093
▁heavy	-10.9106
ears	-10.9121
▁raw	-10.9123
▁falling	-10.9126
▁movements	-10.9138
▁timeout	-10.9184
▁sight	-10.9199
▁tr	-10.92
▁dollar	-10.92
▁syncs	-10.9222
▁sunglasses	-10.9229
▁compet	-10.9247
▁beginners	-10.925
▁ui	-10.929
▁logge	-10.9291
ads	-10.9295
only	-10.9329
▁faced	-10.9336
▁dot	-10.934
▁displaying	-10.9343
ending	-10.9345
ie	-10.9375
king	-10.9386
ovies	-10.9397
ware	-10.9402
▁passed	-10.9409
▁context	-10.9411
▁integrate	-10.9412
▁pit	-10.9424
▁advantage	-10.9426
▁port	-10.9428
emand	-10.9431
ious	-10.9467
fore	-10.9474
ower	-10.9474
▁alphabetical	-10.9481
▁successful	-10.9482
▁letter	-10.9494
bviously	-10.9496
▁orientation	-10.9501
▁replied	-10.9501
▁capability	-10.9502
▁unwanted	-10.9502
▁replacement	-10.9502
▁taught	-10.9502
▁identify	-10.9502
▁knowledge	-10.9503
▁mediocre	-10.9503
▁between	-10.9503
▁relieve	-10.9505
▁fewer	-10.9506
▁promote	-10.9506
▁discouraging	-10.9506
oice	-10.9507
creen	-10.9509
▁hunt	-10.9511
wise	-10.9514
▁entry	-10.9515
▁fps	-10.9517
▁reenter	-10.9518
▁powerups	-10.952
▁operate	-10.9524
▁attached	-10.9528
evel	-10.9546
▁addresses	-10.9553
hame	-10.956
▁preferences	-10.9564
▁strategy	-10.9567
▁knew	-10.9571
▁gif	-10.9574
▁suspicious	-10.9576
player	-10.958
▁thoroughly	-10.9583
▁Into	-10.9593
▁exchange	-10.9594
▁backgrounds	-10.9606
▁logs	-10.9611
▁adfree	-10.9613
its	-10.9619
▁separately	-10.9622
evs	-10.9622
▁reconnecting	-10.9627
▁drawing	-10.9637
ata	-10.9641
side	-10.9643
▁blueprints	-10.9652
ip	-10.9658
▁counted	-10.966
▁supports	-10.9667
still	-10.9672
▁hi	-10.9676
▁fav	-10.9688
▁wake	-10.9689
ggest	-10.9695
▁translate	-10.9699
▁priced	-10.9703
▁farm	-10.9713
▁flips	-10.9717
treaming	-10.9717
▁obscure	-10.9729
▁cos	-10.9739
▁she	-10.9756
ettings	-10.9764
usted	-10.9782
▁whil	-10.9785
▁overlay	-10.9792
lue	-10.9794
ooming	-10.981
▁frames	-10.9811
▁Turn	-10.9823
▁died	-10.9848
▁secs	-10.9854
ays	-10.9857
▁thin	-10.9858
▁cord	-10.9859
ter	-10.9889
▁anyways	-10.9895
▁appeared	-10.9905
art	-10.9909
▁styles	-10.9915
And	-10.9916
▁dig	-10.9931
▁chances	-10.9939
▁plug	-10.9947
▁tight	-10.9951
im	-10.9956
▁adapt	-10.9956
▁steal	-10.9959
▁insta	-10.9959
▁pad	-10.9965
bility	-10.9987
hield	-10.9987
onsider	-10.9988
ess	-10.9989
fix	-10.9992
nning	-11.0002
▁punish	-11.0003
ps	-11.0005
▁beating	-11.0006
have	-11.0018
▁girl	-11.002
▁interruption	-11.0021
can	-11.0024
▁creator	-11.0028
▁exception	-11.0032
▁bomb	-11.0039
▁rule	-11.0039
▁modify	-11.0041
pdates	-11.0059
ior	-11.0078
▁recieve	-11.0083
ominos	-11.0084
ultiple	-11.0086
▁submit	-11.0086
layback	-11.0089
dyssey	-11.0089
▁facepalming	-11.0089
▁nonexistent	-11.0089
▁creativity	-11.0089
▁companies	-11.0089
▁glaring	-11.009
▁insert	-11.009
▁forgotten	-11.009
▁generic	-11.009
▁bulk	-11.009
▁combination	-11.009
▁rubbish	-11.009
▁combat	-11.009
▁bedrock	-11.0091
▁compar	-11.0091
▁flashscore	-11.0091
▁talent	-11.0091
▁bankrupt	-11.0092
▁priority	-11.0093
▁simulator	-11.0093
▁interactive	-11.0093
▁whoever	-11.0093
▁impressive	-11.0094
▁loosing	-11.0095
indle	-11.0095
uarter	-11.0095
▁exploring	-11.0096
▁acc	-11.0097
▁mechanic	-11.0097
▁hacked	-11.0098
rage	-11.0099
▁masking	-11.01
ired	-11.0101
reviously	-11.0102
▁upsetting	-11.011
▁successfully	-11.0111
there	-11.0114
witching	-11.0115
are	-11.0116
andom	-11.0117
ace	-11.012
▁hinder	-11.012
▁everybody	-11.0127
▁ignored	-11.0128
inux	-11.0129
▁teaches	-11.0132
▁wh	-11.0137
▁betting	-11.0138
▁untill	-11.0141
▁blind	-11.0143
▁sh	-11.0145
▁incorrectly	-11.0146
▁catches	-11.0146
▁generated	-11.0148
▁Tech	-11.0153
▁curve	-11.0154
▁flashing	-11.0155
▁meeting	-11.0157
diting	-11.0159
de	-11.0161
▁those	-11.0162
▁admit	-11.0186
tick	-11.0189
▁Installed	-11.0196
▁significant	-11.0203
▁hanging	-11.0213
ll	-11.0215
ustments	-11.0216
▁bloat	-11.0216
▁lasted	-11.0229
▁biased	-11.024
▁explanations	-11.0242
▁pile	-11.0246
▁refus	-11.0248
▁par	-11.0257
▁paint	-11.0268
oping	-11.027
▁shutt	-11.0272
▁prompts	-11.0277
▁reopened	-11.0283
▁progressive	-11.0286
▁battle	-11.0302
▁park	-11.0309
eside	-11.0314
▁highlights	-11.0318
▁wire	-11.0331
witch	-11.0332
crolling	-11.0335
ail	-11.0337
using	-11.0346
ke	-11.0349
▁body	-11.0355
▁boosts	-11.0355
▁classics	-11.038
▁vids	-11.0381
▁faces	-11.0401
by	-11.0407
ones	-11.0417
▁award	-11.0417
▁pleased	-11.0434
▁rewinding	-11.0443
eading	-11.0461
▁core	-11.0478
▁Text	-11.0491
▁trip	-11.0506
▁persons	-11.0511
▁replac	-11.0528
▁pa	-11.0528
lex	-11.0532
▁convert	-11.0562
▁appeal	-11.0565
▁boom	-11.0569
▁ear	-11.0586
ontent	-11.059
ions	-11.0599
▁solv	-11.0606
▁lo	-11.0608
▁surprise	-11.0614
▁perspective	-11.0638
▁creation	-11.0638
hannel	-11.064
▁pocket	-11.0643
▁enlarge	-11.0644
▁preference	-11.0647
eal	-11.0649
▁robot	-11.066
▁overlap	-11.0662
▁malfunction	-11.0669
huffle	-11.0674
erally	-11.0678
▁progressing	-11.068
▁enhance	-11.0685
revious	-11.0688
ventually	-11.0689
▁seamless	-11.0695
▁id	-11.0702
▁archive	-11.0709
egatta	-11.0711
▁dialog	-11.0713
▁subpar	-11.0714
▁overhaul	-11.0715
ourney	-11.0715
▁construction	-11.0715
▁clothes	-11.0715
▁database	-11.0715
▁excuse	-11.0716
▁simultaneously	-11.0716
▁nerves	-11.0717
▁rotating	-11.0717
▁racing	-11.0718
▁swear	-11.072
▁terribly	-11.0721
▁upper	-11.0723
▁escape	-11.0723
▁annual	-11.0724
▁hints	-11.0725
▁bullet	-11.0726
▁playstore	-11.0731
▁slowed	-11.0732
eatures	-11.0735
▁paragraphs	-11.0735
▁chase	-11.0735
▁sooo	-11.0744
▁animals	-11.0748
▁realms	-11.0755
▁broadcasters	-11.0762
▁students	-11.0762
▁leader	-11.0764
▁ensure	-11.0765
▁flight	-11.0769
▁calories	-11.0772
▁recall	-11.0775
▁com	-11.0776
▁responsive	-11.0776
hanged	-11.0784
▁tapped	-11.0791
▁resort	-11.0793
uate	-11.0795
▁selling	-11.0799
▁shapes	-11.0804
▁beautifully	-11.0821
▁cap	-11.0825
▁subscribing	-11.0829
inding	-11.083
▁subs	-11.0842
▁animat	-11.0843
ruly	-11.0843
▁beg	-11.0845
▁crossed	-11.0845
▁automat	-11.0847
▁having	-11.0852
▁thr	-11.0857
▁dots	-11.0858
▁pathetic	-11.0862
▁bombs	-11.0869
▁Think	-11.0871
▁situations	-11.0872
mails	-11.0877
▁functioning	-11.0884
ebtoons	-11.0917
▁hole	-11.0919
▁decorations	-11.092
▁young	-11.0925
▁competitions	-11.0927
▁primar	-11.0933
ated	-11.0937
fficient	-11.0938
▁micro	-11.0946
▁treat	-11.0949
eta	-11.0963
aster	-11.0964
ations	-11.097
▁narrow	-11.0977
my	-11.0987
▁fo	-11.0989
▁regattas	-11.0991
▁sport	-11.0993
▁wo	-11.1016
lack	-11.1016
▁offering	-11.1019
▁blame	-11.1024
▁bye	-11.1029
read	-11.1033
▁counting	-11.1035
based	-11.1035
▁understanding	-11.1055
▁costly	-11.1063
▁apple	-11.1072
▁heal	-11.1075
good	-11.1076
▁glow	-11.1098
▁integrat	-11.1103
▁marks	-11.114
▁shove	-11.1146
imply	-11.1147
▁spac	-11.1155
ok	-11.117
▁rates	-11.1171
dark	-11.1185
dge	-11.1185
la	-11.1205
pl	-11.1222
▁fastforward	-11.1226
issing	-11.1229
ful	-11.1234
▁spots	-11.1241
There	-11.1241
▁stands	-11.1247
mb	-11.1254
iles	-11.1272
▁redesign	-11.1276
xample	-11.1277
▁plans	-11.1281
▁plot	-11.1283
ol	-11.1291
Also	-11.1295
▁relax	-11.1306
▁column	-11.1309
▁thousand	-11.1311
▁backflip	-11.1319
▁workaround	-11.1321
▁dream	-11.1326
uddenly	-11.133
▁codes	-11.1334
tic	-11.1337
▁sprint	-11.1344
why	-11.135
▁accomplish	-11.1358
outh	-11.1358
▁dang	-11.1362
▁welcome	-11.1364
▁approach	-11.1365
live	-11.1368
▁promise	-11.1369
hotoshop	-11.1374
slightly	-11.1375
eautiful	-11.1378
▁renew	-11.1378
▁approximate	-11.1381
▁recipient	-11.1381
▁legendary	-11.1381
▁opportunities	-11.1381
▁yourself	-11.1381
▁borderline	-11.1381
▁marketplace	-11.1381
▁diverse	-11.1381
▁extensive	-11.1381
▁directories	-11.1381
hinese	-11.1382
▁authentication	-11.1382
▁persistent	-11.1382
▁submitted	-11.1382
▁earth	-11.1383
everal	-11.1383
▁indeed	-11.1383
▁aswell	-11.1384
▁sideways	-11.1384
▁armor	-11.1384
▁firestick	-11.1384
▁alarm	-11.1385
unter	-11.1385
appens	-11.1385
▁hair	-11.1385
▁percentage	-11.1387
▁entirety	-11.1388
▁wiped	-11.139
▁anoying	-11.139
▁Trash	-11.1391
after	-11.1391
locking	-11.1392
▁pleasant	-11.1393
ub	-11.1393
▁aliens	-11.1394
▁shuffling	-11.1396
▁homescreen	-11.1396
▁combined	-11.1397
▁enhanced	-11.1397
▁noticeable	-11.1398
▁explorer	-11.1405
▁accelerate	-11.1406
▁enrag	-11.1406
▁expire	-11.1407
▁hiccups	-11.1408
▁movieshow	-11.141
▁unlink	-11.1411
▁webcomic	-11.1412
▁headlines	-11.1413
uirks	-11.1419
▁vods	-11.142
▁cubes	-11.1427
ur	-11.1428
▁installation	-11.1428
▁cheating	-11.1438
▁vehicles	-11.1442
▁straightforward	-11.1446
▁spamm	-11.1447
▁fighting	-11.1452
eaming	-11.1456
find	-11.1462
▁ya	-11.1467
rate	-11.1469
▁incomplete	-11.1473
▁complained	-11.1474
▁def	-11.1484
ownloads	-11.1484
▁generate	-11.1484
▁followers	-11.1489
▁resuming	-11.1491
▁pi	-11.1492
▁visit	-11.1498
▁shadow	-11.1501
▁explained	-11.1504
▁exciting	-11.1523
▁reminders	-11.1527
led	-11.1528
▁sold	-11.1535
▁gap	-11.1541
▁races	-11.1545
▁hill	-11.1547
▁handful	-11.1547
▁gamepad	-11.155
rior	-11.1566
reinstalled	-11.157
▁riddle	-11.157
uly	-11.1589
nappropriate	-11.1593
arre	-11.1594
▁reloading	-11.1595
▁Apps	-11.1601
▁phrases	-11.1603
ages	-11.1605
▁assum	-11.1607
ailed	-11.1619
light	-11.1626
▁possibilit	-11.1631
▁hop	-11.1638
▁pixels	-11.165
▁bus	-11.1669
▁index	-11.1683
pen	-11.1685
▁erase	-11.1699
pace	-11.171
▁voices	-11.1718
▁plac	-11.175
▁typed	-11.1768
▁loops	-11.1769
▁formatting	-11.1782
ony	-11.1785
▁pinn	-11.1803
ars	-11.1809
gged	-11.1814
▁cons	-11.1819
▁sticks	-11.1825
▁wow	-11.1832
ock	-11.1833
▁freely	-11.1834
they	-11.1846
▁hel	-11.1872
▁silence	-11.1874
icrotransactions	-11.1906
xperience	-11.1918
pending	-11.1923
ks	-11.1925
▁processing	-11.1925
gging	-11.1931
▁pure	-11.1932
▁gamers	-11.1933
lays	-11.1933
▁severe	-11.1934
▁master	-11.1934
▁sites	-11.1951
▁engine	-11.1965
firing	-11.1966
▁an	-11.1994
ha	-11.2008
icture	-11.2011
eveloper	-11.2015
▁drawback	-11.2019
iving	-11.2021
▁gesture	-11.2024
▁element	-11.2026
▁resource	-11.2028
▁audiobook	-11.2031
▁persist	-11.2033
▁preset	-11.2034
▁disturb	-11.2041
▁passwords	-11.2045
lip	-11.2056
▁redirect	-11.2074
▁determine	-11.2086
nspire	-11.2087
irestick	-11.2092
ompletely	-11.2093
eleting	-11.2094
▁streamed	-11.2094
▁crosshair	-11.2095
▁grammatical	-11.2095
▁female	-11.2095
▁butler	-11.2095
▁compact	-11.2096
▁conclusion	-11.2096
▁traffic	-11.2096
▁fraction	-11.2096
▁reviewing	-11.2096
▁moderation	-11.2096
ebruary	-11.2097
▁stunning	-11.2097
▁artwork	-11.2097
▁discussion	-11.2098
▁discograph	-11.2098
▁appearance	-11.2099
▁threw	-11.2099
udos	-11.2101
▁programmed	-11.2102
▁police	-11.2103
▁beans	-11.2104
hamet	-11.2105
▁hardware	-11.2105
▁pricing	-11.2107
▁Anyone	-11.2108
▁nuts	-11.2111
▁expired	-11.2116
learly	-11.2118
▁exclusively	-11.2122
▁laughing	-11.2124
herefore	-11.2124
▁blowing	-11.2128
▁dms	-11.2133
▁greed	-11.2136
▁affected	-11.2137
▁renewing	-11.2142
ucks	-11.2145
▁tweaks	-11.2146
hotos	-11.2148
▁combine	-11.215
▁commands	-11.215
▁rais	-11.2158
rking	-11.2159
▁redeem	-11.2166
▁follows	-11.2169
▁stat	-11.217
▁audiobooks	-11.2171
▁political	-11.2172
▁teleport	-11.2176
▁duo	-11.2179
▁locally	-11.2184
▁climb	-11.2186
▁chronological	-11.2188
▁unpause	-11.2189
▁detection	-11.219
▁distorted	-11.2195
▁apply	-11.2199
oins	-11.22
▁synch	-11.2201
hows	-11.2203
▁bro	-11.2204
▁covered	-11.2223
▁reverted	-11.2228
would	-11.2247
▁colours	-11.2247
▁clutter	-11.2255
▁sticker	-11.227
▁aggressive	-11.2271
▁spoke	-11.2275
▁affects	-11.2277
▁exceptional	-11.2277
▁retrieve	-11.2287
▁focusing	-11.2327
▁burn	-11.2331
mediate	-11.2334
▁floors	-11.2335
▁tra	-11.2351
▁stores	-11.2356
▁registered	-11.2363
uits	-11.2375
▁entered	-11.2378
ories	-11.2403
▁appealing	-11.2408
▁consume	-11.2409
▁float	-11.2415
▁methods	-11.2426
▁bugging	-11.2428
▁Al	-11.2431
▁favourites	-11.2437
▁role	-11.2437
▁foot	-11.2445
expression	-11.2447
gh	-11.2475
um	-11.2478
▁ho	-11.248
ship	-11.248
sometimes	-11.2487
▁upside	-11.2487
hose	-11.2495
get	-11.2501
▁suggesting	-11.2501
▁plann	-11.2513
▁algorithms	-11.2517
▁insist	-11.2517
▁cam	-11.2521
ec	-11.2534
ops	-11.2541
▁intend	-11.2552
umbled	-11.2567
▁regards	-11.2568
▁notch	-11.2583
▁blow	-11.2589
umped	-11.2604
▁tip	-11.2609
ua	-11.2647
update	-11.2658
▁gam	-11.2661
uring	-11.2662
▁eg	-11.2667
ber	-11.2669
eft	-11.2673
▁represent	-11.2681
pay	-11.2686
pp	-11.2714
▁forms	-11.2719
alendar	-11.2746
▁bas	-11.2747
il	-11.2757
ping	-11.276
opping	-11.2775
▁communicat	-11.2777
▁assist	-11.2792
▁vehicle	-11.2794
▁adult	-11.2794
▁calorie	-11.2796
for	-11.2798
▁chest	-11.2808
▁reminder	-11.2809
arring	-11.281
▁badge	-11.2817
tupid	-11.2821
▁chill	-11.2821
▁troubleshoot	-11.2822
▁gem	-11.2829
evice	-11.2838
replying	-11.2842
▁sorts	-11.2845
ussia	-11.285
▁surf	-11.2851
▁recommendation	-11.2852
ersion	-11.2855
mpossible	-11.2858
▁abrupt	-11.2865
▁helicopter	-11.2865
▁metronome	-11.2865
▁distinguish	-11.2865
▁grateful	-11.2865
▁uninterrupted	-11.2865
▁temporary	-11.2865
uivalent	-11.2865
▁component	-11.2865
▁stinks	-11.2865
▁indication	-11.2865
▁invasive	-11.2865
▁verified	-11.2865
▁sketchy	-11.2866
▁spontaneous	-11.2866
▁companion	-11.2866
▁withdraw	-11.2867
▁facility	-11.2867
▁alter	-11.2867
▁deducted	-11.2868
▁reconsider	-11.2868
▁midway	-11.2868
▁feeds	-11.2868
▁scenery	-11.2869
▁indicator	-11.2869
ather	-11.2871
▁tier	-11.2871
pictureinpicture	-11.2871
eleted	-11.2872
▁below	-11.2875
onnecting	-11.288
▁irritated	-11.2881
▁expectations	-11.2881
▁border	-11.2883
▁unexpectedly	-11.2884
▁hung	-11.2888
▁erased	-11.2891
▁restrictions	-11.2891
▁applied	-11.2892
heart	-11.2892
▁flashes	-11.2893
▁updown	-11.2894
▁intervals	-11.2896
▁superb	-11.29
▁income	-11.2902
▁emotes	-11.2902
▁sensor	-11.2902
▁trailers	-11.2903
▁unfollow	-11.2911
ective	-11.2912
▁livestream	-11.2914
▁effectively	-11.2916
▁dying	-11.292
▁gather	-11.2924
▁disturbing	-11.2924
organi	-11.2925
uirements	-11.2926
work	-11.2927
oading	-11.2928
▁global	-11.2934
▁gambl	-11.294
ounds	-11.2944
▁unexpected	-11.2945
▁practicing	-11.2945
▁reviewers	-11.295
▁argu	-11.2953
▁gmail	-11.2955
▁nope	-11.2958
▁valuable	-11.2959
▁invisible	-11.2959
▁controllers	-11.2961
▁trees	-11.2962
▁units	-11.2963
▁starters	-11.2966
▁mainstream	-11.2967
▁bothersome	-11.2973
▁builds	-11.2978
orean	-11.298
rd	-11.2981
▁damage	-11.2982
▁duplicates	-11.2987
▁sucked	-11.299
board	-11.2991
gr	-11.2992
▁musical	-11.2992
▁grown	-11.2993
spite	-11.2995
lly	-11.3006
▁decisions	-11.301
▁collected	-11.3012
lean	-11.3016
erman	-11.3023
▁descriptions	-11.3027
also	-11.3032
let	-11.3038
▁simpler	-11.3047
▁teacher	-11.3047
▁replaying	-11.3072
▁lowered	-11.3076
▁canvas	-11.3078
hold	-11.3078
uck	-11.3079
▁any	-11.3087
eply	-11.3091
lies	-11.31
▁instances	-11.3102
▁concerns	-11.3104
▁ne	-11.3111
ings	-11.3113
▁son	-11.312
▁circles	-11.3133
▁ins	-11.3139
▁looping	-11.3144
▁dump	-11.3146
▁sp	-11.3148
▁exited	-11.3155
set	-11.3159
rush	-11.316
▁sooner	-11.3161
▁incom	-11.3165
▁dragg	-11.3166
tart	-11.3178
ater	-11.3184
eats	-11.3188
ervice	-11.3199
▁extras	-11.3202
▁touched	-11.3213
▁bothering	-11.3223
tc	-11.3226
▁forwards	-11.3238
lowing	-11.3242
lby	-11.3244
▁shortly	-11.3246
cy	-11.3263
▁easie	-11.3267
▁maintain	-11.3295
▁fat	-11.3299
▁rearrange	-11.3311
dited	-11.3312
▁receiver	-11.3315
ny	-11.3319
▁ship	-11.332
ct	-11.3323
▁inf	-11.3327
omi	-11.3342
▁net	-11.3369
eaning	-11.3399
ik	-11.3405
ompatibility	-11.3408
▁flagg	-11.3413
ral	-11.3419
▁payments	-11.3426
rent	-11.3427
▁guessing	-11.3431
▁mom	-11.3434
▁license	-11.3437
................	-11.3438
▁clicks	-11.3455
▁sd	-11.346
ple	-11.3469
▁eating	-11.347
▁afr	-11.3483
▁fa	-11.3492
▁dm	-11.3502
ini	-11.3542
dition	-11.3544
▁partial	-11.3578
▁bump	-11.3604
▁brain	-11.3606
well	-11.3614
▁secret	-11.3617
▁pronunciation	-11.3617
▁vibration	-11.3621
▁disappoint	-11.3623
▁discount	-11.3625
▁habit	-11.3627
▁competitor	-11.3628
ge	-11.3634
oring	-11.3634
▁strip	-11.3642
▁wor	-11.3645
▁succeed	-11.3645
ifficult	-11.3649
▁distract	-11.3652
▁drift	-11.3653
uence	-11.3656
eh	-11.3665
▁responses	-11.3666
hanging	-11.3668
▁overheat	-11.3669
orce	-11.3669
▁soft	-11.367
▁suggests	-11.367
▁desync	-11.3677
ccasionally	-11.3678
▁immediate	-11.368
▁hosts	-11.368
▁mailbox	-11.3684
▁desire	-11.3688
▁decline	-11.3694
atrix	-11.3694
▁soooo	-11.3695
▁motivation	-11.3697
▁fashion	-11.3698
▁husband	-11.3698
▁monotonous	-11.3698
▁college	-11.3698
anuary	-11.3698
▁capacity	-11.3698
▁immersive	-11.3698
▁terrific	-11.3698
▁uptodate	-11.3698
▁unpleasant	-11.3698
▁balloon	-11.3698
▁frankly	-11.3698
▁unrealistic	-11.3698
▁penny	-11.3698
▁dvd	-11.3699
▁copied	-11.3699
▁fluid	-11.3699
▁compression	-11.3699
▁drastically	-11.3699
▁execution	-11.3699
▁corners	-11.3699
uggy	-11.3699
▁outstanding	-11.37
▁streamlined	-11.37
▁hurry	-11.37
▁coverage	-11.3701
▁afterwards	-11.3703
ontacted	-11.3704
▁above	-11.3704
nterface	-11.3705
▁operating	-11.3706
▁invest	-11.3708
▁demo	-11.3709
▁billed	-11.371
▁thankfully	-11.371
▁moviesshows	-11.3711
▁roku	-11.3712
▁reducing	-11.3713
▁ipad	-11.3714
▁daughter	-11.3714
kill	-11.3716
▁human	-11.3719
reinstalling	-11.3721
▁debit	-11.3722
ninstaller	-11.3725
▁harvest	-11.3726
▁meters	-11.3726
▁billing	-11.3727
▁located	-11.3729
▁consideration	-11.373
▁flowers	-11.3731
▁experiments	-11.3732
▁teammates	-11.3732
▁typos	-11.3735
einstalling	-11.3738
orget	-11.3739
▁codec	-11.3745
▁concerned	-11.3746
▁express	-11.3747
▁outcome	-11.3753
▁mx	-11.3753
▁vibrate	-11.3753
▁route	-11.3761
▁sprinting	-11.3763
ugs	-11.3765
▁Images	-11.3769
▁chests	-11.377
▁blend	-11.3774
▁wins	-11.3774
▁commit	-11.3776
▁mp	-11.3778
▁international	-11.378
▁intentional	-11.3789
▁disliked	-11.379
▁sho	-11.38
▁transactions	-11.3802
▁proof	-11.3802
▁decorate	-11.3803
evels	-11.3804
▁redundant	-11.3804
▁reorder	-11.3805
▁weather	-11.3806
alse	-11.3806
▁wreck	-11.381
▁gi	-11.3812
▁Allow	-11.3813
▁charts	-11.3814
▁valid	-11.3817
▁presentation	-11.3821
nlike	-11.3824
▁translations	-11.3825
▁shifts	-11.3827
▁charm	-11.3831
▁bells	-11.3836
nitially	-11.3839
▁trips	-11.384
▁appropriate	-11.3848
▁prepar	-11.3857
▁textures	-11.3859
▁flick	-11.3866
▁owned	-11.3868
▁sleeping	-11.387
▁pe	-11.3873
acts	-11.389
▁panels	-11.3894
ex	-11.3903
itro	-11.3906
▁dealt	-11.391
▁parent	-11.3921
▁xp	-11.3925
pdf	-11.3929
ected	-11.3932
▁res	-11.3934
▁sms	-11.3934
▁profit	-11.3945
elete	-11.3946
▁shop	-11.3955
hey	-11.3959
▁seeking	-11.3969
▁indicate	-11.3972
▁metal	-11.3973
ait	-11.3978
▁businesses	-11.3984
inor	-11.3989
▁Issues	-11.3991
date	-11.3994
andy	-11.3999
▁downsides	-11.4006
▁editors	-11.4007
▁broadcasts	-11.4012
▁launching	-11.4014
▁retain	-11.4022
▁contract	-11.4041
load	-11.4048
▁Trial	-11.4053
▁familiar	-11.4058
▁dating	-11.4069
rolled	-11.4072
▁streaks	-11.4079
▁decorating	-11.4088
aming	-11.4103
weight	-11.4119
▁dep	-11.4123
pe	-11.4123
▁af	-11.4152
microtransaction	-11.4157
wei	-11.4161
▁additions	-11.4167
▁lighting	-11.4174
▁oppos	-11.4197
▁sw	-11.4223
▁fear	-11.4229
▁ball	-11.4231
athetic	-11.4232
▁unrelat	-11.4237
▁bo	-11.4249
▁limiting	-11.4254
lips	-11.4257
leep	-11.4269
gun	-11.4291
▁rough	-11.43
▁standing	-11.4303
igned	-11.4312
ns	-11.4331
▁sharp	-11.4348
▁signs	-11.4349
▁fish	-11.4381
ork	-11.4382
lot	-11.4382
▁butt	-11.439
co	-11.4396
▁AT	-11.4397
early	-11.4398
▁grand	-11.4407
▁slip	-11.4426
hoto	-11.4437
rop	-11.4453
seless	-11.4459
▁trim	-11.4483
▁featured	-11.4489
be	-11.4504
ort	-11.4526
▁occasion	-11.4528
▁winner	-11.4532
ovie	-11.4533
▁transaction	-11.4535
▁leaderboard	-11.4535
▁student	-11.4537
▁command	-11.454
uirement	-11.454
▁blur	-11.4542
▁reaction	-11.4543
▁arrows	-11.4556
ugh	-11.4558
wiping	-11.456
▁vanish	-11.457
▁calm	-11.457
onderful	-11.4571
▁owner	-11.4574
epeat	-11.4575
▁porn	-11.458
▁encrypt	-11.4585
great	-11.4586
gest	-11.4587
uffering	-11.4587
ffline	-11.459
ocket	-11.4592
▁flawless	-11.4595
erhaps	-11.4597
omehow	-11.4598
▁boss	-11.4599
etween	-11.4604
omescapes	-11.4605
music	-11.4606
▁eyebrow	-11.4607
▁pandemic	-11.4607
▁phenomenal	-11.4607
▁sponsor	-11.4607
▁tolerable	-11.4607
▁wierd	-11.4607
▁wingsuit	-11.4607
▁foreground	-11.4607
▁rectify	-11.4607
▁recomend	-11.4607
▁assistance	-11.4607
▁exposure	-11.4607
uipment	-11.4608
▁copies	-11.4608
▁bummed	-11.4608
▁promising	-11.4608
▁ondemand	-11.4608
▁vital	-11.4608
▁fancy	-11.4608
▁unclear	-11.4608
uantity	-11.4609
▁identical	-11.4609
▁bypass	-11.4609
▁collage	-11.461
▁clever	-11.461
▁confirmation	-11.4611
▁shortcomings	-11.4611
▁dosent	-11.4612
▁unreadable	-11.4612
▁skewed	-11.4612
▁broad	-11.4612
▁encouraging	-11.4613
▁pr	-11.4614
airly	-11.4615
▁tuning	-11.4615
▁sexual	-11.4615
▁semi	-11.4616
▁firm	-11.4617
▁creepy	-11.4621
▁dull	-11.4622
▁intense	-11.4622
▁sister	-11.4622
▁desperately	-11.4623
drive	-11.4624
oyment	-11.4625
▁damaged	-11.4626
▁pink	-11.463
▁epic	-11.4631
anky	-11.4636
▁education	-11.4637
▁facebook	-11.4639
▁eyesgri	-11.4639
▁motivate	-11.464
▁encouraged	-11.4641
▁meta	-11.4641
▁Interesting	-11.4642
▁possib	-11.4643
▁chord	-11.4645
▁dismiss	-11.4645
▁classes	-11.4646
▁gripes	-11.4648
▁agent	-11.4652
▁compromise	-11.4663
▁nature	-11.467
▁donate	-11.4672
▁reactions	-11.4678
▁owners	-11.4684
obody	-11.469
▁restored	-11.4691
▁gestures	-11.47
▁root	-11.4701
▁comprehensi	-11.4714
▁fr	-11.4717
uge	-11.472
▁soccer	-11.4723
case	-11.4726
▁gradual	-11.4731
▁coding	-11.4734
▁shields	-11.4736
▁tonight	-11.4737
▁hurts	-11.4737
▁exits	-11.4742
▁examples	-11.4748
▁heat	-11.475
▁longest	-11.4751
▁drawn	-11.4753
▁breath	-11.4753
▁sessions	-11.4754
▁rewarded	-11.4757
▁compress	-11.4759
▁texture	-11.476
▁wallet	-11.4763
▁configure	-11.4767
▁refunded	-11.4769
umble	-11.4776
▁boy	-11.4776
▁responded	-11.4778
ustable	-11.4778
▁Tap	-11.4787
▁abilities	-11.4791
▁landing	-11.4791
eware	-11.4804
eing	-11.4805
▁ios	-11.4811
ean	-11.4813
▁truck	-11.4816
▁dash	-11.4818
▁photograph	-11.4825
▁senders	-11.4835
version	-11.4848
ta	-11.485
ility	-11.4855
▁logical	-11.4855
▁few	-11.4857
ctually	-11.4858
▁natural	-11.4859
▁farther	-11.4869
▁u	-11.4872
▁hook	-11.4888
▁sliders	-11.4892
▁war	-11.4895
mall	-11.4911
▁slot	-11.4919
love	-11.4921
▁accumulate	-11.4924
really	-11.4928
sure	-11.4942
▁ta	-11.4944
ardenscapes	-11.4976
▁filtering	-11.4984
▁vers	-11.4984
ause	-11.4993
▁im	-11.4994
▁Thing	-11.5041
▁uh	-11.5062
▁suffer	-11.5063
▁ignor	-11.5071
▁despise	-11.5072
▁behave	-11.5082
▁concepts	-11.51
▁cat	-11.5125
ase	-11.5149
▁shares	-11.5157
inking	-11.5162
ually	-11.5173
lock	-11.5176
▁var	-11.5185
▁verb	-11.5196
▁paired	-11.5198
placed	-11.5199
▁worthy	-11.5207
ties	-11.5217
▁signatures	-11.5218
▁pla	-11.5225
elect	-11.5246
view	-11.5261
▁pan	-11.5276
▁arrive	-11.5276
new	-11.5277
then	-11.5283
annoying	-11.5286
oon	-11.5295
ian	-11.5297
▁scrolls	-11.5299
occurring	-11.5309
▁dim	-11.5318
sh	-11.5321
▁translat	-11.5321
▁crack	-11.5332
▁rooms	-11.5345
▁merge	-11.5353
▁highl	-11.5357
mous	-11.5361
If	-11.5369
ky	-11.5371
▁realm	-11.5371
ease	-11.5378
▁til	-11.5391
ev	-11.5397
ground	-11.5415
ingle	-11.5426
round	-11.5429
ments	-11.5451
▁sole	-11.546
▁tweak	-11.5489
▁thi	-11.5496
▁eat	-11.5499
▁doc	-11.5508
▁laptops	-11.5509
▁capture	-11.5512
▁advert	-11.5513
▁measure	-11.5515
usk	-11.5518
ath	-11.5534
▁attachment	-11.5536
▁obstacle	-11.5537
▁cube	-11.5541
▁forum	-11.5542
▁websites	-11.5543
puts	-11.5545
▁falls	-11.555
▁weekend	-11.5551
▁shrink	-11.5551
▁sale	-11.5556
will	-11.5556
▁fees	-11.5569
▁unbelievabl	-11.5571
▁broadcaster	-11.5575
irect	-11.5581
▁obtain	-11.5585
ecommend	-11.5585
▁intermittent	-11.5587
tuff	-11.5593
▁America	-11.5595
▁ab	-11.5597
▁remix	-11.5598
erfect	-11.5599
▁credentials	-11.5607
▁degree	-11.5607
▁unpredictable	-11.5607
▁supplement	-11.5607
▁tennis	-11.5607
▁maximi	-11.5607
▁sloppy	-11.5607
▁guidance	-11.5607
▁stereo	-11.5607
▁vague	-11.5607
▁intriguing	-11.5607
▁gorgeous	-11.5607
▁referring	-11.5607
▁maddening	-11.5607
▁decoder	-11.5607
▁respawn	-11.5607
▁clarity	-11.5607
▁deliberate	-11.5607
▁assault	-11.5607
▁audience	-11.5607
▁rediculous	-11.5607
▁abysmal	-11.5607
▁acceleration	-11.5607
▁unhelpful	-11.5608
▁inferior	-11.5608
▁glance	-11.5608
▁Tidal	-11.5608
▁correspond	-11.5608
▁drama	-11.5608
▁Avoid	-11.5608
▁periodically	-11.5608
▁immersion	-11.5608
eady	-11.5608
▁dissapointed	-11.5609
▁incompetent	-11.5609
▁swim	-11.5609
▁legit	-11.561
▁dissapointing	-11.561
▁troublesome	-11.561
▁confident	-11.561
▁toolbar	-11.5611
▁momentum	-11.5611
aiting	-11.5611
▁versatile	-11.5612
nough	-11.5612
▁afterno	-11.5612
▁cellphone	-11.5613
▁advancing	-11.5615
litches	-11.5617
ussian	-11.5617
▁unistalled	-11.5618
▁biomes	-11.562
▁tolerate	-11.562
▁smash	-11.5622
▁rushed	-11.5623
▁entertained	-11.5623
▁mutants	-11.5626
▁downfall	-11.5626
▁throat	-11.5627
▁muting	-11.5629
▁steep	-11.5631
▁crates	-11.5632
▁involved	-11.5632
▁subfolders	-11.5634
ontacts	-11.5643
▁dp	-11.5646
▁club	-11.565
▁stunts	-11.5652
▁headphone	-11.5656
▁shortcuts	-11.5657
▁wider	-11.566
▁infinitely	-11.5663
▁produc	-11.5663
▁segments	-11.5664
▁correction	-11.5665
▁Truly	-11.567
▁mobs	-11.5672
omeone	-11.5672
level	-11.5674
paced	-11.5679
▁directed	-11.5683
▁Thought	-11.5683
▁fift	-11.5686
▁leaderboards	-11.5687
adio	-11.5689
▁tick	-11.5691
▁mega	-11.5692
roll	-11.5693
▁accepted	-11.5695
▁captioning	-11.5697
because	-11.5699
▁farming	-11.57
ley	-11.57
ification	-11.5706
▁designers	-11.5708
▁flawed	-11.5709
▁pleasing	-11.5713
▁intentionally	-11.5714
▁categori	-11.5717
▁brush	-11.5725
ea	-11.5728
▁transparent	-11.5729
▁affecting	-11.5731
▁highlighted	-11.5732
▁scanned	-11.5733
acing	-11.5734
▁whistles	-11.5735
▁Tablet	-11.5738
▁practices	-11.5738
ausing	-11.5741
▁designer	-11.5742
▁bosses	-11.5746
▁notic	-11.5748
▁convince	-11.5749
aying	-11.5761
▁km	-11.5764
uares	-11.5764
iked	-11.5771
losing	-11.5772
▁subse	-11.5774
▁bubbles	-11.5778
▁guest	-11.5784
▁tok	-11.5787
▁interrupts	-11.579
▁irritate	-11.5791
▁Anyways	-11.5791
▁pressure	-11.5797
ds	-11.5801
going	-11.5804
▁adventures	-11.5808
moving	-11.581
▁triple	-11.5811
▁lineup	-11.582
roblems	-11.5826
lapping	-11.5836
▁won	-11.5844
▁begining	-11.5854
rating	-11.5864
▁explaining	-11.5865
▁portions	-11.587
▁mass	-11.5871
alog	-11.5872
▁swiped	-11.5883
aps	-11.5887
▁expanding	-11.5901
einstalled	-11.5908
▁unpair	-11.592
ied	-11.5933
▁fu	-11.5939
▁hype	-11.5978
▁standards	-11.5986
og	-11.5987
▁prompted	-11.5997
▁listing	-11.5998
▁ditch	-11.6017
▁planes	-11.6035
▁buff	-11.6035
friend	-11.6043
ether	-11.6048
undamental	-11.605
▁trackers	-11.6059
alling	-11.6072
▁Track	-11.6079
ding	-11.6088
ul	-11.6092
▁al	-11.6094
uote	-11.6094
every	-11.61
ify	-11.613
▁fl	-11.6132
▁authori	-11.6133
make	-11.6134
▁snap	-11.6136
▁som	-11.6139
downloaded	-11.6151
uns	-11.6161
▁marking	-11.6165
▁bounce	-11.6184
ud	-11.6208
▁landscapes	-11.6209
ownship	-11.6219
▁mu	-11.6233
▁promo	-11.6254
▁censor	-11.6265
mon	-11.6273
▁bat	-11.6273
▁yo	-11.6282
▁closer	-11.6283
▁lying	-11.6307
▁favorited	-11.6333
playing	-11.6336
▁reference	-11.6343
▁shade	-11.6343
her	-11.636
rt	-11.6368
mm	-11.6375
▁offic	-11.6378
with	-11.6393
▁hey	-11.6408
▁ramp	-11.6418
tops	-11.6424
ffic	-11.6425
orking	-11.643
gain	-11.6441
text	-11.6443
pg	-11.6466
▁graph	-11.6474
messages	-11.6484
▁bits	-11.6489
▁hated	-11.6495
hot	-11.6511
▁nights	-11.6517
stone	-11.6519
▁assign	-11.652
ends	-11.6522
ucki	-11.6526
▁wind	-11.6538
▁mental	-11.6575
▁lasts	-11.6585
tball	-11.6586
litch	-11.659
we	-11.6605
oming	-11.6605
▁pen	-11.6608
▁recognise	-11.6608
ning	-11.661
▁instruct	-11.6613
ovel	-11.6617
▁respect	-11.6627
▁amateur	-11.663
point	-11.6635
▁po	-11.6636
ontrol	-11.6638
▁collapse	-11.664
▁airplane	-11.6641
pecifically	-11.6643
▁holiday	-11.6644
▁expansion	-11.6644
essage	-11.6647
▁achievement	-11.6648
▁variation	-11.6649
▁repost	-11.6655
iff	-11.6665
▁expert	-11.667
▁laugh	-11.6672
▁spawn	-11.6674
lent	-11.6676
▁vod	-11.6677
res	-11.6679
▁strength	-11.6681
▁booster	-11.6684
▁faith	-11.6684
▁publish	-11.6687
▁Africa	-11.6688
▁abandon	-11.6695
▁consecutive	-11.6696
▁brief	-11.6698
▁seperate	-11.6698
hecked	-11.6699
▁literal	-11.67
▁desperate	-11.6701
▁guarantee	-11.6703
▁accidental	-11.6704
▁alphabet	-11.6707
▁align	-11.6709
ick	-11.671
▁techni	-11.6711
lassic	-11.6712
ubtitles	-11.6712
finity	-11.6713
ibrary	-11.6714
▁premi	-11.6714
lashscore	-11.6715
ultiplayer	-11.6715
▁dies	-11.6717
▁accuracy	-11.6718
▁arbitrary	-11.6718
▁gradient	-11.6718
▁maneuver	-11.6718
▁satisfaction	-11.6718
▁trophies	-11.6718
▁timestamp	-11.6718
▁finicky	-11.6718
▁steadily	-11.6718
▁electronic	-11.6718
▁relationship	-11.6718
▁August	-11.6718
▁confusion	-11.6718
▁hotspot	-11.6719
▁cancellation	-11.6719
▁inaccessible	-11.6719
▁embarrassing	-11.6719
▁tiresome	-11.6719
▁revamp	-11.6719
▁hearteyes	-11.6719
▁mandatory	-11.6719
▁communities	-11.6719
▁ripoff	-11.6719
▁Application	-11.6719
▁inefficient	-11.6719
▁sporadically	-11.6719
▁unfinished	-11.6719
▁obby	-11.6719
▁horrid	-11.672
▁offensive	-11.672
▁industry	-11.672
▁compass	-11.672
▁manipulat	-11.6721
▁nitro	-11.6721
▁nonetheless	-11.6721
▁differentiate	-11.6721
▁stamp	-11.6721
▁colorful	-11.6722
▁availability	-11.6722
▁configuration	-11.6722
▁increments	-11.6723
▁matrix	-11.6723
▁warranty	-11.6723
counterintuitive	-11.6724
▁addiction	-11.6725
▁pixelated	-11.6725
▁scatter	-11.6725
▁dropdown	-11.6725
ors	-11.6725
▁spare	-11.6726
▁scary	-11.6726
▁rapidly	-11.6726
▁onoff	-11.6726
▁disrupt	-11.6728
asily	-11.6729
▁executed	-11.6732
came	-11.6732
pdating	-11.6732
orth	-11.6733
▁guaranteed	-11.6734
▁remixes	-11.6734
▁prediction	-11.6735
treams	-11.6741
▁playpause	-11.6741
▁touchscreen	-11.6742
▁pissed	-11.6742
ecommended	-11.6743
▁promised	-11.6744
▁encrypted	-11.6746
▁downgrading	-11.6747
▁declined	-11.6748
loaded	-11.6751
▁decreased	-11.6752
esign	-11.6752
▁indicated	-11.6752
▁meals	-11.6752
andomly	-11.6752
▁outfit	-11.6752
▁waist	-11.6753
curring	-11.6755
▁brick	-11.6755
▁controlled	-11.6758
▁recieved	-11.6759
▁alphabetically	-11.6759
leared	-11.676
▁unbelievable	-11.676
▁aesthetic	-11.6761
▁exclude	-11.6762
▁mirror	-11.6764
coins	-11.6764
avorites	-11.6766
ency	-11.6766
▁reliability	-11.677
▁involve	-11.677
▁patched	-11.6772
▁elses	-11.6777
ltimate	-11.678
▁vertically	-11.678
▁boat	-11.6783
▁reli	-11.6788
▁incentive	-11.6789
▁dance	-11.6792
▁aesthetics	-11.6792
▁American	-11.6794
uirk	-11.6794
▁grid	-11.6794
sign	-11.6794
▁chasing	-11.6797
img	-11.68
▁attachments	-11.68
▁losses	-11.6802
riday	-11.6802
▁dude	-11.6803
▁mature	-11.6804
▁tile	-11.6807
▁varied	-11.6808
▁poo	-11.6814
▁alb	-11.6816
iew	-11.6817
▁oldest	-11.6819
▁yea	-11.6822
▁unreasonabl	-11.6824
umber	-11.6831
▁understandable	-11.6832
hard	-11.6835
▁attractive	-11.6836
▁backflips	-11.6842
hannels	-11.6843
download	-11.6844
▁smh	-11.6844
mo	-11.6844
▁flexible	-11.6844
ical	-11.6845
▁indi	-11.6847
▁curated	-11.6849
▁concerning	-11.6853
▁hoops	-11.6856
▁makeup	-11.6857
▁offroad	-11.6857
▁launched	-11.6861
▁operates	-11.6864
▁traveling	-11.6865
▁esp	-11.6866
▁leftright	-11.6866
share	-11.6868
abit	-11.6869
▁heartr	-11.6869
▁drawings	-11.6873
▁pip	-11.6875
▁lvls	-11.6875
▁cheats	-11.6876
earning	-11.6877
bones	-11.689
▁sample	-11.6894
▁realise	-11.6894
▁flyers	-11.6894
itting	-11.6902
▁interacting	-11.6915
page	-11.692
▁houses	-11.6921
vice	-11.6929
▁ver	-11.6929
▁Teams	-11.6929
li	-11.693
ye	-11.6931
▁street	-11.6939
▁sand	-11.6944
▁legal	-11.6952
▁configur	-11.6961
▁cooler	-11.6975
▁rethink	-11.6987
▁fiddl	-11.6993
urely	-11.7008
lose	-11.701
hh	-11.701
lready	-11.7015
▁dread	-11.7024
▁prob	-11.7026
▁calculate	-11.7029
oto	-11.7031
▁anti	-11.7032
▁intros	-11.7032
▁subscribers	-11.7037
call	-11.7042
gate	-11.7043
▁answered	-11.7044
▁latency	-11.7048
watch	-11.7078
ember	-11.7087
▁shuffled	-11.7087
off	-11.7095
▁grabs	-11.7099
stream	-11.7106
aka	-11.7114
sion	-11.7117
ked	-11.712
▁inform	-11.7123
▁communications	-11.7129
▁roman	-11.7132
▁matters	-11.7147
osing	-11.7151
auto	-11.7155
videos	-11.7156
▁reverting	-11.716
ag	-11.7162
▁roller	-11.7171
tuck	-11.7174
▁performs	-11.7187
▁restor	-11.7188
create	-11.719
of	-11.7192
ild	-11.7199
▁le	-11.721
▁providers	-11.7216
tay	-11.7224
pent	-11.7228
rolling	-11.724
▁cup	-11.7242
layers	-11.7256
▁models	-11.7264
▁expression	-11.7271
▁draws	-11.7278
▁reloads	-11.7287
▁trimm	-11.7291
line	-11.7292
▁interfere	-11.7295
si	-11.7299
▁cris	-11.7307
thinking	-11.7314
▁men	-11.7316
▁deactivate	-11.7335
.......	-11.7345
hones	-11.7346
▁tunes	-11.7355
ah	-11.7364
appropriate	-11.7365
▁span	-11.7369
group	-11.737
▁messy	-11.7376
▁hack	-11.739
printing	-11.7397
try	-11.7417
cing	-11.7418
tream	-11.7447
▁mod	-11.7453
otion	-11.7464
ash	-11.7478
▁scal	-11.7493
ittle	-11.7524
▁bigg	-11.7532
hand	-11.7538
shots	-11.7557
pable	-11.7563
eit	-11.7577
▁dated	-11.759
▁runn	-11.7595
ouse	-11.7599
rice	-11.7608
▁Abo	-11.7619
▁shorts	-11.7626
▁dime	-11.7627
▁rescan	-11.7637
cash	-11.7643
▁backups	-11.7644
ba	-11.7645
ixing	-11.7646
ags	-11.765
▁recommending	-11.7656
ues	-11.7659
aya	-11.7664
cent	-11.7667
▁o	-11.7668
▁forwarded	-11.7686
▁spa	-11.7686
▁flicker	-11.7705
▁pisse	-11.772
▁bree	-11.7724
▁arrange	-11.775
sers	-11.7758
confused	-11.776
install	-11.7769
otification	-11.7771
▁heads	-11.7805
atched	-11.7805
otally	-11.7812
ffer	-11.7812
▁mus	-11.7814
ubscription	-11.7816
▁figur	-11.7819
ught	-11.7831
olid	-11.7854
isten	-11.7877
generated	-11.7879
iscover	-11.7883
▁scrub	-11.7883
pisode	-11.7884
▁truth	-11.7887
▁multiplier	-11.7887
efault	-11.7893
▁idiot	-11.7895
▁checkmark	-11.7896
▁segment	-11.7896
ocused	-11.7897
▁spec	-11.7899
▁scenario	-11.7901
▁animal	-11.7901
anted	-11.7903
▁fruit	-11.7905
▁margin	-11.7915
▁timers	-11.7918
▁multitask	-11.792
▁minigame	-11.7927
urrent	-11.7945
▁routine	-11.7947
ertain	-11.795
▁prioriti	-11.7951
▁comp	-11.7951
icken	-11.7951
▁mile	-11.7954
avigation	-11.7958
▁extent	-11.7958
ditional	-11.7959
▁iteration	-11.7962
most	-11.7963
arlier	-11.7963
▁nostalgi	-11.7963
esterday	-11.7963
ackground	-11.7965
eyond	-11.7966
arvel	-11.7966
▁myster	-11.7966
▁beneficial	-11.7968
▁disadvantage	-11.7968
▁dissapear	-11.7968
▁maintenance	-11.7968
▁principle	-11.7968
▁rectified	-11.7968
▁satellite	-11.7968
▁legitimate	-11.7968
▁varieties	-11.7968
▁Italian	-11.7968
▁trophy	-11.7968
▁dictionar	-11.7968
▁immensely	-11.7968
▁dissatisfied	-11.7968
▁unbeatable	-11.7968
▁msgs	-11.7968
▁incompatible	-11.7968
▁tomorrow	-11.7968
▁swimming	-11.7968
▁household	-11.7968
▁desert	-11.7968
ualities	-11.7968
▁dramatically	-11.7968
▁department	-11.7968
▁phishing	-11.7969
▁mechanism	-11.7969
▁toxic	-11.7969
▁idiotic	-11.7969
▁unskipable	-11.7969
▁wrist	-11.7969
▁explosive	-11.7969
▁inspire	-11.7969
▁relaunch	-11.7969
▁impression	-11.7969
▁splash	-11.7969
▁destruction	-11.7969
▁lemur	-11.7969
▁overpriced	-11.7969
▁pinch	-11.7969
▁simplicity	-11.797
▁dangerous	-11.797
▁heartbeat	-11.797
▁dirty	-11.797
▁entries	-11.797
▁illustration	-11.797
▁necessarily	-11.797
▁deselect	-11.797
▁Alright	-11.797
▁sneak	-11.797
▁renewal	-11.7971
▁straw	-11.7971
▁commentary	-11.7971
▁theory	-11.7971
▁embedded	-11.7972
▁rude	-11.7972
▁workflow	-11.7972
▁slightest	-11.7972
term	-11.7972
▁sum	-11.7973
▁suspended	-11.7973
▁nostalgia	-11.7974
▁curious	-11.7974
▁hideout	-11.7974
▁enclosures	-11.7974
▁spotty	-11.7974
▁guidelines	-11.7974
▁buried	-11.7974
orced	-11.7975
▁substantially	-11.7975
▁suspect	-11.7975
▁safety	-11.7975
nbelievable	-11.7975
▁discard	-11.7975
▁unfixed	-11.7975
▁subtract	-11.7976
▁cmon	-11.7976
▁captivating	-11.7977
▁twist	-11.7977
▁beware	-11.7977
▁expense	-11.7977
▁intent	-11.7977
▁bland	-11.7977
party	-11.7977
▁audible	-11.7978
▁strictly	-11.7978
▁discontinued	-11.7978
▁smoothness	-11.7979
ommercials	-11.798
▁electric	-11.7981
▁polished	-11.7982
▁ranking	-11.7982
▁drill	-11.7982
▁discouraged	-11.7983
▁granted	-11.7983
▁supply	-11.7985
iano	-11.7989
▁degraded	-11.799
▁briefly	-11.7991
frustrating	-11.7991
▁pandora	-11.7991
▁forgetting	-11.7992
amily	-11.7992
▁programmers	-11.7993
▁intermittently	-11.7993
▁bcu	-11.7996
litchy	-11.7999
▁whatnot	-11.8
▁vanished	-11.8
▁alternate	-11.8002
▁distorts	-11.8002
▁archived	-11.8002
▁hiding	-11.8004
uitting	-11.8007
▁redirected	-11.8008
▁Inbox	-11.801
▁accomplished	-11.8012
▁booted	-11.8013
▁outline	-11.8014
▁musicians	-11.8015
gs	-11.8017
▁plugg	-11.8018
▁starred	-11.802
losed	-11.8021
▁stor	-11.8024
ank	-11.8024
▁combos	-11.8027
▁accordingly	-11.8028
▁planet	-11.8031
▁gaps	-11.8035
witched	-11.8035
▁spread	-11.8035
▁drifting	-11.8038
▁overheating	-11.8038
ontally	-11.8042
ithin	-11.8044
▁virus	-11.8046
▁alto	-11.8046
▁consist	-11.8047
▁pluto	-11.8053
▁estate	-11.8058
otmail	-11.8059
▁learners	-11.806
▁malfunctioning	-11.8063
▁checkin	-11.8065
tarts	-11.8079
▁grindy	-11.8083
▁fulfill	-11.8084
▁falsely	-11.8084
ory	-11.8085
▁listeners	-11.8085
▁promptly	-11.8086
▁sorta	-11.8087
▁promotion	-11.8089
▁parsing	-11.8096
she	-11.8097
ixed	-11.8099
roughly	-11.81
▁chain	-11.8103
ned	-11.8105
asic	-11.8106
▁expires	-11.8106
▁tagged	-11.8107
▁recovery	-11.8108
▁columns	-11.8109
▁nast	-11.811
ture	-11.8112
▁guard	-11.8124
▁manga	-11.8127
▁dear	-11.8128
month	-11.8131
▁consistency	-11.8136
▁degrad	-11.8139
earing	-11.8142
assive	-11.8143
easure	-11.8143
▁vision	-11.8147
▁hackers	-11.8147
opped	-11.8149
ial	-11.8149
▁roof	-11.815
▁tastes	-11.8163
ooked	-11.8164
▁threat	-11.8174
pped	-11.8175
▁rendered	-11.8176
hanges	-11.8177
▁inboxes	-11.8179
thers	-11.8186
▁lambo	-11.8199
▁engineer	-11.8207
▁override	-11.8212
list	-11.822
▁usernames	-11.8227
▁sex	-11.8231
▁univers	-11.8232
eries	-11.8257
▁pray	-11.8257
▁sc	-11.8261
bug	-11.8265
control	-11.8279
▁banners	-11.8285
serves	-11.8289
▁dogs	-11.8301
▁bann	-11.8316
▁batch	-11.8318
ocial	-11.8321
illing	-11.8324
▁bang	-11.8326
▁earnings	-11.8339
▁avatars	-11.8341
nter	-11.8342
▁Insta	-11.8349
ustom	-11.8354
▁inputs	-11.8356
idia	-11.8362
▁occurring	-11.8362
▁overload	-11.8364
▁hu	-11.8364
▁hv	-11.8366
▁cycles	-11.8368
▁touches	-11.837
iness	-11.8371
▁reviewer	-11.8371
▁prints	-11.8374
▁improves	-11.8393
land	-11.8396
▁blink	-11.8401
▁clears	-11.8403
▁misses	-11.8406
▁mods	-11.841
oad	-11.842
egardless	-11.8424
▁string	-11.8427
▁existent	-11.8428
▁replays	-11.8429
▁Talk	-11.8435
▁allot	-11.8442
▁vc	-11.8474
▁trade	-11.8485
▁math	-11.8492
watching	-11.8505
tting	-11.8521
son	-11.8522
▁tax	-11.8547
▁hesitate	-11.8547
eri	-11.8555
▁rage	-11.8568
▁darn	-11.8587
▁positions	-11.8593
irs	-11.8596
ested	-11.8598
▁rerun	-11.8602
▁Touch	-11.8607
ision	-11.8615
▁mbs	-11.8629
▁deactivated	-11.8649
▁sift	-11.8653
eset	-11.8662
▁playability	-11.8665
▁tri	-11.8671
better	-11.8672
Thank	-11.8676
streaming	-11.8679
▁extrem	-11.8705
▁scream	-11.8714
lights	-11.8729
▁pm	-11.8742
wing	-11.8756
wifi	-11.8759
▁pet	-11.8765
what	-11.8774
front	-11.8774
card	-11.8776
▁clapp	-11.8783
ri	-11.8793
ception	-11.8815
mi	-11.8822
ite	-11.8826
▁stumbl	-11.8834
hings	-11.8852
▁snaps	-11.8859
mode	-11.8863
give	-11.8875
files	-11.8893
▁gardens	-11.8895
mobileautomobile	-11.8903
ption	-11.8917
▁realis	-11.8938
▁describ	-11.8939
tify	-11.894
▁calendars	-11.8948
▁becu	-11.8952
▁pending	-11.8962
▁resync	-11.8965
fact	-11.897
▁sa	-11.8975
start	-11.8977
▁piss	-11.8978
▁tvs	-11.8981
▁woke	-11.8983
▁op	-11.8986
▁mkv	-11.8996
match	-11.9002
▁penal	-11.9015
▁unsubscribed	-11.9015
ded	-11.9016
▁disc	-11.9028
ada	-11.9056
ft	-11.906
lf	-11.9064
alls	-11.9069
▁ordered	-11.907
▁recommends	-11.9073
▁fans	-11.9074
▁ram	-11.9083
eek	-11.9085
ache	-11.9087
▁wit	-11.9091
ync	-11.9113
nles	-11.912
▁flood	-11.9136
device	-11.9164
iant	-11.9169
▁wipe	-11.9203
▁iron	-11.9205
ara	-11.9221
made	-11.9228
▁restrict	-11.9229
too	-11.9247
ometime	-11.9248
▁victor	-11.9249
style	-11.9252
yncing	-11.9253
lo	-11.9256
emo	-11.9258
election	-11.9263
eason	-11.9265
▁Typical	-11.9282
pt	-11.9296
▁peace	-11.9298
bid	-11.9299
lick	-11.9301
▁buck	-11.9303
▁sav	-11.9304
▁furnace	-11.9308
▁alignment	-11.9309
▁distraction	-11.9309
torage	-11.9312
ods	-11.9314
▁shutdown	-11.9316
▁Anyway	-11.9319
peaking	-11.9321
▁tournament	-11.9323
▁headline	-11.9327
▁shortcut	-11.9328
xpensive	-11.9329
▁entertain	-11.9329
▁photographer	-11.933
▁chunk	-11.933
stop	-11.9333
▁combo	-11.9333
▁stunt	-11.9334
▁Tweet	-11.9338
▁trailer	-11.9346
▁admin	-11.9347
tatus	-11.9352
▁typo	-11.9359
▁narrat	-11.9364
▁miserabl	-11.9366
▁bl	-11.937
eird	-11.9374
▁protect	-11.9375
▁corrupt	-11.9377
▁eras	-11.9378
toplay	-11.9381
orld	-11.9387
layrix	-11.9389
upposed	-11.9389
▁operation	-11.9389
pecially	-11.9389
rigger	-11.939
ortrait	-11.939
▁lovely	-11.939
unctionality	-11.9393
avigating	-11.9393
arkour	-11.9394
onetheless	-11.9394
essenger	-11.9395
olume	-11.9395
isleading	-11.9395
▁separat	-11.9395
▁stabili	-11.9396
otorola	-11.9397
▁conservative	-11.9397
▁continously	-11.9397
▁exorbitant	-11.9397
▁inspiration	-11.9397
▁protocol	-11.9397
▁registration	-11.9397
▁synopsis	-11.9397
▁dysfunctional	-11.9397
▁inevitabl	-11.9397
▁perpetual	-11.9397
▁painstaking	-11.9397
▁relentless	-11.9397
▁vacation	-11.9397
▁productivity	-11.9397
▁summar	-11.9397
▁screensaver	-11.9397
▁coworker	-11.9397
▁copypaste	-11.9397
▁compelling	-11.9397
▁rhythm	-11.9397
▁unwilling	-11.9397
▁Alien	-11.9397
▁chainsaw	-11.9397
▁cliff	-11.9397
▁width	-11.9397
nreliable	-11.9397
▁agenda	-11.9397
▁excruciating	-11.9397
arlem	-11.9397
▁penalty	-11.9397
▁regenerate	-11.9398
▁expiration	-11.9398
▁slap	-11.9398
▁diversity	-11.9398
▁creatures	-11.9398
▁Tucker	-11.9398
▁dissappear	-11.9398
▁premade	-11.9398
▁gym	-11.9398
▁flipp	-11.9399
▁lunch	-11.9399
▁birthday	-11.9399
pgraded	-11.9399
▁reposit	-11.9399
▁overnight	-11.9399
edrock	-11.9399
▁module	-11.9399
▁withdrawal	-11.9399
▁childish	-11.94
▁beforehand	-11.94
▁latter	-11.94
▁unavoidable	-11.94
▁consent	-11.94
▁slender	-11.9401
▁horrific	-11.9401
▁hostage	-11.9402
▁analysis	-11.9402
▁copyright	-11.9402
▁Austin	-11.9403
▁studio	-11.9403
▁implementation	-11.9403
▁strike	-11.9404
▁invalid	-11.9404
▁upfront	-11.9404
▁happier	-11.9406
▁utility	-11.9407
▁carrier	-11.9408
▁intention	-11.9408
aw	-11.9409
▁variable	-11.9409
▁dominos	-11.941
▁facef	-11.941
ropped	-11.9411
esume	-11.9412
▁reflow	-11.9412
▁flipped	-11.9412
uestionable	-11.9412
▁graphical	-11.9413
▁hashtags	-11.9414
egards	-11.9414
▁protected	-11.9419
known	-11.942
▁resend	-11.942
▁bloody	-11.9421
armin	-11.9421
▁lifetime	-11.9421
ccount	-11.9423
▁appointments	-11.9424
ploading	-11.9424
▁fellow	-11.9426
▁plugins	-11.9426
▁Thankyou	-11.9426
▁obtained	-11.943
▁contests	-11.9431
ahoo	-11.9433
▁ro	-11.9434
heers	-11.9435
▁extensions	-11.9437
▁delight	-11.944
▁canned	-11.9441
▁burned	-11.9444
▁payout	-11.9444
▁renewed	-11.9446
▁glich	-11.9446
▁parties	-11.9447
▁gen	-11.9447
▁upwards	-11.9448
▁tik	-11.9448
▁unsubscrib	-11.9448
▁attributes	-11.9449
▁pathway	-11.9451
▁refill	-11.9456
per	-11.9456
▁responsiveness	-11.9457
ollowing	-11.9458
▁bills	-11.9465
▁tweaking	-11.9466
uys	-11.9468
▁faves	-11.947
▁gamble	-11.947
▁chunks	-11.9471
▁tournaments	-11.9472
▁confirmed	-11.9472
▁Along	-11.9477
▁parse	-11.9478
city	-11.9479
▁watermark	-11.9481
▁scenarios	-11.9482
▁remained	-11.9485
book	-11.9486
estarting	-11.9487
oads	-11.9488
▁suffering	-11.9492
ries	-11.9494
▁cartoon	-11.9497
▁lg	-11.9504
▁creep	-11.9504
▁corrections	-11.9511
▁stressed	-11.9515
▁strangely	-11.9516
money	-11.9516
▁recovered	-11.9519
apps	-11.9523
▁habits	-11.9526
estarted	-11.9526
premium	-11.9528
ative	-11.9528
▁rap	-11.9529
▁soul	-11.954
▁sheep	-11.9541
▁urgent	-11.9541
▁dependable	-11.9544
med	-11.9545
▁pleasure	-11.9546
▁badges	-11.9546
cho	-11.9547
▁ships	-11.9552
▁goodness	-11.9555
▁crushing	-11.9559
▁purp	-11.9563
ier	-11.9563
▁bull	-11.9566
▁altered	-11.9568
▁ploy	-11.9569
▁listings	-11.9569
etwork	-11.9571
▁crawl	-11.9572
▁abs	-11.9572
▁engage	-11.9572
earching	-11.9576
▁faulty	-11.9577
▁fool	-11.9578
▁yours	-11.959
▁comedy	-11.9593
▁longtime	-11.9593
▁emote	-11.9601
▁incorporate	-11.9603
▁ai	-11.9605
▁lift	-11.9612
▁conditions	-11.9612
em	-11.9618
form	-11.962
iddle	-11.9631
▁monopol	-11.9652
▁chores	-11.9657
user	-11.9658
hare	-11.9668
▁vine	-11.9677
▁recap	-11.9677
▁comfort	-11.9687
bps	-11.9687
port	-11.9688
table	-11.9696
▁browsers	-11.9698
▁relate	-11.9699
▁globe	-11.9702
count	-11.9702
▁backend	-11.9711
▁environments	-11.9721
▁keyboards	-11.9731
▁respective	-11.9735
little	-11.9747
▁gum	-11.9748
▁shooters	-11.9748
▁rebuild	-11.9761
dfather	-11.9763
▁inconveniences	-11.977
lous	-11.9783
▁inca	-11.9786
▁yard	-11.9793
▁desk	-11.98
review	-11.981
▁sped	-11.982
▁sm	-11.9823
lutoT	-11.9824
▁mindless	-11.9828
▁Assistant	-11.9832
ife	-11.9835
standings	-11.9839
called	-11.984
▁pane	-11.9843
▁billion	-11.9853
roved	-11.9859
vidi	-11.9868
fire	-11.9872
▁toss	-11.9876
▁sheets	-11.9884
udge	-11.9887
structured	-11.9888
▁vibe	-11.989
▁sun	-11.9892
▁shar	-11.9898
▁promot	-11.9903
ms	-11.9903
▁hd	-11.9903
bs	-11.9907
paces	-11.9909
anda	-11.9914
▁synchroni	-11.9914
acks	-11.9915
ama	-11.9916
▁weirdly	-11.9919
informed	-11.9921
▁processed	-11.9924
▁refreshed	-11.9931
inks	-11.9951
▁gender	-11.9963
air	-11.9968
cient	-11.997
▁anger	-11.9971
raw	-11.9978
▁cl	-11.9987
▁values	-11.9999
ipped	-12.0004
▁arriv	-12.0008
compressed	-12.001
ef	-12.002
▁controler	-12.003
▁announce	-12.003
ecide	-12.004
reading	-12.0041
▁presents	-12.0044
After	-12.0048
▁emailing	-12.0051
ov	-12.0053
▁frustrations	-12.0075
again	-12.0087
agging	-12.0095
astic	-12.0099
ged	-12.0108
plit	-12.0108
▁yr	-12.0117
▁bass	-12.0118
fast	-12.0119
▁rearrang	-12.012
▁tests	-12.0154
▁hire	-12.0155
night	-12.0157
ems	-12.0169
▁shy	-12.0178
cious	-12.0185
tried	-12.0191
▁imp	-12.0192
▁fin	-12.02
win	-12.0203
▁ig	-12.0207
▁dedicate	-12.0211
▁fluen	-12.0216
▁fir	-12.0217
fun	-12.0242
▁sever	-12.0246
ep	-12.0247
stic	-12.0248
loading	-12.0258
▁discourage	-12.0272
▁touchy	-12.0288
▁ringing	-12.029
older	-12.0301
▁gig	-12.0302
step	-12.0313
show	-12.0313
rated	-12.0315
fe	-12.0318
▁differently	-12.0326
▁printer	-12.0332
exus	-12.0341
▁records	-12.0352
fits	-12.0354
ustif	-12.0361
▁dodg	-12.0369
▁responds	-12.0373
▁Androids	-12.0375
▁mentioning	-12.0395
▁exhaust	-12.0399
ck	-12.0401
▁clo	-12.0409
▁lite	-12.0413
platform	-12.0433
▁how	-12.0457
▁doubletap	-12.0463
▁da	-12.0466
could	-12.0475
▁lotus	-12.0493
merged	-12.0497
▁your	-12.05
ocking	-12.0501
matic	-12.0504
working	-12.0512
In	-12.0521
points	-12.0522
▁cue	-12.0523
movie	-12.0523
eem	-12.0524
▁progresses	-12.0524
long	-12.053
eeing	-12.0541
oop	-12.0546
rr	-12.0555
▁indicat	-12.056
▁na	-12.0563
▁readd	-12.0565
enter	-12.0571
ides	-12.0588
▁wrap	-12.0591
tsapp	-12.0609
pin	-12.0617
▁breach	-12.0629
▁Improve	-12.0632
speed	-12.0644
▁halt	-12.065
ports	-12.0654
person	-12.0657
▁tank	-12.0662
mark	-12.0665
▁networking	-12.0672
pened	-12.0684
ont	-12.0699
▁wife	-12.0712
playlist	-12.0716
cc	-12.0723
never	-12.0732
atic	-12.0734
▁customise	-12.0737
▁dedicat	-12.0739
▁flexib	-12.0749
▁exp	-12.0754
saved	-12.0767
space	-12.0773
pls	-12.0781
▁scrap	-12.0797
▁rep	-12.0811
▁expects	-12.0816
▁litter	-12.0825
many	-12.0846
dom	-12.0857
some	-12.0873
▁echo	-12.0875
arity	-12.0891
▁ar	-12.0894
controls	-12.0899
pers	-12.0921
imilar	-12.0939
▁rings	-12.094
▁blam	-12.0943
▁kb	-12.0949
ink	-12.0961
▁fetch	-12.0963
App	-12.0968
▁cameras	-12.0969
▁mac	-12.0971
▁hyper	-12.0972
rows	-12.0975
xcel	-12.0977
▁scamm	-12.0981
avorite	-12.0982
▁oppo	-12.0983
trusive	-12.0983
▁veiw	-12.0988
▁voicenote	-12.0991
▁interval	-12.0992
▁hiccup	-12.0992
ontact	-12.0992
▁teammate	-12.0993
▁monster	-12.0993
▁mi	-12.0995
uilding	-12.1
▁trap	-12.1002
▁shad	-12.1008
▁fam	-12.1009
roken	-12.1024
weet	-12.1028
plus	-12.1031
olden	-12.1032
▁experiment	-12.1032
▁limitation	-12.1035
block	-12.1037
▁bill	-12.1037
ummer	-12.1037
▁meaningful	-12.104
mooth	-12.1045
xt	-12.1047
▁blood	-12.1049
iling	-12.105
iamonds	-12.1052
xplore	-12.1056
ractice	-12.1056
▁diff	-12.1056
▁acknowledge	-12.1057
urchased	-12.1057
▁execute	-12.1057
epetitive	-12.1058
edited	-12.1058
laystore	-12.1059
ampaign	-12.1059
rammer	-12.106
ancelled	-12.106
ecommendations	-12.1061
▁sporadic	-12.1062
tty	-12.1062
essaging	-12.1063
oking	-12.1063
▁circum	-12.1063
▁anxiety	-12.1063
▁artifact	-12.1063
▁associate	-12.1063
▁atmospheric	-12.1063
▁butterflies	-12.1063
▁clumsy	-12.1063
▁detriment	-12.1063
▁mundane	-12.1063
▁nonsensical	-12.1063
▁predecessor	-12.1063
▁rectangle	-12.1063
▁replenish	-12.1063
▁silhouette	-12.1063
▁evidence	-12.1063
▁grainy	-12.1063
▁rabbit	-12.1063
▁daimond	-12.1063
andarin	-12.1063
▁coordination	-12.1063
▁detract	-12.1063
▁loudspeaker	-12.1063
▁hectic	-12.1063
▁wallride	-12.1063
▁enchant	-12.1063
▁neglect	-12.1063
▁gumball	-12.1063
▁dynamic	-12.1064
▁ladies	-12.1064
▁central	-12.1064
▁lackluster	-12.1064
▁grenade	-12.1064
▁trolls	-12.1064
▁surround	-12.1064
▁twenty	-12.1064
▁rigid	-12.1064
▁spinner	-12.1064
▁libraries	-12.1064
▁investment	-12.1064
▁npc	-12.1064
▁dumpster	-12.1064
▁customisation	-12.1064
▁fabulous	-12.1064
▁counterpart	-12.1064
imited	-12.1064
▁engagement	-12.1065
▁fraud	-12.1065
▁gamified	-12.1065
▁possibilities	-12.1065
▁revisit	-12.1065
▁ashamed	-12.1065
▁generous	-12.1066
▁worldwide	-12.1066
▁actors	-12.1066
▁tutor	-12.1066
ummy	-12.1066
▁thumbstick	-12.1066
▁surviving	-12.1066
epeatedly	-12.1066
▁interference	-12.1066
▁peeve	-12.1066
▁rewrite	-12.1067
▁succession	-12.1067
▁marvel	-12.1067
▁beef	-12.1068
▁violation	-12.1068
▁distortion	-12.1068
referred	-12.1068
▁paramount	-12.1069
▁professor	-12.1069
omics	-12.1069
▁baseline	-12.1069
▁indefinitely	-12.1069
▁bias	-12.1069
▁lightning	-12.1069
▁overboard	-12.107
riends	-12.107
▁xplayer	-12.107
▁advertisment	-12.107
▁heartrate	-12.107
▁stylus	-12.1071
▁exaggerating	-12.1071
▁digging	-12.1071
▁fingertips	-12.1071
▁earphones	-12.1071
hoever	-12.1072
▁reveal	-12.1072
urope	-12.1073
nconsistent	-12.1074
▁blah	-12.1074
▁kidding	-12.1074
▁property	-12.1075
▁spikes	-12.1075
mmm	-12.1077
▁lossless	-12.1077
▁fooled	-12.1078
ohn	-12.1078
▁considerably	-12.1079
▁goodbye	-12.1079
▁belong	-12.108
▁cursed	-12.108
▁meaningless	-12.108
▁bingo	-12.1081
▁classical	-12.1082
▁busted	-12.1083
▁cookies	-12.1084
▁dimensions	-12.1084
▁tenses	-12.1085
▁ghost	-12.1085
▁recharging	-12.1085
▁stalls	-12.1088
▁disk	-12.1088
▁shirts	-12.1089
▁vanishes	-12.1093
▁deletion	-12.1094
▁grant	-12.1095
istory	-12.1096
ewest	-12.1097
▁published	-12.1098
osts	-12.1099
▁perfection	-12.11
ssentials	-12.1104
▁dismissed	-12.1107
▁exhausting	-12.1109
▁reviewed	-12.1109
com	-12.1109
rong	-12.1109
▁livescore	-12.1109
nn	-12.1116
▁dodging	-12.1116
agic	-12.1118
▁pauseplay	-12.1118
corporate	-12.1119
▁chime	-12.112
▁deck	-12.1123
▁blinking	-12.1123
▁birds	-12.1124
▁predator	-12.1124
▁neverending	-12.1126
istening	-12.1126
▁outbox	-12.1126
▁spell	-12.1129
pass	-12.1131
▁preferable	-12.1134
▁inch	-12.1136
▁faithful	-12.1139
▁voicenotes	-12.1139
pisodes	-12.114
oints	-12.1141
▁tagging	-12.1141
▁calming	-12.1142
howing	-12.1143
▁kiss	-12.1143
▁limitations	-12.1143
▁scratched	-12.1147
▁admins	-12.1149
▁shifted	-12.115
▁beam	-12.115
▁Tweets	-12.1151
▁operations	-12.1152
▁pickup	-12.1154
▁flickers	-12.1156
▁efficiently	-12.1157
▁fruits	-12.1161
▁checkmarks	-12.1165
▁layers	-12.1166
▁idiots	-12.1166
▁intelligen	-12.117
▁suspense	-12.1173
▁bell	-12.1178
▁expansions	-12.1179
▁holidays	-12.118
▁Americans	-12.1181
▁roads	-12.1181
▁mild	-12.1182
▁skippable	-12.1184
rices	-12.1185
▁sales	-12.1186
▁Artist	-12.1188
▁fade	-12.1194
▁clubs	-12.1194
sible	-12.1197
▁detected	-12.1202
oals	-12.1211
specific	-12.1212
▁cold	-12.1213
ging	-12.1215
▁Adobes	-12.1218
▁toggl	-12.1218
▁substitute	-12.1224
▁presentations	-12.1224
▁lies	-12.1228
▁strangers	-12.1229
▁Technical	-12.123
ictures	-12.1235
nline	-12.1237
▁typical	-12.1237
▁rotated	-12.1241
▁smi	-12.1254
▁satisfactory	-12.1255
▁workarounds	-12.126
pening	-12.1261
▁crouch	-12.1265
▁moon	-12.1266
▁rev	-12.1272
wide	-12.1278
minent	-12.1278
resolution	-12.1281
▁reconnected	-12.1285
▁rhy	-12.1287
ich	-12.1289
wood	-12.129
lu	-12.1294
▁excel	-12.1294
inner	-12.1297
▁dimonds	-12.1297
▁hog	-12.13
▁motivating	-12.1304
▁door	-12.1309
▁uncheck	-12.1309
ped	-12.131
acking	-12.1312
flip	-12.1314
▁schemes	-12.1315
▁soundtracks	-12.1321
▁gra	-12.1324
▁threads	-12.1328
▁regions	-12.1333
▁identi	-12.1335
▁mining	-12.1336
▁scr	-12.1337
home	-12.1337
uip	-12.1337
▁failures	-12.1343
apping	-12.1369
▁smartphones	-12.1385
type	-12.1387
av	-12.1389
▁avoided	-12.1396
▁labels	-12.1397
lipping	-12.1407
▁decades	-12.141
▁Thumb	-12.1417
nything	-12.1418
▁sel	-12.1421
▁snow	-12.1425
▁feelings	-12.1425
learning	-12.1428
▁filtered	-12.143
▁ski	-12.1432
▁unlocks	-12.1436
▁fb	-12.1439
▁employee	-12.1444
▁leap	-12.1447
nts	-12.1462
▁dual	-12.1465
effective	-12.1468
eaten	-12.1469
uide	-12.1472
lm	-12.1472
▁cop	-12.1473
▁deaths	-12.1474
tes	-12.1476
woman	-12.1478
▁fired	-12.1478
▁phase	-12.1492
▁buffered	-12.1493
▁wonderfully	-12.1494
▁meetings	-12.1495
keep	-12.1496
wear	-12.15
▁grade	-12.1515
▁pushe	-12.1517
lessly	-12.1522
▁populate	-12.1526
boy	-12.1529
▁musicpodcast	-12.1532
ups	-12.1536
recipes	-12.1537
▁abuse	-12.1547
adfinger	-12.1553
▁flushed	-12.1553
mkv	-12.1558
▁glorif	-12.1563
▁logos	-12.1576
log	-12.1587
▁passion	-12.1591
▁insu	-12.1601
▁authenticat	-12.1604
▁ge	-12.1609
▁positioning	-12.161
▁dubb	-12.1618
tap	-12.1618
▁trashy	-12.1627
▁consoles	-12.1635
cto	-12.1637
ssential	-12.1646
since	-12.1646
standing	-12.1651
▁ass	-12.1656
ticks	-12.1656
▁spoiler	-12.1657
full	-12.1657
aggy	-12.1664
iest	-12.167
▁wack	-12.1673
▁determined	-12.1676
tude	-12.1679
▁frustat	-12.1681
ified	-12.1685
ric	-12.1689
▁driver	-12.1689
▁cater	-12.1699
▁serve	-12.17
▁notif	-12.1708
▁conclude	-12.1709
▁relearn	-12.1712
select	-12.1714
▁restores	-12.1716
▁punishe	-12.1726
▁usb	-12.1726
friends	-12.1732
▁poll	-12.1742
things	-12.1744
▁stuffs	-12.1752
▁awfully	-12.1759
▁leak	-12.1764
access	-12.1767
making	-12.1768
alt	-12.1769
stating	-12.1775
▁mor	-12.1785
▁presses	-12.1788
hip	-12.1792
▁brands	-12.1794
tandard	-12.1794
want	-12.1807
▁guides	-12.1837
▁reboots	-12.1841
▁hap	-12.1849
ress	-12.1863
▁begg	-12.1864
intend	-12.1876
ab	-12.189
bot	-12.1897
allow	-12.1905
▁bag	-12.1915
▁reedit	-12.1916
▁expands	-12.1917
ddictive	-12.1919
▁swipes	-12.1933
▁regrett	-12.1933
pposed	-12.1935
▁cached	-12.1938
der	-12.1947
hort	-12.1964
▁bla	-12.1965
▁pur	-12.1965
left	-12.1966
▁leg	-12.1971
grace	-12.1974
▁career	-12.1988
▁Aim	-12.1991
▁ra	-12.1992
.............	-12.1993
▁advertiser	-12.2
dding	-12.2017
ities	-12.2017
▁specials	-12.2023
arn	-12.2033
lity	-12.2055
tant	-12.2067
cloud	-12.2068
▁decor	-12.2071
ossibly	-12.2074
mium	-12.2083
▁scor	-12.2084
ealth	-12.2085
▁chopp	-12.2092
▁controll	-12.21
▁fires	-12.2104
oal	-12.2108
appy	-12.2117
▁construct	-12.2134
▁refunds	-12.2136
▁adore	-12.2149
mind	-12.2163
ti	-12.2172
days	-12.2185
▁slack	-12.2186
halt	-12.2196
xpress	-12.2201
nder	-12.2207
▁stone	-12.2209
icated	-12.2211
cle	-12.2219
tter	-12.2256
ingly	-12.2258
▁ans	-12.2269
itter	-12.2272
iven	-12.2279
tor	-12.2284
team	-12.229
anta	-12.2299
▁fixable	-12.2301
▁tooth	-12.2318
songs	-12.2321
▁lil	-12.233
ample	-12.2335
system	-12.2339
▁caches	-12.2343
nds	-12.2343
ited	-12.235
however	-12.2382
▁yt	-12.2385
di	-12.2388
black	-12.2402
nity	-12.2405
mount	-12.2407
▁etern	-12.2419
bit	-12.2432
two	-12.2432
▁temp	-12.245
wav	-12.2459
pointing	-12.2474
▁compos	-12.2483
▁Automatic	-12.2486
max	-12.2491
▁passive	-12.2505
place	-12.251
▁Actual	-12.2515
▁mov	-12.252
amn	-12.2522
pu	-12.2526
fulness	-12.2527
▁thrille	-12.253
▁correcting	-12.2535
wards	-12.2538
notification	-12.2538
▁descen	-12.2544
Its	-12.2548
▁allott	-12.2549
▁stumble	-12.2575
rance	-12.2585
avi	-12.259
uota	-12.2591
kip	-12.2593
wn	-12.2594
mps	-12.26
fixed	-12.2601
▁endure	-12.261
atcher	-12.2612
▁enabl	-12.2615
check	-12.263
ga	-12.2634
▁capitali	-12.2639
gg	-12.2653
traction	-12.2658
hit	-12.269
▁wan	-12.2697
ni	-12.2699
▁powers	-12.2702
▁ple	-12.2707
cha	-12.271
owns	-12.2714
second	-12.2721
ins	-12.2724
▁rob	-12.2726
▁hitch	-12.2726
▁frustrat	-12.2729
ami	-12.2731
▁reproduce	-12.2738
▁gross	-12.2743
eather	-12.2751
▁interpret	-12.2756
enty	-12.2774
▁convinc	-12.2774
icket	-12.2787
ealing	-12.2788
ality	-12.2788
trying	-12.2791
▁mouthf	-12.281
designed	-12.2821
images	-12.2822
auses	-12.2823
factor	-12.2823
without	-12.283
▁hind	-12.2841
onnect	-12.2843
cents	-12.2847
running	-12.286
oid	-12.2863
rand	-12.2864
lash	-12.2868
button	-12.2869
▁terr	-12.2871
▁Install	-12.2873
need	-12.289
rash	-12.2892
umpy	-12.2908
▁involv	-12.2915
▁va	-12.2918
▁exports	-12.2926
▁lagg	-12.2932
aaaa	-12.2935
▁tha	-12.2942
open	-12.2952
haracter	-12.2958
account	-12.2959
▁dia	-12.2967
▁Ac	-12.2972
roid	-12.2977
trange	-12.2978
isplay	-12.2978
ocus	-12.2979
▁theater	-12.2979
hallenge	-12.298
eve	-12.2985
▁renovation	-12.2986
▁polish	-12.299
roup	-12.2991
▁unistall	-12.2992
▁paragraph	-12.2992
▁restriction	-12.2993
▁phrase	-12.2994
▁attribute	-12.2995
utton	-12.2997
▁achiev	-12.2999
▁checkpoint	-12.2999
missing	-12.3003
▁powerup	-12.3007
▁scammer	-12.3008
▁exclud	-12.3013
▁reciev	-12.3013
▁flyer	-12.3016
▁musician	-12.3018
▁satisfy	-12.302
got	-12.3024
▁approve	-12.3028
tary	-12.3031
▁clickbait	-12.3031
▁stretche	-12.3034
omplete	-12.3037
har	-12.3038
▁independent	-12.3043
uggested	-12.3044
▁thorough	-12.3044
▁larg	-12.3044
ignal	-12.3045
▁continual	-12.3048
ouble	-12.3048
▁definite	-12.3051
▁plague	-12.3052
▁reenable	-12.3053
▁discontinue	-12.3053
rogress	-12.3055
reply	-12.3055
elieve	-12.3056
rofessor	-12.3057
laystation	-12.3057
andscape	-12.3058
ountry	-12.3059
aramount	-12.3059
igital	-12.3059
▁stranger	-12.3059
irefox	-12.3059
▁favour	-12.3059
ompared	-12.306
rilliant	-12.306
ubbish	-12.306
egative	-12.306
▁criti	-12.306
obux	-12.3061
orrendous	-12.3061
ullscreen	-12.3061
akistan	-12.3063
andalorian	-12.3063
arlson	-12.3063
rainbow	-12.3063
▁Infuriating	-12.3063
▁artificial	-12.3063
▁commerical	-12.3063
▁criminal	-12.3063
▁earliest	-12.3063
▁garbled	-12.3063
▁illegal	-12.3063
▁illusion	-12.3063
▁impatient	-12.3063
▁inbetween	-12.3063
▁lobby	-12.3063
▁misaligned	-12.3063
▁niggle	-12.3063
▁privilege	-12.3063
▁propaganda	-12.3063
▁rudimentary	-12.3063
▁undoubtedly	-12.3063
▁vocab	-12.3063
▁dealbreaker	-12.3063
▁parameter	-12.3063
▁criticism	-12.3063
▁megaskins	-12.3063
fathom	-12.3063
▁disregard	-12.3063
▁leisure	-12.3063
▁evolution	-12.3063
▁overseas	-12.3063
▁behaviour	-12.3063
▁responsible	-12.3063
▁innovation	-12.3063
▁depict	-12.3063
▁Immediately	-12.3063
▁abundan	-12.3063
▁consumption	-12.3063
▁epilep	-12.3063
▁simplistic	-12.3063
▁awsome	-12.3063
▁receipt	-12.3063
▁crucial	-12.3064
▁innovative	-12.3064
▁unsafe	-12.3064
▁overwhelmed	-12.3064
▁Title	-12.3064
▁eager	-12.3064
▁banknote	-12.3064
▁nudity	-12.3064
▁grasp	-12.3064
▁coincidence	-12.3064
eyboard	-12.3064
▁confidence	-12.3064
▁deceptive	-12.3064
▁upnp	-12.3064
▁underline	-12.3064
▁deceiving	-12.3064
▁centur	-12.3064
▁protection	-12.3064
▁understood	-12.3064
ownside	-12.3064
▁vocal	-12.3065
▁downtown	-12.3065
▁awake	-12.3065
▁manipulation	-12.3065
▁assistant	-12.3065
▁demoted	-12.3065
▁barcode	-12.3066
▁minimap	-12.3066
▁devastated	-12.3066
▁niche	-12.3066
▁chop	-12.3066
▁scummy	-12.3066
nistalling	-12.3066
▁travelling	-12.3066
▁evil	-12.3067
▁restrictive	-12.3067
▁cramped	-12.3067
▁datacache	-12.3067
emember	-12.3067
ude	-12.3068
▁denied	-12.3068
▁harass	-12.3068
▁cutscene	-12.3069
▁whack	-12.3069
▁chanel	-12.3069
▁automation	-12.3069
▁grammer	-12.307
▁gcash	-12.307
▁murder	-12.307
▁mbps	-12.307
tleast	-12.307
▁scarf	-12.307
▁hideous	-12.307
▁prematurely	-12.307
▁releasing	-12.307
▁modification	-12.307
▁insulting	-12.3071
▁divide	-12.3071
correct	-12.3071
▁branch	-12.3071
eriod	-12.3073
▁slideshow	-12.3073
arshalls	-12.3073
▁duplicating	-12.3073
▁metrics	-12.3074
▁remake	-12.3074
▁adopt	-12.3074
▁flashlight	-12.3074
▁popularity	-12.3074
hapters	-12.3075
▁dum	-12.3075
▁tremendously	-12.3075
▁concentrate	-12.3076
▁blurred	-12.3077
▁decreasing	-12.3077
▁shopping	-12.3077
▁meditation	-12.3078
▁downthumbs	-12.3078
▁sidebar	-12.3078
▁horse	-12.3078
ollowed	-12.3079
▁alphabeti	-12.3079
▁financially	-12.308
▁nav	-12.308
ucky	-12.3082
▁emergenc	-12.3083
▁True	-12.3083
ayout	-12.3084
▁buds	-12.3085
▁goddam	-12.3086
▁Access	-12.3087
▁engaged	-12.3087
▁intake	-12.3087
support	-12.3088
▁photoshop	-12.3088
▁plagu	-12.3088
▁measurement	-12.3089
▁adapter	-12.3089
▁conflicts	-12.309
▁randomness	-12.309
▁mentions	-12.3091
▁makeover	-12.3091
rashed	-12.3093
▁numeric	-12.3093
ails	-12.3094
▁occupie	-12.3094
▁blatant	-12.3094
photo	-12.3094
▁forcefully	-12.3095
▁sniper	-12.3095
▁beach	-12.3095
▁misspelling	-12.3096
▁faded	-12.3096
▁eyesight	-12.3097
▁worsened	-12.3098
▁magnif	-12.3098
▁routinely	-12.3098
▁tiring	-12.3099
▁donation	-12.31
▁bore	-12.3102
owngrade	-12.3103
▁accent	-12.3107
scored	-12.3107
hrist	-12.3108
▁abandoned	-12.311
einstall	-12.3115
▁limitless	-12.3115
▁consumed	-12.3115
essons	-12.3115
▁eggs	-12.3117
atsapp	-12.3117
▁unselect	-12.3117
nothing	-12.3119
▁shine	-12.312
cam	-12.3122
▁gigab	-12.3122
▁unused	-12.3124
▁annotations	-12.3125
▁whitelist	-12.3126
▁Import	-12.3127
anguish	-12.3129
▁maintained	-12.3132
kips	-12.3132
rashing	-12.3132
▁persisted	-12.3133
▁insights	-12.3134
▁disallow	-12.3136
▁assured	-12.3138
▁someday	-12.3139
vents	-12.3142
▁multitasking	-12.3143
rain	-12.3144
▁checkpoints	-12.3145
▁defend	-12.3146
▁inout	-12.3148
▁mutual	-12.3149
emoved	-12.3149
hecking	-12.315
▁guidebook	-12.315
▁fence	-12.3151
▁gui	-12.3152
▁marginal	-12.3152
▁spawning	-12.3152
▁silently	-12.3153
▁warp	-12.3155
▁snoo	-12.3156
▁achieved	-12.3157
▁Artists	-12.3158
▁recaps	-12.3159
▁forwardrewind	-12.316
lia	-12.316
iewing	-12.316
hite	-12.316
▁confuse	-12.3161
Tube	-12.3162
▁attain	-12.3166
utside	-12.3167
crowded	-12.3168
race	-12.3169
▁slamm	-12.3169
▁warn	-12.317
orlds	-12.3171
▁photographers	-12.3175
ster	-12.3177
explicabl	-12.3179
▁logic	-12.3187
▁restricts	-12.3187
▁stacked	-12.3188
▁cleaner	-12.319
nit	-12.3192
browser	-12.3196
▁clone	-12.3204
▁flicks	-12.3206
▁variations	-12.3208
▁him	-12.321
▁airplanes	-12.321
▁handsc	-12.3211
▁recorder	-12.3211
▁supporters	-12.3212
best	-12.3213
nskippable	-12.3218
unny	-12.322
▁fortune	-12.3221
▁scrubb	-12.3224
evaluate	-12.3225
▁bird	-12.3225
print	-12.323
▁flower	-12.3233
tin	-12.3237
▁varies	-12.3238
▁greatness	-12.3243
▁activated	-12.3243
▁lens	-12.3245
▁weekends	-12.3245
▁excessively	-12.3246
▁saturated	-12.3247
▁surface	-12.325
washed	-12.3257
▁strategi	-12.3261
▁anxious	-12.3262
▁reappearing	-12.3266
ants	-12.3266
▁adults	-12.3271
▁sing	-12.3274
▁redesigned	-12.3277
orces	-12.328
▁exceed	-12.3281
▁....	-12.3287
▁warned	-12.3294
▁pairing	-12.3297
service	-12.3299
▁baby	-12.33
close	-12.3306
▁charger	-12.3307
▁insight	-12.3308
▁america	-12.331
▁avali	-12.3311
▁dishonest	-12.3315
▁bullying	-12.3316
arden	-12.3316
▁impair	-12.3317
▁armour	-12.3317
urned	-12.3319
edit	-12.3322
▁clothing	-12.3322
▁pockets	-12.3325
▁cords	-12.3326
once	-12.333
▁browsed	-12.3334
▁crank	-12.3338
▁contest	-12.3348
▁controlls	-12.3356
▁Anime	-12.3356
▁dice	-12.3357
▁definition	-12.3358
▁advantages	-12.3361
earn	-12.3364
act	-12.3365
vent	-12.3369
mistakenly	-12.3371
hang	-12.3373
▁disput	-12.3377
▁taping	-12.3379
cking	-12.3387
▁synching	-12.3396
ics	-12.3396
▁conveniently	-12.3403
▁revives	-12.3404
inus	-12.3404
rish	-12.3405
els	-12.341
▁clickable	-12.3413
▁editable	-12.3416
▁incline	-12.3417
▁targeting	-12.3421
▁wander	-12.3422
ards	-12.3423
eart	-12.3425
▁unen	-12.3433
▁dry	-12.344
▁shock	-12.3441
con	-12.3443
uy	-12.3443
▁partners	-12.3444
▁blasts	-12.3446
▁yall	-12.3457
ditor	-12.3461
subscription	-12.3461
arlie	-12.3462
▁spammer	-12.3467
▁flex	-12.3468
▁sim	-12.3471
▁vibrat	-12.3478
▁stole	-12.348
▁gifting	-12.3481
course	-12.3482
ron	-12.3484
▁landed	-12.3485
▁bear	-12.3485
▁hesita	-12.3487
▁spr	-12.3489
▁occuring	-12.3491
oops	-12.3508
boots	-12.351
mg	-12.3512
▁blacks	-12.3521
▁unmute	-12.3532
hell	-12.3539
als	-12.3558
▁greet	-12.3562
▁eight	-12.3566
vy	-12.3571
▁roam	-12.3575
▁learner	-12.358
ncil	-12.3587
▁slick	-12.359
was	-12.3595
▁doable	-12.3605
▁migrate	-12.361
though	-12.3622
tions	-12.3626
hil	-12.3627
▁unbias	-12.363
ender	-12.3639
▁cutter	-12.364
▁poster	-12.3641
▁comm	-12.3644
ggy	-12.365
▁edges	-12.3659
itive	-12.3661
recogni	-12.3664
▁bon	-12.3667
tive	-12.3667
▁generation	-12.3673
handed	-12.3676
add	-12.3678
▁waster	-12.368
longer	-12.3682
▁oriented	-12.3686
▁autosave	-12.369
tation	-12.3691
▁animate	-12.3693
cs	-12.3699
radio	-12.37
▁serving	-12.3701
plex	-12.3701
fre	-12.3702
functional	-12.3705
▁pinning	-12.3712
▁overlook	-12.3722
dd	-12.3723
▁stripp	-12.3724
iss	-12.3737
▁wheels	-12.3744
▁advertises	-12.3749
▁impress	-12.3755
▁addressing	-12.3759
charged	-12.3764
reless	-12.3765
file	-12.3766
▁faults	-12.3789
ocks	-12.3796
▁bra	-12.3797
▁Top	-12.3804
▁meter	-12.3808
▁obsess	-12.3811
run	-12.3823
▁drawer	-12.383
▁scams	-12.3833
▁mother	-12.3838
▁modifie	-12.3847
▁acces	-12.3848
▁generat	-12.3855
does	-12.3856
know	-12.3858
▁dr	-12.3858
▁citi	-12.3868
▁throttle	-12.3887
heck	-12.3888
nap	-12.3889
nowing	-12.389
▁agenc	-12.3898
▁header	-12.3906
done	-12.3916
▁attract	-12.3921
▁prox	-12.3927
▁production	-12.393
▁essentials	-12.3932
etty	-12.3938
▁annotat	-12.3939
▁reupload	-12.3943
▁fx	-12.3948
AAA	-12.395
mentioned	-12.3952
▁scienti	-12.3955
dollar	-12.3955
tired	-12.3958
▁observ	-12.396
take	-12.3971
developed	-12.3977
▁cared	-12.398
▁productive	-12.3982
▁definetl	-12.3986
edometer	-12.3986
lve	-12.3988
shed	-12.399
uggestion	-12.3992
▁violate	-12.3993
▁blox	-12.3993
supported	-12.3998
▁disp	-12.4001
incerely	-12.4017
▁lengths	-12.4019
▁ill	-12.4024
itch	-12.4039
▁rea	-12.4042
fill	-12.4056
attel	-12.4058
ntensity	-12.4066
▁warnings	-12.4068
▁signals	-12.4069
▁leveling	-12.4074
▁visuali	-12.4076
piece	-12.408
▁waaa	-12.4101
sensitive	-12.4106
▁maker	-12.4107
much	-12.4117
▁ripp	-12.4118
victor	-12.4124
maintaining	-12.4129
eath	-12.4133
xp	-12.4134
▁stead	-12.4135
▁teen	-12.4136
▁nick	-12.4138
ung	-12.4139
change	-12.414
ss	-12.4141
media	-12.4145
▁tactic	-12.415
photos	-12.4151
ents	-12.4159
ptions	-12.416
ving	-12.4164
house	-12.4164
played	-12.4181
host	-12.4182
ovid	-12.4189
sleeping	-12.4203
▁sur	-12.4208
had	-12.4214
▁applie	-12.4221
ci	-12.4231
label	-12.4234
ibly	-12.4245
mula	-12.4254
▁reselect	-12.4261
▁tempt	-12.4262
▁beac	-12.4269
▁script	-12.4272
▁Till	-12.4273
▁bin	-12.4291
sibility	-12.4292
▁kit	-12.4301
▁updat	-12.4305
▁notifi	-12.4351
▁activ	-12.4361
sets	-12.4363
continue	-12.4371
people	-12.4376
obs	-12.4381
▁towns	-12.4384
▁debug	-12.4403
▁violen	-12.4408
aint	-12.4412
wipes	-12.4414
looking	-12.4415
far	-12.442
bt	-12.443
▁royal	-12.4442
▁Article	-12.4454
ph	-12.4458
around	-12.4461
▁led	-12.4462
osting	-12.4467
▁complains	-12.4483
login	-12.4484
▁specially	-12.4485
▁trace	-12.4489
aved	-12.4495
especially	-12.4496
selected	-12.4498
eg	-12.45
▁rec	-12.4521
story	-12.4524
shoot	-12.4529
pend	-12.4531
▁shoes	-12.4535
▁her	-12.4543
haring	-12.4546
ctively	-12.4546
settings	-12.4549
▁renam	-12.4557
sad	-12.4568
shes	-12.4569
vi	-12.4573
▁ie	-12.4573
fi	-12.4575
▁sword	-12.4583
listed	-12.4587
tr	-12.4587
int	-12.4589
ways	-12.459
books	-12.4594
▁individuals	-12.4596
refore	-12.46
▁advances	-12.4605
illion	-12.4611
▁flags	-12.4622
built	-12.4631
▁cult	-12.4636
▁sl	-12.4636
balance	-12.464
▁estimate	-12.4643
▁wir	-12.4653
▁differ	-12.4655
ended	-12.4664
see	-12.4666
▁diminish	-12.467
forward	-12.4671
cause	-12.4676
▁performances	-12.4682
feature	-12.4698
score	-12.4706
grade	-12.471
...............	-12.4715
rgh	-12.4719
▁shall	-12.4726
dly	-12.4737
indi	-12.4743
uff	-12.4757
formatting	-12.4775
▁lit	-12.478
something	-12.479
ovely	-12.4804
▁frust	-12.4804
▁dial	-12.4814
▁isolate	-12.4822
mili	-12.4833
▁invert	-12.4836
first	-12.4838
ak	-12.4842
year	-12.4843
alled	-12.4848
ats	-12.4852
verage	-12.4859
That	-12.4864
icking	-12.4865
▁tb	-12.4878
tapping	-12.4885
onday	-12.4886
▁modifi	-12.4899
▁prop	-12.4902
▁cal	-12.4917
▁pleas	-12.4917
hankfully	-12.4917
peed	-12.4919
▁blacked	-12.4923
production	-12.493
vote	-12.4935
▁simulat	-12.4937
checked	-12.4938
glitches	-12.4954
▁predict	-12.4956
▁conse	-12.4964
▁sink	-12.4994
scroll	-12.4996
different	-12.5015
ifying	-12.5026
▁seemless	-12.503
▁beep	-12.5032
▁noticabl	-12.5035
▁debat	-12.5047
▁arm	-12.5051
▁appli	-12.5054
▁sci	-12.5055
▁medic	-12.5058
shi	-12.5058
licking	-12.5064
▁collaborate	-12.5066
reset	-12.5075
nded	-12.5087
ton	-12.5092
▁inc	-12.5107
ates	-12.5124
movies	-12.5125
added	-12.5127
rains	-12.5135
suggestion	-12.5137
uat	-12.5152
erver	-12.5159
playlists	-12.5162
▁pains	-12.5162
utting	-12.5167
▁participat	-12.5174
▁merg	-12.5181
▁expir	-12.5185
ki	-12.5188
served	-12.519
topped	-12.5217
▁outs	-12.5218
ncredible	-12.5237
casting	-12.5238
paying	-12.5245
ically	-12.5248
uery	-12.525
ai	-12.5252
▁impos	-12.5254
niverse	-12.5275
▁distribut	-12.5277
▁beco	-12.5283
▁sooooo	-12.5292
▁calibrat	-12.5296
▁scare	-12.5302
▁twe	-12.5303
kin	-12.5303
ormal	-12.5322
▁lived	-12.5326
▁resolv	-12.5333
oftware	-12.5336
▁ag	-12.5345
▁trapp	-12.5355
lines	-12.5364
xperiment	-12.5368
xpand	-12.5369
tly	-12.5373
half	-12.5373
▁selects	-12.5376
▁blocker	-12.5385
mix	-12.5387
▁Asia	-12.54
▁fixture	-12.5409
ystem	-12.5412
esponse	-12.5425
riving	-12.543
▁crowd	-12.5432
mu	-12.5434
oncept	-12.5435
track	-12.5437
ati	-12.5442
▁fore	-12.5443
▁mask	-12.5445
issed	-12.5446
▁resett	-12.5447
rovide	-12.5448
eature	-12.545
▁abd	-12.5454
bre	-12.5455
tablet	-12.5459
▁distort	-12.5463
▁appreciat	-12.5463
high	-12.5467
▁lak	-12.547
▁rescann	-12.5472
▁destination	-12.5474
▁compensate	-12.5477
unction	-12.5477
▁scar	-12.5478
▁selfie	-12.5478
▁filename	-12.548
odcast	-12.5482
▁mountain	-12.5483
ressing	-12.5484
▁gimmick	-12.5486
hate	-12.5487
dressed	-12.5487
▁avenue	-12.5488
xchange	-12.5489
▁extension	-12.549
▁subfolder	-12.5492
▁lv	-12.5492
▁upward	-12.5494
▁condition	-12.5494
▁lyric	-12.5495
▁decoration	-12.5496
xport	-12.5497
▁bookstore	-12.5497
ntertaining	-12.5498
ancel	-12.5498
ugation	-12.5498
▁russia	-12.5502
mini	-12.5503
▁hacker	-12.5504
▁declin	-12.5511
▁disorient	-12.5515
▁consumer	-12.5515
▁accelerat	-12.5516
▁annotation	-12.5516
▁sup	-12.5521
shows	-12.5523
ontinuous	-12.5536
ewind	-12.5541
▁incessant	-12.5541
ortunately	-12.5542
▁financial	-12.5543
urprising	-12.5544
▁starstarstar	-12.5544
▁rapid	-12.5545
olor	-12.5545
▁strict	-12.5545
▁config	-12.5546
▁evolve	-12.5547
teve	-12.5548
igure	-12.5548
ubscribed	-12.5551
▁complicate	-12.5553
latform	-12.5555
magine	-12.5555
xperiencing	-12.5555
xactly	-12.5555
xclusive	-12.5556
nstructions	-12.5556
yrics	-12.5557
articularly	-12.5557
▁spir	-12.5557
veryday	-12.5557
topping	-12.5557
bnoxious	-12.5558
▁Image	-12.5559
ekki	-12.5559
hallenging	-12.5559
ointless	-12.5559
onnection	-12.556
owadays	-12.556
treamers	-12.556
ontrolling	-12.5561
oodbye	-12.5562
onfusing	-12.5562
ootball	-12.5562
▁econom	-12.5562
ennyworth	-12.5563
▁Irritating	-12.5563
▁accommodate	-12.5563
▁adventurous	-12.5563
▁anniversar	-12.5563
▁anticipated	-12.5563
▁arripay	-12.5563
▁burden	-12.5563
▁captcha	-12.5563
▁colleagues	-12.5563
▁convoluted	-12.5563
▁desirable	-12.5563
▁discrepanc	-12.5563
▁dungeon	-12.5563
▁elaborate	-12.5563
▁emphasi	-12.5563
▁enhancing	-12.5563
▁exhaling	-12.5563
▁expansive	-12.5563
▁exponentially	-12.5563
▁iTunes	-12.5563
▁inadvertently	-12.5563
▁insomnia	-12.5563
▁insufferable	-12.5563
▁masculine	-12.5563
▁miniscule	-12.5563
▁renovate	-12.5563
▁ribbon	-12.5563
▁snippet	-12.5563
▁splendid	-12.5563
▁treadmill	-12.5563
▁unprofessional	-12.5563
▁gaudy	-12.5563
▁renovating	-12.5563
▁Turbo	-12.5563
▁occurrence	-12.5563
▁nuances	-12.5563
▁bikini	-12.5563
xygen	-12.5563
▁broadband	-12.5563
▁paytowin	-12.5563
▁mimicking	-12.5563
▁gravity	-12.5563
▁transform	-12.5563
▁diagonal	-12.5563
▁contols	-12.5563
▁harmless	-12.5563
▁attitude	-12.5564
▁exaggeration	-12.5564
▁flaky	-12.5564
▁underhanded	-12.5564
▁chaotic	-12.5564
▁palette	-12.5564
▁remedy	-12.5564
▁spilt	-12.5564
▁stagger	-12.5564
▁dreadful	-12.5564
▁economical	-12.5564
▁thirty	-12.5564
▁cashgrab	-12.5564
▁veteran	-12.5564
▁rifle	-12.5564
▁tongue	-12.5564
▁rupees	-12.5564
rightness	-12.5564
▁comfortably	-12.5564
▁disagree	-12.5564
▁outrageous	-12.5564
▁knockoff	-12.5564
▁permitted	-12.5564
▁bogus	-12.5564
▁horns	-12.5564
▁singular	-12.5564
▁snack	-12.5564
▁crystal	-12.5564
▁divorce	-12.5564
▁yield	-12.5564
▁barrier	-12.5564
▁disruptions	-12.5564
▁outdoor	-12.5564
▁barrel	-12.5564
▁migration	-12.5564
▁vicious	-12.5564
▁dropouts	-12.5564
▁mileage	-12.5564
▁downward	-12.5564
▁discern	-12.5564
▁astonishing	-12.5564
▁excess	-12.5565
▁oversight	-12.5565
▁intolerable	-12.5565
▁relief	-12.5565
iewers	-12.5565
▁champions	-12.5565
▁easytouse	-12.5565
▁identification	-12.5565
▁investigat	-12.5565
▁crappy	-12.5565
impsons	-12.5565
▁multimedia	-12.5565
ossible	-12.5565
▁midnight	-12.5565
▁imagination	-12.5565
▁shotgun	-12.5565
▁Alexa	-12.5566
▁continuity	-12.5566
▁hungry	-12.5566
▁intrigued	-12.5566
▁celebrate	-12.5566
▁ordeal	-12.5566
▁stellar	-12.5566
▁despawn	-12.5567
▁overcrowded	-12.5567
▁excitement	-12.5567
inished	-12.5567
▁inactive	-12.5567
underrated	-12.5567
▁necessity	-12.5567
appened	-12.5567
▁snowboard	-12.5567
▁underage	-12.5568
▁deadline	-12.5568
▁canyon	-12.5568
▁fasci	-12.5568
▁transparency	-12.5568
▁bootleg	-12.5568
▁withhold	-12.5568
tinent	-12.5569
▁smth	-12.5569
▁timeconsuming	-12.5569
▁elevator	-12.5569
nnecessary	-12.5569
▁aggravation	-12.5569
ugatti	-12.557
▁spirit	-12.557
▁cooperate	-12.557
ocal	-12.557
▁survive	-12.557
▁disheartening	-12.557
▁overrated	-12.557
proxim	-12.557
▁throttling	-12.5571
▁clash	-12.5571
▁glitchiness	-12.5571
▁sliver	-12.5571
▁sampling	-12.5571
▁bearable	-12.5571
nlimited	-12.5571
▁fiber	-12.5571
▁reactivate	-12.5571
▁proofreading	-12.5572
▁boyfriend	-12.5572
stances	-12.5572
▁robbed	-12.5572
▁radar	-12.5572
▁underwhelm	-12.5572
arshals	-12.5573
▁motor	-12.5573
▁swapped	-12.5573
▁relation	-12.5573
▁reposition	-12.5573
▁grass	-12.5573
▁Trump	-12.5574
▁innocen	-12.5574
▁authority	-12.5574
▁discuss	-12.5574
simple	-12.5574
▁friendship	-12.5574
aptop	-12.5574
▁division	-12.5574
eedback	-12.5575
ayment	-12.5576
almart	-12.5576
▁caveats	-12.5576
▁serial	-12.5576
ondering	-12.5576
ighlights	-12.5576
▁mysterious	-12.5576
▁reshuffle	-12.5577
▁centre	-12.5577
▁keywords	-12.5577
acity	-12.5578
▁smartwatch	-12.5579
▁cheapest	-12.5579
▁Admin	-12.5579
▁strategies	-12.558
▁evolved	-12.558
▁incentivi	-12.558
▁neighbor	-12.558
ueries	-12.5581
▁superhard	-12.5581
▁myth	-12.5582
▁rollout	-12.5582
▁wearable	-12.5582
▁domain	-12.5583
asier	-12.5583
▁pirating	-12.5584
▁playstation	-12.5585
▁panorama	-12.5585
▁lbs	-12.5585
▁predicted	-12.5585
▁gliches	-12.5586
▁homescapes	-12.5586
▁govern	-12.5586
guitar	-12.5588
ledge	-12.5589
▁subbed	-12.559
epub	-12.559
▁announcement	-12.559
▁Includ	-12.559
AAAA	-12.5591
▁googling	-12.5592
▁shocking	-12.5594
▁technological	-12.5594
▁greeting	-12.5594
▁activating	-12.5596
▁await	-12.5598
▁refusal	-12.5599
▁concert	-12.5599
sfx	-12.5599
▁contemplat	-12.56
▁obsolete	-12.56
▁oof	-12.5601
▁vain	-12.5601
switch	-12.5601
▁ringer	-12.5603
▁beggining	-12.5604
dvertisement	-12.5605
ndeed	-12.5605
anage	-12.5605
▁summer	-12.5606
ole	-12.5606
▁slowness	-12.5606
▁homework	-12.5607
▁translator	-12.5607
▁fading	-12.5607
achel	-12.561
ropping	-12.561
▁Autoplay	-12.561
▁poop	-12.561
▁darken	-12.5611
▁orange	-12.5612
▁disorienting	-12.5612
▁xx	-12.5613
▁perk	-12.5613
▁afore	-12.5613
mbedded	-12.5615
▁coupons	-12.5616
▁italics	-12.5616
▁censored	-12.5617
▁costumer	-12.5621
▁cont	-12.5621
▁crate	-12.5622
▁visitor	-12.5623
▁bridges	-12.5625
▁verson	-12.5625
▁bounced	-12.5625
▁videoaudio	-12.563
▁unistalling	-12.5631
odcasts	-12.5632
estart	-12.5633
▁violent	-12.5633
▁gigabyte	-12.5634
▁enhancement	-12.5636
ner	-12.5637
tube	-12.5639
▁grips	-12.564
onal	-12.564
▁desynced	-12.564
▁avenues	-12.5641
▁gimmicks	-12.5641
▁tactics	-12.5642
cular	-12.5642
▁consumers	-12.5643
editing	-12.5645
▁expressed	-12.5646
▁digit	-12.5647
▁interview	-12.5647
▁African	-12.5649
last	-12.5653
▁offscreen	-12.5653
armville	-12.5656
▁digits	-12.5659
erious	-12.566
lin	-12.5662
...........	-12.5663
▁ev	-12.5663
▁renovations	-12.5663
ewer	-12.5664
▁chains	-12.5667
▁uneven	-12.5668
android	-12.5672
▁praise	-12.5675
▁fades	-12.5676
ives	-12.5679
ubscriptions	-12.5684
eeling	-12.5684
▁vibes	-12.5686
gle	-12.5686
▁launcher	-12.5692
▁reflected	-12.5698
▁grave	-12.57
▁unlockable	-12.57
▁sadden	-12.5706
▁promotions	-12.5709
▁remakes	-12.571
▁brighten	-12.571
▁payouts	-12.5711
▁instruction	-12.5713
▁conferenc	-12.5716
▁casually	-12.5719
▁clover	-12.572
▁India	-12.5725
▁unintentional	-12.5726
Thanks	-12.5728
▁Tues	-12.5729
▁trusted	-12.5732
before	-12.5735
▁iterations	-12.5736
▁verses	-12.5738
unfriendly	-12.5739
dependent	-12.574
▁expose	-12.5743
▁unplug	-12.5746
▁egg	-12.5746
▁danger	-12.5747
features	-12.5747
ofa	-12.5749
▁melt	-12.5751
▁traveled	-12.5751
▁readded	-12.5761
▁scree	-12.5762
▁tire	-12.5765
▁whatapp	-12.5766
onus	-12.5768
▁throats	-12.5772
▁snake	-12.5773
▁inconsistently	-12.5775
▁deci	-12.5779
▁yell	-12.578
▁bumping	-12.5788
▁skew	-12.5789
iring	-12.5793
▁nigh	-12.5794
▁modifying	-12.5795
da	-12.5796
▁slope	-12.5797
▁winners	-12.5797
ushing	-12.5801
rrent	-12.5802
▁trucks	-12.5805
uences	-12.5805
same	-12.5807
▁externally	-12.581
▁handled	-12.5816
code	-12.5818
▁vibrations	-12.582
ves	-12.5823
▁skiing	-12.5827
computer	-12.583
business	-12.5836
▁curs	-12.5836
▁occured	-12.5837
ocs	-12.5837
▁ni	-12.5839
▁loooo	-12.584
▁Attempt	-12.5842
▁upto	-12.5843
▁sen	-12.5844
ownloading	-12.5845
▁assists	-12.5845
met	-12.5847
▁hills	-12.5851
▁conce	-12.5856
▁fastpass	-12.5858
thriller	-12.586
▁symp	-12.586
tell	-12.5862
ask	-12.5868
▁grabbing	-12.5872
▁dec	-12.5876
▁moderate	-12.5882
▁winnable	-12.5883
▁hammer	-12.5885
▁enlarg	-12.5886
▁retired	-12.589
▁conduct	-12.5892
uc	-12.5893
validate	-12.5893
tock	-12.5893
asted	-12.5894
▁defined	-12.5897
▁pertain	-12.5902
▁caps	-12.5905
▁perspectives	-12.591
▁appropriately	-12.5912
▁repairing	-12.5913
▁temple	-12.5913
tails	-12.5914
▁creations	-12.5915
lightly	-12.5922
▁offerings	-12.5928
▁lengthen	-12.5929
locked	-12.5933
▁compromised	-12.5941
▁wth	-12.5942
craft	-12.5942
break	-12.5942
▁pity	-12.5948
ran	-12.5948
▁undownload	-12.5957
proves	-12.5958
▁ordinar	-12.5961
force	-12.5971
▁dimm	-12.5971
▁minut	-12.5971
▁rush	-12.5971
▁dumps	-12.5972
uates	-12.5979
enus	-12.598
resume	-12.5984
▁medica	-12.5985
adar	-12.5987
order	-12.5988
episodes	-12.5992
via	-12.5994
grossing	-12.5996
▁clarif	-12.5999
iking	-12.6001
ustra	-12.6004
except	-12.6012
▁aud	-12.6012
feed	-12.6017
▁exceptions	-12.6018
▁catalogues	-12.6025
▁interactions	-12.6029
▁cartoons	-12.603
▁overwrite	-12.603
▁gane	-12.6031
eel	-12.6033
five	-12.6033
▁obsesse	-12.6034
▁tether	-12.6038
innish	-12.6046
▁initiate	-12.6048
ustrating	-12.6049
overall	-12.605
▁triggering	-12.6052
acked	-12.6056
remember	-12.6057
rcade	-12.606
▁clues	-12.6066
▁mere	-12.6074
▁issu	-12.6079
middle	-12.6082
evert	-12.6082
▁invit	-12.6082
oh	-12.6087
▁interiors	-12.609
▁monet	-12.6099
oss	-12.6103
▁meal	-12.6104
▁refer	-12.6109
▁texted	-12.6114
couple	-12.6122
isable	-12.6127
problem	-12.6128
▁bio	-12.6129
ines	-12.6132
▁Air	-12.6135
awful	-12.6141
▁escalat	-12.6154
▁optimis	-12.6157
▁dope	-12.6158
ina	-12.6158
▁duper	-12.6164
▁void	-12.6166
ently	-12.6166
▁tray	-12.6175
ib	-12.6185
▁bounds	-12.619
bl	-12.6207
▁yay	-12.6225
▁pok	-12.6228
▁scapes	-12.6233
▁dragon	-12.6234
uninstalling	-12.6234
lows	-12.6238
▁chromecasting	-12.6238
▁inconsistenc	-12.6239
▁presum	-12.624
▁notifs	-12.6241
wish	-12.6241
album	-12.6241
▁frick	-12.6244
▁camp	-12.6248
issues	-12.6257
▁grinds	-12.626
kins	-12.6269
shooting	-12.6273
runchy	-12.6274
▁filing	-12.628
▁nauseat	-12.6287
▁exploit	-12.629
audio	-12.6293
▁wood	-12.6296
▁shu	-12.63
▁gre	-12.6306
nned	-12.6307
range	-12.6309
▁mon	-12.6316
information	-12.632
rank	-12.6324
room	-12.6325
▁irl	-12.633
Adobe	-12.6331
▁skull	-12.6339
▁timely	-12.6345
▁Action	-12.635
▁shorten	-12.6354
gram	-12.6355
issue	-12.6367
▁fluctuat	-12.6376
ogue	-12.6382
▁belief	-12.6384
▁analy	-12.6387
▁aggravate	-12.6388
nytime	-12.6408
ased	-12.641
▁Ab	-12.6413
▁curse	-12.6417
▁goof	-12.642
instead	-12.6421
password	-12.6422
▁mash	-12.6432
▁gri	-12.6438
updates	-12.644
▁practic	-12.6444
▁accepts	-12.6449
lc	-12.645
dmi	-12.6462
born	-12.6463
iber	-12.6467
▁textbox	-12.6468
ubbed	-12.6481
laptop	-12.6483
ism	-12.6487
eaving	-12.649
▁pool	-12.6498
▁annoyances	-12.6506
▁prov	-12.6509
▁inspired	-12.6527
▁structures	-12.6527
▁lett	-12.6528
mostly	-12.6529
recognised	-12.6531
▁grows	-12.6537
elps	-12.6541
whatsapp	-12.6543
▁ears	-12.6546
ond	-12.6554
efully	-12.6557
ten	-12.656
nes	-12.6565
color	-12.6565
truggle	-12.6567
▁autorotat	-12.6569
▁fea	-12.6582
▁wr	-12.6583
▁mount	-12.6587
drop	-12.6612
▁fe	-12.6616
easy	-12.663
sp	-12.6637
includ	-12.6644
uh	-12.6649
▁solo	-12.665
▁informati	-12.6665
thank	-12.6684
comic	-12.6686
blank	-12.6691
▁paths	-12.6696
▁shout	-12.6698
▁influence	-12.6699
ana	-12.6709
▁timings	-12.6711
▁shee	-12.6715
▁reconnects	-12.6723
ishing	-12.6727
ural	-12.6739
ime	-12.6756
software	-12.6763
▁fave	-12.6764
ours	-12.6774
site	-12.6783
▁interupt	-12.6783
▁comple	-12.6784
levels	-12.6795
important	-12.6802
ively	-12.6803
▁countrys	-12.681
▁bur	-12.6815
mute	-12.6817
werk	-12.6819
▁censors	-12.6828
has	-12.6831
rough	-12.6834
▁ri	-12.6841
oll	-12.6845
▁preserv	-12.6851
▁rides	-12.6853
▁porta	-12.6855
wasting	-12.6864
otherwise	-12.6867
unch	-12.6876
▁av	-12.688
▁recast	-12.6896
▁schedul	-12.69
hole	-12.6906
mes	-12.6909
tall	-12.6909
Android	-12.6918
▁unl	-12.6927
▁tea	-12.693
▁waaaa	-12.6932
ingreinstalling	-12.6934
▁alike	-12.6935
nite	-12.6936
▁bounc	-12.6939
▁serv	-12.694
▁prescripti	-12.6951
rint	-12.6955
▁shake	-12.696
▁scroller	-12.6968
▁spo	-12.6972
ches	-12.7
map	-12.7001
groups	-12.7003
pd	-12.7005
▁creat	-12.7007
▁reput	-12.7011
respective	-12.7016
related	-12.7016
cable	-12.7021
▁gifter	-12.7022
▁snail	-12.7023
▁blo	-12.7032
▁bogg	-12.7033
▁eve	-12.7038
▁finds	-12.704
syncing	-12.7041
▁goodbut	-12.7042
▁wash	-12.705
falls	-12.7051
▁gro	-12.7055
▁unreleas	-12.7058
cked	-12.7058
rew	-12.7069
ection	-12.7072
▁facesmi	-12.7073
▁holder	-12.7089
umb	-12.7092
▁island	-12.7092
▁cha	-12.7094
source	-12.7098
versa	-12.7103
▁Tr	-12.7107
▁agrees	-12.7114
▁shear	-12.7114
lit	-12.7121
ITA	-12.7123
▁perm	-12.7131
▁prove	-12.7135
Audio	-12.7142
▁suite	-12.7145
ooo	-12.7157
▁cautio	-12.7162
▁conserve	-12.7172
▁refin	-12.7174
sue	-12.7175
who	-12.7175
eak	-12.7176
dated	-12.7179
ger	-12.7181
listen	-12.7186
▁hint	-12.7188
shot	-12.719
dits	-12.7198
enig	-12.7207
recorded	-12.7208
delete	-12.7209
ecame	-12.7211
oney	-12.7214
des	-12.7215
boring	-12.7222
▁pointer	-12.7222
lr	-12.7229
▁messe	-12.7229
▁pros	-12.7242
▁pirat	-12.7245
isual	-12.7252
▁del	-12.7254
Touch	-12.7271
▁tear	-12.7279
▁rang	-12.7279
synchroni	-12.7279
▁clipp	-12.728
▁des	-12.7295
horoughly	-12.7297
▁volumes	-12.73
Then	-12.7305
games	-12.731
years	-12.7314
come	-12.7322
ully	-12.7326
▁intr	-12.7326
index	-12.7329
▁unsav	-12.7335
rack	-12.7345
crashes	-12.7346
almost	-12.7348
bugs	-12.7361
decorating	-12.7365
shirt	-12.7376
▁pod	-12.7378
▁fp	-12.7382
▁cus	-12.7386
skin	-12.739
verse	-12.7401
familiar	-12.7404
▁switche	-12.7404
▁int	-12.7411
arts	-12.7418
link	-12.7424
subscriptions	-12.7427
▁drown	-12.7434
opup	-12.7442
worthy	-12.7442
playback	-12.7444
stick	-12.7447
min	-12.7452
bies	-12.7465
lt	-12.7468
▁recreat	-12.7469
▁sol	-12.7471
been	-12.7477
productive	-12.7486
▁fakes	-12.7488
rab	-12.749
▁unsu	-12.7494
▁hea	-12.7495
▁ref	-12.7497
stalled	-12.7503
band	-12.7513
note	-12.7525
▁integr	-12.7531
common	-12.7531
▁sacrific	-12.7534
ching	-12.7536
▁evening	-12.7543
eviate	-12.7545
▁gardenscape	-12.7551
iv	-12.756
rm	-12.7602
▁Impressive	-12.7605
tone	-12.7611
cat	-12.7618
▁imagin	-12.7621
ign	-12.7627
▁loo	-12.7629
ifting	-12.7635
cheduling	-12.7644
ured	-12.7646
nintuitive	-12.7656
▁emp	-12.766
input	-12.7676
ift	-12.7689
tep	-12.7692
shape	-12.7704
ined	-12.771
▁functioned	-12.772
hromecasting	-12.773
▁happend	-12.775
▁backspac	-12.7767
▁elon	-12.7768
▁defin	-12.7771
forced	-12.7772
power	-12.7788
nock	-12.7794
crap	-12.7794
▁androids	-12.7805
▁surpass	-12.7814
▁plant	-12.7818
graphics	-12.7822
▁obstruct	-12.7834
lots	-12.7839
ses	-12.7843
oc	-12.7848
▁imm	-12.7853
itness	-12.7857
ipping	-12.7858
nedrive	-12.786
▁pv	-12.7871
etti	-12.7876
ross	-12.7889
▁subt	-12.79
scam	-12.7902
inf	-12.7904
fro	-12.7905
▁fork	-12.7909
pider	-12.791
▁exaggerate	-12.7918
▁silenc	-12.7922
tually	-12.7923
▁retriev	-12.7931
▁nail	-12.7941
iggy	-12.7942
getting	-12.7964
post	-12.7968
▁recipe	-12.7973
bi	-12.7988
apped	-12.7996
ires	-12.7997
asses	-12.8019
ming	-12.8027
▁minimise	-12.8033
others	-12.8036
ips	-12.804
▁impli	-12.8047
restore	-12.8055
pro	-12.8057
twitch	-12.8057
▁eraser	-12.8069
ult	-12.8077
▁cent	-12.808
▁wrongly	-12.8087
chase	-12.8093
▁revolv	-12.8122
▁cla	-12.8124
tra	-12.8133
▁its	-12.8137
ances	-12.8141
▁hum	-12.8152
▁happ	-12.8155
▁establish	-12.8158
found	-12.8158
centered	-12.816
always	-12.8168
scription	-12.8189
▁buys	-12.8192
recent	-12.82
▁terminate	-12.8208
ern	-12.8238
ener	-12.8241
worked	-12.8246
turn	-12.8246
xes	-12.825
hotography	-12.8252
▁collaborat	-12.8254
usually	-12.8265
bye	-12.8282
sk	-12.8287
▁crunch	-12.8294
▁pac	-12.8306
▁humbl	-12.8307
imes	-12.8309
▁gar	-12.8326
▁Twi	-12.8331
buy	-12.8333
signatures	-12.8338
ished	-12.8344
▁reiterat	-12.8344
reaking	-12.8345
orm	-12.8349
aff	-12.8351
ripping	-12.8356
ota	-12.836
ferent	-12.8361
fy	-12.8367
Add	-12.8369
catch	-12.8378
gated	-12.838
▁tops	-12.838
▁fla	-12.8381
▁possess	-12.8385
▁sk	-12.8387
▁prev	-12.8395
une	-12.8403
culation	-12.8406
erce	-12.841
▁breathe	-12.8413
▁nois	-12.8426
thor	-12.843
▁exercis	-12.843
▁troubles	-12.8433
▁pun	-12.8437
▁nit	-12.844
▁purchas	-12.844
oyful	-12.8441
sports	-12.8449
suming	-12.845
send	-12.8459
heats	-12.8468
▁crackl	-12.8476
ker	-12.8482
eave	-12.8483
luc	-12.8483
▁phon	-12.8486
▁retract	-12.8496
▁chees	-12.8498
▁experi	-12.8501
enu	-12.8503
lec	-12.8504
▁fitbits	-12.8505
inal	-12.8518
heap	-12.8521
uninstall	-12.8523
hopping	-12.8526
etry	-12.8528
▁featur	-12.8529
thr	-12.8535
▁mult	-12.8551
▁styl	-12.8557
complete	-12.8558
ource	-12.8562
▁Item	-12.8567
▁gl	-12.8571
ission	-12.8571
tip	-12.8572
▁med	-12.858
atches	-12.8584
release	-12.8587
ambo	-12.8588
raphic	-12.8596
▁una	-12.8607
ute	-12.8608
proportiona	-12.8628
▁define	-12.8671
▁era	-12.8679
▁displeas	-12.868
cting	-12.8687
▁bru	-12.8688
▁audi	-12.8688
nstalling	-12.8689
▁subscrip	-12.8692
croll	-12.8692
ogg	-12.8698
raining	-12.8699
inting	-12.8699
▁hol	-12.8702
▁slim	-12.8702
sive	-12.8703
rest	-12.8705
fic	-12.8708
uses	-12.8709
stopper	-12.8713
hi	-12.872
▁neut	-12.8722
certain	-12.8737
draw	-12.8737
▁grip	-12.8749
pload	-12.8751
▁dud	-12.8755
ormat	-12.8756
▁cas	-12.8757
experience	-12.876
ature	-12.876
mies	-12.8761
stories	-12.8763
▁cycl	-12.878
▁politic	-12.8782
evin	-12.8782
raft	-12.8786
▁interfac	-12.8789
igning	-12.879
▁slam	-12.8791
peech	-12.8795
nology	-12.8796
onic	-12.8799
▁emotion	-12.88
▁identifi	-12.8801
hance	-12.8803
▁ingredient	-12.8808
remov	-12.8808
▁organisation	-12.8809
▁alien	-12.8813
pping	-12.8813
▁massage	-12.8818
▁mob	-12.8823
▁italic	-12.8824
▁dimond	-12.8825
▁statistic	-12.8825
▁mutant	-12.8827
▁appointment	-12.8828
▁polic	-12.8828
▁coupon	-12.8828
▁arise	-12.883
▁packet	-12.8833
kipping	-12.8834
enya	-12.8835
▁scope	-12.8836
▁lab	-12.8836
▁designate	-12.8837
practical	-12.884
▁collaps	-12.8842
▁drink	-12.8843
▁plugin	-12.8844
egard	-12.8847
aced	-12.8848
▁reinforc	-12.8853
lying	-12.8854
hing	-12.8859
▁Terribl	-12.8859
▁misspell	-12.8862
egular	-12.8862
xpect	-12.8863
xciting	-12.8863
erky	-12.8864
▁instantaneous	-12.8872
napchat	-12.8874
▁tremendous	-12.8876
uspect	-12.8877
moothness	-12.8877
uild	-12.8877
▁substantial	-12.8878
▁adverti	-12.8878
▁reimburse	-12.8879
tax	-12.888
ollow	-12.8882
pgrade	-12.8882
▁batter	-12.8883
mobi	-12.8883
▁revise	-12.8884
▁thankful	-12.8884
ritical	-12.8884
▁deaf	-12.8886
xceptional	-12.8887
eached	-12.8888
▁elevat	-12.8889
utorial	-12.889
chievements	-12.889
ccording	-12.889
rivacy	-12.889
urchasing	-12.889
▁furthe	-12.8891
ifferent	-12.8891
ommunity	-12.8891
pponent	-12.8891
isturb	-12.8892
isgusting	-12.8892
hysics	-12.8892
hours	-12.8892
▁Trouble	-12.8892
ompatible	-12.8892
friendly	-12.8893
aximum	-12.8893
ediocre	-12.8893
avourites	-12.8893
oderation	-12.8893
icrophone	-12.8893
olours	-12.8894
efund	-12.8894
hoice	-12.8896
serfriendly	-12.8896
ursday	-12.8896
nfortunate	-12.8896
▁embed	-12.8896
▁urge	-12.8897
uarantine	-12.8897
errari	-12.8897
ixelbite	-12.8897
ophobic	-12.8897
pikpok	-12.8897
uadruple	-12.8897
uibble	-12.8897
unkphishing	-12.8897
▁Terrarium	-12.8897
▁Tycoon	-12.8897
▁abomination	-12.8897
▁adrenaline	-12.8897
▁alpha	-12.8897
▁ammunition	-12.8897
▁arbitrarily	-12.8897
▁arsenal	-12.8897
▁astronomical	-12.8897
▁blockbuster	-12.8897
▁carnival	-12.8897
▁certificate	-12.8897
▁crippling	-12.8897
▁criteria	-12.8897
▁demotivated	-12.8897
▁dissuade	-12.8897
▁emoticons	-12.8897
▁enviroment	-12.8897
▁franchise	-12.8897
▁hiatus	-12.8897
▁luxury	-12.8897
▁marathon	-12.8897
▁mindblowing	-12.8897
▁outweigh	-12.8897
▁protagonist	-12.8897
▁rectangular	-12.8897
▁rediculas	-12.8897
▁restaurant	-12.8897
▁sheriff	-12.8897
▁stimulating	-12.8897
▁terminology	-12.8897
▁understatement	-12.8897
▁unwelcome	-12.8897
▁assortment	-12.8897
▁kitchen	-12.8897
▁supervisor	-12.8897
▁onthego	-12.8897
▁procedur	-12.8897
▁shrunk	-12.8897
▁victim	-12.8897
▁Answer	-12.8897
▁begrudg	-12.8897
▁contrived	-12.8897
▁nickname	-12.8897
▁annyoing	-12.8897
▁onebyone	-12.8897
▁pornography	-12.8897
▁anchor	-12.8897
▁disgrace	-12.8897
▁pregnancy	-12.8897
▁slabs	-12.8897
▁breathtaking	-12.8897
▁irregular	-12.8897
▁multilingual	-12.8897
▁refinement	-12.8897
▁werewol	-12.8897
▁disapointed	-12.8897
▁pixilated	-12.8897
▁regressed	-12.8897
▁samba	-12.8897
▁waveform	-12.8897
▁bpm	-12.8897
▁voila	-12.8897
▁hustle	-12.8897
▁kilomet	-12.8897
kraine	-12.8897
▁applicable	-12.8897
▁abroad	-12.8897
▁deterrent	-12.8897
▁unencrypted	-12.8897
▁deteriorating	-12.8897
▁inconvience	-12.8897
▁fwd	-12.8897
▁progess	-12.8897
▁hastle	-12.8897
▁telephone	-12.8897
▁trustworthy	-12.8897
▁wallpaper	-12.8897
▁downvote	-12.8897
▁village	-12.8897
▁irrational	-12.8897
▁iptv	-12.8897
eweled	-12.8897
▁cyber	-12.8897
▁demotivating	-12.8897
▁reflex	-12.8897
▁fluke	-12.8897
▁nutri	-12.8897
▁studies	-12.8897
▁heartslives	-12.8897
▁turbo	-12.8897
▁inconsistencies	-12.8897
▁fluff	-12.8897
▁enticing	-12.8897
▁precision	-12.8897
▁debrid	-12.8897
▁oldschool	-12.8897
▁teeth	-12.8897
actic	-12.8897
▁muddle	-12.8897
▁brodcast	-12.8897
▁erroneous	-12.8898
▁fantasy	-12.8898
▁inhibit	-12.8898
▁eyestraining	-12.8898
▁harsh	-12.8898
▁unnatural	-12.8898
▁adamant	-12.8898
▁technician	-12.8898
igeria	-12.8898
▁fingerprint	-12.8898
▁adorable	-12.8898
▁shiftlock	-12.8898
▁gaslight	-12.8898
▁amplif	-12.8898
▁triangle	-12.8898
▁godawful	-12.8898
▁functionalities	-12.8898
▁sleek	-12.8898
▁unresolved	-12.8898
riod	-12.8898
▁gadget	-12.8898
▁moderator	-12.8898
▁nonfunctional	-12.8898
▁rebrand	-12.8898
▁fluency	-12.8898
▁flair	-12.8898
▁habla	-12.8899
▁midair	-12.8899
▁effortlessly	-12.8899
▁ceases	-12.8899
▁culture	-12.8899
▁repetetive	-12.8899
▁obligated	-12.8899
▁collaboration	-12.8899
▁offputting	-12.8899
▁repeatitive	-12.8899
nsubscribed	-12.8899
▁cartoonish	-12.8899
▁prettier	-12.8899
▁inactivity	-12.89
▁specta	-12.89
▁megabytes	-12.89
▁Atmos	-12.89
▁vehiche	-12.89
▁nitpick	-12.89
▁grafic	-12.89
▁sideswipe	-12.89
▁sustain	-12.89
▁bruh	-12.89
▁personalities	-12.89
▁standby	-12.89
▁yousician	-12.89
▁familiarity	-12.89
▁uncompressed	-12.89
▁picsvideos	-12.89
▁congratulat	-12.89
orthless	-12.89
▁studder	-12.89
▁shaders	-12.89
▁cringe	-12.89
▁robbery	-12.8901
▁drunk	-12.8901
▁predictable	-12.8901
▁inception	-12.8901
▁skimp	-12.8901
▁tailor	-12.8901
▁specif	-12.8901
▁tidy	-12.8901
▁tempera	-12.8901
▁Thanksgiving	-12.8901
▁glory	-12.8902
▁midsong	-12.8902
lowkey	-12.8902
edium	-12.8902
▁cousin	-12.8902
▁remodel	-12.8902
▁marshals	-12.8902
▁champ	-12.8903
▁perfectionist	-12.8903
▁instrument	-12.8903
▁fastpaced	-12.8903
▁hobby	-12.8903
udging	-12.8903
▁stepping	-12.8903
▁loophole	-12.8903
▁freevee	-12.8903
▁daytoday	-12.8903
▁unforgiving	-12.8903
▁distractive	-12.8904
▁titan	-12.8904
▁uncontrollably	-12.8904
▁motivational	-12.8904
▁unchanged	-12.8904
andwi	-12.8904
▁illustrated	-12.8904
amaro	-12.8904
▁kmh	-12.8905
▁unoriginal	-12.8905
▁chaper	-12.8905
▁vivid	-12.8905
▁bursts	-12.8906
uccumb	-12.8906
▁letterboxe	-12.8907
ottom	-12.8907
▁overdone	-12.8908
▁unreal	-12.8908
▁onesided	-12.8908
egret	-12.8908
▁vomiting	-12.8908
igured	-12.8908
▁pretend	-12.8909
▁poof	-12.8909
▁profitable	-12.8909
ummed	-12.8909
put	-12.8909
▁retarded	-12.891
▁smoke	-12.8911
ealms	-12.8911
▁portray	-12.8911
▁hardcover	-12.8911
▁touchpad	-12.8911
▁videospictures	-12.8911
stars	-12.8912
▁hiking	-12.8912
▁discre	-12.8912
hasms	-12.8912
▁slowdown	-12.8912
▁cur	-12.8912
▁expectation	-12.8913
▁workshop	-12.8914
▁reimbursed	-12.8914
▁disorder	-12.8914
▁reduction	-12.8914
▁wasteful	-12.8914
▁disconnection	-12.8915
▁periodic	-12.8915
▁honor	-12.8915
▁revised	-12.8916
▁evident	-12.8916
▁chaos	-12.8916
reedy	-12.8917
▁hostess	-12.8917
▁invitation	-12.8917
▁stalking	-12.8917
▁eyesthumbs	-12.8917
kn	-12.8918
▁groupchats	-12.8918
wield	-12.8918
ised	-12.8918
▁adsupported	-12.8919
unning	-12.892
▁teenagers	-12.892
anually	-12.892
▁miniplayer	-12.892
▁waterfall	-12.892
▁consult	-12.8923
eliable	-12.8923
▁panda	-12.8923
toms	-12.8923
▁fluctuation	-12.8924
▁haha	-12.8924
▁continent	-12.8925
▁supercars	-12.8925
▁auther	-12.8926
▁aggravated	-12.8926
▁framerate	-12.8927
ranted	-12.8927
▁snapchat	-12.8927
▁abnormal	-12.8927
▁irks	-12.8928
▁incessantly	-12.8928
rowser	-12.8928
ccessibility	-12.8929
▁planks	-12.8929
▁teamwork	-12.893
▁overlapping	-12.8931
▁dialect	-12.8931
attery	-12.8932
▁paycheck	-12.8932
▁unsyncing	-12.8933
xy	-12.8936
frica	-12.8937
▁independently	-12.8937
▁infinity	-12.8937
▁imagevideo	-12.8938
onnected	-12.8939
eturning	-12.8939
esolve	-12.8939
etails	-12.8939
▁turnoff	-12.8939
▁apologi	-12.8941
▁softer	-12.8941
oneti	-12.8942
harp	-12.8942
▁noobs	-12.8942
▁personality	-12.8942
▁nudes	-12.8942
▁restoration	-12.8943
▁retro	-12.8943
▁drug	-12.8944
▁complications	-12.8944
▁constraint	-12.8944
▁viruses	-12.8945
learn	-12.8945
▁oversi	-12.8946
▁tycoons	-12.8946
▁pricy	-12.8947
▁assignments	-12.8947
▁hangup	-12.8947
▁statements	-12.8948
eporting	-12.8948
▁leaf	-12.8949
▁sounding	-12.8949
▁stub	-12.895
▁acknowledged	-12.895
ploaded	-12.8951
lub	-12.8951
▁height	-12.8952
▁reliever	-12.8952
▁Among	-12.8953
▁allround	-12.8954
ustifie	-12.8954
▁exam	-12.8954
▁audioonly	-12.8954
▁clickbaity	-12.8954
tt	-12.8955
▁raids	-12.8955
aliasing	-12.8955
▁urgently	-12.8956
▁thereof	-12.8956
▁respectively	-12.8956
ualify	-12.8956
▁gloss	-12.8958
▁incorporated	-12.8959
▁extention	-12.8959
idgets	-12.8959
▁accou	-12.896
unday	-12.8961
▁kin	-12.8962
▁fishy	-12.8964
▁instructor	-12.8964
theless	-12.8966
▁undone	-12.8966
▁alleg	-12.8966
▁corse	-12.8966
▁abc	-12.8966
alsely	-12.8968
▁suffered	-12.8971
▁consecutively	-12.8972
anceling	-12.8975
▁variant	-12.8975
▁Info	-12.8977
tates	-12.8979
▁massages	-12.898
responsibility	-12.8983
kers	-12.8983
▁xs	-12.8983
und	-12.8983
▁Island	-12.8985
active	-12.8987
aker	-12.8987
ubse	-12.8988
▁suspend	-12.899
▁polishing	-12.899
▁dive	-12.899
▁approaches	-12.8992
bumper	-12.8994
▁dinged	-12.8999
▁highway	-12.9
▁imitate	-12.9001
▁meantime	-12.9002
esson	-12.9003
▁spark	-12.9004
▁boun	-12.9005
otography	-12.9007
ugations	-12.9008
▁facethumbs	-12.9009
raid	-12.901
▁mountains	-12.901
astroph	-12.9013
exploded	-12.9013
unctions	-12.9014
▁Twic	-12.9014
▁recon	-12.9016
▁invoice	-12.902
▁badass	-12.9021
▁murderer	-12.9023
▁traps	-12.9026
▁audiovideo	-12.9027
▁dress	-12.9028
▁styling	-12.9029
olls	-12.9031
uins	-12.9036
nstru	-12.9037
▁poses	-12.9037
▁setback	-12.9038
bugging	-12.9038
ranslation	-12.9044
▁spotlight	-12.9044
commercials	-12.9046
ecting	-12.9046
interupted	-12.9046
cise	-12.9046
shock	-12.9047
ddy	-12.9047
▁comeback	-12.905
▁restricting	-12.9051
htm	-12.9052
▁accompany	-12.9053
big	-12.9055
▁downtime	-12.9055
layable	-12.9055
evices	-12.9056
▁cracking	-12.9056
▁overtime	-12.9057
▁hardwork	-12.9058
vertime	-12.9059
lined	-12.9061
ersey	-12.9061
palm	-12.9061
▁decks	-12.9061
▁downs	-12.9062
▁productions	-12.9065
▁asf	-12.9066
listening	-12.9067
efaults	-12.9069
▁settle	-12.907
uildings	-12.907
pronounce	-12.907
lette	-12.9071
▁sans	-12.9076
ws	-12.9076
ista	-12.9077
▁peice	-12.9077
▁calend	-12.9081
▁reccomended	-12.9081
picture	-12.9083
▁masks	-12.9085
▁cancelation	-12.9088
oorly	-12.9088
ech	-12.9091
voluntar	-12.9099
▁Tak	-12.9101
arol	-12.9105
▁beast	-12.9109
▁exploiter	-12.9111
▁slog	-12.9112
▁startling	-12.9113
▁beatable	-12.9115
option	-12.9115
▁scanner	-12.9117
▁webm	-12.9118
▁mistaken	-12.912
▁Inter	-12.912
▁timeframe	-12.9122
▁resemble	-12.9122
▁blasted	-12.9128
▁simplifi	-12.9132
▁delivery	-12.9133
▁professionally	-12.9133
▁singer	-12.9134
easons	-12.9135
grading	-12.9136
▁dims	-12.9136
▁multipliers	-12.914
▁rankings	-12.9141
▁tearsm	-12.9141
iment	-12.9143
inel	-12.9144
▁capab	-12.9144
commend	-12.9151
▁permit	-12.9152
▁spi	-12.9153
▁hurri	-12.9154
▁crypt	-12.9155
eeping	-12.9159
luster	-12.9161
ists	-12.9162
▁snapp	-12.9166
▁reposts	-12.9166
▁thirst	-12.9166
▁elig	-12.9167
oul	-12.9168
▁programmer	-12.9169
neut	-12.917
▁stitch	-12.9174
▁twin	-12.9179
reative	-12.9182
chapter	-12.9184
▁than	-12.9191
▁defen	-12.9197
▁ringtone	-12.9197
▁peaceful	-12.9205
rops	-12.9207
uint	-12.921
▁measures	-12.9212
upload	-12.9218
ppreciate	-12.9219
▁senses	-12.922
▁captures	-12.9221
▁sincere	-12.9223
▁respectful	-12.9225
orror	-12.923
ux	-12.923
▁huh	-12.9232
ported	-12.9232
▁multiply	-12.9239
ervices	-12.924
▁narration	-12.9241
cific	-12.9242
▁maby	-12.9242
▁deafen	-12.9242
▁proficien	-12.9243
▁blog	-12.9245
closed	-12.9245
▁discounts	-12.9246
cars	-12.9246
▁Ask	-12.9248
oft	-12.9251
humbs	-12.9252
▁Town	-12.9253
▁expressions	-12.9258
naps	-12.9258
▁rose	-12.9258
lowly	-12.9258
▁producer	-12.926
▁outlin	-12.9261
ands	-12.9265
allery	-12.9269
eral	-12.9269
▁humans	-12.9273
▁pronunciations	-12.9274
▁dip	-12.9276
▁moto	-12.9282
oids	-12.9287
▁territor	-12.9295
ilk	-12.9297
▁bog	-12.9297
rful	-12.9301
controllable	-12.9305
▁sigh	-12.9308
rial	-12.931
rivate	-12.9317
▁milk	-12.9321
▁accus	-12.9321
lost	-12.9326
citing	-12.9326
▁sandbo	-12.9326
▁Troubleshoot	-12.9327
reconfigure	-12.9329
▁pov	-12.9337
▁drawbacks	-12.9338
▁saturation	-12.934
▁buggi	-12.9341
▁erratic	-12.9341
▁peek	-12.9344
cared	-12.9348
▁dock	-12.935
▁disorgani	-12.9355
ketb	-12.9355
▁pointers	-12.9357
▁tiers	-12.9358
▁conf	-12.9358
▁audiophile	-12.9358
▁magnet	-12.9372
certainty	-12.9373
▁gosh	-12.9375
▁Albums	-12.9376
▁marri	-12.9376
▁loa	-12.9377
▁van	-12.9377
▁converter	-12.9377
▁graphing	-12.9381
▁pts	-12.9384
▁endorse	-12.9385
▁sens	-12.9388
▁tu	-12.9388
perfect	-12.9393
▁shi	-12.9395
▁optin	-12.9395
nger	-12.9397
ules	-12.9398
evis	-12.94
▁Idea	-12.9414
xamples	-12.942
declare	-12.942
▁acou	-12.9423
▁subgame	-12.9424
late	-12.9425
▁uninspir	-12.9426
▁unobt	-12.9427
events	-12.943
olo	-12.9431
orphe	-12.9432
▁dish	-12.9435
gets	-12.9437
▁dowload	-12.9438
ctic	-12.9439
hdr	-12.9441
started	-12.9441
ibbe	-12.9442
subbing	-12.9448
law	-12.945
▁revent	-12.945
disappointed	-12.9454
tunes	-12.9454
▁surprises	-12.9457
▁hal	-12.9473
net	-12.9477
▁tower	-12.9479
rimar	-12.948
maybe	-12.9481
▁kindle	-12.9481
uts	-12.9484
dle	-12.9488
▁sideload	-12.9495
charge	-12.9507
▁delivers	-12.9512
▁limb	-12.9513
test	-12.952
▁bust	-12.9521
▁catagor	-12.9522
Tv	-12.9528
remove	-12.9533
▁sabotage	-12.9535
installing	-12.954
▁longpress	-12.9551
allen	-12.9551
luxe	-12.9553
ford	-12.9555
aken	-12.9556
xit	-12.9558
▁dealer	-12.9559
dis	-12.9571
channel	-12.9582
inted	-12.9584
▁Ta	-12.9585
▁reacts	-12.9593
whenever	-12.9594
▁onestar	-12.9596
esses	-12.9597
bo	-12.9598
▁truthful	-12.9603
▁machines	-12.9604
▁att	-12.9616
rue	-12.9617
▁authentic	-12.9619
▁sucker	-12.9626
wo	-12.9633
▁Thin	-12.9634
fine	-12.9634
▁blurr	-12.9635
skip	-12.9643
▁pursu	-12.9652
▁Tune	-12.9654
▁lean	-12.9658
lower	-12.9663
nest	-12.9663
opics	-12.9666
ament	-12.968
▁filming	-12.9682
week	-12.9691
rma	-12.9692
▁marke	-12.9695
▁wen	-12.9698
▁suppress	-12.9702
▁headaches	-12.9704
▁previewed	-12.971
cock	-12.9715
burg	-12.9719
▁bul	-12.9723
dispens	-12.9725
yt	-12.9732
eedless	-12.9737
behaving	-12.9742
hr	-12.9746
meter	-12.9748
ggling	-12.975
super	-12.975
▁tim	-12.9752
▁cou	-12.9753
nice	-12.9758
▁descend	-12.976
bu	-12.9761
exic	-12.9761
▁corn	-12.9765
▁debate	-12.9765
▁interfaces	-12.9769
▁papers	-12.9792
lig	-12.9794
▁distan	-12.9796
emind	-12.9811
kan	-12.9825
▁swapp	-12.9826
au	-12.9837
▁craps	-12.9838
glitch	-12.9846
▁reinstalls	-12.9847
▁snip	-12.9851
ovels	-12.9856
everything	-12.9861
glasses	-12.9861
▁crackle	-12.9862
offline	-12.9864
▁dys	-12.9865
installed	-12.9872
▁retweet	-12.9876
▁probable	-12.9884
ricket	-12.9885
▁bound	-12.9889
▁dub	-12.9893
▁calibrate	-12.9899
ealistic	-12.9908
▁wound	-12.9909
volume	-12.992
yth	-12.993
▁gran	-12.9931
▁observe	-12.9953
obless	-12.9953
era	-12.9954
▁bridge	-12.9956
upgrade	-12.9973
image	-12.9987
loper	-12.9987
▁steamer	-12.9988
cool	-12.9989
developers	-12.9989
calls	-12.999
▁facew	-12.999
riggin	-12.9993
buffering	-12.9994
egas	-12.9997
▁.....	-13
▁overcomplicat	-13
tinel	-13.0005
uplicate	-13.0006
▁mindful	-13.001
▁trashed	-13.0013
▁che	-13.0018
ali	-13.0021
anything	-13.0024
▁installer	-13.0029
▁exper	-13.0047
navigate	-13.005
pression	-13.0051
gif	-13.0055
oooo	-13.0065
bits	-13.0075
mission	-13.0083
▁compa	-13.0088
▁appservice	-13.0089
▁blackmail	-13.0101
voice	-13.0104
▁cook	-13.0104
▁recheck	-13.0105
whatever	-13.0106
▁readi	-13.0114
▁warm	-13.0118
▁lat	-13.0119
tal	-13.0127
▁grim	-13.0137
▁layer	-13.0142
▁schooler	-13.0146
▁shortage	-13.0148
▁spe	-13.0159
needed	-13.0162
titles	-13.0173
hear	-13.0176
content	-13.0176
online	-13.0181
▁don	-13.0185
eful	-13.0199
▁y	-13.0201
scales	-13.0203
▁punc	-13.0208
▁ther	-13.0209
aged	-13.021
lix	-13.0216
position	-13.0217
▁rewinded	-13.0225
▁ph	-13.0231
anag	-13.0233
ntly	-13.0234
ening	-13.0238
touch	-13.0239
elative	-13.0248
lee	-13.0265
▁shoulder	-13.0265
yearly	-13.0269
▁hello	-13.0271
rry	-13.0271
▁agr	-13.028
▁establishe	-13.0286
▁bike	-13.0289
silenced	-13.0289
build	-13.0291
yet	-13.03
eams	-13.0302
▁reporte	-13.0305
▁contribute	-13.0324
▁seriesshow	-13.0326
▁schools	-13.0339
fer	-13.0347
miss	-13.0352
▁tang	-13.0353
▁wil	-13.0362
▁costume	-13.0366
raging	-13.0366
aired	-13.0381
▁unusual	-13.0386
▁hom	-13.039
▁compli	-13.0394
pher	-13.0406
constant	-13.0412
▁rise	-13.0413
▁du	-13.0416
ys	-13.0419
▁chee	-13.0421
assed	-13.0421
▁wars	-13.0426
odes	-13.0433
▁skipp	-13.0436
▁connector	-13.0436
rook	-13.0437
▁fields	-13.0439
changing	-13.0442
from	-13.0449
▁redm	-13.045
lone	-13.0451
umm	-13.0455
TIA	-13.0469
▁programme	-13.0471
ulk	-13.0478
.........	-13.0479
▁positives	-13.0489
▁ty	-13.0493
rappers	-13.0507
double	-13.051
▁thou	-13.0513
▁infr	-13.0526
arr	-13.053
▁othe	-13.0547
pointed	-13.0549
rote	-13.0551
rl	-13.0554
rev	-13.0554
ronic	-13.0555
ulation	-13.0579
▁Tv	-13.0584
edmi	-13.0588
dah	-13.059
seconds	-13.0592
hide	-13.0593
nfront	-13.0593
▁thw	-13.0597
▁gamer	-13.0597
agon	-13.0613
▁swee	-13.0616
▁playin	-13.0621
▁genera	-13.0624
eard	-13.0628
▁whet	-13.063
seems	-13.0633
exit	-13.065
humbnails	-13.0657
tures	-13.0659
▁Tool	-13.066
current	-13.0668
▁mk	-13.067
next	-13.0673
▁prem	-13.0674
ened	-13.0678
stable	-13.0695
ints	-13.0699
▁stalling	-13.0701
▁envelop	-13.0707
completed	-13.0713
through	-13.072
racy	-13.072
atin	-13.0724
▁downgrades	-13.073
ka	-13.0754
▁speaks	-13.0762
▁motiv	-13.077
lled	-13.0772
ght	-13.0775
keyboard	-13.0778
titled	-13.078
▁unde	-13.0788
oked	-13.0793
▁toil	-13.0795
▁downer	-13.0798
▁ana	-13.0813
his	-13.0813
vr	-13.082
▁char	-13.0829
cover	-13.0834
uds	-13.0837
▁Author	-13.084
chats	-13.0845
wer	-13.0874
▁invad	-13.088
▁usages	-13.0892
▁sat	-13.0901
▁sha	-13.0904
consider	-13.0905
▁incident	-13.0907
documents	-13.0909
ise	-13.092
tating	-13.0927
▁wick	-13.0931
kick	-13.0932
pic	-13.0937
▁listener	-13.0948
rewards	-13.0949
must	-13.095
members	-13.095
pens	-13.0952
nks	-13.0953
lag	-13.0957
▁empti	-13.0964
actually	-13.0965
blink	-13.0969
▁det	-13.0986
▁rotates	-13.0988
choice	-13.0992
▁intens	-13.1002
▁finals	-13.1035
▁tie	-13.1046
feedback	-13.1046
dictive	-13.1054
wipe	-13.1058
arily	-13.1073
uffers	-13.1073
▁ect	-13.1088
reader	-13.112
aaa	-13.1128
lef	-13.1128
uuu	-13.1131
ream	-13.1132
phi	-13.1135
▁slic	-13.1146
artist	-13.1152
ingers	-13.1156
hilip	-13.1158
aske	-13.1164
rave	-13.117
aves	-13.1171
▁pres	-13.1172
▁nut	-13.1174
ori	-13.1177
▁trans	-13.1187
▁bui	-13.1189
iso	-13.1192
along	-13.1195
uploads	-13.1197
▁execut	-13.1199
▁wast	-13.12
▁interfer	-13.1201
killed	-13.1213
▁prim	-13.1216
look	-13.1228
arge	-13.123
search	-13.1232
rising	-13.1233
hes	-13.1238
iming	-13.1239
war	-13.124
▁rippe	-13.1245
song	-13.1247
sort	-13.1251
▁compose	-13.1255
hyyy	-13.1263
▁facep	-13.1275
emoving	-13.1283
eyes	-13.1287
earned	-13.1291
lore	-13.1292
bel	-13.1292
▁ko	-13.1302
Tubi	-13.1305
scape	-13.1306
▁discon	-13.1311
▁inst	-13.1316
strating	-13.1319
similar	-13.1329
cks	-13.1332
py	-13.1337
downloads	-13.1343
allowe	-13.1346
▁sea	-13.1348
mental	-13.1366
▁giv	-13.1373
▁ke	-13.1373
aura	-13.1376
inspired	-13.1384
buffer	-13.1386
xcite	-13.1394
reload	-13.1402
udo	-13.141
gifs	-13.1412
thanks	-13.1413
▁heading	-13.1428
tuation	-13.1429
▁Teach	-13.143
▁poss	-13.1433
goal	-13.1433
ffr	-13.144
▁robu	-13.1457
▁faceb	-13.1458
rena	-13.1463
ords	-13.1472
ickel	-13.1474
ians	-13.1476
frame	-13.1476
illy	-13.1479
▁sane	-13.1485
▁commu	-13.1495
reas	-13.1508
hoot	-13.1511
least	-13.1513
epend	-13.1517
eadict	-13.152
unner	-13.1524
driving	-13.1537
ek	-13.1542
created	-13.1545
▁simulate	-13.1548
copy	-13.1555
brightness	-13.1557
aim	-13.1565
aging	-13.1565
▁danc	-13.1578
runs	-13.1582
lace	-13.1584
▁downgrad	-13.1586
rade	-13.1589
▁swi	-13.1604
click	-13.1605
▁spic	-13.1606
paused	-13.1611
▁devolve	-13.1613
▁abusi	-13.1618
amp	-13.1641
▁mil	-13.1643
▁swing	-13.1649
▁resting	-13.165
▁peak	-13.1657
center	-13.1665
▁AAA	-13.1668
▁violat	-13.1668
installreinstall	-13.1671
special	-13.1671
nails	-13.1681
▁blues	-13.1684
eps	-13.1684
▁stall	-13.1692
tech	-13.1692
gon	-13.1701
warning	-13.1705
influencer	-13.1708
▁announc	-13.1709
bla	-13.1711
town	-13.1718
lable	-13.1719
four	-13.1733
reating	-13.1736
ibility	-13.174
▁ru	-13.1745
rn	-13.1748
▁enforce	-13.1748
chamet	-13.1758
▁resent	-13.176
country	-13.1762
float	-13.1775
▁timelines	-13.1776
▁compat	-13.1778
▁lov	-13.178
ched	-13.1784
▁facecr	-13.1802
effort	-13.1804
▁marker	-13.1809
ormul	-13.1814
dislike	-13.1817
tism	-13.182
▁fri	-13.182
breaking	-13.1823
ournalis	-13.1824
optional	-13.1837
ecid	-13.1843
▁against	-13.1847
▁laggi	-13.1866
error	-13.1879
novel	-13.188
laps	-13.1881
▁ungo	-13.1908
hall	-13.1909
▁rear	-13.191
unlike	-13.1914
mpatibility	-13.1922
reserved	-13.1925
subscribe	-13.1926
▁impl	-13.1933
tomy	-13.1937
fu	-13.1943
base	-13.1954
claim	-13.1956
sentence	-13.1958
gender	-13.1959
tail	-13.1964
hu	-13.1965
▁den	-13.1969
▁ye	-13.1982
ocked	-13.1983
cons	-13.2005
eeper	-13.2008
public	-13.2009
▁doubl	-13.2012
everyone	-13.2022
uhh	-13.2027
stead	-13.203
competitive	-13.205
olb	-13.2053
directory	-13.2055
trigger	-13.2068
▁aired	-13.2068
critical	-13.207
▁tre	-13.2075
battle	-13.2079
train	-13.2082
balls	-13.2091
killer	-13.2093
tems	-13.2095
grim	-13.2096
▁father	-13.2098
▁deduct	-13.2102
hundred	-13.211
earbuds	-13.2112
▁nee	-13.2113
children	-13.2114
▁gli	-13.2114
icon	-13.2115
▁Improvement	-13.2119
static	-13.2124
speaking	-13.2126
▁vis	-13.2129
fea	-13.2134
rin	-13.2142
chrome	-13.2143
arrow	-13.2145
growing	-13.2147
▁reasonabl	-13.2154
thirds	-13.2158
loss	-13.2161
ising	-13.2163
heavy	-13.2164
truck	-13.2166
echnology	-13.2166
water	-13.2168
tiktok	-13.2172
▁tones	-13.2178
fixing	-13.2178
decorations	-13.2178
awn	-13.2184
beginners	-13.2186
vob	-13.219
phrases	-13.22
ula	-13.22
representati	-13.22
billion	-13.2204
fight	-13.2206
Time	-13.2207
▁workable	-13.2211
avor	-13.2221
opportun	-13.223
▁grouping	-13.2231
belief	-13.2246
reopening	-13.2247
Assistant	-13.2248
▁rent	-13.2252
under	-13.2253
latency	-13.2253
bridge	-13.2255
ras	-13.2256
tho	-13.2256
ilent	-13.2257
▁tin	-13.2257
playable	-13.2262
profit	-13.2264
▁totals	-13.227
determined	-13.2272
oriented	-13.2273
As	-13.2277
life	-13.2283
satisfied	-13.2287
regards	-13.2302
anger	-13.2307
lling	-13.2319
prompted	-13.2321
skull	-13.2329
▁laggin	-13.2331
flushed	-13.2331
▁rights	-13.2331
▁exce	-13.234
desk	-13.2342
sometime	-13.2345
musical	-13.2346
reconnect	-13.2348
contrast	-13.2351
smi	-13.2353
did	-13.2353
constantly	-13.2362
▁slipp	-13.2369
rit	-13.2371
uin	-13.2373
options	-13.2378
▁prep	-13.2396
▁relie	-13.2401
▁simulati	-13.2402
aring	-13.2403
uuuu	-13.2405
Insta	-13.2405
players	-13.2406
populate	-13.2409
none	-13.2412
nauseat	-13.2424
official	-13.2425
riddle	-13.2426
▁inclusi	-13.2434
▁remap	-13.2435
▁te	-13.2436
▁raid	-13.2438
▁reformat	-13.2444
ndistinguishable	-13.245
usy	-13.2456
▁wording	-13.2457
▁sore	-13.2465
appealing	-13.2467
notch	-13.2468
leg	-13.247
▁pour	-13.2475
aggressive	-13.2484
▁fini	-13.2501
▁Test	-13.2506
talk	-13.2511
graphic	-13.2513
alone	-13.2513
trade	-13.2524
▁terminat	-13.2525
pdfs	-13.2529
rie	-13.253
▁origin	-13.2535
onts	-13.254
main	-13.2556
recap	-13.2569
contract	-13.2578
significant	-13.258
▁scrape	-13.2601
calculate	-13.261
written	-13.2615
lat	-13.2631
ushed	-13.264
▁goods	-13.2644
▁moron	-13.2645
▁negat	-13.2645
notifications	-13.2647
recently	-13.2651
heel	-13.2657
gum	-13.2661
amming	-13.2668
orrid	-13.2679
mance	-13.2691
tically	-13.2691
lagging	-13.2697
descend	-13.2698
tention	-13.2701
▁costum	-13.2707
documentaries	-13.2709
▁deem	-13.2711
flu	-13.2713
compress	-13.2719
▁ep	-13.2722
clutter	-13.275
ional	-13.2751
critic	-13.2751
istic	-13.2755
boards	-13.2757
eac	-13.2761
▁introduct	-13.2761
ything	-13.2763
igit	-13.2771
modes	-13.2772
script	-13.2776
▁overrid	-13.2801
▁weed	-13.2813
elay	-13.2814
bow	-13.2816
ale	-13.282
▁prec	-13.2824
▁gall	-13.2825
▁nu	-13.2827
dates	-13.2835
hoe	-13.2842
▁notifie	-13.2847
etic	-13.2852
▁Initial	-13.2854
sit	-13.2857
sound	-13.2857
explod	-13.2858
lapped	-13.2862
estore	-13.2865
▁escap	-13.2871
corn	-13.2882
eddit	-13.2884
▁irr	-13.2891
bounds	-13.2895
onopoly	-13.2895
▁automate	-13.2897
kind	-13.2908
mportant	-13.2911
▁refu	-13.2915
nk	-13.2925
▁Ty	-13.2925
lim	-13.2931
▁sabotag	-13.2933
▁boo	-13.2936
▁hid	-13.2936
nonsense	-13.2951
intuitive	-13.2953
▁migrat	-13.2962
▁incorporat	-13.2991
▁clouds	-13.302
ania	-13.3026
asts	-13.303
▁unedit	-13.3033
hop	-13.3039
▁musicvideo	-13.3045
ordinar	-13.3048
uld	-13.3049
Track	-13.3049
▁ext	-13.306
▁imag	-13.306
▁vibra	-13.3071
▁bow	-13.3071
▁const	-13.3074
▁bubbl	-13.3076
▁nam	-13.308
▁lux	-13.3091
arming	-13.3092
▁ignoran	-13.3141
tracks	-13.3142
eable	-13.3143
idi	-13.3146
nuseable	-13.3151
blur	-13.3154
ala	-13.316
tranger	-13.3162
weeks	-13.3169
works	-13.3178
▁degrade	-13.3184
connection	-13.3197
▁ent	-13.3206
move	-13.321
floors	-13.3215
ikes	-13.3217
▁sti	-13.3222
iu	-13.3223
typing	-13.3231
sticker	-13.3235
olve	-13.3242
aching	-13.3254
▁upda	-13.3258
cross	-13.3263
▁irritat	-13.3274
▁Increase	-13.3277
slaught	-13.328
oper	-13.328
inter	-13.3286
ya	-13.3288
nel	-13.3293
warm	-13.3296
progress	-13.3297
ersonal	-13.3315
abe	-13.3319
rum	-13.3341
ining	-13.3341
elected	-13.3351
connect	-13.3352
▁ring	-13.3374
▁contr	-13.3382
oooooooooooooooo	-13.3386
iversity	-13.34
odge	-13.3404
▁explor	-13.3405
aining	-13.3413
pecial	-13.3432
▁instru	-13.3433
porting	-13.3433
olitics	-13.3436
▁balanc	-13.344
egg	-13.3442
atter	-13.3444
At	-13.3445
eye	-13.3468
satisfying	-13.3471
ared	-13.3473
wind	-13.3483
leas	-13.3486
rea	-13.3489
▁motivat	-13.3491
▁aftera	-13.3501
▁useable	-13.3509
eeeee	-13.351
vity	-13.3511
ray	-13.3523
uity	-13.353
▁resembl	-13.3539
ush	-13.3547
storm	-13.3549
aware	-13.3553
ubscribe	-13.3558
▁syn	-13.3563
▁findings	-13.3567
▁ping	-13.3577
▁conduc	-13.3583
▁incre	-13.3583
▁reevaluat	-13.3588
▁espa	-13.3596
ensoring	-13.3601
downloading	-13.3605
uous	-13.3606
▁calculat	-13.361
▁uninstal	-13.3618
impressed	-13.3619
ved	-13.3622
died	-13.3646
▁accompan	-13.3646
ricing	-13.3646
▁poke	-13.3648
▁ensur	-13.366
▁unfriend	-13.3669
luey	-13.368
tations	-13.3683
ville	-13.369
ular	-13.3699
resum	-13.3702
beg	-13.3703
lover	-13.3708
▁unwatch	-13.3709
wl	-13.371
▁reserv	-13.3712
ppe	-13.3714
outs	-13.3715
▁acco	-13.3715
hadow	-13.3722
ational	-13.3727
arning	-13.3738
lol	-13.3739
sho	-13.3739
▁orig	-13.374
▁scen	-13.374
ca	-13.3745
ontroller	-13.3746
lse	-13.3749
blem	-13.3753
▁enters	-13.3755
ogan	-13.3758
▁faild	-13.376
sting	-13.3761
ecret	-13.3761
▁conflict	-13.3762
arly	-13.3763
ega	-13.3767
ebook	-13.3768
licked	-13.3773
ivo	-13.3773
ointed	-13.3774
▁explode	-13.3791
occer	-13.3794
seful	-13.3794
ositive	-13.3796
rofile	-13.3797
hitti	-13.3799
uffer	-13.3799
ubtitle	-13.3801
lan	-13.3801
ocument	-13.3804
fil	-13.3804
▁exhibit	-13.3809
▁occup	-13.381
ommercial	-13.381
kward	-13.3811
▁reproduc	-13.3811
▁captur	-13.3813
orgi	-13.3813
▁reserve	-13.3814
▁infinit	-13.3816
▁tycoon	-13.3816
ighttime	-13.3816
▁assignment	-13.3818
▁constrain	-13.382
▁landscap	-13.3822
▁weigh	-13.3823
▁complication	-13.3823
▁hashtag	-13.3823
▁supplie	-13.3824
hill	-13.3824
▁cookie	-13.3824
▁dimension	-13.3824
▁earbud	-13.3824
ilter	-13.3825
▁succes	-13.3827
▁statement	-13.3828
▁woul	-13.3829
eco	-13.383
▁acknowledg	-13.3833
▁tolera	-13.3835
veral	-13.3836
▁impossibl	-13.3838
▁nude	-13.3838
idget	-13.3839
rag	-13.384
coll	-13.3845
▁unskip	-13.3851
urns	-13.3851
▁insur	-13.3854
▁remarkabl	-13.3855
▁captivat	-13.3855
rience	-13.3857
nbelievabl	-13.3857
▁peac	-13.3857
▁unbearabl	-13.3859
▁concentrat	-13.3859
▁Techni	-13.386
▁dislik	-13.386
ogin	-13.386
nfortunat	-13.3861
ovement	-13.3861
▁credi	-13.3864
ham	-13.3864
▁whi	-13.3865
▁circl	-13.3866
▁warrant	-13.3868
▁cram	-13.387
lasses	-13.3871
rompted	-13.3873
▁instinct	-13.3873
▁chip	-13.3873
▁divisi	-13.3874
▁assis	-13.3874
▁str	-13.3874
ubtract	-13.3875
cenario	-13.3876
▁premature	-13.3877
afety	-13.3877
creenshots	-13.3877
▁simultaneous	-13.3878
eemingly	-13.3878
isappearing	-13.3879
toryline	-13.3879
motes	-13.388
crobat	-13.388
▁suffic	-13.3882
ntuitive	-13.3882
▁chrom	-13.3882
▁efficien	-13.3883
ommon	-13.3884
ube	-13.3884
ecure	-13.3884
ragon	-13.3886
rogram	-13.3886
wift	-13.3887
toreply	-13.3887
orrection	-13.3887
▁relevan	-13.3888
ntegration	-13.3888
nterior	-13.3888
xcessive	-13.3889
xercise	-13.3889
xternal	-13.3889
ffects	-13.3889
xcuse	-13.3889
bandoned	-13.3889
▁naviga	-13.389
onfigurat	-13.389
erformance	-13.389
dvanced	-13.389
urchases	-13.389
hooter	-13.3891
hildren	-13.3891
omputer	-13.3891
verpriced	-13.3891
ategory	-13.3891
xpert	-13.3891
vatar	-13.3891
ousician	-13.3891
xplain	-13.3891
issapointed	-13.3892
espise	-13.3892
angerous	-13.3892
▁xxxx	-13.3892
alicious	-13.3892
omplicated	-13.3892
ommunities	-13.3893
ongratulat	-13.3893
owerful	-13.3893
laims	-13.3893
affling	-13.3893
epetetive	-13.3893
olorful	-13.3893
abulous	-13.3893
rammar	-13.3893
andwidth	-13.3893
scrolling	-13.3893
ookmarks	-13.3893
harging	-13.3893
eapons	-13.3894
lurry	-13.3894
estrictive	-13.3894
▁retard	-13.3894
eginning	-13.3894
orkaround	-13.3895
eadline	-13.3895
oggle	-13.3895
egions	-13.3895
oxnews	-13.3895
pinion	-13.3896
unctional	-13.3896
isitor	-13.3896
olidays	-13.3896
inimi	-13.3896
▁curio	-13.3896
▁pregnan	-13.3897
▁dramatic	-13.3897
▁Arripay	-13.3897
▁Increasing	-13.3897
▁Transport	-13.3897
▁absorb	-13.3897
▁cripple	-13.3897
▁demonstrat	-13.3897
▁exasperat	-13.3897
▁plummet	-13.3897
▁proprietary	-13.3897
▁skyrocket	-13.3897
bisoft	-13.3897
ebToon	-13.3897
emorrhoid	-13.3897
hillipines	-13.3897
inaccuracies	-13.3897
negotiable	-13.3897
nparalleled	-13.3897
orwegian	-13.3897
shareholders	-13.3897
uboptimal	-13.3897
uisition	-13.3897
▁Irritated	-13.3897
▁Television	-13.3897
▁Thrills	-13.3897
▁abbreviat	-13.3897
▁affirm	-13.3897
▁aggrevati	-13.3897
▁archaic	-13.3897
▁brotherinlaw	-13.3897
▁catastrophic	-13.3897
▁circuitous	-13.3897
▁compensation	-13.3897
▁copyandpaste	-13.3897
▁crochet	-13.3897
▁culprit	-13.3897
▁curators	-13.3897
▁dessert	-13.3897
▁disclaimer	-13.3897
▁dissatisfaction	-13.3897
▁embarrassed	-13.3897
▁embarrassment	-13.3897
▁enthusiasts	-13.3897
▁flabbergast	-13.3897
▁haywire	-13.3897
▁illegible	-13.3897
▁imperative	-13.3897
▁indoctrinate	-13.3897
▁indulge	-13.3897
▁insanity	-13.3897
▁intellectual	-13.3897
▁interwsting	-13.3897
▁irreplaceable	-13.3897
▁mgmt	-13.3897
▁misunderstood	-13.3897
▁mmorpg	-13.3897
▁monumental	-13.3897
▁motorcycle	-13.3897
▁nauseous	-13.3897
▁oppressive	-13.3897
▁pedophilia	-13.3897
▁plagiari	-13.3897
▁preprogrammed	-13.3897
▁railroad	-13.3897
▁reveiw	-13.3897
▁salvag	-13.3897
▁scrambled	-13.3897
▁sidebyside	-13.3897
▁stagnant	-13.3897
▁suffocate	-13.3897
▁travesty	-13.3897
▁unattainable	-13.3897
▁undesirable	-13.3897
▁unneccesary	-13.3897
▁unrecoverabl	-13.3897
▁unstoppable	-13.3897
▁unsuccessful	-13.3897
▁untrustworthy	-13.3897
▁volunteers	-13.3897
▁fidgety	-13.3897
▁piercing	-13.3897
▁pornographic	-13.3897
▁unkillable	-13.3897
isastrous	-13.3897
pectrum	-13.3897
▁Tunisia	-13.3897
▁bolster	-13.3897
▁challange	-13.3897
▁compilation	-13.3897
▁grievance	-13.3897
▁monocle	-13.3897
▁nagivati	-13.3897
▁potato	-13.3897
▁replicate	-13.3897
▁subliminal	-13.3897
▁toddler	-13.3897
▁underlining	-13.3897
▁unethical	-13.3897
▁assembl	-13.3897
▁coffin	-13.3897
▁gunsmith	-13.3897
▁illogical	-13.3897
▁sprinkl	-13.3897
▁stormsnight	-13.3897
▁athlete	-13.3897
▁placeholder	-13.3897
▁promiscu	-13.3897
▁regression	-13.3897
▁rythme	-13.3897
▁unworkable	-13.3897
urnett	-13.3897
▁exempt	-13.3897
▁fragment	-13.3897
▁shitshow	-13.3897
▁expirience	-13.3897
▁fireflies	-13.3897
▁Alpha	-13.3897
annada	-13.3897
auldron	-13.3897
▁Insane	-13.3897
▁cinematic	-13.3897
▁decimal	-13.3897
▁magnificent	-13.3897
▁monotony	-13.3897
▁reinvent	-13.3897
▁Idiotic	-13.3897
▁mutiple	-13.3897
memeber	-13.3897
▁mesaage	-13.3897
▁whisper	-13.3897
handshake	-13.3897
▁mitigat	-13.3897
▁patron	-13.3897
▁dahood	-13.3897
▁relevent	-13.3897
▁preformance	-13.3897
lamethrower	-13.3897
andatory	-13.3897
▁condense	-13.3897
▁streamvod	-13.3897
bbath	-13.3897
▁employment	-13.3897
▁studied	-13.3897
▁Tactics	-13.3897
▁upadate	-13.3897
▁mishap	-13.3897
▁disappers	-13.3897
▁microstutter	-13.3897
▁analytic	-13.3897
▁lmao	-13.3897
▁subcription	-13.3897
▁underwear	-13.3897
▁maniac	-13.3897
▁truncat	-13.3897
▁tomato	-13.3897
▁reinforcement	-13.3897
▁philo	-13.3897
▁devolper	-13.3897
▁softlocked	-13.3897
▁coincide	-13.3897
▁unoptimi	-13.3897
▁demoralising	-13.3897
▁racial	-13.3897
▁keybind	-13.3897
▁celebrities	-13.3897
▁acclaim	-13.3897
▁recalibrat	-13.3897
▁bullied	-13.3897
▁disposable	-13.3897
ancelling	-13.3897
▁isolation	-13.3897
▁gateway	-13.3897
▁rumour	-13.3897
wedish	-13.3897
▁nationality	-13.3897
▁commutes	-13.3898
commerc	-13.3898
▁buddy	-13.3898
▁divo	-13.3898
▁vedio	-13.3898
unkspam	-13.3898
▁hamper	-13.3898
▁dictate	-13.3898
▁knees	-13.3898
▁sponser	-13.3898
▁gyro	-13.3898
▁paytouse	-13.3898
▁ambience	-13.3898
▁unfixable	-13.3898
▁calculation	-13.3898
▁apocalypse	-13.3898
▁unbare	-13.3898
▁cavern	-13.3898
▁crossbones	-13.3898
▁extraordinar	-13.3898
▁imposter	-13.3898
▁inexcusable	-13.3898
gggh	-13.3898
▁milestone	-13.3898
▁ownership	-13.3898
▁culos	-13.3898
▁sanity	-13.3898
▁sparkles	-13.3898
hoosing	-13.3898
▁subdirectory	-13.3898
▁afterthought	-13.3898
▁abhor	-13.3898
▁capitalism	-13.3898
▁ocean	-13.3898
▁shaft	-13.3898
oppy	-13.3898
▁glancing	-13.3898
▁guarentee	-13.3898
▁mxplayer	-13.3898
▁anonymous	-13.3898
▁gyroscope	-13.3898
doenload	-13.3898
▁gouging	-13.3898
▁sensible	-13.3898
▁deposit	-13.3898
▁resourceful	-13.3898
▁painkiller	-13.3898
▁invulnerable	-13.3899
▁silver	-13.3899
▁freedomof	-13.3899
▁gfx	-13.3899
▁propose	-13.3899
atalog	-13.3899
mmersion	-13.3899
rackle	-13.3899
▁dominoes	-13.3899
▁duckduckgo	-13.3899
▁discriminat	-13.3899
▁unchangeable	-13.3899
▁comedies	-13.3899
▁marvelous	-13.3899
▁participation	-13.3899
▁sickening	-13.3899
▁erotic	-13.3899
▁vouche	-13.3899
▁tnx	-13.3899
▁uninterested	-13.3899
ivescore	-13.3899
iberty	-13.3899
▁appreciation	-13.39
▁thickness	-13.39
▁transmi	-13.39
▁furious	-13.39
▁heartbreaking	-13.39
▁constitu	-13.39
▁blessing	-13.39
▁deluxe	-13.39
▁midchapter	-13.39
▁elementary	-13.39
▁accomplishment	-13.39
▁unluck	-13.39
regulated	-13.39
▁somethin	-13.39
▁steroids	-13.3901
▁millisecond	-13.3901
▁olympi	-13.3901
isconnected	-13.3901
emory	-13.3901
crubb	-13.3901
▁mentality	-13.3901
▁national	-13.3901
atchlist	-13.3901
▁uniform	-13.3901
ardware	-13.3901
▁Argh	-13.3901
▁repetative	-13.3901
▁malicious	-13.3901
▁deceit	-13.3901
▁rampant	-13.3901
hords	-13.3901
riendly	-13.3901
ulgari	-13.3902
uperbike	-13.3902
▁convient	-13.3902
xxxxx	-13.3902
▁bedroom	-13.3902
▁modifiers	-13.3902
▁gunman	-13.3902
▁inspiring	-13.3902
onsistently	-13.3902
▁nerfed	-13.3902
ntirely	-13.3902
eteran	-13.3903
▁survivor	-13.3903
lunky	-13.3903
▁peer	-13.3903
▁extort	-13.3903
▁weakness	-13.3903
▁inconvient	-13.3903
▁remastered	-13.3903
▁transmission	-13.3903
ixelbook	-13.3903
devices	-13.3903
▁pubg	-13.3903
▁disclose	-13.3903
▁deteriorated	-13.3903
brid	-13.3904
▁participant	-13.3904
▁eradicate	-13.3904
▁crisis	-13.3904
▁secular	-13.3904
▁occurance	-13.3904
capsul	-13.3904
▁nullifie	-13.3904
▁celebrit	-13.3904
▁grabber	-13.3904
neighbour	-13.3905
▁minecoins	-13.3905
▁userunfriendly	-13.3905
byte	-13.3905
▁heavi	-13.3905
▁hookers	-13.3905
▁manipulative	-13.3905
▁standpoint	-13.3906
▁assure	-13.3906
▁dongle	-13.3906
▁legac	-13.3906
▁spreadsheet	-13.3906
▁remedie	-13.3906
▁comparatively	-13.3906
raphs	-13.3906
▁nekki	-13.3906
otspot	-13.3906
▁somthing	-13.3906
▁Alarm	-13.3906
alah	-13.3907
▁los	-13.3907
▁distinction	-13.3907
▁grabbed	-13.3907
▁madness	-13.3907
decisi	-13.3907
ivestream	-13.3907
▁unneeded	-13.3908
ighway	-13.3908
▁surfers	-13.3908
clothed	-13.3908
easonable	-13.3908
pts	-13.3908
criminate	-13.3908
▁disgusted	-13.3909
▁indep	-13.3909
▁exempl	-13.3909
ieces	-13.3909
▁nada	-13.3909
▁unbreak	-13.391
▁scoreboard	-13.391
▁lottery	-13.391
genious	-13.391
▁firefox	-13.391
incarnat	-13.391
▁Annoyed	-13.391
▁tonethumbs	-13.391
pawn	-13.391
▁provocati	-13.391
▁compliment	-13.391
raud	-13.3911
amond	-13.3911
ackage	-13.3911
nfair	-13.3911
▁worship	-13.3912
▁dismay	-13.3912
▁bytes	-13.3913
▁settled	-13.3913
▁unsync	-13.3913
evised	-13.3913
▁corporation	-13.3913
▁walkthrough	-13.3913
cessary	-13.3913
omeland	-13.3913
▁aux	-13.3914
adges	-13.3914
nusable	-13.3914
▁haunt	-13.3914
oubt	-13.3914
▁swift	-13.3915
▁leech	-13.3915
▁traits	-13.3915
▁snipe	-13.3915
yyyyy	-13.3915
nacceptable	-13.3915
hhhh	-13.3915
▁scratchers	-13.3916
▁impairment	-13.3916
ermission	-13.3916
▁critici	-13.3916
▁alienate	-13.3916
▁reelsvideos	-13.3916
▁worries	-13.3917
▁possessed	-13.3917
aaaay	-13.3917
▁infuriat	-13.3917
▁handicapp	-13.3917
▁embarassing	-13.3917
▁submenu	-13.3917
appening	-13.3918
▁intuiti	-13.3918
▁supplied	-13.3918
▁relaxation	-13.3918
▁bandw	-13.3918
▁misinterpret	-13.3919
oticed	-13.3919
tylus	-13.3919
naccurate	-13.3919
▁undis	-13.3919
▁widesp	-13.3919
▁evreyt	-13.392
▁intuitiveness	-13.392
▁drum	-13.392
trait	-13.392
gines	-13.392
▁instinctive	-13.392
▁submitting	-13.3921
▁irrel	-13.3921
▁cheers	-13.3921
▁operat	-13.3921
▁turtle	-13.3922
ombine	-13.3922
▁growth	-13.3922
educed	-13.3922
▁frusterat	-13.3922
▁cli	-13.3923
▁Absolutle	-13.3923
▁unreinstalling	-13.3923
▁bargain	-13.3923
isaster	-13.3924
selves	-13.3925
▁Igua	-13.3925
bolt	-13.3926
lueprints	-13.3926
▁obli	-13.3926
owngrading	-13.3926
uxe	-13.3926
▁metres	-13.3926
▁breast	-13.3927
▁plsss	-13.3927
▁christ	-13.3928
▁vlogs	-13.3928
▁fisher	-13.3928
▁lectures	-13.3928
▁rigor	-13.3928
▁regulations	-13.3929
omepage	-13.3929
▁referrals	-13.3929
▁biometrics	-13.393
ecordings	-13.393
▁pedal	-13.393
▁monkeys	-13.3931
▁offended	-13.3931
fortunately	-13.3931
elated	-13.3931
▁butcher	-13.3931
lated	-13.3932
▁hotmail	-13.3932
▁stroke	-13.3932
▁poco	-13.3932
▁expedition	-13.3933
▁availab	-13.3933
xpected	-13.3933
▁predomina	-13.3933
▁Adverts	-13.3933
▁weaponry	-13.3933
▁unlucky	-13.3933
▁reccommend	-13.3934
▁repetitiveness	-13.3934
icturein	-13.3934
irrors	-13.3934
▁foxnews	-13.3935
nstable	-13.3935
▁mock	-13.3935
▁playrix	-13.3935
▁retouch	-13.3936
▁convinie	-13.3936
▁dipping	-13.3936
▁baffling	-13.3936
illiga	-13.3937
▁instantaneously	-13.3937
▁advisor	-13.3937
▁clamp	-13.3938
▁socialise	-13.3938
▁unfortunat	-13.3939
▁operator	-13.3939
▁outof	-13.3939
▁refrain	-13.394
ml	-13.3941
▁thunder	-13.3941
▁theirs	-13.3941
anguages	-13.3942
▁whitegr	-13.3942
▁dung	-13.3943
ruh	-13.3943
▁dandy	-13.3943
▁demographic	-13.3944
uitous	-13.3944
▁haunting	-13.3944
▁adblocker	-13.3945
tovideo	-13.3945
▁metro	-13.3945
ontinuously	-13.3945
▁catergor	-13.3945
▁mustang	-13.3946
▁assumption	-13.3947
llllee	-13.3947
eplies	-13.3947
▁rooftop	-13.3948
▁favorable	-13.3948
▁publisher	-13.3948
▁ridden	-13.3948
▁trapping	-13.3948
▁shred	-13.3949
nternal	-13.3949
mbits	-13.3949
▁Input	-13.395
econnecting	-13.3951
uperb	-13.3952
▁alongs	-13.3953
▁Ill	-13.3954
taller	-13.3955
▁prettie	-13.3955
▁exploited	-13.3955
▁invent	-13.3955
▁blacklist	-13.3956
▁conflicting	-13.3956
▁elite	-13.3956
albumssongs	-13.3956
uffle	-13.3956
loooooot	-13.3956
▁wellknown	-13.3956
imits	-13.3957
▁enterior	-13.3957
▁midgame	-13.3959
ongtime	-13.396
▁chips	-13.396
▁formations	-13.396
▁imposes	-13.3962
▁deducting	-13.3963
▁inputting	-13.3963
utdated	-13.3964
anceled	-13.3964
tful	-13.3965
▁adressed	-13.3965
starstruck	-13.3965
eward	-13.3966
▁reenabled	-13.3966
▁relat	-13.3966
▁singleplayer	-13.3967
eserves	-13.3968
▁sofa	-13.3968
phon	-13.3968
▁biome	-13.3968
cate	-13.3969
▁Task	-13.3969
▁reinforce	-13.3969
mersed	-13.397
▁thick	-13.397
▁intel	-13.397
▁Addons	-13.397
▁acccount	-13.397
▁sonic	-13.397
ocuments	-13.3971
▁inches	-13.3972
▁stoppage	-13.3973
uined	-13.3974
spiring	-13.3974
▁robb	-13.3975
hild	-13.3977
reators	-13.3977
ruits	-13.3979
..............	-13.3979
▁ebooks	-13.3981
▁screan	-13.3982
▁enduring	-13.3982
ositives	-13.3983
awning	-13.3984
tched	-13.3985
▁priorities	-13.3985
▁webmail	-13.3986
▁exhibits	-13.3986
▁currenc	-13.3987
▁perma	-13.3988
ctivity	-13.3988
▁drinking	-13.3989
erson	-13.3991
▁exhausted	-13.3991
▁readiness	-13.3992
flix	-13.3993
logue	-13.3993
hase	-13.3994
▁techno	-13.3996
▁brakes	-13.3996
ition	-13.3996
▁Apr	-13.3996
orgot	-13.3997
miliar	-13.3998
▁hdd	-13.3998
vril	-13.3998
▁mapping	-13.4
▁teaser	-13.4002
▁awaited	-13.4004
▁fastfor	-13.4004
issions	-13.4004
▁preffer	-13.4006
▁misclick	-13.4006
rama	-13.4007
rofiles	-13.4008
▁preform	-13.4008
mma	-13.4009
▁versatil	-13.4009
▁tense	-13.401
▁meaningfully	-13.4011
friendliness	-13.4012
▁lifesa	-13.4012
▁transport	-13.4015
▁shutter	-13.4018
▁funnie	-13.4018
nished	-13.4021
▁usefulness	-13.4021
elt	-13.4022
omedy	-13.4023
▁threaten	-13.4025
xtr	-13.4026
ntage	-13.4026
▁scopes	-13.4026
▁smell	-13.4027
▁snatch	-13.4027
▁arises	-13.4027
enyan	-13.4028
▁neck	-13.403
▁mistaking	-13.4031
doll	-13.4031
▁seperately	-13.4033
▁dearly	-13.4033
▁mailboxes	-13.4033
ovements	-13.4034
▁gettin	-13.4035
gravi	-13.4039
▁exceeding	-13.4039
▁straf	-13.404
▁mater	-13.404
▁grate	-13.404
▁pcloud	-13.4041
▁miserably	-13.4041
eck	-13.4041
ific	-13.4042
▁downscale	-13.4043
▁slowdowns	-13.4043
lutooth	-13.4043
▁ingredients	-13.4044
▁organisations	-13.4044
▁highscore	-13.4044
▁packets	-13.4045
ewinding	-13.4045
▁pollut	-13.4046
inish	-13.4046
▁captured	-13.4047
until	-13.4047
ecomes	-13.4047
▁tiger	-13.4048
▁exhi	-13.4049
▁parrot	-13.4051
▁lava	-13.4053
▁rail	-13.4053
▁aligned	-13.4055
abilities	-13.4055
tu	-13.4055
otten	-13.4056
▁flo	-13.4056
cial	-13.4058
▁bucket	-13.4059
identified	-13.406
oise	-13.4061
munit	-13.4061
onger	-13.4062
▁saga	-13.4063
ropes	-13.4064
▁formal	-13.4064
▁dampen	-13.4064
▁annotating	-13.4065
▁improvise	-13.4068
▁forwardback	-13.4069
udu	-13.4069
ricey	-13.4071
ngoing	-13.4072
epeated	-13.4074
▁newsletter	-13.4074
mothly	-13.4076
onderfully	-13.4077
efeat	-13.4077
▁adaptation	-13.4077
▁manageable	-13.4078
▁avoidable	-13.4079
ploads	-13.4082
▁internationally	-13.4082
▁chatter	-13.4083
▁grubb	-13.4083
egend	-13.4084
eact	-13.4084
eports	-13.4085
oblem	-13.4085
▁senseless	-13.4085
▁diam	-13.4086
▁apartment	-13.4087
iping	-13.4088
ahh	-13.4089
olors	-13.4089
lashes	-13.4091
radual	-13.4093
▁noob	-13.4093
▁agitat	-13.4093
▁russian	-13.4095
ndless	-13.4095
▁Alex	-13.4096
compensated	-13.4096
▁welcomed	-13.4097
▁bookstores	-13.4102
▁destinations	-13.4102
inked	-13.4103
▁strengthen	-13.4103
▁filenames	-13.4104
▁flac	-13.4106
teps	-13.4113
ervers	-13.4113
▁laser	-13.4114
owing	-13.4118
arket	-13.4118
oosts	-13.412
verlay	-13.4122
▁selfies	-13.4123
hallenges	-13.4123
rival	-13.4125
bligation	-13.4126
▁neatly	-13.4126
▁groupings	-13.4127
▁divice	-13.4129
activatesign	-13.4129
▁seperat	-13.4134
▁widest	-13.4134
▁recreation	-13.4136
▁blury	-13.4136
igns	-13.4138
roups	-13.4141
itbits	-13.4142
emerges	-13.4142
▁smiley	-13.4142
ough	-13.4142
ffers	-13.4143
▁therap	-13.4146
▁excl	-13.4147
erarch	-13.4152
▁crevice	-13.4153
away	-13.4153
▁conve	-13.4154
▁idio	-13.4157
ringing	-13.4157
▁glue	-13.4158
heer	-13.4159
▁numb	-13.416
▁winded	-13.4161
▁theaters	-13.4161
▁cromebook	-13.4164
ustifiabl	-13.4165
ontinued	-13.4166
▁converted	-13.4167
rowse	-13.4168
readable	-13.4169
egre	-13.417
oogling	-13.4173
nintalling	-13.4173
▁relaxed	-13.4174
▁patches	-13.4174
owered	-13.4174
isplays	-13.4175
▁pian	-13.4177
haul	-13.4178
▁court	-13.4178
▁specifi	-13.418
think	-13.4181
▁endcredit	-13.4181
ngl	-13.4184
onsidered	-13.419
▁brilliantly	-13.4191
▁cutout	-13.4193
▁mys	-13.4195
earc	-13.4198
▁reversed	-13.4199
▁soothing	-13.4201
attle	-13.4203
▁energi	-13.421
▁hur	-13.421
▁suc	-13.4211
ersons	-13.4212
uttons	-13.4214
ranian	-13.4215
▁letdown	-13.4215
▁conplete	-13.4216
nar	-13.4218
▁overlayed	-13.4222
▁stil	-13.4222
▁unexplain	-13.4223
▁radi	-13.4224
words	-13.4226
▁develope	-13.4227
ewards	-13.423
▁reevaluate	-13.4234
chat	-13.4235
▁patent	-13.4239
▁bab	-13.4241
hief	-13.4241
▁hover	-13.4243
▁admi	-13.4244
▁geni	-13.4245
▁tease	-13.4246
▁miners	-13.4246
▁shrinking	-13.4246
▁ffs	-13.4248
▁imperfect	-13.4251
ulated	-13.4251
▁experts	-13.4255
rowsing	-13.4255
▁conceiv	-13.4256
▁compile	-13.4258
ciate	-13.4258
▁science	-13.4258
ipeouts	-13.4259
everting	-13.4265
▁intelligibl	-13.4265
▁greatful	-13.4267
ubi	-13.4267
tches	-13.427
worse	-13.4271
▁magnifi	-13.4272
forgiving	-13.4275
percars	-13.4277
▁during	-13.4278
▁pik	-13.4278
▁shutdowns	-13.4278
▁alignments	-13.428
▁furnaces	-13.428
▁shortfall	-13.428
▁sociali	-13.428
ari	-13.428
spend	-13.4281
▁unpleas	-13.4281
▁distractions	-13.4282
aded	-13.4282
▁fianc	-13.4283
▁tires	-13.4284
▁watermarks	-13.4284
▁hurd	-13.4285
velo	-13.4286
rusive	-13.4287
▁bottle	-13.4288
ype	-13.429
▁yank	-13.4291
IAT	-13.4292
▁somet	-13.4293
comfort	-13.4294
▁minds	-13.4294
otes	-13.4295
lox	-13.4295
▁succeeding	-13.4301
▁planting	-13.4303
chedule	-13.4306
▁pano	-13.4309
▁deterr	-13.4315
▁ment	-13.4317
where	-13.4317
▁reflection	-13.4318
yncs	-13.432
▁sensoring	-13.4321
trong	-13.4325
▁poppy	-13.4325
▁bald	-13.4327
▁overreac	-13.433
▁devour	-13.4333
stuck	-13.4334
plan	-13.4334
onexistant	-13.4336
creating	-13.4336
ectively	-13.4339
▁chilling	-13.4339
▁steer	-13.4341
earched	-13.4341
eplying	-13.4342
makes	-13.4343
▁secured	-13.4344
midst	-13.4346
▁Animation	-13.4346
▁disba	-13.4347
avant	-13.4347
proportion	-13.4353
fetched	-13.4355
▁veiwer	-13.4355
▁attend	-13.4357
tumble	-13.4358
▁oct	-13.436
arab	-13.4361
howed	-13.4364
edious	-13.4366
▁esc	-13.4366
▁arse	-13.4367
siness	-13.4367
▁wings	-13.4374
▁signin	-13.4375
▁homeless	-13.4382
▁bunk	-13.4387
them	-13.4387
ypically	-13.4387
amet	-13.4392
▁ramps	-13.4396
▁reopens	-13.4397
▁amateurs	-13.4397
hopeful	-13.4403
▁mirrors	-13.4409
▁foward	-13.4413
uying	-13.4418
▁trun	-13.4419
▁simplif	-13.4428
▁collapses	-13.443
▁skid	-13.4434
▁supp	-13.4434
▁vechi	-13.4435
▁legs	-13.4436
dds	-13.4437
forwarding	-13.4439
ednes	-13.4441
▁relian	-13.4442
▁servive	-13.4443
eeease	-13.4444
▁comput	-13.4444
estarts	-13.4445
▁Than	-13.445
wall	-13.4453
▁converting	-13.4453
enom	-13.4458
ird	-13.4462
urs	-13.4463
mic	-13.4463
▁timewast	-13.4465
▁eco	-13.4466
eans	-13.4475
▁paywalled	-13.4483
east	-13.4488
▁Intro	-13.4489
▁unimagina	-13.4492
rushing	-13.4493
ewcomer	-13.4497
ste	-13.4498
▁simula	-13.4508
sted	-13.451
▁bugg	-13.4513
▁welcom	-13.4513
▁awfull	-13.4513
▁posters	-13.4519
▁guests	-13.452
sically	-13.4521
nclusion	-13.453
choose	-13.4532
▁adv	-13.4533
▁ser	-13.4538
▁ropes	-13.4542
▁optimal	-13.4544
arecter	-13.4545
▁noad	-13.4545
eeding	-13.4547
cos	-13.4552
unles	-13.4552
ncreased	-13.4552
▁obt	-13.4556
▁secrets	-13.4557
orting	-13.4558
oken	-13.4559
ooth	-13.4565
pam	-13.4569
▁achievable	-13.4577
laughter	-13.4578
ering	-13.4581
▁daughters	-13.4583
▁improper	-13.4585
random	-13.4587
owning	-13.4587
▁ambien	-13.4589
tak	-13.459
loads	-13.4591
▁remarkable	-13.4592
understand	-13.4595
▁launches	-13.4598
oard	-13.46
nc	-13.46
▁encompass	-13.4605
thori	-13.4609
▁reassur	-13.4615
idal	-13.4615
head	-13.462
▁racist	-13.462
▁historical	-13.4626
guide	-13.4627
erous	-13.4633
▁wee	-13.4637
▁eliminat	-13.4645
oint	-13.4649
ifts	-13.4649
▁conscious	-13.465
ravi	-13.4651
rker	-13.4651
▁defocus	-13.4651
esets	-13.4652
esearch	-13.4655
pop	-13.4655
▁romani	-13.4659
▁punt	-13.4663
▁sleeps	-13.4667
▁deployment	-13.4669
▁impass	-13.4673
hul	-13.4674
appiness	-13.4684
episide	-13.4686
▁lib	-13.4687
▁dreams	-13.4691
synchronis	-13.4692
crashing	-13.4698
oman	-13.4701
▁alltime	-13.4701
cores	-13.4703
▁administrator	-13.4704
real	-13.4707
▁follower	-13.4707
▁unlikely	-13.4708
uessing	-13.4708
elayed	-13.471
eptic	-13.4711
▁tak	-13.4712
▁lin	-13.4714
▁bush	-13.4715
▁damp	-13.4722
lang	-13.4723
esi	-13.4731
dia	-13.4732
▁giveaways	-13.4737
ction	-13.4738
itiful	-13.4742
▁robots	-13.4748
reen	-13.4755
▁brainer	-13.4762
ddicting	-13.4767
▁redesigns	-13.4771
▁tour	-13.4781
angl	-13.4783
▁sayin	-13.4787
rious	-13.4798
hields	-13.48
eno	-13.4805
▁famili	-13.4807
▁cheese	-13.4809
ardly	-13.4816
liability	-13.4816
arner	-13.482
lain	-13.4821
mons	-13.4822
▁walked	-13.4829
▁vile	-13.483
▁promt	-13.4832
oone	-13.4836
▁gal	-13.4847
▁ir	-13.4853
pate	-13.4856
▁splitt	-13.4856
timate	-13.4857
▁grader	-13.4858
▁Alb	-13.4863
press	-13.4863
reo	-13.4865
▁fury	-13.4866
▁rigg	-13.4869
organised	-13.4872
▁Archiv	-13.4884
eceived	-13.4891
til	-13.4897
▁unre	-13.4897
▁reused	-13.4899
matter	-13.4919
▁beaut	-13.492
lowers	-13.4922
▁socialis	-13.4922
eviews	-13.4928
ths	-13.4928
▁agreed	-13.493
aaay	-13.4934
▁refreshe	-13.4936
nding	-13.4939
mobile	-13.4939
icro	-13.4945
onest	-13.4958
▁crapt	-13.4959
▁escapes	-13.496
▁makeovers	-13.4962
vision	-13.5
anning	-13.5002
▁aimless	-13.5003
▁rager	-13.5012
▁allowance	-13.5014
eaders	-13.5016
▁unregistere	-13.5016
▁ethic	-13.5021
▁pixelate	-13.5026
pear	-13.503
ndo	-13.5031
▁critic	-13.5032
▁arrang	-13.5037
▁unf	-13.5056
▁spoile	-13.5059
clear	-13.5061
▁strap	-13.5068
sync	-13.507
▁buttom	-13.5078
▁absen	-13.5082
▁suspens	-13.5091
ront	-13.5099
▁playthrough	-13.5102
ivements	-13.5104
ualifie	-13.511
▁checker	-13.5117
▁rig	-13.5123
▁ranks	-13.5125
▁soooooo	-13.5134
▁merger	-13.5139
renc	-13.5145
cially	-13.5145
▁chromebase	-13.5145
rting	-13.5148
ocate	-13.5154
cell	-13.5156
rig	-13.5161
▁diver	-13.5166
ifs	-13.517
arted	-13.5175
▁flop	-13.5176
arby	-13.5178
ramped	-13.5187
row	-13.5189
angk	-13.5189
▁enraging	-13.5196
▁impersona	-13.5203
arking	-13.5204
unted	-13.5207
ugg	-13.5212
▁inappropri	-13.5217
hout	-13.5218
ids	-13.5221
eni	-13.5227
▁facee	-13.523
fests	-13.5233
ramming	-13.5236
arry	-13.5239
reason	-13.5246
▁struggl	-13.5247
▁prope	-13.5247
▁starter	-13.5248
series	-13.5249
▁roleplay	-13.525
ctories	-13.525
▁ambi	-13.5261
ttention	-13.5263
▁promble	-13.5269
adation	-13.5273
▁mixe	-13.5278
dys	-13.528
▁Tru	-13.5291
▁ve	-13.5294
▁parade	-13.5297
▁cert	-13.5301
▁revolve	-13.5304
floods	-13.5305
▁ki	-13.5315
mming	-13.5316
▁rad	-13.5317
▁costomi	-13.5322
▁pie	-13.5324
aunting	-13.533
otorious	-13.534
▁conn	-13.5347
▁lea	-13.5353
ills	-13.5355
▁kn	-13.5356
orc	-13.5356
▁frea	-13.5361
perime	-13.5369
ynching	-13.5378
rid	-13.5381
▁forte	-13.5381
thought	-13.5387
mitting	-13.5394
changeable	-13.5395
stress	-13.5403
ideout	-13.5405
▁integrations	-13.5405
oses	-13.5406
▁compair	-13.5407
redo	-13.541
▁dare	-13.5413
▁gla	-13.5418
ault	-13.5419
▁encounters	-13.5431
example	-13.5432
abbing	-13.5437
▁preroll	-13.544
ans	-13.5442
▁tiktoks	-13.5448
▁unhid	-13.545
osters	-13.545
opy	-13.5453
changes	-13.5464
▁lik	-13.5467
possible	-13.547
ride	-13.5475
cifi	-13.55
rates	-13.55
▁crossbo	-13.5503
▁storm	-13.5506
odec	-13.5507
lac	-13.5524
rais	-13.5529
▁backdrop	-13.5533
▁hoop	-13.5534
▁negate	-13.5536
▁imped	-13.5558
▁Age	-13.5562
▁wel	-13.5566
ready	-13.5575
▁dx	-13.5579
vel	-13.5585
lide	-13.5606
stops	-13.5608
nside	-13.5616
dent	-13.5619
sche	-13.562
oun	-13.5625
▁dan	-13.5625
reign	-13.5636
ago	-13.5643
rock	-13.5644
rings	-13.5645
minutes	-13.5648
▁straighten	-13.5651
▁activates	-13.5653
function	-13.5655
▁atl	-13.5662
previous	-13.5671
training	-13.5675
▁rou	-13.5675
▁bea	-13.5677
antic	-13.5684
▁conne	-13.5688
ement	-13.5709
icely	-13.571
▁feat	-13.5718
▁coll	-13.5719
valent	-13.5724
▁arts	-13.5724
sky	-13.5725
rewind	-13.573
clusive	-13.5737
outer	-13.5744
eos	-13.5747
athe	-13.5749
another	-13.575
▁unify	-13.575
omed	-13.5769
▁cust	-13.5775
hem	-13.5776
▁explod	-13.5784
stance	-13.5796
hift	-13.5811
forgivable	-13.5817
▁gate	-13.5823
▁spike	-13.5825
uals	-13.583
uninstalled	-13.5831
▁boomer	-13.584
▁dieing	-13.586
sake	-13.5866
rink	-13.5866
▁overtake	-13.5872
sian	-13.5876
▁unstall	-13.5884
▁opportun	-13.5885
cert	-13.5887
▁denie	-13.5888
utomatically	-13.5891
▁galler	-13.5894
ration	-13.5901
silencer	-13.5914
▁nation	-13.5935
ddle	-13.5944
▁spen	-13.5949
ickness	-13.5951
▁arra	-13.5952
▁smartly	-13.5964
erk	-13.5972
▁scars	-13.5974
eduction	-13.5982
toons	-13.5983
▁useage	-13.5995
aught	-13.5998
logs	-13.6015
evolutionary	-13.6016
tely	-13.6021
sucks	-13.6023
presentation	-13.6036
omp	-13.6037
lder	-13.6047
ontra	-13.6051
▁fil	-13.6052
rch	-13.6055
okes	-13.6058
cline	-13.6059
stalling	-13.6076
nig	-13.6077
esk	-13.6078
acted	-13.6084
suits	-13.6094
tors	-13.6097
hist	-13.6104
nicorn	-13.6105
erly	-13.6107
▁bean	-13.6108
▁funding	-13.6113
▁democra	-13.6115
acting	-13.612
past	-13.6123
All	-13.6142
lass	-13.6145
lem	-13.6148
yard	-13.6174
xtrem	-13.6178
▁peri	-13.6179
cel	-13.6182
▁initiat	-13.6183
las	-13.6187
manag	-13.6188
uster	-13.619
ixes	-13.6191
emails	-13.6192
tual	-13.6197
said	-13.6199
▁amusing	-13.6199
lympi	-13.6201
▁arro	-13.6209
▁licens	-13.6213
fp	-13.6214
social	-13.6217
sity	-13.6226
mulator	-13.6227
watched	-13.6232
▁laws	-13.6237
▁overlapp	-13.6241
▁emotional	-13.6249
flies	-13.6251
crew	-13.6263
▁lips	-13.6271
md	-13.6281
arms	-13.6284
▁emulate	-13.6288
oud	-13.6292
▁needless	-13.6312
▁escalati	-13.6327
deleted	-13.6329
▁diminishe	-13.633
wi	-13.6336
rb	-13.6338
abbed	-13.6344
▁obstructi	-13.6357
▁estimat	-13.6358
▁Advertise	-13.6366
▁rega	-13.6368
tair	-13.6369
connected	-13.6369
▁heartbr	-13.6372
ady	-13.6377
scanning	-13.6378
itic	-13.6385
ora	-13.6403
mastered	-13.6414
chased	-13.6419
rrow	-13.642
▁gram	-13.6423
ilities	-13.6431
action	-13.6434
cr	-13.6438
exico	-13.6445
nreasonabl	-13.6449
▁relog	-13.6456
▁glo	-13.6457
storage	-13.6464
sics	-13.6471
eling	-13.6472
▁preci	-13.6472
literally	-13.6473
ces	-13.6478
gar	-13.6479
ders	-13.648
▁spit	-13.6481
expensive	-13.6496
pictures	-13.6498
▁dose	-13.6501
▁tweeting	-13.6505
cost	-13.6507
minute	-13.6521
save	-13.6523
clapp	-13.6525
▁psych	-13.6534
▁autoupdate	-13.6536
uttering	-13.654
▁hound	-13.6542
▁importa	-13.6543
▁entertainments	-13.6547
▁platformer	-13.6553
podcasts	-13.6557
▁kidd	-13.6559
otential	-13.6568
▁nagg	-13.6573
sy	-13.6573
▁tran	-13.6574
bling	-13.6577
rgent	-13.6578
▁pers	-13.6578
buggy	-13.6584
ournalist	-13.6586
playability	-13.6588
▁fame	-13.6592
▁sacrifice	-13.6606
nonym	-13.6607
writing	-13.6625
ytime	-13.6626
ione	-13.6629
stride	-13.6648
unable	-13.6663
▁heap	-13.6664
building	-13.6665
▁mud	-13.6675
iably	-13.6675
▁hai	-13.6678
three	-13.6692
onspi	-13.6692
ractical	-13.6697
▁Ado	-13.6701
anks	-13.6718
▁bites	-13.6722
uploaded	-13.6723
odem	-13.6731
nate	-13.6736
istance	-13.6737
▁dayweek	-13.6738
▁rel	-13.6748
ighting	-13.6749
figured	-13.6763
▁dam	-13.6765
crash	-13.6766
ount	-13.6772
abel	-13.6773
atures	-13.6778
ological	-13.6792
bly	-13.6795
rown	-13.6797
▁differe	-13.68
ando	-13.6812
cky	-13.6817
▁whts	-13.6827
askbar	-13.6831
tained	-13.684
showing	-13.6846
▁mont	-13.6852
hn	-13.6854
fresh	-13.6856
▁hon	-13.6864
▁shirt	-13.6875
bring	-13.6878
▁blocky	-13.6882
▁eternal	-13.6886
stly	-13.689
▁colourful	-13.6891
rly	-13.6898
minis	-13.69
awe	-13.6906
urning	-13.6926
tice	-13.6934
▁el	-13.6935
▁anci	-13.6945
▁west	-13.695
mouth	-13.6962
▁amend	-13.6964
▁mens	-13.6964
▁devolv	-13.6971
cu	-13.6978
ashed	-13.698
ntact	-13.6982
▁suits	-13.6982
stant	-13.6986
aaaaay	-13.6986
▁plea	-13.6987
▁cach	-13.6988
▁Tha	-13.6993
plication	-13.6998
▁pat	-13.7002
ette	-13.7007
▁fab	-13.7007
ealm	-13.7011
essential	-13.7016
▁terrif	-13.7019
language	-13.7023
world	-13.7031
educt	-13.7032
anned	-13.7035
short	-13.7044
ures	-13.7049
▁frast	-13.7061
▁waaaaa	-13.7076
ulia	-13.7085
erior	-13.7087
len	-13.709
▁lighted	-13.7091
character	-13.71
mash	-13.7101
yl	-13.7106
layout	-13.7109
▁reporter	-13.711
eld	-13.711
▁contant	-13.7113
▁Iran	-13.7113
▁tabb	-13.7113
▁thre	-13.7115
va	-13.7116
▁widgets	-13.7126
▁Activat	-13.7126
▁hor	-13.7133
▁alt	-13.7139
xcit	-13.7153
▁TubiT	-13.7165
▁trac	-13.7171
▁disa	-13.7182
ensors	-13.7188
mos	-13.7202
tri	-13.7208
basic	-13.7211
▁controlle	-13.7217
▁rele	-13.7223
▁recycl	-13.7223
loooooooo	-13.7242
tb	-13.7242
▁bai	-13.7259
library	-13.7261
ghin	-13.7262
theme	-13.7264
▁bein	-13.7264
▁verbal	-13.7272
ters	-13.7273
▁Ton	-13.7281
▁noti	-13.7288
▁Tw	-13.7302
▁newbie	-13.7328
▁wand	-13.7332
ikely	-13.7335
holes	-13.7341
ived	-13.7344
bad	-13.735
▁stre	-13.7351
erma	-13.7352
lie	-13.7362
▁moot	-13.7367
▁distribute	-13.7374
shing	-13.7393
gly	-13.7393
uffic	-13.7394
▁ol	-13.7403
▁allo	-13.7406
▁escalate	-13.7417
liked	-13.7437
pretty	-13.7439
▁baffl	-13.7439
pod	-13.7447
▁wha	-13.7449
suddenly	-13.7456
▁anno	-13.7461
peni	-13.7464
▁Throw	-13.7471
ixels	-13.7481
▁educat	-13.749
▁favs	-13.749
eys	-13.7495
iple	-13.7497
▁inv	-13.7508
itched	-13.7515
ocke	-13.752
▁setups	-13.7531
cally	-13.7559
aids	-13.7561
sub	-13.7568
ru	-13.7572
ests	-13.7574
illa	-13.7582
reward	-13.7583
ancing	-13.7584
stall	-13.7609
rap	-13.7616
▁competi	-13.7622
title	-13.7627
customer	-13.7628
looks	-13.763
yes	-13.7635
tom	-13.7637
shuffle	-13.765
true	-13.7665
contact	-13.7666
▁bid	-13.7667
▁atom	-13.7668
▁shov	-13.7675
ercy	-13.7675
▁upl	-13.7688
reviews	-13.7705
commercial	-13.772
lately	-13.7732
noticed	-13.7732
atal	-13.7744
scan	-13.7745
stoni	-13.7745
fit	-13.7747
iri	-13.7783
▁cooperat	-13.7787
hour	-13.7788
large	-13.7788
▁overcom	-13.7803
▁autoclose	-13.7808
▁tele	-13.7819
lves	-13.7823
▁obs	-13.7828
▁tod	-13.7841
everse	-13.7851
enny	-13.7856
▁cramm	-13.7862
bottom	-13.7865
ril	-13.788
nplayable	-13.7881
▁expos	-13.7884
hari	-13.7886
▁clim	-13.789
che	-13.7894
▁Activ	-13.7904
▁prople	-13.7905
cid	-13.791
mics	-13.7916
aft	-13.7924
▁rew	-13.7937
▁employ	-13.7945
▁sto	-13.7955
everytime	-13.7959
references	-13.7967
huge	-13.7973
▁depress	-13.798
▁immerse	-13.8006
took	-13.8007
lud	-13.8013
▁Addicti	-13.8026
artial	-13.8037
▁easi	-13.8047
functionality	-13.8054
▁buggie	-13.8056
gger	-13.8058
stupid	-13.8059
[...]
