<unk>	0
<s>	0
</s>	0
▁	-1.90648
.	-2.58187
▁I	-3.17315
▁app	-4.23083
s	-4.9118
▁game	-4.94245
▁The	-4.97733
▁It	-5.0055
ing	-5.17226
▁is	-5.2382
▁like	-5.26543
▁get	-5.43039
▁time	-5.51494
▁cannot	-5.59406
▁it	-5.62391
▁play	-5.6254
▁would	-5.63427
▁am	-5.65467
▁one	-5.65911
▁have	-5.72897
▁even	-5.75335
▁good	-5.76136
▁use	-5.77112
▁This	-5.77695
y	-5.83811
▁really	-5.88254
ed	-5.88852
ly	-5.9148
▁great	-5.91966
▁phone	-5.93497
▁back	-5.96367
▁new	-6.05337
▁want	-6.05663
▁ads	-6.058
▁update	-6.0878
▁free	-6.09761
▁love	-6.1048
▁music	-6.12077
▁work	-6.13429
▁fix	-6.17644
▁screen	-6.1822
I	-6.18872
▁way	-6.2025
▁also	-6.25484
▁every	-6.27188
e	-6.27195
▁still	-6.27641
▁much	-6.2782
▁video	-6.29105
▁go	-6.29157
ut	-6.29393
▁make	-6.29396
▁not	-6.30617
▁watch	-6.31447
▁playing	-6.31829
▁many	-6.32825
▁keep	-6.347
▁see	-6.37829
▁T	-6.40516
▁issue	-6.40872
▁A	-6.42681
▁using	-6.4284
...	-6.43933
▁problem	-6.44993
▁used	-6.47926
▁find	-6.54631
▁better	-6.55247
▁times	-6.55849
ou	-6.55887
▁need	-6.56824
▁that	-6.57224
▁If	-6.59219
▁annoying	-6.61115
▁could	-6.61272
▁without	-6.624
o	-6.63145
▁option	-6.63214
▁years	-6.63641
▁able	-6.642
▁And	-6.64338
▁version	-6.65009
▁lot	-6.65486
▁fun	-6.67465
▁well	-6.69461
▁try	-6.6976
▁There	-6.6981
▁shows	-6.70971
▁people	-6.71798
▁something	-6.71896
T	-6.734
▁songs	-6.73471
A	-6.74293
▁issues	-6.74899
lease	-6.75619
▁money	-6.76068
▁thing	-6.76189
▁never	-6.7679
▁face	-6.76998
▁read	-6.77465
S	-6.78114
▁stars	-6.78258
▁games	-6.78947
▁show	-6.795
▁Also	-6.79725
▁pay	-6.80803
▁give	-6.81857
▁there	-6.82368
▁open	-6.82724
▁know	-6.82841
▁always	-6.8335
▁since	-6.83754
d	-6.84378
▁add	-6.86188
▁apps	-6.86907
▁things	-6.87135
▁works	-6.87385
▁song	-6.87532
▁ad	-6.89335
▁long	-6.89682
▁going	-6.91232
▁first	-6.91781
▁best	-6.91833
▁last	-6.92534
▁different	-6.92681
▁tried	-6.92844
▁change	-6.93088
▁getting	-6.93503
▁coins	-6.94035
▁easy	-6.94353
▁experience	-6.94546
ot	-6.94624
▁you	-6.94935
▁So	-6.9562
▁movies	-6.95702
hen	-6.96628
▁watching	-6.96707
▁sometimes	-6.96888
▁en	-6.97284
es	-6.9822
▁makes	-6.98403
▁will	-6.98415
▁again	-6.98853
▁hard	-6.98993
▁everything	-6.99696
▁mobile	-7.0063
▁S	-7.01308
▁level	-7.02332
▁got	-7.0246
▁think	-7.03022
or	-7.03202
▁feature	-7.03803
ow	-7.03989
▁frustrating	-7.04377
▁trying	-7.04441
▁fine	-7.05383
▁anything	-7.0545
▁this	-7.06918
▁though	-7.07738
▁features	-7.07894
▁day	-7.08012
▁now	-7.08211
▁please	-7.0852
▁bad	-7.08561
▁start	-7.0889
▁download	-7.11255
▁fixed	-7.1322
▁minutes	-7.13441
▁videos	-7.13493
▁service	-7.13523
▁another	-7.13881
▁working	-7.15864
▁turn	-7.16722
▁do	-7.17465
▁content	-7.17571
▁right	-7.17601
▁me	-7.18818
▁account	-7.20713
▁movie	-7.21007
▁player	-7.21534
▁nothing	-7.22062
▁controls	-7.22119
▁reason	-7.22488
▁re	-7.24022
▁made	-7.24397
▁load	-7.24511
▁files	-7.24764
▁ever	-7.25765
er	-7.26028
▁next	-7.2685
ust	-7.28003
▁all	-7.28661
▁nice	-7.28669
▁takes	-7.28868
▁button	-7.28976
▁ama	-7.29276
▁far	-7.29711
▁up	-7.2983
▁two	-7.30139
▁streaming	-7.30172
▁seems	-7.30324
▁device	-7.31186
▁help	-7.31215
▁problems	-7.31534
i	-7.31632
▁let	-7.32126
▁actually	-7.33007
▁old	-7.33135
▁star	-7.33423
▁them	-7.34175
▁stop	-7.34969
uality	-7.35117
▁mode	-7.35326
▁friends	-7.35657
▁audio	-7.35741
oy	-7.35811
▁pretty	-7.3592
▁to	-7.36379
n	-7.37175
▁levels	-7.38016
▁gets	-7.38159
etflix	-7.38434
▁recommend	-7.39268
▁listen	-7.39692
▁instead	-7.39867
▁point	-7.39927
▁put	-7.40121
▁started	-7.40215
▁subscription	-7.40231
▁message	-7.41624
▁seconds	-7.41943
▁email	-7.4229
▁user	-7.42334
▁days	-7.42336
▁close	-7.42428
▁reading	-7.42451
▁little	-7.42895
owever	-7.43135
▁buy	-7.43658
▁Android	-7.44801
▁needs	-7.45239
▁say	-7.4547
▁take	-7.45826
▁end	-7.46135
▁premium	-7.46172
▁longer	-7.46309
▁wish	-7.46567
▁sure	-7.46603
ery	-7.4676
▁are	-7.47138
▁bugs	-7.47354
▁multiple	-7.47914
▁played	-7.48188
▁enough	-7.48481
▁options	-7.48772
▁look	-7.48866
▁data	-7.49248
▁almost	-7.50318
▁year	-7.51231
▁already	-7.53813
▁bit	-7.5409
▁bug	-7.54406
▁access	-7.55303
▁anymore	-7.55539
▁constantly	-7.55653
▁completely	-7.5572
▁text	-7.55817
▁making	-7.56074
▁worth	-7.56264
▁months	-7.56746
▁send	-7.5692
▁click	-7.57012
▁graphics	-7.57035
▁downloaded	-7.5731
▁support	-7.5814
▁crashes	-7.58406
▁full	-7.58449
▁updates	-7.58455
▁photos	-7.58459
▁either	-7.58819
▁sound	-7.58869
▁etc	-7.58941
▁least	-7.5895
▁list	-7.59038
▁month	-7.59198
reat	-7.5927
▁search	-7.59409
▁difficult	-7.59609
▁file	-7.6024
▁i	-7.60873
▁story	-7.60916
▁playlist	-7.60948
▁messages	-7.61086
▁often	-7.62342
▁review	-7.62572
oogle	-7.62975
▁App	-7.63232
▁around	-7.63703
▁Spotify	-7.63874
▁book	-7.63989
▁devices	-7.64726
▁media	-7.64994
▁else	-7.65509
▁recently	-7.65515
▁soon	-7.65645
▁live	-7.66061
▁especially	-7.66734
▁fast	-7.66765
▁less	-7.66832
▁episode	-7.67026
▁come	-7.67095
▁on	-7.67366
▁hope	-7.68251
▁settings	-7.68288
▁continue	-7.68332
▁view	-7.6862
▁us	-7.6888
▁available	-7.69026
▁ago	-7.69466
hat	-7.69497
▁lose	-7.69511
▁move	-7.69554
▁impossible	-7.70565
▁away	-7.70806
▁page	-7.70916
▁left	-7.70922
▁past	-7.71342
▁That	-7.71368
▁whole	-7.71708
▁notifications	-7.7265
▁call	-7.72782
▁stream	-7.72785
▁slow	-7.73116
▁save	-7.73145
▁several	-7.74688
▁progress	-7.7471
▁loading	-7.7625
▁favorite	-7.76483
▁done	-7.77021
▁wrong	-7.77357
▁off	-7.77364
▁internet	-7.7754
▁part	-7.77596
▁run	-7.77672
▁top	-7.77803
▁says	-7.78194
▁delete	-7.78748
▁real	-7.78816
▁kind	-7.79051
▁goes	-7.79073
▁feel	-7.79116
▁stuff	-7.79118
▁out	-7.79195
▁seem	-7.79239
▁looking	-7.79845
▁amount	-7.79848
▁restart	-7.80044
▁connection	-7.80142
▁found	-7.80329
▁spend	-7.80805
ther	-7.81174
▁stories	-7.81328
▁chat	-7.81604
▁updated	-7.81798
▁second	-7.82287
▁system	-7.82317
▁recent	-7.82518
▁As	-7.83163
▁choose	-7.83557
▁interface	-7.83643
▁yet	-7.84351
▁control	-7.84746
▁stuck	-7.85042
▁worse	-7.85091
▁After	-7.85148
▁error	-7.85177
▁absolutely	-7.85368
▁others	-7.85597
▁paying	-7.85617
▁couple	-7.85733
ove	-7.86015
▁edit	-7.86025
r	-7.86212
▁set	-7.86295
▁learning	-7.86518
▁in	-7.86983
▁Thank	-7.87513
▁home	-7.87612
▁allow	-7.87708
▁learn	-7.87826
▁place	-7.88643
▁selection	-7.88667
▁simple	-7.88687
ne	-7.88758
▁skip	-7.9012
▁changed	-7.90255
▁hours	-7.90819
▁certain	-7.90982
▁series	-7.91191
▁they	-7.91296
▁forward	-7.91758
▁daily	-7.92083
▁pass	-7.92118
▁In	-7.92312
▁terrible	-7.92333
ulu	-7.92352
▁complete	-7.92762
▁randomly	-7.93097
▁wait	-7.93185
▁super	-7.93232
▁single	-7.93324
hy	-7.934
▁pop	-7.93505
▁latest	-7.93742
▁All	-7.93743
▁half	-7.93858
▁fact	-7.94465
▁thought	-7.94678
▁switch	-7.94964
▁platform	-7.95054
▁main	-7.9506
verall	-7.95178
▁select	-7.95487
▁happens	-7.95539
▁listening	-7.9572
en	-7.95913
▁added	-7.96006
▁scroll	-7.96091
▁too	-7.96194
▁extreme	-7.96332
▁perfect	-7.96471
▁big	-7.96661
▁pause	-7.96712
▁glitches	-7.9675
▁worked	-7.96924
▁plays	-7.9719
▁paid	-7.97585
▁random	-7.97611
t	-7.97787
uite	-7.98158
▁background	-7.98351
▁someone	-7.99281
▁awesome	-7.9957
▁chapters	-7.99613
▁unless	-7.99677
▁playlists	-7.99685
▁commercials	-7.99782
▁however	-7.99799
▁order	-7.99947
▁understand	-8.00411
▁lost	-8.00949
▁tell	-8.01169
▁clear	-8.01429
very	-8.01528
▁uninstall	-8.01652
▁matter	-8.02027
▁changes	-8.02133
ood	-8.02358
on	-8.0237
▁properly	-8.03002
▁photo	-8.03135
▁starts	-8.03143
▁black	-8.03197
▁gone	-8.03228
▁sync	-8.03295
▁finish	-8.03697
ould	-8.03954
▁Thanks	-8.04243
▁stops	-8.04307
ouTube	-8.04541
▁become	-8.04818
▁Sometimes	-8.04948
▁notification	-8.0593
▁post	-8.06285
▁rating	-8.0637
ven	-8.06538
▁beginning	-8.07074
▁editing	-8.07147
▁hate	-8.07173
▁points	-8.0722
▁automatically	-8.07406
▁anyone	-8.08042
▁later	-8.0805
▁cool	-8.08174
▁possible	-8.08401
▁happened	-8.08517
pdate	-8.08744
▁crashing	-8.08752
▁chapter	-8.08862
▁users	-8.08886
▁may	-8.0905
▁sucks	-8.09222
▁connect	-8.09923
▁high	-8.10003
▁Then	-8.10068
▁overall	-8.10183
dit	-8.10653
▁rate	-8.10821
hatsApp	-8.11154
▁news	-8.11247
ame	-8.11431
▁tv	-8.11523
annot	-8.12498
▁world	-8.12973
▁storage	-8.13127
▁stopped	-8.13495
▁ability	-8.1398
▁players	-8.14239
▁because	-8.14555
▁previous	-8.14656
▁car	-8.14935
▁channels	-8.15144
▁pictures	-8.15173
▁guys	-8.15234
▁business	-8.15502
▁definitely	-8.1555
▁wanted	-8.15849
▁gameplay	-8.1588
▁said	-8.16277
▁disappointed	-8.16359
▁emails	-8.16532
▁example	-8.1671
▁due	-8.16801
▁Some	-8.16863
▁ridiculous	-8.17304
▁hear	-8.17347
▁price	-8.17657
ump	-8.1771
▁showing	-8.17753
▁tablet	-8.17793
ave	-8.17934
▁seen	-8.18072
▁channel	-8.18203
▁easily	-8.18378
▁worst	-8.18385
as	-8.18441
ropbox	-8.18514
▁books	-8.18567
▁wifi	-8.1864
▁cost	-8.18682
▁entire	-8.18887
▁does	-8.19035
▁uninstalled	-8.19065
▁remove	-8.19101
▁week	-8.19109
▁maybe	-8.19335
▁literally	-8.19601
▁side	-8.19724
▁speed	-8.19885
▁track	-8.19924
▁went	-8.20208
▁design	-8.20705
▁space	-8.20794
▁everyone	-8.20876
▁saying	-8.21187
▁trial	-8.2138
▁number	-8.21803
▁application	-8.21814
▁weeks	-8.22033
▁purchase	-8.2207
▁desktop	-8.22076
▁hit	-8.22187
▁picture	-8.22315
▁easier	-8.22554
▁small	-8.22771
▁useless	-8.22945
▁giving	-8.23381
▁type	-8.23778
▁might	-8.23975
▁smil	-8.24028
est	-8.24254
▁android	-8.24284
▁more	-8.24285
▁reinstalled	-8.24457
▁function	-8.24543
AT	-8.24618
▁for	-8.24793
▁piano	-8.25515
▁rather	-8.25522
an	-8.25628
able	-8.25706
▁comes	-8.25995
▁.	-8.26276
st	-8.26388
▁deleted	-8.26601
▁match	-8.26746
▁Its	-8.26803
..	-8.26853
▁tap	-8.2738
▁check	-8.27602
▁what	-8.27817
▁lessons	-8.27878
▁waste	-8.27926
▁three	-8.2807
▁heart	-8.285
▁camera	-8.2886
▁ones	-8.28895
▁language	-8.28913
▁log	-8.29264
uickly	-8.29485
▁upload	-8.29767
▁minute	-8.30139
ad	-8.30233
▁win	-8.30414
▁sent	-8.30707
▁middle	-8.30779
▁cache	-8.31625
▁menu	-8.31718
▁expensive	-8.31975
▁phones	-8.32126
▁whenever	-8.32521
▁running	-8.32931
▁eyes	-8.33192
▁unable	-8.33238
▁playback	-8.33437
▁buggy	-8.33697
▁took	-8.3374
it	-8.34065
▁person	-8.34084
▁over	-8.34156
▁At	-8.34197
▁auto	-8.34569
▁gives	-8.34587
▁ma	-8.34783
▁images	-8.34861
▁Samsung	-8.34995
▁useful	-8.35336
▁original	-8.3535
▁bar	-8.35424
▁card	-8.35568
▁folder	-8.35717
▁offline	-8.35908
isney	-8.35984
ee	-8.3613
▁before	-8.36846
nly	-8.36873
▁per	-8.37215
▁glitch	-8.37385
▁online	-8.37572
▁pick	-8.37754
▁adds	-8.3792
▁horrible	-8.37966
▁short	-8.38062
▁developers	-8.384
▁setting	-8.38443
▁computer	-8.38466
▁loved	-8.39059
▁leave	-8.391
▁mind	-8.39269
▁bring	-8.39547
▁create	-8.39662
▁happening	-8.39707
▁layout	-8.40123
▁reinstall	-8.40183
ike	-8.40248
▁extra	-8.40556
....	-8.40576
▁voice	-8.40642
▁notes	-8.40779
▁section	-8.40897
▁cancel	-8.41162
▁happy	-8.41571
▁navigate	-8.4231
▁team	-8.42321
▁pro	-8.42481
a	-8.42639
▁fre	-8.42665
▁s	-8.42853
▁installed	-8.43029
▁share	-8.43398
▁items	-8.43657
▁needed	-8.43921
▁basic	-8.44195
▁usually	-8.44373
▁To	-8.4452
loud	-8.44547
▁customer	-8.44661
▁variety	-8.44804
▁volume	-8.44873
▁of	-8.45489
▁program	-8.45989
▁episodes	-8.46361
▁adding	-8.46694
▁spent	-8.46709
▁whatever	-8.46885
▁crash	-8.47416
ob	-8.47425
eally	-8.47444
usic	-8.47472
▁upgrade	-8.47523
▁life	-8.47648
▁except	-8.4769
▁friendly	-8.47735
▁suddenly	-8.47788
▁buffering	-8.48048
▁press	-8.48185
▁forever	-8.48189
probably	-8.48219
▁character	-8.48585
▁calls	-8.48707
ix	-8.48827
▁hour	-8.49569
within	-8.49577
▁swipe	-8.49614
ation	-8.4971
▁given	-8.50211
▁be	-8.50521
▁liked	-8.50521
▁broken	-8.50526
▁sign	-8.50653
▁must	-8.50824
AS	-8.51125
▁mini	-8.51152
▁missing	-8.51349
▁image	-8.51382
▁plus	-8.51601
▁box	-8.51745
▁cars	-8.51758
▁remember	-8.51826
▁Still	-8.51997
odi	-8.52043
▁downloading	-8.5218
▁reset	-8.5233
▁everytime	-8.52375
▁library	-8.5267
▁happen	-8.5289
▁large	-8.52896
▁force	-8.52907
▁lots	-8.53609
▁Ama	-8.5382
▁down	-8.53871
uire	-8.54024
▁status	-8.5422
▁so	-8.54262
▁saved	-8.54395
▁reviews	-8.54397
▁stay	-8.54528
▁feels	-8.54528
▁idea	-8.54557
▁un	-8.54669
▁install	-8.54701
▁gotten	-8.54754
▁actual	-8.55079
ost	-8.552
uick	-8.55332
▁helpful	-8.55413
▁unlock	-8.5549
▁huge	-8.55854
▁low	-8.56039
▁looks	-8.5627
ill	-8.57468
▁boring	-8.57533
▁break	-8.57581
et	-8.57622
▁mean	-8.57795
▁stupid	-8.57984
▁decent	-8.58185
h	-8.58385
▁touch	-8.58596
▁five	-8.58722
▁commercial	-8.58941
▁beat	-8.58992
▁si	-8.59062
utlook	-8.59247
▁words	-8.59571
▁network	-8.59688
▁awful	-8.597
▁connected	-8.60003
▁moves	-8.60061
▁contact	-8.60443
▁lag	-8.60625
▁across	-8.60647
face	-8.60865
ith	-8.61167
▁excellent	-8.61326
lay	-8.6164
▁challenges	-8.61863
▁controller	-8.62242
oin	-8.62403
▁reply	-8.62495
▁practice	-8.62523
▁interesting	-8.62564
▁earn	-8.62594
▁figure	-8.62837
▁Sound	-8.63006
▁lately	-8.63065
▁allows	-8.63111
▁while	-8.63155
▁removed	-8.63173
lus	-8.63328
▁highly	-8.63414
▁watched	-8.63511
▁p	-8.63607
▁family	-8.6363
▁correct	-8.63757
▁note	-8.63933
▁Adobe	-8.64282
▁hands	-8.64765
▁miss	-8.64768
▁finally	-8.64843
▁comics	-8.65008
▁spending	-8.65147
▁constant	-8.65153
▁deal	-8.65276
▁changing	-8.65453
▁Since	-8.65798
▁reinstalling	-8.6594
▁specific	-8.66065
▁Instagram	-8.66377
▁starting	-8.66506
▁here	-8.66532
▁store	-8.66921
▁unusable	-8.66941
▁today	-8.67064
oes	-8.67377
▁gave	-8.67565
▁Twitter	-8.67616
▁higher	-8.67659
▁information	-8.6793
▁care	-8.6851
▁trouble	-8.68563
▁perfectly	-8.68566
▁poor	-8.68619
▁server	-8.68684
▁buttons	-8.68997
▁with	-8.69149
▁forced	-8.6923
▁important	-8.6935
▁bottom	-8.69409
▁alot	-8.69423
▁browser	-8.69551
▁came	-8.69566
▁functionality	-8.70039
▁bought	-8.70544
verything	-8.70862
▁name	-8.71175
▁supposed	-8.71201
oyed	-8.71225
IT	-8.71227
▁noticed	-8.71233
kept	-8.71335
▁course	-8.71625
▁artists	-8.71661
▁exit	-8.71834
▁group	-8.71868
▁deleting	-8.72001
ox	-8.72068
▁uninstalling	-8.72303
▁taking	-8.72534
▁sending	-8.72616
▁normal	-8.72886
▁resume	-8.72983
▁ok	-8.72985
▁loads	-8.73005
▁smooth	-8.73454
▁profile	-8.73728
▁honestly	-8.73847
▁limited	-8.73937
se	-8.74058
▁glitchy	-8.74058
▁folders	-8.74065
▁manually	-8.74322
luetooth	-8.74716
▁customi	-8.74837
▁waiting	-8.74838
▁appear	-8.74981
▁choice	-8.74997
▁Tubi	-8.75057
▁hand	-8.75374
▁chats	-8.75942
▁completed	-8.75981
itbit	-8.76014
▁format	-8.76078
▁dark	-8.76136
▁total	-8.76296
▁cast	-8.76305
▁guess	-8.76401
▁otherwise	-8.76429
ew	-8.76705
ay	-8.76778
▁older	-8.76958
▁mission	-8.7713
un	-8.77332
▁rid	-8.77594
▁social	-8.77594
▁updating	-8.77669
▁opening	-8.78076
▁plan	-8.7815
decided	-8.78564
▁default	-8.78829
▁tab	-8.79006
▁rewards	-8.79171
▁weird	-8.79251
▁current	-8.79271
▁software	-8.79284
▁mention	-8.7944
sed	-8.79461
▁believe	-8.79496
▁immediately	-8.79513
one	-8.79571
hromecast	-8.79645
▁album	-8.79705
▁twice	-8.80146
▁documents	-8.80267
ST	-8.8057
▁via	-8.80835
▁shuffle	-8.80842
▁ways	-8.81209
▁lesson	-8.81663
▁a	-8.81733
ever	-8.81792
▁keyboard	-8.82023
ver	-8.82146
▁mess	-8.82215
▁basically	-8.82232
▁battery	-8.82306
▁services	-8.82406
▁weapons	-8.82567
▁based	-8.82586
irst	-8.82675
▁viewing	-8.82989
▁web	-8.83288
k	-8.83426
▁streams	-8.83536
▁follow	-8.83629
▁monthly	-8.8374
▁Too	-8.83878
▁build	-8.83942
▁cut	-8.84243
in	-8.84255
▁tracks	-8.8427
▁garbage	-8.84281
▁repetitive	-8.84393
▁wonderful	-8.84405
▁was	-8.84632
▁sleep	-8.84722
nce	-8.84763
▁cards	-8.84859
uently	-8.84927
▁syncing	-8.84994
▁okay	-8.84999
▁moving	-8.85016
▁runs	-8.85111
▁means	-8.85121
▁response	-8.85144
▁behind	-8.85686
▁scrolling	-8.85688
▁line	-8.85735
▁messaging	-8.85742
▁repeat	-8.85797
but	-8.858
ive	-8.8585
▁together	-8.85953
▁display	-8.85989
een	-8.85994
▁color	-8.85996
luto	-8.86107
icrosoft	-8.86252
▁general	-8.86297
▁challenging	-8.86432
▁did	-8.86742
▁link	-8.86806
▁harder	-8.86903
uest	-8.87005
▁refresh	-8.87236
▁subtitles	-8.87362
▁coming	-8.87366
▁map	-8.87396
▁thumbs	-8.87428
▁incredibl	-8.87503
▁functions	-8.87638
hile	-8.87671
▁reels	-8.88168
▁losing	-8.88213
▁pu	-8.88627
▁fitbit	-8.88669
▁versions	-8.88726
▁sense	-8.88772
▁wants	-8.88935
▁particular	-8.89321
▁ruined	-8.8941
▁frustrated	-8.89468
ell	-8.89637
▁similar	-8.89642
▁challenge	-8.89744
▁code	-8.90009
oom	-8.9049
▁friend	-8.90571
▁beautiful	-8.90588
▁along	-8.90639
▁info	-8.90804
▁laggy	-8.90917
▁nearly	-8.90977
▁currently	-8.91055
▁c	-8.91263
▁personal	-8.91298
▁taken	-8.91302
▁document	-8.91303
▁skin	-8.9131
▁fantastic	-8.91562
▁process	-8.91633
▁company	-8.91685
and	-8.91749
▁accounts	-8.9206
oyable	-8.92272
▁disappointing	-8.92389
▁casting	-8.92455
▁website	-8.9254
▁sort	-8.92865
▁improve	-8.92889
▁laptop	-8.92971
▁suggest	-8.93039
le	-8.93046
▁reopen	-8.93221
▁charge	-8.93313
▁appreciate	-8.93725
▁rewind	-8.93948
▁finished	-8.94414
▁date	-8.94543
anva	-8.94581
▁limit	-8.94635
▁opinion	-8.9473
▁attempt	-8.94745
▁complaint	-8.9479
l	-8.95012
▁cable	-8.95091
▁appears	-8.95188
▁smart	-8.95223
▁helps	-8.95569
▁w	-8.95601
▁mostly	-8.95694
ting	-8.9618
▁simpl	-8.96199
espite	-8.96336
▁coin	-8.96379
▁posts	-8.96535
▁lags	-8.97107
IS	-8.97196
▁opened	-8.97235
▁password	-8.97241
▁events	-8.97342
▁fill	-8.97394
▁offer	-8.97507
is	-8.97687
▁anywhere	-8.97778
▁thank	-8.97834
▁faster	-8.98057
▁includ	-8.98063
▁missions	-8.98085
▁receive	-8.98153
▁becomes	-8.98603
▁icon	-8.98806
re	-8.99068
▁double	-8.99141
▁thanks	-8.99147
▁itself	-8.99403
▁case	-8.99463
▁chance	-8.99559
▁ask	-8.99754
▁kick	-9.00428
▁restarting	-9.00531
▁report	-9.00627
▁restarted	-9.01076
▁correctly	-9.01393
u	-9.01456
▁straight	-9.01676
inecraft	-9.01689
▁drive	-9.01743
▁push	-9.01948
▁switching	-9.02345
therwise	-9.02436
▁rest	-9.02543
▁and	-9.02887
▁Ads	-9.02944
▁characters	-9.03112
▁errors	-9.03163
uolingo	-9.03364
iscord	-9.03366
▁bonus	-9.03555
▁disappear	-9.0362
▁contacts	-9.03694
▁continues	-9.03735
▁expect	-9.03832
▁near	-9.03858
ast	-9.03972
▁seeing	-9.04
▁none	-9.04247
othing	-9.04251
▁once	-9.04348
▁prefer	-9.04371
▁split	-9.04421
▁irritating	-9.04434
▁score	-9.04524
▁AS	-9.04621
▁finding	-9.04782
▁power	-9.04812
▁reach	-9.0506
▁hold	-9.05199
▁cloud	-9.05199
▁x	-9.05307
eep	-9.05373
▁disable	-9.05509
▁building	-9.05568
▁bigge	-9.05823
▁word	-9.0594
▁b	-9.05956
alaxy	-9.0597
▁block	-9.06016
aybe	-9.06069
▁stopping	-9.06286
▁organi	-9.06289
▁tool	-9.0652
al	-9.0654
▁login	-9.06806
▁talk	-9.06832
▁closed	-9.07136
▁Twitch	-9.07169
▁count	-9.07294
ue	-9.07336
▁as	-9.07549
▁downloads	-9.07581
▁Telegram	-9.07907
▁confusing	-9.07914
▁compared	-9.07971
▁whatsapp	-9.08334
▁feedback	-9.08354
▁Am	-9.08438
▁driving	-9.08818
▁th	-9.08896
▁bunch	-9.08911
▁same	-9.09053
▁fan	-9.09284
▁reali	-9.0949
▁drop	-9.09822
▁slight	-9.09878
▁spot	-9.09976
p	-9.10046
▁lower	-9.10138
▁breaks	-9.10158
▁feed	-9.10315
▁fixes	-9.10334
▁luck	-9.10454
▁v	-9.10843
▁designed	-9.10844
▁but	-9.11016
▁turns	-9.11075
▁steps	-9.11122
▁regular	-9.11313
uit	-9.1135
▁night	-9.1143
▁f	-9.11705
asy	-9.11948
▁trash	-9.12017
▁cash	-9.12175
▁improved	-9.12633
▁min	-9.12671
▁sad	-9.12733
smil	-9.12779
▁red	-9.1297
▁no	-9.13076
▁recogni	-9.13097
▁enter	-9.13208
nfortunately	-9.13231
ombie	-9.13251
▁locked	-9.13257
▁pain	-9.13258
▁consider	-9.13448
▁servers	-9.14391
▁interested	-9.14606
ero	-9.14737
ecause	-9.15116
▁bother	-9.15292
▁artist	-9.15332
▁provide	-9.15367
ope	-9.15409
▁closing	-9.15454
▁although	-9.15571
▁diamonds	-9.15632
▁discord	-9.16291
▁causes	-9.1645
▁anyway	-9.1655
▁clean	-9.16755
enrag	-9.16983
▁separate	-9.1716
ect	-9.17336
ore	-9.17436
▁lack	-9.17444
▁recommended	-9.17517
▁developer	-9.17583
▁backup	-9.17803
▁which	-9.18089
▁future	-9.18195
f	-9.18228
no	-9.18251
ice	-9.18306
▁resolved	-9.1831
▁devs	-9.18427
g	-9.1853
▁platforms	-9.18536
▁product	-9.18549
▁sharing	-9.18604
umps	-9.18623
▁improvement	-9.18689
▁stick	-9.18969
▁town	-9.19122
▁hoping	-9.19294
any	-9.19577
▁thinking	-9.19772
▁tools	-9.19923
▁Add	-9.19989
hich	-9.20061
▁the	-9.20213
▁site	-9.20433
▁d	-9.20767
▁cleared	-9.20845
▁lagging	-9.21008
▁shut	-9.21056
▁cra	-9.21138
▁whe	-9.21217
▁inbox	-9.21233
▁intuitive	-9.21247
▁sounds	-9.2138
our	-9.21391
▁tasks	-9.21726
▁fall	-9.21754
▁goal	-9.21963
ombies	-9.22071
▁An	-9.22158
▁white	-9.22197
▁ahead	-9.22199
▁choices	-9.22217
▁mins	-9.22309
▁checked	-9.22311
▁return	-9.22375
▁non	-9.22441
▁popup	-9.22597
▁groups	-9.2268
▁considering	-9.22814
▁caus	-9.2285
ro	-9.22884
▁fails	-9.2291
TI	-9.22979
▁expected	-9.23192
▁plenty	-9.23241
▁fully	-9.23257
▁k	-9.23326
▁Seem	-9.23413
▁creators	-9.23434
▁charged	-9.23644
▁result	-9.23665
▁closes	-9.23676
▁pull	-9.23688
▁podcasts	-9.23754
oying	-9.23982
▁switched	-9.24025
m	-9.2423
ueue	-9.24244
orks	-9.24263
▁telegram	-9.2428
akes	-9.24355
▁loud	-9.2461
▁connecting	-9.24892
▁entirely	-9.24897
▁Super	-9.24949
▁area	-9.25163
▁glitching	-9.25408
▁concept	-9.25412
▁skips	-9.25688
▁blank	-9.25804
▁tru	-9.25989
▁telling	-9.2599
▁only	-9.25995
ried	-9.26239
▁Although	-9.26398
▁gold	-9.26423
▁told	-9.26447
▁convenient	-9.26606
▁lock	-9.26862
▁season	-9.26888
▁twitch	-9.26912
▁comic	-9.27035
▁results	-9.27052
box	-9.27204
▁art	-9.27248
oblox	-9.2727
▁buffer	-9.27273
nother	-9.27413
▁bored	-9.27483
▁becoming	-9.275
▁rarely	-9.27587
▁copy	-9.27633
the	-9.27714
▁putting	-9.27782
▁smoothly	-9.27841
▁increase	-9.27925
▁shame	-9.28615
▁through	-9.28771
uch	-9.28923
▁mouth	-9.28951
▁genre	-9.28999
▁payment	-9.29193
▁tired	-9.29329
▁types	-9.29458
▁offers	-9.29495
aving	-9.29708
▁roblox	-9.29845
▁google	-9.29945
▁turning	-9.30044
▁room	-9.30183
▁sudden	-9.30541
▁potential	-9.30769
▁loop	-9.30788
▁accidentally	-9.30796
▁received	-9.30972
▁advance	-9.31104
▁step	-9.31149
▁purchased	-9.3121
▁fire	-9.314
▁solution	-9.31491
▁comment	-9.3151
▁albums	-9.31843
▁unplayable	-9.31893
▁ups	-9.32027
ideo	-9.32036
▁exactly	-9.32054
▁kill	-9.32081
▁eventually	-9.32098
▁selected	-9.32118
▁we	-9.32134
▁multiplayer	-9.3224
▁l	-9.32439
till	-9.33064
▁fro	-9.33127
SS	-9.33231
▁spam	-9.33485
▁pdf	-9.33529
▁clearly	-9.33776
▁reader	-9.33855
▁interest	-9.33932
▁purpose	-9.34012
▁pages	-9.34031
▁include	-9.34033
less	-9.34083
▁manage	-9.34106
▁asking	-9.34153
uired	-9.34388
laylist	-9.3444
▁discover	-9.3447
▁matches	-9.34542
▁tone	-9.34649
ish	-9.3466
▁sports	-9.3472
ecently	-9.3472
▁suggestion	-9.34863
▁previously	-9.34905
specially	-9.34917
▁draw	-9.35059
▁addition	-9.35183
onestly	-9.35189
▁meet	-9.35298
▁demand	-9.35377
▁experiencing	-9.3542
▁unfortunately	-9.35425
▁symbols	-9.35451
▁reliable	-9.35658
▁seriously	-9.35701
▁mark	-9.35708
▁performance	-9.35831
▁revert	-9.3586
▁fit	-9.35903
▁trick	-9.36005
▁communication	-9.36009
▁mix	-9.3605
▁tricks	-9.36119
▁why	-9.36177
▁style	-9.36679
▁sit	-9.36816
▁created	-9.36918
▁hearts	-9.36918
▁difficulty	-9.3699
▁garden	-9.37044
▁buffers	-9.37135
▁talking	-9.3723
▁t	-9.37498
retty	-9.37515
▁fail	-9.37558
▁glad	-9.37735
▁forget	-9.37855
▁individual	-9.37871
▁messed	-9.38092
▁location	-9.38245
▁keeping	-9.38372
▁learned	-9.38677
▁opens	-9.387
▁endless	-9.38749
▁afford	-9.3887
▁history	-9.38903
▁somehow	-9.38903
▁focus	-9.38958
▁throw	-9.39088
▁slide	-9.39205
▁refund	-9.39205
▁writing	-9.39289
▁places	-9.39437
▁calendar	-9.39448
▁aspect	-9.39465
▁then	-9.3952
layer	-9.39526
ews	-9.39785
▁parts	-9.39785
▁searching	-9.39806
nstead	-9.39935
id	-9.40031
▁light	-9.40055
▁inconvenient	-9.40131
▁task	-9.402
▁st	-9.4029
▁g	-9.40367
▁shoot	-9.40388
ots	-9.40416
▁pc	-9.40482
▁yes	-9.40586
mail	-9.40755
▁fee	-9.40856
▁special	-9.4118
efinitely	-9.41185
henever	-9.41356
▁Terrible	-9.41372
▁stays	-9.41622
▁heard	-9.41853
▁difference	-9.4192
▁landscape	-9.42109
▁ton	-9.42776
us	-9.43054
▁posting	-9.43156
▁hell	-9.43204
▁onto	-9.43218
▁suggestions	-9.43318
▁costs	-9.43415
▁row	-9.43563
▁worlds	-9.43704
▁sub	-9.43738
▁tons	-9.43744
▁fair	-9.4379
▁attention	-9.43873
▁damn	-9.43876
▁tech	-9.43922
▁typing	-9.4408
▁failed	-9.44098
▁IT	-9.44129
▁chromebook	-9.44299
▁ended	-9.44343
▁creative	-9.44408
les	-9.44467
▁classic	-9.44474
▁item	-9.44516
▁autoplay	-9.44695
▁avoid	-9.44794
▁genres	-9.44805
▁four	-9.4489
verytime	-9.44899
hone	-9.45007
▁lives	-9.45007
▁write	-9.45155
▁notice	-9.45208
ers	-9.45322
▁from	-9.45353
▁boosters	-9.45424
▁solve	-9.45448
▁dollars	-9.45553
▁complicated	-9.45574
▁helped	-9.4569
▁complet	-9.45721
▁blue	-9.45721
looked	-9.45743
▁m	-9.45769
signed	-9.45785
▁window	-9.45801
umping	-9.45941
unk	-9.45973
ight	-9.4598
▁wide	-9.4606
▁favorites	-9.46062
▁local	-9.46413
▁unlimited	-9.46453
▁solid	-9.46495
▁directly	-9.46706
▁answer	-9.4688
▁record	-9.46999
▁moment	-9.47103
▁experienced	-9.47179
▁improvements	-9.47319
▁transfer	-9.47536
▁pls	-9.47553
▁respond	-9.47695
▁advertising	-9.47781
remium	-9.47865
▁apparent	-9.47888
▁tracking	-9.48284
▁kids	-9.48286
ity	-9.48303
▁food	-9.48453
▁collect	-9.48559
▁purchases	-9.48736
▁titles	-9.48855
▁serious	-9.48875
▁Always	-9.49098
▁yesterday	-9.49103
▁navigation	-9.49306
▁relaxing	-9.49424
▁preview	-9.49724
▁asked	-9.49865
▁reasons	-9.49893
▁grammar	-9.49942
▁saving	-9.50032
▁shooting	-9.5008
▁allowed	-9.50239
ar	-9.50406
▁security	-9.50448
▁spotify	-9.50448
▁alone	-9.50463
raged	-9.50488
▁realistic	-9.50499
me	-9.50548
▁strong	-9.50568
orst	-9.5057
▁round	-9.50616
▁following	-9.50773
▁drain	-9.50898
x	-9.50978
▁algorithm	-9.51157
▁alternative	-9.51165
▁newest	-9.51169
▁forc	-9.51169
▁export	-9.51374
▁logging	-9.51422
▁absolute	-9.51606
▁register	-9.51611
ightroom	-9.51664
▁mine	-9.51687
▁products	-9.5174
▁Second	-9.51813
▁other	-9.51975
▁about	-9.52005
▁man	-9.52057
▁tapping	-9.52592
▁languages	-9.52649
▁effort	-9.5272
rom	-9.52776
efore	-9.52861
xcellent	-9.52904
▁key	-9.53124
▁memory	-9.53204
▁negative	-9.53205
▁intrusive	-9.53337
▁filter	-9.5344
▁disappeared	-9.53569
all	-9.53833
▁credits	-9.53834
▁minor	-9.54071
ome	-9.54133
▁font	-9.54184
▁customers	-9.54243
▁logg	-9.54408
▁honest	-9.54421
▁mail	-9.54504
▁skins	-9.54545
▁popular	-9.5461
▁complaints	-9.54652
▁resolve	-9.54763
▁fixing	-9.54846
▁headphones	-9.54909
ought	-9.55226
▁radio	-9.55242
▁event	-9.55293
▁comments	-9.55346
▁webtoon	-9.55403
▁reel	-9.55503
▁period	-9.55575
▁wall	-9.55723
▁early	-9.55879
▁suck	-9.55912
▁catch	-9.55987
▁beyond	-9.56033
▁unnecessary	-9.56048
▁Alto	-9.56113
▁annoyed	-9.56152
uent	-9.5618
▁community	-9.5626
▁tries	-9.5629
sing	-9.56543
▁mistake	-9.56557
▁included	-9.56583
▁title	-9.5709
▁disappears	-9.57153
▁complain	-9.57214
▁exact	-9.57258
▁own	-9.57328
▁saw	-9.57494
▁forces	-9.57514
▁upthumbs	-9.57516
ake	-9.57549
am	-9.57566
▁subscribe	-9.57705
▁uni	-9.58043
▁agree	-9.58144
c	-9.58238
▁favourite	-9.58295
▁creating	-9.58295
▁goals	-9.58438
▁Th	-9.58444
▁visual	-9.58653
▁built	-9.58822
▁entertainment	-9.58964
▁userfriendly	-9.58976
▁streak	-9.58982
▁source	-9.59015
▁bare	-9.59046
▁n	-9.59073
▁decide	-9.59074
▁action	-9.59275
▁hundreds	-9.59308
▁impressed	-9.59315
▁range	-9.59506
▁ends	-9.59529
▁aim	-9.59533
▁sends	-9.59534
▁depend	-9.5974
▁true	-9.59752
.....	-9.60247
hromebook	-9.60285
▁enemies	-9.60444
▁bigger	-9.60564
▁dead	-9.60711
nglish	-9.60724
▁late	-9.60786
▁mute	-9.60887
▁effects	-9.60892
▁personally	-9.60971
▁called	-9.61183
▁posted	-9.6145
oystick	-9.61853
rolling	-9.61909
▁hidden	-9.61954
ninstalled	-9.61979
▁dropbox	-9.62169
▁infuriating	-9.62203
▁unlike	-9.62209
▁pl	-9.62655
ixel	-9.62678
▁head	-9.62731
▁missed	-9.6277
▁article	-9.62853
▁credit	-9.62925
▁buildings	-9.63134
clicking	-9.63322
opefully	-9.63334
▁slowly	-9.63353
indows	-9.63363
▁broke	-9.63424
v	-9.6351
▁nightmare	-9.63514
▁continuously	-9.63582
▁cover	-9.63724
▁brightness	-9.63982
▁scan	-9.64007
▁upgrades	-9.64034
▁wasted	-9.64089
▁ruin	-9.64186
▁die	-9.64782
▁cuts	-9.64883
▁position	-9.64885
▁colors	-9.64913
▁explore	-9.65041
▁nowhere	-9.65158
▁technical	-9.65163
▁membership	-9.65297
ree	-9.65388
▁co	-9.65599
▁basics	-9.65666
▁tweets	-9.65728
▁method	-9.65973
▁regatta	-9.65986
▁r	-9.66215
nd	-9.6635
▁numbers	-9.66358
▁private	-9.66644
▁country	-9.66891
▁outlook	-9.66994
▁banned	-9.67114
▁shown	-9.67201
▁programs	-9.67213
▁reload	-9.67418
▁stable	-9.67432
▁articles	-9.67611
▁provides	-9.67763
▁third	-9.67845
▁designs	-9.67877
▁pre	-9.68237
▁Acrobat	-9.68261
▁addictive	-9.68265
▁setup	-9.68283
▁active	-9.68349
▁dislike	-9.68356
▁Any	-9.68511
▁barel	-9.68567
▁upon	-9.68729
▁bonuses	-9.68732
▁chamet	-9.68742
▁functional	-9.68804
▁ruins	-9.68928
▁cu	-9.68942
▁upgraded	-9.68992
▁can	-9.69225
▁teams	-9.69243
▁paused	-9.6932
red	-9.69449
ind	-9.69495
▁rd	-9.69551
hatsapp	-9.69756
▁clunky	-9.69889
▁gallery	-9.699
ant	-9.6996
▁teach	-9.69973
▁calling	-9.70146
▁hunter	-9.70158
▁skipping	-9.70175
▁occasionally	-9.70285
▁resolution	-9.70395
oke	-9.70518
▁e	-9.70536
▁clips	-9.70673
ally	-9.70681
▁crashed	-9.70682
▁proper	-9.70748
▁gaming	-9.70824
▁front	-9.70854
▁weapon	-9.70903
▁collection	-9.70912
▁host	-9.71042
▁additional	-9.71056
▁mid	-9.711
▁podcast	-9.71164
▁tend	-9.71281
▁gain	-9.7145
▁automatic	-9.71548
▁Awesome	-9.71558
▁ease	-9.71682
▁details	-9.71839
▁matching	-9.71866
ninstalling	-9.71938
▁refuses	-9.72129
▁stand	-9.72168
ead	-9.72241
▁incredible	-9.72377
▁address	-9.72402
▁pics	-9.72463
▁delay	-9.72516
▁who	-9.72544
▁rotate	-9.72674
▁frame	-9.72797
▁launch	-9.72935
▁theme	-9.73127
▁h	-9.73194
▁felt	-9.73236
▁thru	-9.73249
▁medium	-9.73249
eeds	-9.7348
▁everyday	-9.73599
▁lines	-9.73619
▁necessary	-9.7373
▁lucky	-9.73784
w	-9.74164
▁privacy	-9.74977
ook	-9.74988
▁prevent	-9.75025
▁earlier	-9.75175
▁terms	-9.75225
▁redownload	-9.75243
▁checking	-9.75264
here	-9.75336
▁clip	-9.75427
ither	-9.75446
b	-9.75465
▁responding	-9.75621
▁rated	-9.75874
bsolutely	-9.76001
▁br	-9.76097
▁signal	-9.76322
▁self	-9.76369
▁ready	-9.76556
ls	-9.76616
▁increasing	-9.76786
▁remov	-9.76909
▁moved	-9.76954
▁subscribed	-9.76975
time	-9.76977
▁uploading	-9.76979
▁recommendations	-9.77011
▁willing	-9.77039
▁regularly	-9.77147
▁fairly	-9.7719
▁suggested	-9.7736
xtreme	-9.77447
▁reward	-9.77699
▁de	-9.77761
▁standard	-9.77993
▁Though	-9.78075
▁browse	-9.78264
orrible	-9.78396
▁Spanish	-9.78517
▁inside	-9.78526
▁outside	-9.78529
▁popp	-9.78541
▁leaving	-9.78548
od	-9.78595
▁mechanics	-9.7862
now	-9.78638
▁repeatedly	-9.78645
▁kodi	-9.78801
▁loose	-9.78812
he	-9.7892
▁obviously	-9.78948
▁bots	-9.79022
▁flow	-9.79181
▁contacted	-9.79225
▁normally	-9.79345
▁totall	-9.79386
▁sec	-9.79454
inning	-9.79519
▁warning	-9.79738
▁value	-9.79744
down	-9.79776
▁edits	-9.79843
▁Absolute	-9.79872
▁stage	-9.79972
▁chose	-9.80293
▁avail	-9.80298
▁alert	-9.80337
uid	-9.80352
▁minecraft	-9.80408
▁regardless	-9.80476
▁consistently	-9.80526
▁present	-9.80695
▁ending	-9.80726
▁troubleshooting	-9.80726
▁cell	-9.80827
ate	-9.80852
▁displayed	-9.80895
ic	-9.81291
lmost	-9.81357
▁frustration	-9.81466
▁noise	-9.81513
▁competition	-9.81521
▁refuse	-9.81623
ects	-9.81665
▁scores	-9.81801
▁recharge	-9.8188
th	-9.8189
▁saves	-9.81902
▁toward	-9.82006
▁likely	-9.82045
▁elsewhere	-9.82185
▁anytime	-9.82191
▁canceling	-9.82192
▁programming	-9.82198
▁consuming	-9.82236
▁prior	-9.82242
▁greedy	-9.82245
▁pointless	-9.82277
▁fac	-9.82324
▁claim	-9.82366
▁pausing	-9.82415
▁breaking	-9.82472
▁boxes	-9.82874
▁written	-9.82941
▁uno	-9.82961
▁loss	-9.82965
▁optional	-9.83059
▁minimi	-9.83077
▁tweet	-9.83117
▁IS	-9.83181
▁storyline	-9.83403
▁cry	-9.83561
▁insane	-9.8384
raphics	-9.83965
▁exist	-9.84012
▁parkour	-9.84071
▁purchasing	-9.84133
▁advertised	-9.84143
▁editor	-9.84261
ard	-9.84285
▁clicked	-9.8431
▁million	-9.84356
▁custom	-9.84583
▁disabled	-9.84701
▁primar	-9.84731
ce	-9.84851
▁communicate	-9.84876
▁emo	-9.84907
▁grow	-9.84994
▁reboot	-9.85048
▁school	-9.85219
▁lacking	-9.85232
▁fake	-9.85339
▁novel	-9.85357
▁figured	-9.85472
▁finger	-9.85483
▁gr	-9.85554
ack	-9.85583
▁areas	-9.85611
▁safe	-9.85776
▁professional	-9.85784
acebook	-9.8586
▁water	-9.86007
▁backwards	-9.86321
▁installing	-9.86411
▁struggle	-9.86518
▁authors	-9.86554
▁handle	-9.8659
▁cheaper	-9.86629
▁entertaining	-9.8666
▁hang	-9.86774
▁lol	-9.87204
▁explain	-9.87263
▁con	-9.87272
age	-9.87301
▁lacks	-9.8731
▁essential	-9.87442
ability	-9.87505
▁import	-9.87505
▁prices	-9.87561
▁broadcast	-9.87647
▁pressing	-9.8785
app	-9.87948
you	-9.88021
▁hulu	-9.88081
▁timeline	-9.88161
▁categories	-9.88254
▁flip	-9.88287
ies	-9.88486
▁offered	-9.88489
▁advertisements	-9.88575
▁winning	-9.88582
▁mistakes	-9.8884
▁followed	-9.889
up	-9.88987
▁keys	-9.89397
▁path	-9.89504
▁direction	-9.89645
ve	-9.89715
▁remote	-9.89729
eople	-9.89792
▁accurate	-9.89833
ng	-9.89856
oku	-9.89873
▁Stop	-9.89876
▁alright	-9.89945
▁cancelled	-9.8997
▁awhile	-9.89974
▁tiny	-9.90023
▁form	-9.90089
▁templates	-9.90247
▁swiping	-9.90293
▁guns	-9.90375
▁reached	-9.90393
▁Trying	-9.90435
▁unlocked	-9.90782
▁expand	-9.90813
▁test	-9.91274
ear	-9.91283
▁subtitle	-9.91327
▁ticket	-9.91329
eed	-9.91329
▁animation	-9.91344
▁brand	-9.91374
▁exercise	-9.91489
▁related	-9.91552
▁guide	-9.91708
▁tracker	-9.91747
▁false	-9.91977
▁rigged	-9.91984
▁somewhere	-9.91986
▁throughout	-9.92001
▁bluetooth	-9.92096
▁disconnected	-9.92161
▁secure	-9.92188
It	-9.92215
▁fold	-9.92268
▁length	-9.92269
▁li	-9.92373
▁personali	-9.92437
ness	-9.92523
▁pixel	-9.92535
▁morning	-9.92574
▁highlight	-9.9269
▁skills	-9.92896
▁reasonable	-9.92918
▁grab	-9.92931
▁animations	-9.92935
out	-9.9326
▁replay	-9.93305
SI	-9.93328
▁streamers	-9.93335
▁restarts	-9.9337
indly	-9.93493
ext	-9.93542
▁intro	-9.93619
nable	-9.93687
▁advertisement	-9.93721
▁netflix	-9.93738
ring	-9.93766
like	-9.93829
▁rare	-9.93928
▁conversation	-9.93999
▁Start	-9.94029
▁numerous	-9.94066
▁unavailable	-9.94074
▁soundcloud	-9.94074
▁hassle	-9.94076
▁hooked	-9.94112
▁receiving	-9.94112
onstantly	-9.94113
▁lists	-9.94144
▁halfway	-9.94145
ey	-9.9424
▁stats	-9.94263
▁names	-9.94265
▁tedious	-9.94367
▁forth	-9.9438
ion	-9.94648
not	-9.9468
The	-9.94708
▁speak	-9.94806
nt	-9.9496
▁showed	-9.95037
ig	-9.95133
▁usage	-9.95367
▁scam	-9.95482
▁edited	-9.95531
▁instance	-9.95531
▁client	-9.95533
▁movement	-9.9556
▁provider	-9.9567
▁circle	-9.95837
▁walk	-9.95905
thing	-9.95932
▁Sad	-9.96083
▁myself	-9.96185
▁links	-9.96187
▁Additional	-9.96197
▁everywhere	-9.96204
▁recording	-9.96276
ons	-9.96476
▁graphic	-9.96493
▁xbox	-9.965
▁ideas	-9.96706
▁ingame	-9.96741
▁materials	-9.96765
▁hide	-9.9679
▁party	-9.96866
▁slower	-9.96915
ote	-9.9702
▁suit	-9.97043
▁webtoons	-9.97188
▁subscriptions	-9.97274
▁lead	-9.97448
▁widget	-9.97638
▁uploaded	-9.97661
▁sheet	-9.97677
▁had	-9.97686
▁tutorial	-9.97706
▁print	-9.97753
▁scene	-9.97824
ntil	-9.9798
▁attempts	-9.97994
▁minimal	-9.9803
▁uses	-9.98127
▁has	-9.98128
▁blocks	-9.98134
▁loaded	-9.98228
▁cheap	-9.9831
asks	-9.98379
▁galaxy	-9.98431
▁timer	-9.98446
▁shot	-9.98447
ately	-9.98585
AI	-9.98624
▁smaller	-9.98813
▁sorry	-9.98997
▁wasting	-9.99147
▁kicked	-9.99212
to	-9.99287
either	-9.99288
etting	-9.99291
ebtoon	-9.99819
▁console	-9.99883
▁portion	-9.99993
▁pic	-10.0007
▁mentioned	-10.0026
obile	-10.0048
▁helping	-10.0051
▁robux	-10.0058
▁Sorry	-10.0058
▁addicting	-10.0059
▁misleading	-10.0059
▁panel	-10.0062
▁lightroom	-10.0064
▁visible	-10.0065
▁elements	-10.0075
▁pace	-10.0088
▁films	-10.0109
▁pauses	-10.0114
▁nd	-10.0121
▁hearing	-10.0127
▁addons	-10.013
▁multi	-10.014
if	-10.0159
rime	-10.0174
▁bars	-10.0195
ach	-10.0199
▁shuts	-10.0203
▁final	-10.0205
oo	-10.0216
▁beginner	-10.0222
▁hot	-10.0223
▁positive	-10.0226
▁maps	-10.0236
▁meaning	-10.024
▁readers	-10.0241
▁effect	-10.0248
ecent	-10.0262
▁member	-10.0266
▁render	-10.0268
usiness	-10.0274
▁house	-10.0277
▁release	-10.0279
▁category	-10.0285
▁football	-10.0286
▁sick	-10.0287
▁compatible	-10.0289
▁beside	-10.0305
▁mood	-10.0314
▁health	-10.0317
▁thousands	-10.0318
▁remains	-10.0326
▁ob	-10.0328
arious	-10.0335
etter	-10.0342
▁contain	-10.0343
▁blocked	-10.0344
▁green	-10.0366
▁at	-10.037
▁dumb	-10.0375
▁se	-10.0383
going	-10.0384
▁shared	-10.0392
▁versa	-10.0393
▁kinds	-10.0418
▁courses	-10.0448
▁shooter	-10.0496
▁goto	-10.0497
▁repeats	-10.0497
iterally	-10.0508
▁model	-10.0517
▁twitter	-10.0518
▁unacceptable	-10.0518
▁unreliable	-10.0518
▁center	-10.0519
▁doubt	-10.0519
▁aggravating	-10.052
▁consistent	-10.0521
▁rules	-10.0533
▁chatting	-10.0535
▁reduce	-10.0546
▁thus	-10.0548
▁lyrics	-10.0552
▁provided	-10.0555
▁pack	-10.0559
atch	-10.0563
te	-10.0587
▁should	-10.0592
▁barn	-10.0593
▁wear	-10.0604
▁downgrade	-10.0614
▁topics	-10.0615
▁pri	-10.0621
▁oh	-10.0622
▁Auto	-10.0623
ideos	-10.0644
▁fault	-10.0662
ersa	-10.067
robably	-10.0678
inally	-10.0679
▁likes	-10.0684
▁speaker	-10.07
rive	-10.07
▁drops	-10.0723
▁confused	-10.0733
▁toggle	-10.0741
▁stress	-10.0747
▁downhill	-10.0756
▁dropped	-10.0757
▁charging	-10.0763
▁profiles	-10.0764
▁massive	-10.0775
▁tilt	-10.079
▁portrait	-10.0791
▁accessible	-10.0796
▁simp	-10.0796
▁tips	-10.0797
▁unresponsive	-10.082
▁restore	-10.0824
▁yeah	-10.0827
▁listened	-10.0833
▁poorly	-10.0842
▁selections	-10.0852
▁occur	-10.0854
▁timing	-10.0857
▁screens	-10.0875
ment	-10.0876
▁begin	-10.0876
▁disappearing	-10.0889
▁kid	-10.0894
▁filters	-10.0902
▁ST	-10.0908
uests	-10.0913
ade	-10.0917
▁avatar	-10.093
▁material	-10.0934
▁known	-10.0935
▁develop	-10.0949
▁development	-10.0961
▁market	-10.0967
▁weekly	-10.0971
▁solved	-10.0975
▁obvious	-10.0978
▁incorrect	-10.0978
▁affect	-10.0997
▁minimum	-10.0999
▁opposite	-10.0999
▁instagram	-10.1
▁state	-10.1004
▁internal	-10.1004
▁flawlessly	-10.1006
▁instantly	-10.1013
▁released	-10.1016
▁mic	-10.1026
▁currency	-10.1035
ooks	-10.1043
▁arrow	-10.1048
▁optimi	-10.1053
▁playable	-10.1079
back	-10.1099
imply	-10.1102
ily	-10.1108
▁ten	-10.1117
▁supported	-10.1123
ority	-10.1131
ere	-10.1135
oved	-10.115
▁ran	-10.1173
eeps	-10.118
▁regard	-10.1184
▁sentence	-10.1186
▁skill	-10.119
▁speaking	-10.1198
▁vs	-10.1199
▁grind	-10.121
▁chromecast	-10.1212
elp	-10.1215
▁earning	-10.1215
▁menus	-10.1217
▁external	-10.1225
kay	-10.1228
at	-10.1232
▁rocks	-10.1236
▁max	-10.1237
▁average	-10.1249
▁watchlist	-10.1256
▁specifically	-10.1259
▁resources	-10.1277
▁aware	-10.1285
▁youtube	-10.1287
▁cross	-10.1288
▁Again	-10.129
▁placed	-10.1309
▁gifts	-10.131
▁board	-10.1322
▁complaining	-10.1333
▁steam	-10.1345
laying	-10.1349
▁resets	-10.1352
▁input	-10.1356
▁advanced	-10.1356
▁wonder	-10.1358
▁sections	-10.1362
ighly	-10.1373
ho	-10.1373
▁common	-10.1374
▁interact	-10.1379
▁boost	-10.1379
▁Team	-10.138
▁where	-10.1386
ang	-10.139
eader	-10.1393
please	-10.1393
▁logo	-10.1411
▁bigo	-10.1416
uestion	-10.1432
aid	-10.144
▁permission	-10.1441
▁canva	-10.1445
▁corner	-10.1446
This	-10.1471
▁displays	-10.1485
ous	-10.1485
▁empty	-10.15
▁Township	-10.1505
▁whatsoever	-10.1506
▁unwatchable	-10.1506
▁seemingly	-10.151
▁surprised	-10.1514
▁encountered	-10.1518
▁locks	-10.1522
▁enabled	-10.1547
▁continuing	-10.1547
▁Apple	-10.1561
▁road	-10.1562
ass	-10.1572
▁permissions	-10.1572
▁killed	-10.1583
▁discovered	-10.1585
▁native	-10.1596
ted	-10.1599
▁listed	-10.1613
▁covers	-10.1613
▁teaching	-10.1652
when	-10.1658
▁popups	-10.167
▁flaw	-10.1671
▁my	-10.1684
▁...	-10.1693
▁members	-10.1695
▁gift	-10.1699
oing	-10.1701
▁explanation	-10.1701
▁station	-10.171
▁accept	-10.1721
ose	-10.1723
▁guy	-10.1738
▁subscriber	-10.1741
ninstall	-10.1747
▁efficient	-10.1754
amsung	-10.1769
▁structure	-10.1771
▁signing	-10.1772
▁wild	-10.1775
▁chords	-10.1781
▁permanently	-10.1782
▁Is	-10.1797
▁tabs	-10.1799
▁powerful	-10.18
▁television	-10.1806
▁base	-10.1815
▁exercises	-10.1852
screen	-10.1852
STA	-10.1865
ser	-10.1869
ia	-10.1879
▁leaves	-10.188
▁imagine	-10.1884
▁disconnect	-10.1899
TT	-10.19
▁Time	-10.1913
▁destroy	-10.1924
▁seasons	-10.1928
▁cute	-10.1951
▁earned	-10.1952
▁film	-10.1959
▁applications	-10.1963
▁wheel	-10.1964
▁paste	-10.1967
▁situation	-10.1973
▁league	-10.1973
▁opt	-10.1986
▁resi	-10.199
eaming	-10.2004
onstant	-10.2006
▁piece	-10.2013
▁occasional	-10.2018
▁formats	-10.2028
▁forgot	-10.2034
▁digital	-10.2035
▁Adventure	-10.2038
ui	-10.2044
▁strange	-10.2045
▁reduced	-10.205
aking	-10.2055
rowning	-10.2063
▁bank	-10.2067
▁vlc	-10.2073
▁interruptions	-10.2074
▁atleast	-10.2076
▁increased	-10.2077
▁dialogue	-10.2078
▁trust	-10.2082
▁funny	-10.2084
▁gems	-10.2091
▁rock	-10.2092
▁appreciated	-10.2093
▁activity	-10.2103
ld	-10.2122
▁novels	-10.2125
ent	-10.2127
▁aiming	-10.213
▁retry	-10.2185
▁prompt	-10.2208
▁reconnect	-10.223
▁downside	-10.2244
▁floor	-10.2246
atching	-10.2254
nless	-10.2257
even	-10.226
▁excessive	-10.2287
ltra	-10.229
▁cycle	-10.2292
▁bec	-10.2306
▁distance	-10.231
▁virtual	-10.2311
▁browsing	-10.2312
▁skipped	-10.2313
▁upgrading	-10.2315
▁choosing	-10.2319
so	-10.2322
▁Search	-10.2331
▁introduced	-10.2332
▁presets	-10.2337
▁angry	-10.2338
haps	-10.2341
▁roll	-10.2358
▁exciting	-10.2381
▁viewers	-10.2393
▁research	-10.2395
TS	-10.2395
▁satisfied	-10.2397
▁redo	-10.2398
▁Their	-10.2432
▁picked	-10.2444
▁canceled	-10.2445
▁Total	-10.2453
▁originally	-10.2454
▁gun	-10.2456
▁enable	-10.246
▁eye	-10.2467
uir	-10.2467
▁feeling	-10.2476
eb	-10.2486
uo	-10.2507
▁di	-10.2512
▁badly	-10.2517
▁annoyance	-10.2526
ector	-10.2554
▁odd	-10.2557
▁lie	-10.2562
pix	-10.2566
▁infinite	-10.2575
▁angle	-10.2577
▁ages	-10.2578
▁Audio	-10.2581
▁bot	-10.2583
▁deep	-10.2585
rustrating	-10.2592
▁enemy	-10.2596
▁microphone	-10.2596
▁Should	-10.2596
▁improving	-10.2601
▁desired	-10.2602
▁progression	-10.2603
igo	-10.2603
ontrols	-10.2607
old	-10.261
▁trigger	-10.2632
▁mixes	-10.2633
▁race	-10.2636
▁dropping	-10.2644
▁Seriously	-10.2645
▁deserves	-10.2648
▁yrs	-10.2648
▁hopefully	-10.2649
▁modes	-10.2656
▁testing	-10.2658
uested	-10.2679
▁addressed	-10.2681
▁age	-10.2684
▁stored	-10.269
▁peoples	-10.2694
▁utili	-10.27
▁visuals	-10.2706
ello	-10.2706
▁fresh	-10.2709
▁sorted	-10.2713
▁failing	-10.2714
▁dee	-10.2747
▁decides	-10.2792
▁developed	-10.2793
▁messing	-10.281
▁city	-10.2812
▁package	-10.2824
▁sensitive	-10.2835
▁annoy	-10.2851
▁casual	-10.2865
▁screenshot	-10.2871
andora	-10.2884
▁class	-10.2888
▁obnoxious	-10.289
▁horror	-10.2891
▁management	-10.2891
▁budget	-10.2891
▁patience	-10.2891
▁recognition	-10.2891
▁travel	-10.2898
▁memories	-10.2899
▁Two	-10.2902
▁mouse	-10.2902
▁public	-10.2905
▁repair	-10.2924
▁countries	-10.2937
▁field	-10.2969
▁speakers	-10.2973
▁scenes	-10.2987
▁andor	-10.3008
ire	-10.3012
thumbs	-10.3017
▁answers	-10.3039
rs	-10.3047
pad	-10.3047
▁mad	-10.3055
▁killing	-10.3065
ava	-10.3076
▁refreshing	-10.3096
▁gripe	-10.3125
▁slides	-10.3166
xcept	-10.3167
▁diamond	-10.3172
▁recover	-10.3177
▁usual	-10.318
ften	-10.3191
▁survival	-10.3193
▁disappointment	-10.3193
▁unskippable	-10.3193
▁Soundcloud	-10.3193
▁unknown	-10.3193
▁supplies	-10.3194
▁Try	-10.32
▁busy	-10.3202
▁instructions	-10.3206
atest	-10.3208
▁replaced	-10.3219
▁appearing	-10.3222
▁scratch	-10.3228
▁streamer	-10.3234
▁sometime	-10.3242
▁Today	-10.3249
▁most	-10.3255
▁odds	-10.3261
▁binge	-10.3265
▁by	-10.3272
▁rewatch	-10.3274
▁enhance	-10.3275
▁schedule	-10.3279
▁mb	-10.3298
▁effective	-10.331
▁Show	-10.3331
▁fingers	-10.3339
▁usable	-10.3349
▁achieve	-10.335
ine	-10.3364
▁passes	-10.3391
▁fly	-10.3393
▁compare	-10.3401
▁train	-10.3422
▁behavior	-10.3423
▁signature	-10.3445
▁flash	-10.3451
▁rip	-10.3466
▁manual	-10.3485
▁detect	-10.3486
▁screw	-10.3505
▁bombard	-10.3506
▁choppy	-10.3507
ts	-10.3507
▁unfair	-10.3508
▁sliding	-10.351
▁Star	-10.3517
▁struggling	-10.3517
▁beta	-10.3517
▁seek	-10.3519
▁bucks	-10.3522
▁obstacles	-10.3523
▁inapp	-10.354
▁remind	-10.354
▁letters	-10.3544
▁encourage	-10.3547
▁captions	-10.3552
▁wherever	-10.3555
▁relevant	-10.3563
▁individually	-10.3564
ch	-10.3568
▁tested	-10.3577
▁repeated	-10.3581
▁meant	-10.3599
▁clients	-10.3603
▁ratio	-10.3604
▁hundred	-10.3617
amused	-10.3638
▁finishing	-10.3652
▁replace	-10.3656
ens	-10.3663
pensive	-10.3673
▁vari	-10.3691
▁rely	-10.3701
sually	-10.3706
▁Save	-10.371
▁practical	-10.3725
▁reread	-10.3726
end	-10.3786
▁ap	-10.3794
▁produce	-10.3799
▁impressive	-10.38
▁paywall	-10.3803
▁inconsistent	-10.3805
▁tablets	-10.3805
▁blast	-10.3824
▁target	-10.3825
ustomer	-10.3825
▁inventory	-10.3828
▁altogether	-10.3828
▁campaign	-10.3828
▁connectivity	-10.3828
urrently	-10.3829
▁messenger	-10.3829
▁spinning	-10.3829
▁ultra	-10.3829
▁username	-10.3833
▁basis	-10.3836
▁distracting	-10.3841
▁neat	-10.3857
▁talent	-10.3864
▁extend	-10.3874
▁experiences	-10.3881
▁loving	-10.3892
ax	-10.3897
▁focused	-10.3924
▁official	-10.3927
▁collecting	-10.3943
▁pieces	-10.3955
▁sentences	-10.3962
▁possibl	-10.397
▁..	-10.3972
▁fonts	-10.3973
▁met	-10.3973
▁liking	-10.3976
▁tune	-10.3981
▁assume	-10.3983
▁sell	-10.399
▁TI	-10.3995
▁aspects	-10.4004
▁expecting	-10.4008
▁acting	-10.4064
▁freak	-10.4066
▁sides	-10.409
▁banner	-10.4092
light	-10.4092
hori	-10.4097
▁plain	-10.4104
▁icons	-10.4123
▁direct	-10.4131
▁reccomend	-10.4137
which	-10.4161
▁verification	-10.4161
▁bundle	-10.4162
▁somebody	-10.4162
▁replies	-10.4162
▁sweat	-10.4163
▁blurry	-10.4164
▁success	-10.4166
▁advice	-10.4172
▁upset	-10.4184
▁perform	-10.4189
▁interrupted	-10.4193
▁Simply	-10.42
▁heartr	-10.4204
▁Support	-10.4212
▁transition	-10.4212
▁walking	-10.4234
▁disconnects	-10.4246
▁painful	-10.4266
▁tag	-10.4267
ful	-10.4274
▁bet	-10.4283
AST	-10.4297
▁bu	-10.4299
▁scanning	-10.4316
▁land	-10.4317
▁uploads	-10.4322
▁moments	-10.4331
▁sport	-10.4344
▁drag	-10.4359
▁static	-10.4362
free	-10.437
▁repeating	-10.4397
▁synced	-10.4403
▁knowing	-10.4429
▁regret	-10.4433
▁sitting	-10.4436
▁benefit	-10.4441
▁interrupt	-10.4444
▁creator	-10.4444
more	-10.4452
▁crush	-10.4458
▁staying	-10.4483
oining	-10.4488
▁excit	-10.449
▁fox	-10.4493
isappointing	-10.4503
idiculous	-10.4503
▁women	-10.4506
▁somewhat	-10.4506
▁comparison	-10.4506
▁cursor	-10.4507
▁energy	-10.4507
alf	-10.4508
▁cancelling	-10.4513
▁worthless	-10.4521
▁duolingo	-10.4526
▁sensitivity	-10.4539
▁physical	-10.4541
arch	-10.4543
▁express	-10.4552
▁genuine	-10.4557
▁satisfying	-10.4558
▁unstable	-10.4558
▁children	-10.4558
uare	-10.4559
▁stressful	-10.4564
▁decorations	-10.4564
▁hrs	-10.4567
▁minigames	-10.457
▁sadly	-10.4583
this	-10.4587
▁flaws	-10.4595
uestions	-10.4596
▁Sure	-10.4598
▁connects	-10.4602
▁hangs	-10.4606
▁act	-10.4612
▁endlessly	-10.462
▁killer	-10.4626
▁tears	-10.4626
▁recorded	-10.4668
▁adventure	-10.467
▁computers	-10.4671
omething	-10.4681
▁blocking	-10.4699
▁dev	-10.4704
▁handy	-10.4716
harge	-10.4743
ode	-10.4755
riginal	-10.4757
ec	-10.4758
▁dis	-10.4759
▁ground	-10.4783
▁accident	-10.4794
▁six	-10.4799
▁cause	-10.4817
▁when	-10.4819
▁deserve	-10.4823
▁continual	-10.4828
▁suppose	-10.4834
▁blow	-10.485
▁crop	-10.4857
asically	-10.4861
ying	-10.4863
coming	-10.4863
dyssey	-10.4863
apanese	-10.4863
▁cumbersome	-10.4863
▁opportunity	-10.4863
▁revenue	-10.4863
▁tubi	-10.4864
▁technology	-10.4864
▁adobe	-10.4865
▁nobody	-10.4865
▁patient	-10.4867
▁favor	-10.4868
▁notified	-10.4872
▁physics	-10.4873
▁Internet	-10.4874
▁factory	-10.4882
▁activate	-10.4887
▁chore	-10.489
▁adverts	-10.4892
▁master	-10.4893
ectives	-10.4897
▁intended	-10.4898
▁wrote	-10.4901
▁stated	-10.4902
▁vector	-10.4915
▁candy	-10.4916
▁girls	-10.4917
▁vast	-10.4921
▁doing	-10.4921
▁shorter	-10.4929
▁flat	-10.4934
▁viewer	-10.4935
▁trains	-10.4938
▁apart	-10.4938
▁wise	-10.4946
ain	-10.495
▁Stars	-10.495
▁gifs	-10.4956
▁introduce	-10.4963
▁texting	-10.4969
▁searched	-10.4974
ist	-10.4985
▁weak	-10.4987
▁excite	-10.4996
ry	-10.5006
▁such	-10.501
pdated	-10.5023
......	-10.5023
▁motion	-10.5029
▁Take	-10.5032
▁previews	-10.5042
▁windows	-10.5055
▁weight	-10.5059
▁despi	-10.5062
▁Switch	-10.5066
▁remain	-10.5099
ong	-10.5114
ifi	-10.5117
▁sight	-10.5119
▁kills	-10.5125
lon	-10.5136
▁headache	-10.5158
phone	-10.516
roblem	-10.5163
▁smartphone	-10.5167
▁translation	-10.5167
▁thumbnail	-10.5167
over	-10.5185
setting	-10.5202
man	-10.5203
▁brilliant	-10.521
▁initial	-10.5213
▁Smart	-10.5217
▁participate	-10.5218
▁catalog	-10.523
▁limits	-10.523
▁Awful	-10.5234
▁repetition	-10.5234
▁phenomenal	-10.5234
▁caught	-10.5235
▁statistics	-10.5235
▁began	-10.5236
▁verify	-10.5236
▁monsters	-10.5243
▁epix	-10.5243
video	-10.5245
▁implemented	-10.525
▁office	-10.5253
▁clock	-10.5258
▁competitors	-10.526
▁nose	-10.5263
ary	-10.5263
aily	-10.5264
oth	-10.5266
▁reverse	-10.5269
▁worry	-10.5285
▁speech	-10.5286
▁spins	-10.5287
▁bright	-10.5289
▁ideal	-10.5307
▁compete	-10.5308
▁Streaming	-10.5311
▁undo	-10.5313
▁supports	-10.5322
times	-10.5324
▁leagues	-10.5327
▁balance	-10.533
▁competitive	-10.5332
▁prime	-10.5332
▁vary	-10.534
▁conversations	-10.5353
▁networks	-10.5354
by	-10.5383
▁orders	-10.5384
▁careful	-10.5386
▁watches	-10.5424
ating	-10.5426
▁understanding	-10.5443
ated	-10.5447
ooking	-10.5459
ames	-10.546
▁greatest	-10.547
▁concern	-10.5479
▁anyways	-10.5492
▁reports	-10.5496
▁spaces	-10.5498
veryone	-10.5507
▁decade	-10.553
▁environment	-10.5548
▁inconvenience	-10.555
▁decision	-10.5552
▁chasm	-10.5553
ling	-10.556
ustment	-10.5561
ol	-10.5593
▁pair	-10.5612
▁topic	-10.5614
▁child	-10.5618
▁vocabulary	-10.5618
▁activities	-10.5618
▁childhood	-10.5618
▁engaging	-10.5619
▁asleep	-10.5619
eah	-10.562
▁disgusting	-10.562
▁nowadays	-10.562
▁preferred	-10.5623
▁typically	-10.5624
▁aside	-10.5627
▁dog	-10.5627
▁affordable	-10.5627
▁views	-10.563
▁perks	-10.563
evelopers	-10.5645
▁anime	-10.5645
▁vertical	-10.5652
▁defeat	-10.5659
▁among	-10.5673
▁edition	-10.575
▁designing	-10.5752
▁carry	-10.5764
▁corrected	-10.5771
▁body	-10.5778
▁detail	-10.5784
▁utter	-10.5802
▁rich	-10.5805
▁creates	-10.5824
▁sources	-10.5829
use	-10.5843
▁solutions	-10.5848
▁styles	-10.5888
▁some	-10.5891
▁patch	-10.5904
▁pin	-10.5904
▁taste	-10.5909
waited	-10.5918
▁death	-10.595
▁description	-10.5952
▁under	-10.5953
▁unlocking	-10.5967
▁la	-10.5977
sides	-10.5985
▁heck	-10.5987
▁unfortunate	-10.5998
▁instant	-10.5999
▁ratings	-10.6
▁advise	-10.6004
hrome	-10.601
▁foreign	-10.6018
▁inappropriate	-10.6018
▁creativity	-10.6018
▁heavily	-10.6018
▁folks	-10.6018
▁outstanding	-10.6019
▁mis	-10.6019
ra	-10.602
ithout	-10.602
▁exploring	-10.602
▁modern	-10.602
▁usability	-10.6029
▁comfortable	-10.6032
▁fight	-10.6042
▁controlling	-10.6046
▁tiktok	-10.6046
▁docs	-10.6048
▁seamless	-10.6052
right	-10.6055
▁edge	-10.6059
▁nonsense	-10.6074
▁fitness	-10.6076
▁disconnecting	-10.6091
▁stickers	-10.6106
▁stretch	-10.6113
▁sender	-10.6118
uel	-10.6121
▁photography	-10.6139
▁tutorials	-10.6141
▁teacher	-10.6154
▁promote	-10.6158
while	-10.6171
▁existing	-10.6172
▁after	-10.6184
▁dollar	-10.6188
▁Store	-10.619
IA	-10.621
angry	-10.6217
▁knows	-10.6243
▁locations	-10.6244
▁beca	-10.6245
▁invite	-10.6248
▁cord	-10.6261
▁ti	-10.6267
▁interests	-10.6271
▁returns	-10.6273
▁ba	-10.6277
tv	-10.6281
▁AI	-10.6288
▁ignore	-10.6296
▁bothers	-10.6299
▁label	-10.6301
▁fav	-10.6307
▁he	-10.632
▁contents	-10.6323
▁gear	-10.634
▁dealing	-10.6348
SA	-10.636
▁manag	-10.636
▁hurt	-10.6382
low	-10.6383
os	-10.6398
▁continued	-10.6402
▁bed	-10.6409
ontal	-10.6415
▁session	-10.6417
▁bringing	-10.6421
▁memori	-10.6424
ance	-10.6426
isappointed	-10.6426
esktop	-10.6431
antastic	-10.6432
uess	-10.6434
▁awkward	-10.6435
▁opportunities	-10.6435
▁airport	-10.6435
uency	-10.6435
▁stunning	-10.6435
▁superior	-10.6435
▁shrugging	-10.6436
▁loyal	-10.6436
ovember	-10.6436
▁surprising	-10.6438
▁silly	-10.6442
▁catalogue	-10.6442
▁expectations	-10.6443
▁younger	-10.6443
▁navigating	-10.6443
▁boy	-10.6444
▁knowledge	-10.6446
▁Tab	-10.6446
otifications	-10.6447
▁ammo	-10.6469
▁occasions	-10.6476
▁disney	-10.6482
▁counter	-10.6496
▁spelling	-10.6498
▁fullscreen	-10.6506
▁air	-10.6514
▁writer	-10.6515
▁ensure	-10.6515
▁raise	-10.6517
▁stations	-10.6535
oor	-10.6549
▁mo	-10.655
▁manager	-10.6552
▁states	-10.6554
▁cr	-10.6557
play	-10.6563
▁rais	-10.6572
▁plane	-10.6595
▁output	-10.6606
el	-10.6621
bout	-10.6643
edia	-10.6646
▁systems	-10.6663
▁beginners	-10.6679
ble	-10.6682
▁purposes	-10.6683
uali	-10.6684
................	-10.6685
▁growing	-10.6689
▁picks	-10.6698
how	-10.6704
that	-10.671
▁par	-10.6735
▁craft	-10.6738
erfect	-10.6741
▁advertise	-10.6756
▁speeds	-10.6759
om	-10.6774
▁cases	-10.6777
▁author	-10.6792
ac	-10.6794
ord	-10.6799
▁coop	-10.6803
dark	-10.6805
▁sh	-10.6813
▁scale	-10.6814
▁spin	-10.6819
▁successful	-10.6841
▁template	-10.6842
▁permanent	-10.6848
▁continuous	-10.6849
▁trend	-10.6856
▁god	-10.686
▁girl	-10.686
▁caption	-10.6863
▁companies	-10.687
▁sunglasses	-10.687
▁machine	-10.687
▁anybody	-10.687
▁yourself	-10.687
▁unhappy	-10.687
▁accessibility	-10.687
hristmas	-10.687
▁horrendous	-10.687
▁hearteyes	-10.687
▁problematic	-10.6871
▁unbearable	-10.6871
▁homepage	-10.6871
▁risk	-10.6872
▁Annoying	-10.6873
▁relieve	-10.6881
▁interaction	-10.6881
orked	-10.6889
▁startup	-10.689
▁screwed	-10.6893
▁brother	-10.6894
ound	-10.6895
lear	-10.6897
▁laughing	-10.6902
▁forums	-10.6904
rench	-10.6911
▁graphs	-10.6912
▁calories	-10.6917
▁greatly	-10.6919
▁drafts	-10.6924
▁Sam	-10.6926
▁workouts	-10.6929
▁obscure	-10.6929
▁cellular	-10.6929
▁integration	-10.6929
▁former	-10.6934
rely	-10.6944
▁thumbnails	-10.6948
▁marketing	-10.6953
▁wondering	-10.6954
▁animals	-10.6956
layed	-10.697
▁situations	-10.6978
▁drawing	-10.6981
▁pushed	-10.6981
ATI	-10.6982
ebtoons	-10.6997
▁farm	-10.7006
▁grinding	-10.7009
▁linked	-10.7028
▁stages	-10.7031
▁flips	-10.7055
▁nicely	-10.7058
▁apple	-10.7065
▁Trie	-10.7077
▁alternatives	-10.7084
▁gb	-10.7094
rently	-10.7096
▁connections	-10.7123
etc	-10.7125
▁ride	-10.7143
▁rank	-10.7144
▁increases	-10.7147
▁generated	-10.7149
▁Simpl	-10.7155
▁bc	-10.7168
▁colour	-10.718
▁raw	-10.7186
▁ac	-10.7205
▁surprise	-10.7212
ontent	-10.7213
ember	-10.7214
ontinue	-10.7227
▁exception	-10.7247
go	-10.7251
▁pocket	-10.7254
▁thousand	-10.7258
▁bubble	-10.726
▁dream	-10.7275
ps	-10.7286
TA	-10.7299
▁encounter	-10.7302
▁plans	-10.731
▁recommendation	-10.7311
broken	-10.7312
▁backward	-10.7319
ersonally	-10.7322
▁Shield	-10.7324
▁TikTok	-10.7324
▁capabilities	-10.7324
▁addicted	-10.7325
▁maximum	-10.7325
▁taught	-10.7325
▁complex	-10.7325
ormally	-10.7326
▁flashscore	-10.7326
▁interactive	-10.7327
▁intense	-10.7328
▁simulator	-10.7328
ameplay	-10.7331
▁providing	-10.7332
▁chrome	-10.7332
▁showsmovies	-10.7332
▁handling	-10.7334
▁tempo	-10.7336
▁atmosphere	-10.7337
lad	-10.7341
game	-10.7341
▁reappear	-10.7341
▁exclusively	-10.7342
▁chosen	-10.735
▁achievements	-10.7352
▁were	-10.7357
ending	-10.7367
▁into	-10.7369
▁straightforward	-10.7372
▁calm	-10.7373
▁knew	-10.7382
nning	-10.7387
▁factories	-10.7389
uicker	-10.7396
▁tiles	-10.7396
▁reads	-10.74
pressed	-10.7408
▁separately	-10.7427
▁documentaries	-10.7438
▁supporting	-10.7442
▁occurs	-10.7451
folde	-10.7453
And	-10.7456
▁runner	-10.7461
ap	-10.7478
▁exists	-10.7486
▁claims	-10.7489
▁meeting	-10.7489
ma	-10.7492
▁vice	-10.7509
▁rename	-10.7514
▁both	-10.7522
eels	-10.7524
▁returning	-10.753
▁viewed	-10.7535
IST	-10.7601
its	-10.7602
ur	-10.7616
▁sets	-10.762
▁Tri	-10.7646
ual	-10.7656
ll	-10.7689
▁drives	-10.7699
▁combination	-10.7727
▁relax	-10.7728
▁armor	-10.7728
▁fed	-10.773
▁reopening	-10.7736
▁swap	-10.7741
▁revive	-10.7743
▁soundtrack	-10.7751
▁ca	-10.7758
▁partner	-10.7767
▁confirm	-10.7775
ool	-10.7778
▁superb	-10.7794
rashes	-10.78
▁grateful	-10.78
▁manner	-10.7801
▁sluggish	-10.7801
▁unintuitive	-10.7801
▁outdated	-10.7801
▁interior	-10.7801
▁charges	-10.7801
▁cropping	-10.7802
urther	-10.7803
▁everybody	-10.7803
▁completion	-10.7803
▁fewer	-10.7805
▁showmovie	-10.7808
▁scammers	-10.7811
led	-10.7813
▁difficulties	-10.7815
▁significantly	-10.7818
▁attached	-10.7819
ownloaded	-10.7819
player	-10.7829
▁Into	-10.7831
▁thrill	-10.7831
▁persists	-10.7838
own	-10.7845
arely	-10.7847
▁locate	-10.7848
▁Ad	-10.7849
▁decrease	-10.7853
▁Songs	-10.7856
▁smoother	-10.7863
nlike	-10.7863
▁restricted	-10.7865
▁directory	-10.787
▁reconnecting	-10.7883
▁contrast	-10.7921
▁indicat	-10.7924
▁gamepad	-10.7927
▁sky	-10.7934
cluttered	-10.7934
▁heavy	-10.7937
▁duplicate	-10.7945
▁gray	-10.7951
▁begins	-10.7952
▁Turn	-10.7953
▁recordings	-10.7954
▁training	-10.7959
▁wo	-10.7964
▁importantly	-10.7979
▁throwing	-10.7979
▁rewarding	-10.7986
▁lame	-10.7996
▁pitch	-10.8042
slight	-10.8046
▁Appa	-10.8062
laylists	-10.8063
▁dating	-10.8066
▁glitched	-10.807
▁disabl	-10.8075
mp	-10.8086
data	-10.8093
▁react	-10.8093
▁rounds	-10.8096
▁bill	-10.8099
eta	-10.8116
ruly	-10.8129
ty	-10.8143
▁mp	-10.8144
ownload	-10.8145
ely	-10.8148
▁fi	-10.8154
▁shutt	-10.8165
▁gamers	-10.8168
way	-10.8179
ian	-10.8235
▁interruption	-10.8236
▁paper	-10.8237
cast	-10.824
day	-10.8241
▁tier	-10.8257
▁Incredibl	-10.8264
▁or	-10.8266
▁wake	-10.8268
▁implement	-10.8276
▁welcome	-10.8284
▁unsubscribe	-10.8295
arbage	-10.8297
▁archive	-10.83
▁atrocious	-10.83
▁April	-10.83
▁capacity	-10.83
▁explicit	-10.8301
▁disaster	-10.8301
▁rotation	-10.8301
▁cropped	-10.8302
▁firestick	-10.8303
▁horribly	-10.8303
▁playstore	-10.8308
▁hints	-10.8309
▁combo	-10.831
bar	-10.8311
▁bugged	-10.8311
▁corrupted	-10.8312
▁ban	-10.8312
▁workout	-10.8314
▁invested	-10.8316
▁stability	-10.8319
▁delivered	-10.8321
▁deliver	-10.8328
▁subscribing	-10.8337
▁stuttering	-10.8343
itro	-10.8346
▁bookmarks	-10.8346
▁responsive	-10.8355
▁pleasing	-10.8356
▁accurately	-10.8356
▁insanely	-10.8359
▁preferences	-10.836
▁exceptional	-10.8361
▁stack	-10.8362
▁port	-10.8364
ail	-10.8365
▁curve	-10.8366
▁moneti	-10.8367
▁bi	-10.8368
▁ultimate	-10.8381
▁phrases	-10.8382
▁adfree	-10.8391
▁token	-10.8393
▁benefits	-10.8397
▁syncs	-10.8399
based	-10.8402
▁betting	-10.8403
oping	-10.8406
▁blueprints	-10.8407
▁ha	-10.8407
▁exchange	-10.8409
▁screenshots	-10.8416
▁hr	-10.8421
▁functioning	-10.8424
▁yellow	-10.8445
▁Issue	-10.8446
▁crops	-10.8448
▁critical	-10.8454
▁releases	-10.8458
na	-10.8477
gr	-10.8484
▁if	-10.8489
oving	-10.8491
▁boards	-10.8497
▁term	-10.8498
▁collections	-10.8505
▁escape	-10.8509
▁translate	-10.8515
▁priced	-10.8523
▁pleased	-10.8537
tories	-10.855
▁hill	-10.8552
▁whil	-10.8553
▁bye	-10.8568
aste	-10.8609
▁been	-10.8618
io	-10.8626
▁bump	-10.8633
▁actions	-10.8642
▁displaying	-10.8647
▁sites	-10.8683
▁steal	-10.869
▁eliminate	-10.8696
▁synch	-10.8707
▁cap	-10.8708
▁pricey	-10.8712
▁insta	-10.8713
king	-10.8722
▁failure	-10.8757
▁woman	-10.8761
▁clue	-10.8765
▁bands	-10.8784
▁slider	-10.8791
▁silent	-10.8802
▁according	-10.8806
▁presentation	-10.8815
▁draft	-10.8816
ominos	-10.8822
▁percent	-10.8824
eing	-10.8824
▁approximate	-10.8827
▁simultaneously	-10.8827
▁irrelevant	-10.8827
▁proceed	-10.8827
▁opponent	-10.8827
▁gorgeous	-10.8827
▁replacement	-10.8827
▁reliably	-10.8828
▁impact	-10.8829
▁absurd	-10.8829
▁policy	-10.8831
▁steering	-10.8831
▁further	-10.8832
▁freedom	-10.8832
▁router	-10.8835
▁linear	-10.8837
▁powerups	-10.884
▁relative	-10.884
hatever	-10.8859
▁brain	-10.8861
star	-10.8863
ovies	-10.8866
▁codec	-10.8867
▁living	-10.8868
▁tough	-10.8874
▁lowest	-10.8882
used	-10.8885
▁bait	-10.8886
▁strategy	-10.8888
▁existed	-10.8889
▁bullet	-10.889
▁remaining	-10.8895
ets	-10.8898
▁wa	-10.8899
▁earbuds	-10.89
▁nuts	-10.8901
▁boot	-10.8906
▁thoroughly	-10.8908
▁followers	-10.8915
ustments	-10.8924
diting	-10.8937
board	-10.8941
▁reminders	-10.8943
eading	-10.8943
▁themes	-10.8945
▁letter	-10.8946
▁prompts	-10.8956
▁visit	-10.8966
heart	-10.8974
▁beautifully	-10.8987
rying	-10.899
▁ex	-10.9001
▁retain	-10.9001
▁tickets	-10.9001
▁pile	-10.9005
▁table	-10.9007
▁packs	-10.9013
▁nonstop	-10.9022
▁blind	-10.9025
▁delays	-10.9032
▁tunes	-10.9038
▁ear	-10.9041
▁vi	-10.9061
▁wh	-10.9062
are	-10.9063
▁finishes	-10.9064
▁punish	-10.9072
▁directions	-10.9072
▁offering	-10.9075
▁periods	-10.908
pon	-10.9097
ile	-10.9112
ock	-10.9122
▁musical	-10.9136
do	-10.9138
▁amounts	-10.9143
usted	-10.9145
spite	-10.9151
▁persons	-10.9179
lowing	-10.9189
fold	-10.9194
▁bro	-10.92
▁sorting	-10.9205
ooms	-10.9211
ull	-10.9215
only	-10.9223
▁integrat	-10.924
rror	-10.9267
leading	-10.9267
▁stutter	-10.9269
eal	-10.9286
▁pdfs	-10.929
▁operate	-10.9297
▁Text	-10.93
▁creation	-10.9303
▁hair	-10.9305
▁each	-10.9307
▁Think	-10.9308
▁pad	-10.9308
▁gesture	-10.9315
▁preference	-10.9318
ip	-10.9318
▁beating	-10.9328
outube	-10.933
▁trip	-10.9331
▁modify	-10.9331
▁audios	-10.9346
revious	-10.9353
▁attach	-10.936
▁exclusive	-10.9361
uiet	-10.9374
▁biased	-10.9375
▁describe	-10.9379
▁facepalming	-10.9382
▁versatile	-10.9382
▁happily	-10.9382
▁approach	-10.9382
▁wireless	-10.9382
▁duration	-10.9382
▁perspective	-10.9383
▁communities	-10.9383
hinese	-10.9383
▁unwanted	-10.9383
▁disruptive	-10.9383
▁rubbish	-10.9383
▁Third	-10.9383
▁mediocre	-10.9384
music	-10.9384
▁drift	-10.9384
udos	-10.9385
▁ugly	-10.9386
▁removal	-10.9387
▁logs	-10.9388
▁terribly	-10.9388
▁hacked	-10.9394
reviously	-10.9399
▁fps	-10.9399
▁stands	-10.9399
using	-10.9403
▁successfully	-10.9412
▁cutt	-10.9414
▁detailed	-10.9415
▁ignored	-10.9417
▁midi	-10.942
▁tree	-10.9421
▁muted	-10.9437
emove	-10.9437
▁blowing	-10.9439
▁Truly	-10.944
▁students	-10.9441
▁fighting	-10.9445
▁stutters	-10.9449
▁selling	-10.945
▁suspicious	-10.9453
▁recipient	-10.9454
▁interrupting	-10.946
lue	-10.9468
▁motivate	-10.9469
▁Apps	-10.9472
▁complained	-10.9474
▁builds	-10.9476
▁chasms	-10.9479
▁assist	-10.9494
ok	-10.9499
▁packages	-10.9511
usting	-10.9519
▁statuses	-10.9523
bility	-10.9526
▁counted	-10.9542
▁foot	-10.9546
cannot	-10.9568
▁young	-10.957
▁covered	-10.958
▁timeout	-10.9586
ace	-10.9588
▁hi	-10.9589
▁discovery	-10.9605
ark	-10.9615
▁addon	-10.9618
ostly	-10.9622
▁stayed	-10.9626
▁shove	-10.9628
▁soo	-10.9635
▁texts	-10.9645
▁incentive	-10.9647
▁reporting	-10.9668
▁secs	-10.9694
ie	-10.9699
▁meh	-10.9715
▁hanging	-10.9726
▁vid	-10.9745
love	-10.9748
▁passing	-10.976
uate	-10.9788
▁spoil	-10.9793
▁replac	-10.9808
▁convert	-10.9814
▁plot	-10.9824
▁plug	-10.9826
▁boom	-10.9847
▁chances	-10.9853
ros	-10.9854
egatta	-10.9869
▁sorts	-10.9879
orse	-10.9886
fore	-10.9889
ence	-10.9891
▁human	-10.9895
▁lvl	-10.9898
▁advantage	-10.99
▁scheme	-10.99
▁shield	-10.9902
▁resource	-10.9907
▁integrate	-10.9907
▁attack	-10.9911
ible	-10.9917
vid	-10.9918
my	-10.9918
iving	-10.9919
▁study	-10.9922
▁monitor	-10.9923
▁region	-10.9928
locking	-10.9938
▁magic	-10.9946
▁websites	-10.9954
▁glass	-10.9956
hotoshop	-10.9964
▁desire	-10.9964
▁thumb	-10.9965
▁beg	-10.9966
ultiple	-10.9967
▁aesthetic	-10.9967
▁daughter	-10.9968
▁temporarily	-10.997
▁nonexistent	-10.997
▁dashboard	-10.997
▁female	-10.9971
▁database	-10.9971
▁introduction	-10.9971
▁inaccurate	-10.9971
ebruary	-10.9971
▁Shame	-10.9972
▁severe	-10.9973
▁survive	-10.9973
▁discussion	-10.9973
▁beans	-10.9974
▁entirety	-10.9976
▁upper	-10.9978
▁roku	-10.9979
▁Anyone	-10.998
iano	-10.998
eview	-10.9981
▁untill	-10.9982
▁involved	-10.9983
▁combined	-10.9985
▁Interface	-10.9987
▁generate	-10.999
andom	-10.9993
▁sooo	-10.9993
▁knock	-10.9993
▁convenience	-10.9998
eatures	-11.0002
▁unit	-11.0005
essages	-11.0006
▁refus	-11.0009
▁initially	-11.0011
▁Slow	-11.0015
▁pathetic	-11.0018
▁affected	-11.0019
▁acceptable	-11.0019
▁owners	-11.0026
▁backflip	-11.0029
▁flag	-11.0038
▁those	-11.004
▁installation	-11.0042
▁shadow	-11.0045
▁weather	-11.0047
▁admit	-11.005
▁fell	-11.0054
good	-11.0056
evs	-11.0063
▁owned	-11.0064
▁backgrounds	-11.0069
▁shape	-11.0076
▁STA	-11.0084
la	-11.0089
rking	-11.0099
ke	-11.0101
▁bombs	-11.0105
▁crossed	-11.0109
▁thi	-11.0113
▁progressive	-11.0122
▁tapped	-11.0123
▁burn	-11.0124
▁micro	-11.0124
pen	-11.0125
▁grey	-11.0128
▁battle	-11.0143
▁frustrate	-11.0144
▁SI	-11.0149
▁com	-11.0153
▁highlights	-11.0159
▁treat	-11.0166
▁hitt	-11.0168
▁floors	-11.0187
▁rates	-11.0195
▁vids	-11.0197
▁boosts	-11.0203
▁entered	-11.0204
▁lo	-11.0211
ired	-11.0216
▁walls	-11.0227
▁pi	-11.0228
tion	-11.0228
hose	-11.0229
▁spoke	-11.023
▁communicat	-11.0231
▁voices	-11.024
▁frames	-11.0248
ads	-11.0249
eat	-11.0262
▁algorithms	-11.0266
▁notify	-11.0285
other	-11.0288
▁award	-11.0292
▁noticeabl	-11.0307
ata	-11.0318
▁died	-11.0327
▁enlarge	-11.0329
▁rooms	-11.0339
tory	-11.0367
▁searches	-11.0377
▁submit	-11.0381
▁animat	-11.0381
eats	-11.042
xperience	-11.0423
▁su	-11.0427
▁band	-11.0447
▁swim	-11.045
▁passed	-11.0466
▁fastforward	-11.0469
▁America	-11.0508
wise	-11.0517
▁disappoint	-11.0521
▁pattern	-11.0527
▁student	-11.0529
▁symbol	-11.0529
▁gambl	-11.053
▁disturb	-11.0536
▁laugh	-11.0537
▁reflect	-11.0542
▁chest	-11.0543
▁progressing	-11.055
▁bomb	-11.0554
ware	-11.0555
▁slowed	-11.056
▁porn	-11.0571
emand	-11.0572
▁accomplish	-11.0573
why	-11.0574
lean	-11.0577
oice	-11.0577
▁trail	-11.0588
▁recieve	-11.059
▁Tech	-11.0591
ardenscapes	-11.0592
eautiful	-11.0592
omescapes	-11.0593
layback	-11.0594
▁replied	-11.0595
▁uncomfortable	-11.0595
▁borderline	-11.0595
▁uptodate	-11.0596
▁bandwidth	-11.0596
▁husband	-11.0596
▁clothes	-11.0596
▁drama	-11.0596
▁forgotten	-11.0596
▁bummer	-11.0596
▁generic	-11.0596
▁context	-11.0596
▁bankrupt	-11.0597
▁occurred	-11.0597
▁overwhelming	-11.0598
▁dang	-11.0598
▁unread	-11.0598
uarter	-11.0599
▁sake	-11.0599
▁percentage	-11.06
▁racing	-11.06
▁headset	-11.0601
ersion	-11.0606
▁homescreen	-11.0609
▁pricing	-11.0609
oyment	-11.061
▁calorie	-11.0611
rior	-11.0613
▁Sony	-11.0615
▁annual	-11.0615
friend	-11.0617
▁upsetting	-11.0618
inux	-11.0621
▁movieshow	-11.0621
art	-11.0623
▁paragraphs	-11.0624
▁webcomic	-11.0625
▁seamlessly	-11.0631
▁aliens	-11.0634
uirements	-11.0634
▁placement	-11.064
▁stock	-11.0641
▁truth	-11.0644
▁addresses	-11.0646
▁retriev	-11.0652
▁incorrectly	-11.0654
▁dying	-11.0655
▁reviewers	-11.0656
▁bold	-11.0657
▁reactions	-11.0658
▁wi	-11.0658
▁practicing	-11.066
ugs	-11.0661
▁rebooted	-11.067
▁Trash	-11.0674
▁alarm	-11.0674
asting	-11.0676
ug	-11.0677
▁delayed	-11.0679
og	-11.068
▁income	-11.0687
▁breaker	-11.0695
▁sessions	-11.0697
▁blame	-11.0704
▁significant	-11.0705
▁locally	-11.0707
tc	-11.0715
▁legal	-11.0716
▁narrow	-11.0717
▁incomplete	-11.0719
▁ya	-11.0724
▁dots	-11.0726
▁aggressive	-11.0744
▁natural	-11.0744
▁redownloading	-11.0745
ower	-11.0746
▁Song	-11.0753
▁Space	-11.0758
▁aap	-11.0763
▁bugging	-11.0772
evel	-11.0777
▁spac	-11.0779
▁automat	-11.0781
uge	-11.0786
▁bloat	-11.0788
▁colours	-11.0801
▁fo	-11.0801
▁movements	-11.0803
▁minus	-11.0838
▁dig	-11.084
▁regards	-11.0846
ify	-11.0857
▁adapt	-11.0857
▁pure	-11.0862
▁overlay	-11.0875
▁consume	-11.0876
still	-11.0897
▁pa	-11.0916
tic	-11.0919
▁originals	-11.0934
▁ship	-11.0936
side	-11.0956
▁Sync	-11.0956
▁appeared	-11.0962
um	-11.0977
ggest	-11.0978
lack	-11.0986
ars	-11.0994
fficient	-11.1
hanging	-11.1004
▁sticks	-11.1023
▁wow	-11.1032
▁factor	-11.1044
mails	-11.1045
▁compet	-11.105
▁pit	-11.1059
▁accelerate	-11.1059
▁engine	-11.1078
reinstall	-11.1083
▁spots	-11.1083
▁forwarding	-11.1093
they	-11.1102
gged	-11.1138
▁passwords	-11.1142
pl	-11.1148
xample	-11.116
▁cheat	-11.1163
▁shift	-11.1177
▁excuse	-11.1179
ct	-11.1182
icture	-11.1182
eveloper	-11.1193
rate	-11.1193
eh	-11.1195
▁vehicle	-11.1195
cy	-11.1199
▁reaction	-11.12
▁preset	-11.1204
ess	-11.1205
▁ui	-11.1219
▁overheat	-11.1229
epeat	-11.1232
▁hel	-11.1232
▁bas	-11.1239
▁alphabetical	-11.1239
bviously	-11.1247
ks	-11.1247
ping	-11.125
▁renew	-11.1251
eleting	-11.1256
▁rearrange	-11.1257
▁invest	-11.1259
▁dialog	-11.126
▁inter	-11.1261
▁motivation	-11.1261
▁Stupid	-11.1262
▁encryption	-11.1262
▁nuisance	-11.1262
▁orientation	-11.1262
▁extensive	-11.1262
▁overhaul	-11.1262
▁valuable	-11.1262
▁directories	-11.1262
▁themselves	-11.1262
▁immersive	-11.1262
▁international	-11.1262
▁possibilities	-11.1262
▁authentication	-11.1263
▁traffic	-11.1263
▁persistent	-11.1263
▁indeed	-11.1263
▁tailor	-11.1263
▁drastically	-11.1263
▁bedrock	-11.1263
▁Sense	-11.1264
▁obtain	-11.1265
▁between	-11.1265
▁scenery	-11.1265
▁sideways	-11.1265
▁rotating	-11.1265
▁nerves	-11.1265
▁discouraging	-11.1266
▁swear	-11.1267
amera	-11.1267
▁epic	-11.1267
▁precise	-11.1268
▁combat	-11.1269
▁hardware	-11.1271
▁outright	-11.1271
indle	-11.1272
▁encouraging	-11.1272
onnecting	-11.1275
▁combine	-11.128
▁expired	-11.1281
▁transferred	-11.1282
▁reenter	-11.1287
▁unbelievable	-11.1289
▁chill	-11.129
▁commands	-11.1297
There	-11.1301
▁renewing	-11.1308
▁cheating	-11.1309
▁pinn	-11.1316
▁miles	-11.1318
▁mobs	-11.1325
▁dates	-11.133
▁gif	-11.1332
▁solving	-11.1333
▁invasive	-11.1343
▁detection	-11.1346
▁livestream	-11.1349
▁unpause	-11.1353
▁motivated	-11.1358
▁lasted	-11.1363
▁flashing	-11.1365
▁landing	-11.1373
▁descriptions	-11.1375
iles	-11.1376
▁decisions	-11.1381
▁translations	-11.1385
▁abilities	-11.1392
▁possibilit	-11.1395
sign	-11.1395
▁vibe	-11.1407
▁contract	-11.1421
▁considered	-11.1425
▁texture	-11.1436
▁ball	-11.1441
▁riddle	-11.1448
▁an	-11.145
▁concerns	-11.1464
▁mods	-11.1478
part	-11.1479
▁competitions	-11.1511
▁sp	-11.1513
▁shop	-11.1515
▁businesses	-11.1518
▁Allow	-11.1519
▁familiar	-11.152
▁falling	-11.1521
▁ab	-11.1545
▁dime	-11.1548
▁prepare	-11.1565
▁tight	-11.1567
▁Scroll	-11.1586
▁hole	-11.1599
▁closer	-11.1616
▁counting	-11.1617
nstalled	-11.1621
▁typed	-11.163
hange	-11.1659
ether	-11.1673
usk	-11.1677
▁compar	-11.1678
sometimes	-11.1684
avid	-11.1688
▁glow	-11.1703
▁bigg	-11.1708
▁she	-11.1715
ge	-11.1735
▁Stream	-11.1743
▁produc	-11.175
▁dot	-11.1753
top	-11.1755
fully	-11.1791
▁appeal	-11.1813
pdates	-11.1825
▁clutter	-11.1853
▁redesign	-11.1869
▁Screen	-11.1877
paced	-11.1892
ah	-11.1892
▁Tablet	-11.1894
▁occasion	-11.1903
▁relationship	-11.1903
hannel	-11.1905
▁winner	-11.1905
▁column	-11.1907
▁hunt	-11.191
▁adult	-11.1911
▁bookmark	-11.1912
acing	-11.1914
▁thread	-11.1921
▁troubleshoot	-11.1931
im	-11.1937
▁gem	-11.1944
reinstalled	-11.1945
hey	-11.1946
▁brief	-11.1953
▁immediate	-11.1955
ious	-11.196
ertain	-11.1964
▁dump	-11.1967
▁boss	-11.1967
nspire	-11.1968
▁decline	-11.1971
lashscore	-11.1973
▁crosshair	-11.1976
▁exclamation	-11.1976
▁fashion	-11.1976
anuary	-11.1976
▁unnecessarily	-11.1976
uivalent	-11.1976
▁happier	-11.1976
▁index	-11.1977
▁redeem	-11.1977
▁glaring	-11.1977
▁compact	-11.1977
▁conclusion	-11.1977
▁simplicity	-11.1977
ompletely	-11.1978
▁legit	-11.1979
▁aswell	-11.1979
▁earth	-11.198
▁recomend	-11.198
▁drawback	-11.1981
▁appearance	-11.1984
▁creepy	-11.1984
▁shuffling	-11.1989
▁moviesshows	-11.1989
▁masking	-11.199
▁entry	-11.1994
▁acc	-11.1994
▁entertained	-11.1994
▁forms	-11.1995
▁operating	-11.1997
▁unexpectedly	-11.1997
▁unfollow	-11.2005
▁trailers	-11.2005
learly	-11.2007
▁typos	-11.2007
▁wiped	-11.2008
dge	-11.2009
▁intervals	-11.2009
▁classes	-11.2009
▁political	-11.2009
▁gather	-11.201
▁damage	-11.2013
▁reminder	-11.2014
hotos	-11.2017
▁broadcasters	-11.2029
▁soooo	-11.2037
▁compatibility	-11.2039
▁Anyways	-11.2042
ions	-11.2043
▁u	-11.2045
▁disturbing	-11.2045
ings	-11.205
▁remotely	-11.2057
▁invisible	-11.2061
▁greed	-11.2062
▁chronological	-11.2063
ha	-11.2065
▁tonight	-11.2066
▁police	-11.207
style	-11.2071
▁resort	-11.2072
▁duplicates	-11.2078
▁duo	-11.208
▁silence	-11.2085
▁balanced	-11.209
▁donate	-11.2095
also	-11.2097
▁partial	-11.2098
▁freely	-11.2101
▁controllers	-11.2102
▁concerned	-11.2103
▁spamm	-11.2105
▁interacting	-11.2116
▁identif	-11.2124
hanged	-11.2124
▁cat	-11.213
get	-11.2133
▁races	-11.2143
▁designer	-11.2157
mb	-11.2169
▁shots	-11.2169
herefore	-11.2182
▁son	-11.2189
arre	-11.2191
▁reloading	-11.2192
ked	-11.2197
▁pe	-11.2198
▁these	-11.2198
▁vers	-11.2215
▁pixels	-11.2215
▁ho	-11.2215
▁fr	-11.2217
▁handful	-11.2231
▁soccer	-11.2247
watch	-11.2247
lby	-11.2248
▁caller	-11.2249
ations	-11.225
▁launching	-11.2263
▁SA	-11.2263
▁tip	-11.228
▁maintain	-11.2285
victor	-11.2286
aps	-11.2289
▁regattas	-11.229
▁extras	-11.2302
▁favourites	-11.2316
op	-11.2324
ective	-11.2341
▁upside	-11.2344
▁suffer	-11.2361
ter	-11.2369
▁overly	-11.2381
aming	-11.2391
igh	-11.2393
expression	-11.2396
ral	-11.2396
eady	-11.2401
ments	-11.2403
▁wor	-11.2406
▁individuals	-11.2408
▁costly	-11.2419
▁additions	-11.2428
▁any	-11.2432
ends	-11.2446
▁payments	-11.2446
▁assum	-11.2448
▁net	-11.2451
core	-11.2461
▁war	-11.249
uits	-11.2493
▁flagg	-11.2506
umped	-11.2536
▁mental	-11.2547
▁cons	-11.2567
▁saver	-11.2571
erman	-11.2645
lex	-11.2662
▁codes	-11.2674
▁expansion	-11.2675
▁audiobook	-11.2684
▁mod	-11.2687
uence	-11.2687
▁responses	-11.2688
▁wind	-11.2692
▁malfunction	-11.2696
lays	-11.2699
two	-11.2701
▁overlap	-11.2701
there	-11.2703
▁eyesb	-11.2707
▁penny	-11.2711
▁expire	-11.272
▁owner	-11.2723
▁appropriate	-11.2723
▁thr	-11.2723
▁intentional	-11.2724
▁unexpected	-11.2724
▁seperate	-11.2727
▁flawless	-11.2727
mpossible	-11.2739
hamet	-11.2742
irestick	-11.2742
ns	-11.2743
uggy	-11.2743
▁fluid	-11.2745
▁throat	-11.2745
▁encrypted	-11.2746
▁helicopter	-11.2746
▁pandemic	-11.2746
▁satisfaction	-11.2746
▁vomiting	-11.2746
▁college	-11.2746
▁temporary	-11.2746
▁subpar	-11.2746
▁nostalgic	-11.2746
▁secret	-11.2746
▁wierd	-11.2746
▁trophies	-11.2746
▁wonky	-11.2746
▁diverse	-11.2746
ourney	-11.2746
▁bulk	-11.2746
▁spontaneous	-11.2746
▁ondemand	-11.2746
▁fraction	-11.2746
▁stinks	-11.2746
▁succeed	-11.2747
▁worldwide	-11.2747
▁commentary	-11.2748
▁proud	-11.2748
▁artwork	-11.2748
▁threw	-11.2749
eleted	-11.2749
▁distorted	-11.275
▁cellphone	-11.2751
▁spare	-11.2752
▁loosing	-11.2752
▁Service	-11.2752
▁def	-11.2752
▁above	-11.2754
▁broad	-11.2755
▁unlink	-11.2756
▁pink	-11.2756
▁irritated	-11.2758
▁She	-11.2759
▁Account	-11.276
▁cubes	-11.2764
▁follows	-11.2769
▁Settings	-11.2771
▁harvest	-11.2773
▁enrag	-11.2773
▁steep	-11.2773
▁hinder	-11.2774
▁experiments	-11.2776
ontacts	-11.2776
▁streamed	-11.2776
▁flashes	-11.2779
orth	-11.278
▁explorer	-11.2781
orean	-11.2781
▁restrictions	-11.2786
▁leaderboards	-11.2792
uring	-11.2796
▁blend	-11.2806
▁catches	-11.281
▁audiobooks	-11.2817
ovie	-11.2824
▁vehicles	-11.2824
▁units	-11.2825
▁trees	-11.2825
▁nope	-11.2825
evels	-11.2826
▁pleasant	-11.2828
▁teleport	-11.2828
▁route	-11.2829
▁mainstream	-11.2841
▁globe	-11.2841
▁lovely	-11.2842
▁decorate	-11.2845
ownloads	-11.2846
fix	-11.2848
▁insist	-11.2851
ably	-11.2853
▁starters	-11.2866
▁traveling	-11.2869
nitially	-11.2871
▁oldest	-11.2872
▁teammates	-11.2874
▁profit	-11.2874
ears	-11.2875
▁responded	-11.2882
▁reviewing	-11.2887
▁var	-11.2901
▁decorating	-11.2911
▁leader	-11.2915
organi	-11.2915
▁Sp	-11.2935
▁Aside	-11.2942
lips	-11.2945
▁appealing	-11.2961
lready	-11.2962
▁having	-11.2963
▁scrolls	-11.2968
hold	-11.2969
▁formatting	-11.2971
▁configure	-11.2973
▁reopened	-11.2981
eneral	-11.2981
▁Stick	-11.2984
▁clapp	-11.2997
presented	-11.2998
▁instances	-11.2999
▁circles	-11.3
▁core	-11.3001
▁rolled	-11.3007
everal	-11.3007
▁seeking	-11.3008
lock	-11.3009
▁submitt	-11.302
▁teache	-11.3035
▁sooner	-11.3053
▁simpler	-11.3058
▁Tap	-11.307
hundred	-11.3079
▁methods	-11.3085
▁intend	-11.3102
▁lighting	-11.3117
▁possib	-11.3118
ait	-11.3131
▁guest	-11.3137
▁heads	-11.3137
for	-11.3153
ops	-11.3153
▁chase	-11.3155
pp	-11.3158
▁hook	-11.3159
ooming	-11.3175
▁float	-11.318
rop	-11.3188
▁represent	-11.3192
dited	-11.3213
▁redirect	-11.3232
▁fish	-11.3232
▁eating	-11.3233
il	-11.3234
▁rewinding	-11.3234
▁erase	-11.3243
▁heal	-11.3245
▁processing	-11.3245
▁promo	-11.3248
new	-11.3268
▁lasts	-11.3282
▁hits	-11.3291
live	-11.33
rrow	-11.3301
▁Track	-11.3306
gh	-11.3308
earning	-11.3316
▁ins	-11.3323
▁guessing	-11.3325
ground	-11.3357
▁ne	-11.3359
▁poo	-11.3367
vice	-11.3385
have	-11.3385
▁realm	-11.3394
▁po	-11.342
▁Story	-11.3459
▁convince	-11.346
▁notch	-11.3463
▁fran	-11.3482
▁xp	-11.3483
▁persist	-11.3486
full	-11.3487
▁suggests	-11.3492
▁feeds	-11.3493
▁airplane	-11.3503
▁hop	-11.3505
▁Anyway	-11.3506
▁cos	-11.3506
▁element	-11.3512
▁blueprint	-11.3513
orget	-11.3517
▁forum	-11.3518
sh	-11.3525
▁arrows	-11.3532
▁sharp	-11.3534
ath	-11.3549
▁independent	-11.3552
ventually	-11.3554
▁blood	-11.3557
▁mile	-11.3558
be	-11.356
lip	-11.3568
ik	-11.3568
▁promise	-11.3569
▁chart	-11.3569
onderful	-11.357
atrix	-11.3575
▁maneuver	-11.3579
▁metronome	-11.3579
▁shrink	-11.3579
▁copies	-11.3579
▁unrealistic	-11.3579
▁afterwards	-11.3579
▁butler	-11.3579
▁audience	-11.3579
▁stereo	-11.3579
▁inferior	-11.3579
▁exposure	-11.3579
uipment	-11.3579
▁capability	-11.358
▁vital	-11.358
obody	-11.358
▁indication	-11.3581
▁sketchy	-11.3581
▁dvd	-11.3582
▁theater	-11.3583
▁clever	-11.3583
▁nitro	-11.3583
▁dosent	-11.3583
▁skewed	-11.3584
▁priority	-11.3584
appens	-11.3585
▁Sucks	-11.3588
▁semi	-11.3588
▁below	-11.3589
▁programmed	-11.3589
mo	-11.359
ather	-11.3591
▁playpause	-11.3594
▁sister	-11.3594
check	-11.3597
▁damaged	-11.3597
▁stunts	-11.3598
▁crates	-11.3599
▁passion	-11.3599
▁musicians	-11.3603
▁applied	-11.3605
uantit	-11.3606
▁mirroring	-11.3606
▁determine	-11.3608
▁located	-11.3608
▁headlines	-11.3612
▁bless	-11.3621
▁wider	-11.3627
▁sensor	-11.3629
▁sprint	-11.3631
▁vibrate	-11.3632
oading	-11.364
▁strangers	-11.3642
▁billing	-11.3648
▁charm	-11.3658
▁dope	-11.3659
▁recall	-11.3663
▁chests	-11.3665
loses	-11.3665
▁attractive	-11.3667
▁bree	-11.367
▁meters	-11.3674
rd	-11.3675
▁mx	-11.3677
▁gestures	-11.3683
▁wreck	-11.3684
▁facebook	-11.3686
▁counts	-11.3686
erally	-11.3693
▁launched	-11.3693
▁fat	-11.3695
▁agent	-11.3695
▁eg	-11.3702
egardless	-11.3703
▁vision	-11.3705
▁hurts	-11.3709
▁explained	-11.3716
▁tastes	-11.3721
▁expert	-11.3723
▁sucked	-11.3724
▁tags	-11.3725
eside	-11.3741
▁reverted	-11.3741
▁textures	-11.3753
▁ignor	-11.3762
inding	-11.3776
▁tok	-11.378
▁lowered	-11.379
▁farther	-11.38
▁transferr	-11.3801
▁longest	-11.3804
▁plann	-11.3804
▁subscribers	-11.3806
ir	-11.3808
ixed	-11.3812
▁flick	-11.3816
▁registered	-11.3816
▁unlocks	-11.3817
ild	-11.3828
▁park	-11.383
▁butt	-11.3855
▁Trial	-11.3859
lapping	-11.3864
▁buff	-11.3865
▁forwards	-11.3865
ater	-11.3869
▁exited	-11.3871
▁coding	-11.3874
▁prompted	-11.3875
▁res	-11.3883
▁ditch	-11.3892
▁See	-11.3894
larity	-11.39
ception	-11.3901
▁proof	-11.3904
rt	-11.3908
▁looping	-11.3912
ands	-11.3913
alog	-11.3914
eply	-11.3934
idia	-11.3935
▁stores	-11.3937
view	-11.394
lies	-11.3942
▁stat	-11.3953
ones	-11.396
▁disc	-11.3976
ffice	-11.4006
▁Al	-11.4018
▁shortly	-11.4023
▁corrupt	-11.4038
▁sw	-11.404
▁classics	-11.4041
aster	-11.4046
▁marks	-11.4053
find	-11.4058
work	-11.4062
▁lies	-11.4063
▁o	-11.4065
▁license	-11.4074
then	-11.4077
after	-11.4109
▁alter	-11.4111
lash	-11.4122
▁grand	-11.4133
▁prepar	-11.4148
▁strip	-11.4151
ta	-11.4153
▁afr	-11.4156
▁sho	-11.4158
▁parent	-11.4162
▁yo	-11.4192
▁af	-11.4194
▁AT	-11.4201
▁behave	-11.4204
▁univers	-11.421
▁easie	-11.4213
seless	-11.4244
ties	-11.4246
umbled	-11.4255
▁holiday	-11.4264
ctually	-11.4266
ean	-11.4271
Also	-11.4281
party	-11.4285
let	-11.4311
▁sexual	-11.4332
omi	-11.434
▁iron	-11.4349
▁continu	-11.4376
▁trim	-11.4392
▁pr	-11.4393
uly	-11.4401
isten	-11.4403
▁capture	-11.4407
ri	-11.4407
▁standing	-11.4408
avorite	-11.4412
puts	-11.4418
▁habit	-11.4422
▁competitor	-11.4422
▁chord	-11.4426
etwork	-11.4427
opping	-11.4427
ifficult	-11.4438
▁workaround	-11.4439
▁eat	-11.444
▁unbelievabl	-11.4452
▁rule	-11.4458
came	-11.446
img	-11.4464
issing	-11.4465
orce	-11.4469
uffering	-11.447
ussia	-11.4474
ffline	-11.4476
lassic	-11.4482
etween	-11.4487
▁flexibility	-11.4488
▁monotonous	-11.4488
▁terrific	-11.4488
▁uninterrupted	-11.4488
▁electric	-11.4488
▁tolerable	-11.4488
▁legendary	-11.4488
▁unpleasant	-11.4488
▁grasp	-11.4488
▁phishing	-11.4488
▁studio	-11.4488
▁compression	-11.4488
▁protection	-11.4488
▁fundamental	-11.4489
tball	-11.4489
▁unfinished	-11.4489
▁climb	-11.4489
▁redundant	-11.4489
▁vibration	-11.4489
▁marketplace	-11.4489
▁immersion	-11.4489
▁abandon	-11.4489
▁Tidal	-11.4489
▁educational	-11.4489
▁sweet	-11.4489
▁streamlined	-11.449
▁dissapointed	-11.449
▁hurry	-11.449
▁verified	-11.449
▁toolbar	-11.4491
▁unreadable	-11.4492
▁cam	-11.4494
▁hoops	-11.4495
pictureinpicture	-11.4495
▁shocked	-11.4495
▁addiction	-11.4495
▁deducted	-11.4496
▁unistalled	-11.4496
▁analysis	-11.4497
ontacted	-11.4498
▁twist	-11.4498
amily	-11.4498
onsidering	-11.4501
▁prediction	-11.4501
▁Shuffl	-11.4501
▁promised	-11.4504
▁touchscreen	-11.4504
▁reducing	-11.4505
▁hiccups	-11.4505
▁pandora	-11.4508
▁consideration	-11.4508
▁biomes	-11.4513
▁erased	-11.4515
▁emotes	-11.4518
▁attributes	-11.4518
▁debit	-11.4519
ff	-11.4521
ninstaller	-11.4522
▁dms	-11.4522
▁distinguish	-11.4527
▁vods	-11.4533
uys	-11.4534
▁encouraged	-11.4536
▁scanned	-11.4537
reinstalling	-11.4538
▁planet	-11.4543
▁fift	-11.4546
▁overheating	-11.4552
▁apply	-11.4553
▁border	-11.4558
▁effectively	-11.456
▁mega	-11.4561
▁infinitely	-11.4563
▁premi	-11.4565
▁hung	-11.4566
▁matters	-11.4573
ning	-11.4574
ua	-11.4577
▁ipad	-11.4578
▁township	-11.4578
▁dependable	-11.4579
▁firing	-11.4584
▁fulfill	-11.4587
▁strategi	-11.4588
▁differentiate	-11.459
▁grid	-11.4594
▁hype	-11.4595
▁whistles	-11.4599
▁reorder	-11.4599
▁paint	-11.46
▁im	-11.46
will	-11.4611
▁sliders	-11.4613
▁rewarded	-11.4614
▁bells	-11.4618
▁informed	-11.4622
great	-11.4624
▁gradual	-11.4629
level	-11.463
▁hack	-11.4632
▁suspense	-11.4638
inking	-11.4639
ors	-11.4644
▁sing	-11.4648
▁few	-11.4651
▁affecting	-11.4653
some	-11.4661
▁sold	-11.4666
ide	-11.4667
ustable	-11.4668
▁practices	-11.4685
▁unrelat	-11.4688
▁inf	-11.4688
mething	-11.47
▁dealt	-11.4705
load	-11.4706
bs	-11.4716
layers	-11.4725
▁cooler	-11.4728
▁sleeping	-11.4729
▁sticker	-11.4729
line	-11.4731
▁bat	-11.4731
▁explanations	-11.4732
de	-11.4741
▁Thing	-11.4749
▁faces	-11.4757
▁id	-11.476
eri	-11.476
what	-11.4762
lot	-11.4765
ausing	-11.4769
▁pray	-11.4781
▁thin	-11.4822
▁trackers	-11.4839
▁string	-11.485
▁sms	-11.4851
▁folde	-11.4862
esign	-11.4887
▁touched	-11.4887
ause	-11.489
▁blink	-11.4893
▁receiver	-11.4899
set	-11.4909
▁layouts	-11.4916
ays	-11.492
▁dash	-11.4921
ught	-11.4933
▁heat	-11.4934
alse	-11.4952
▁efforts	-11.4957
▁bothering	-11.4959
ul	-11.4962
ipped	-11.4976
cash	-11.4991
▁oppos	-11.4993
made	-11.5006
▁grade	-11.5011
▁bo	-11.5032
▁dep	-11.5044
wei	-11.506
ept	-11.5074
udge	-11.5079
▁fa	-11.5084
ley	-11.5106
▁ga	-11.5109
▁op	-11.5109
▁shorts	-11.5117
ding	-11.5125
ease	-11.5146
▁reference	-11.5153
▁tr	-11.5164
▁backups	-11.5165
ub	-11.5165
planes	-11.5186
▁ordered	-11.5202
▁gi	-11.5205
▁worthy	-11.5224
▁merge	-11.5227
witch	-11.5232
pending	-11.5236
update	-11.525
▁graph	-11.5256
notch	-11.5265
ny	-11.5265
acts	-11.5313
▁respect	-11.5348
per	-11.5375
earing	-11.539
▁elses	-11.5403
ber	-11.5406
▁robot	-11.5409
▁slot	-11.5419
utting	-11.5419
▁transaction	-11.5419
essage	-11.5421
▁discount	-11.5421
gain	-11.5422
▁headphone	-11.5424
▁animal	-11.5425
▁alien	-11.5429
▁flight	-11.5432
▁Skip	-11.5433
▁weekend	-11.5434
▁concepts	-11.5435
really	-11.544
▁sale	-11.5441
structured	-11.5442
ingly	-11.5454
▁badge	-11.5455
▁broadcaster	-11.5464
▁operation	-11.5465
▁insert	-11.5465
▁thorough	-11.5466
▁desync	-11.5468
▁thankful	-11.5469
arring	-11.547
ecommend	-11.5471
▁guarantee	-11.5473
ithin	-11.5473
oins	-11.5475
▁peace	-11.5476
point	-11.548
evice	-11.5488
▁inspire	-11.5488
▁accumulate	-11.5488
▁disadvantage	-11.5488
▁eyebrow	-11.5488
▁intriguing	-11.5488
▁maintenance	-11.5488
layStation	-11.5488
▁degree	-11.5488
▁multitude	-11.5488
▁abrupt	-11.5488
▁comprehensive	-11.5488
▁guidance	-11.5488
▁tennis	-11.5488
▁varieties	-11.5488
▁electronic	-11.5488
▁foreground	-11.5488
▁afternoon	-11.5488
▁referring	-11.5488
▁wingsuit	-11.5488
▁execution	-11.5488
▁criticism	-11.5488
▁Addictive	-11.5488
▁deliberate	-11.5488
▁rediculous	-11.5488
▁rectify	-11.5488
▁abysmal	-11.5488
▁easytouse	-11.5489
▁assistance	-11.5489
▁dramatically	-11.5489
▁downfall	-11.5489
▁creatures	-11.5489
▁glance	-11.5489
▁pinch	-11.5489
▁promising	-11.5489
▁identical	-11.5489
▁moderation	-11.5489
▁entries	-11.5489
▁unclear	-11.5489
▁immensely	-11.5489
▁penali	-11.549
▁overwhelmed	-11.549
▁tutor	-11.549
▁offensive	-11.549
▁dangerous	-11.5491
▁configuration	-11.5491
▁bothersome	-11.5492
▁bypass	-11.5492
lenty	-11.5492
▁rapidly	-11.5492
▁midway	-11.5492
▁coverage	-11.5492
▁confirmation	-11.5492
▁colorful	-11.5492
▁incompetent	-11.5493
▁gui	-11.5493
asily	-11.5493
▁cmon	-11.5493
▁discouraged	-11.5494
▁firm	-11.5494
unter	-11.5495
▁supply	-11.5495
▁mature	-11.5496
▁instrument	-11.5497
litches	-11.5497
▁tolerate	-11.5503
▁guaranteed	-11.5503
▁confident	-11.5503
▁rushed	-11.5506
▁anoying	-11.5507
▁pissed	-11.551
ture	-11.551
▁lifetime	-11.5512
▁demo	-11.5515
▁waist	-11.5515
▁tik	-11.5516
▁declined	-11.5518
▁cheated	-11.5523
▁scenarios	-11.5528
▁shortcuts	-11.5528
▁updown	-11.5528
▁controlled	-11.5529
einstalling	-11.5529
▁valid	-11.5529
▁wallet	-11.5529
▁instruct	-11.553
▁balloons	-11.5535
▁attachments	-11.5536
▁reliability	-11.5537
▁indicated	-11.5543
show	-11.5546
▁nature	-11.5547
eware	-11.5547
▁disrupt	-11.5548
▁American	-11.555
▁dance	-11.5551
▁sprinting	-11.5555
▁rev	-11.5555
▁reminded	-11.5561
▁accent	-11.5562
▁habits	-11.5563
▁Incredible	-11.5563
avorites	-11.5565
▁dude	-11.5567
▁delight	-11.557
▁decor	-11.5576
▁vibes	-11.558
▁understandable	-11.5582
▁fancy	-11.5584
▁varied	-11.5584
▁bills	-11.5588
▁commit	-11.5589
▁shifts	-11.5593
▁disliked	-11.5593
▁baby	-11.5597
▁curated	-11.5602
hh	-11.5602
▁shapes	-11.5607
▁farming	-11.5611
oad	-11.5613
▁operates	-11.5614
cent	-11.5616
▁goodness	-11.5622
▁gap	-11.5625
▁recipes	-11.5629
▁override	-11.5631
▁roman	-11.5638
▁trips	-11.5639
▁resuming	-11.5642
▁root	-11.5645
▁bubbles	-11.5645
▁flyers	-11.5646
▁magical	-11.5649
chasing	-11.565
▁moderate	-11.5659
ailed	-11.5663
▁drawn	-11.5663
▁spread	-11.5664
▁comfort	-11.5667
▁ios	-11.5675
▁refunded	-11.5684
▁functionally	-11.5694
▁mu	-11.5694
▁scary	-11.57
▁sponsor	-11.57
▁stor	-11.5706
ugh	-11.5724
▁snap	-11.5724
ology	-11.5724
▁reli	-11.5725
▁corners	-11.5729
▁pla	-11.5732
▁Sign	-11.5733
▁shuffled	-11.5734
▁angles	-11.5735
▁advert	-11.5741
▁explaining	-11.5741
kly	-11.5748
▁touches	-11.5749
▁downsides	-11.575
▁mass	-11.5756
most	-11.5761
▁canvas	-11.5766
▁answered	-11.5771
because	-11.5772
▁cater	-11.5774
athetic	-11.5778
▁wife	-11.5783
▁replaying	-11.5785
▁clicks	-11.58
▁shooters	-11.5808
roved	-11.581
▁differ	-11.5811
▁sum	-11.5812
umble	-11.5814
▁sex	-11.5817
▁providers	-11.5833
▁victor	-11.5855
speed	-11.5857
▁notic	-11.5859
well	-11.5865
▁breath	-11.5879
ected	-11.5888
▁standards	-11.5892
pay	-11.5896
▁reverting	-11.5908
▁reloads	-11.5909
▁fu	-11.5926
▁sun	-11.5937
▁pan	-11.5949
▁slee	-11.5974
▁paired	-11.5983
▁contin	-11.6004
anda	-11.6006
▁shares	-11.6009
▁hosts	-11.6019
▁cycles	-11.6019
▁models	-11.6028
early	-11.6049
lose	-11.605
▁entertain	-11.6056
▁Select	-11.6057
illing	-11.6058
arlier	-11.6058
iscover	-11.6085
▁mkv	-11.6091
▁incom	-11.6097
appy	-11.6107
▁Artist	-11.6109
elete	-11.6113
▁uh	-11.6122
hand	-11.6134
ada	-11.6139
▁sm	-11.6143
ea	-11.6152
oring	-11.6167
▁translat	-11.6185
▁publish	-11.6187
▁crack	-11.6198
gate	-11.6205
▁sav	-11.6209
can	-11.6209
▁fear	-11.6209
▁men	-11.6226
▁mom	-11.6226
▁cares	-11.623
read	-11.6237
pg	-11.6238
mm	-11.6254
uint	-11.6256
mi	-11.6301
▁subs	-11.6303
vy	-11.6306
ied	-11.6316
▁indi	-11.632
mages	-11.6362
▁adore	-11.6363
rush	-11.6382
hoto	-11.6385
ork	-11.6389
▁Sent	-11.6412
moving	-11.6414
▁opinions	-11.6426
▁listing	-11.6432
mg	-11.6435
▁figur	-11.6438
▁plugg	-11.6438
eft	-11.6441
▁hides	-11.6442
▁pros	-11.6451
would	-11.6456
fits	-11.6458
▁exp	-11.6462
edit	-11.6463
▁recognise	-11.6485
occurring	-11.6487
▁spa	-11.6495
▁censor	-11.6505
▁verb	-11.651
money	-11.6514
▁amateur	-11.6515
mall	-11.6523
lick	-11.6526
ocused	-11.6527
▁Subscription	-11.6528
▁leaderboard	-11.6532
▁obstacle	-11.6533
▁achievement	-11.6534
▁repost	-11.6535
uirement	-11.6539
▁drink	-11.6547
▁distract	-11.655
▁spawn	-11.6551
mooth	-11.6559
▁booster	-11.6567
▁pending	-11.6567
▁differently	-11.6571
▁intermittent	-11.6576
cious	-11.6577
▁literal	-11.6578
▁desperate	-11.6579
ocket	-11.658
▁align	-11.658
hecked	-11.6581
ier	-11.6582
playing	-11.6585
▁compromise	-11.659
ovel	-11.659
▁surf	-11.6591
▁mailbox	-11.6594
rilliant	-11.6596
ibrary	-11.6596
off	-11.6597
▁yea	-11.6598
▁withdraw	-11.6599
▁Interesting	-11.6599
▁anxiety	-11.6599
▁arbitrary	-11.6599
▁diffrent	-11.6599
▁industry	-11.6599
▁legitimate	-11.6599
▁productivity	-11.6599
▁vague	-11.6599
▁steadily	-11.6599
▁maximi	-11.6599
▁department	-11.6599
▁maddening	-11.6599
▁unpredictable	-11.6599
▁msgs	-11.6599
▁parameter	-11.6599
▁seldom	-11.6599
▁component	-11.6599
▁desert	-11.6599
▁toxic	-11.6599
▁supplement	-11.66
▁household	-11.66
▁decoder	-11.66
▁impatient	-11.66
▁destination	-11.66
▁unhelpful	-11.66
▁fabulous	-11.66
▁overpriced	-11.66
▁counterpart	-11.66
▁Avoid	-11.66
▁ripoff	-11.66
▁lunch	-11.66
▁inefficient	-11.66
orced	-11.66
▁fees	-11.66
▁bummed	-11.66
▁excitement	-11.6601
▁straw	-11.6601
▁necessarily	-11.6601
▁momentum	-11.6601
▁horrid	-11.6601
▁offroad	-11.6602
▁latter	-11.6602
▁increments	-11.6602
nough	-11.6602
▁stamp	-11.6602
▁rude	-11.6602
▁releasing	-11.6602
▁Austin	-11.6602
▁obby	-11.6603
▁discograph	-11.6603
▁manipulat	-11.6603
riends	-11.6603
▁copyright	-11.6603
▁paramount	-11.6603
nbelievable	-11.6605
▁workflow	-11.6605
▁shutdown	-11.6605
▁Single	-11.6605
▁advancing	-11.6605
counterintuitive	-11.6606
▁discard	-11.6606
▁polished	-11.6606
▁dropdown	-11.6606
▁eaten	-11.6607
intermediate	-11.6607
▁discontinued	-11.6607
▁pronunciation	-11.6607
▁bland	-11.6607
▁audible	-11.6608
▁intake	-11.6608
ussian	-11.6608
▁dominos	-11.661
▁strictly	-11.661
▁executed	-11.6611
▁programmers	-11.6613
ahoo	-11.6613
airly	-11.6614
tical	-11.6616
▁contests	-11.6616
▁leftright	-11.6617
▁fellow	-11.6619
▁distorts	-11.6619
▁respawn	-11.662
▁tower	-11.662
▁coworkers	-11.662
▁argu	-11.662
▁peaceful	-11.6621
▁Sept	-11.6622
▁desperately	-11.6622
ecommended	-11.6623
▁blur	-11.6623
▁downgrading	-11.6624
messages	-11.6624
▁litter	-11.6626
▁fluent	-11.6628
▁subfolders	-11.6628
▁Thankyou	-11.6628
▁facegri	-11.6632
replying	-11.6634
ITI	-11.6635
uirks	-11.6638
▁bloody	-11.6639
li	-11.664
.......	-11.6643
anky	-11.6643
▁photographers	-11.6644
▁availability	-11.6647
▁unsubscribed	-11.6648
▁expose	-11.6651
▁pickup	-11.6651
▁South	-11.6653
▁mechanic	-11.6655
▁reconsider	-11.6658
▁patched	-11.666
▁realtime	-11.6661
▁tweaks	-11.6661
▁dismiss	-11.6665
aiting	-11.6665
▁flicks	-11.6669
riginally	-11.667
microtransaction	-11.6672
▁wins	-11.6675
count	-11.6676
rice	-11.6676
inner	-11.6677
▁crew	-11.668
▁kiss	-11.6681
▁supportive	-11.6683
▁span	-11.6683
▁directed	-11.6684
▁monitoring	-11.6692
▁ch	-11.6693
▁accepted	-11.6695
▁Sling	-11.6698
▁hog	-11.6702
▁flawed	-11.6703
▁pluto	-11.6705
▁cheats	-11.6717
▁dedicate	-11.6719
▁smh	-11.672
▁patterns	-11.6725
osing	-11.6725
▁transparent	-11.6726
▁makeup	-11.6731
▁safely	-11.6734
▁comedy	-11.6734
▁ta	-11.6734
▁potion	-11.6737
▁brush	-11.6738
▁logical	-11.6744
ative	-11.6752
range	-11.6758
▁pressure	-11.6765
If	-11.6769
▁muting	-11.6771
icrotransactions	-11.6771
ously	-11.6774
▁intentionally	-11.6783
aying	-11.6794
uares	-11.6798
▁dogs	-11.6805
fast	-11.6807
▁playability	-11.6817
▁dragon	-11.6822
▁phase	-11.6827
▁inform	-11.6835
aya	-11.6835
▁interfere	-11.6846
▁buck	-11.6851
▁regrett	-11.6852
drive	-11.6863
▁dm	-11.6882
▁leg	-11.6884
After	-11.6895
▁lovers	-11.6896
▁dread	-11.6898
▁production	-11.6901
▁Touch	-11.6909
▁latency	-11.691
▁inputs	-11.6917
ple	-11.692
▁esp	-11.6932
▁avatars	-11.6932
eaning	-11.6933
▁boat	-11.6944
▁prints	-11.6947
▁signatures	-11.6952
▁portions	-11.6963
▁mi	-11.6966
land	-11.6968
▁performs	-11.6969
▁truck	-11.6981
einstalled	-11.6993
ux	-11.6994
▁intros	-11.7004
cing	-11.7037
▁editors	-11.7037
▁noises	-11.7039
▁values	-11.704
▁grouped	-11.7041
▁prob	-11.7041
ex	-11.7043
we	-11.7052
▁bann	-11.7064
uddenly	-11.7075
case	-11.7077
eset	-11.7098
▁pen	-11.7104
losing	-11.7109
▁wit	-11.711
team	-11.7114
downloaded	-11.7125
hard	-11.713
tuck	-11.7139
▁ITS	-11.7144
▁bus	-11.715
▁gramma	-11.7155
since	-11.7162
▁listener	-11.7168
▁plac	-11.7171
co	-11.7178
uck	-11.718
of	-11.7182
▁ver	-11.7192
▁decid	-11.7203
▁shade	-11.7204
date	-11.7222
ash	-11.7223
ms	-11.7249
annoying	-11.7256
lly	-11.7264
▁margin	-11.7265
▁cl	-11.7282
ods	-11.7292
▁bounce	-11.7304
...............	-11.731
mouth	-11.7317
▁imp	-11.7318
onfidence	-11.7326
▁beam	-11.7335
inks	-11.735
▁sand	-11.7353
▁subse	-11.7361
ality	-11.7361
▁irritate	-11.7365
bps	-11.737
thers	-11.7379
▁degrad	-11.7381
▁signs	-11.7405
ini	-11.7417
loaded	-11.7425
▁learner	-11.7448
▁purposeful	-11.7449
▁rough	-11.7449
air	-11.7465
election	-11.7471
▁hesitate	-11.7485
▁slip	-11.7496
mode	-11.751
▁nights	-11.7513
ure	-11.7523
▁outline	-11.7536
ittle	-11.7546
long	-11.7547
tting	-11.755
orking	-11.7556
▁til	-11.7561
▁examples	-11.758
▁overload	-11.7583
▁sample	-11.759
▁flicker	-11.7593
pdf	-11.7608
▁attract	-11.7629
stop	-11.763
▁na	-11.7644
▁networking	-11.7645
▁hv	-11.765
▁lying	-11.7661
halt	-11.7663
▁tank	-11.7665
▁lite	-11.767
tary	-11.7672
▁wave	-11.7673
In	-11.7683
▁tick	-11.769
alls	-11.7693
▁minded	-11.7698
dition	-11.7699
litch	-11.7704
▁flowers	-11.7706
▁facesmi	-11.7713
ASS	-11.773
alendar	-11.7731
▁arrive	-11.7734
▁scrub	-11.7736
▁tempt	-11.7738
keep	-11.775
high	-11.7754
ming	-11.7757
pic	-11.7761
pisode	-11.7769
ontrol	-11.7771
▁Sta	-11.7774
▁tournament	-11.7779
▁idiot	-11.7779
▁restriction	-11.7782
▁command	-11.7784
otification	-11.7784
▁fl	-11.7785
▁consumer	-11.779
▁fruit	-11.7791
▁admin	-11.7799
▁trap	-11.7803
eature	-11.7805
▁strength	-11.7809
bid	-11.7811
▁atmospher	-11.7813
▁flipp	-11.7822
▁protect	-11.7825
▁vod	-11.7826
▁accidental	-11.7832
ccasionally	-11.7833
sers	-11.7834
▁rings	-11.7834
▁extent	-11.7841
egards	-11.7844
esterday	-11.7844
hallenging	-11.7845
oodnovel	-11.7845
▁beneficial	-11.7849
▁accuracy	-11.7849
▁adventurous	-11.7849
▁conservative	-11.7849
▁illustration	-11.7849
▁satellite	-11.7849
▁traditional	-11.7849
▁summary	-11.7849
▁vacation	-11.7849
▁assault	-11.7849
▁sloppy	-11.7849
▁rabbit	-11.7849
▁informative	-11.7849
▁muscle	-11.7849
▁comfortably	-11.7849
▁hotspot	-11.7849
▁masterpiece	-11.7849
▁awsome	-11.7849
▁copied	-11.785
▁splash	-11.785
▁hectic	-11.785
▁libraries	-11.785
arlem	-11.785
▁unskipable	-11.785
▁mechanism	-11.785
▁embarrassing	-11.785
▁understood	-11.785
▁cancellation	-11.785
▁wrist	-11.785
▁inspiration	-11.785
▁idiotic	-11.785
▁Stuff	-11.785
▁simplistic	-11.785
▁heartbeat	-11.785
▁sporadically	-11.785
▁periodically	-11.785
▁gym	-11.785
▁facility	-11.785
▁meditation	-11.7851
▁Tucker	-11.7851
▁sneak	-11.7851
▁Status	-11.7851
▁construction	-11.7851
▁compelling	-11.7851
▁established	-11.7851
▁garage	-11.7851
ink	-11.7851
▁embedded	-11.7851
▁miserabl	-11.7851
▁subtract	-11.7851
▁theory	-11.7852
▁beforehand	-11.7852
▁principle	-11.7852
▁indefinitely	-11.7853
▁collage	-11.7853
▁hostage	-11.7854
▁curious	-11.7854
▁upfront	-11.7854
▁xplayer	-11.7854
omcast	-11.7854
▁mutants	-11.7854
▁colleagues	-11.7855
▁Series	-11.7855
▁professor	-11.7855
▁horns	-11.7855
▁unfixed	-11.7855
▁conversion	-11.7856
▁utility	-11.7856
▁kidding	-11.7857
mates	-11.7857
▁grace	-11.7857
▁pixelated	-11.7857
▁expense	-11.7857
▁evolved	-11.7858
▁dirty	-11.7858
▁engaged	-11.7858
ged	-11.7859
▁warranty	-11.7859
▁summer	-11.786
▁refill	-11.786
ommercials	-11.786
▁tuning	-11.786
▁intent	-11.7865
▁dull	-11.7865
▁graphical	-11.7865
▁tweak	-11.7867
▁protected	-11.7872
▁forgetting	-11.7874
▁praise	-11.7877
▁perfection	-11.7879
heers	-11.7879
ltimate	-11.7883
ft	-11.7883
▁redirected	-11.7884
▁slightest	-11.7886
uitting	-11.7888
▁True	-11.7889
▁soothing	-11.7891
▁briefly	-11.7891
▁maintained	-11.7893
▁renewed	-11.7893
▁recieved	-11.7893
▁alphabetically	-11.7894
▁registrati	-11.7894
▁limitations	-11.7894
andomly	-11.7894
▁segments	-11.79
▁smash	-11.7901
▁meta	-11.7903
leared	-11.7905
▁acknowledge	-11.7906
ooked	-11.7906
▁hire	-11.7907
▁clubs	-11.791
▁mild	-11.7912
▁recap	-11.7913
▁Send	-11.7914
▁triple	-11.7915
▁meaningful	-11.7915
heck	-11.7923
compass	-11.7924
▁improves	-11.7931
▁sales	-11.7932
▁remix	-11.7933
▁losses	-11.7933
▁pip	-11.7934
▁skippable	-11.7935
▁clone	-11.7937
user	-11.794
▁badges	-11.7944
TIS	-11.7945
▁posters	-11.7946
▁workarounds	-11.7946
▁realms	-11.7947
▁suffering	-11.7949
▁reviewed	-11.795
try	-11.7953
pt	-11.7954
▁restored	-11.7957
▁promptly	-11.7959
▁threads	-11.7965
hannels	-11.7965
riday	-11.7966
▁expires	-11.7972
▁adults	-11.7972
eason	-11.7973
▁realise	-11.7976
▁flexible	-11.7979
▁checkin	-11.798
▁occurring	-11.7981
▁warm	-11.7987
▁sole	-11.799
▁duper	-11.799
▁education	-11.7992
▁chain	-11.7992
▁pur	-11.7995
layrix	-11.7996
umber	-11.7997
premium	-11.7999
▁shields	-11.8001
▁aesthetics	-11.8003
▁imported	-11.8004
rage	-11.8008
▁hackers	-11.8009
▁unreasonabl	-11.8009
audio	-11.8015
▁factors	-11.8018
assive	-11.8018
▁motivating	-11.8019
▁designers	-11.8021
▁delivers	-11.8022
▁presentations	-11.8022
▁som	-11.8025
▁inboxes	-11.8026
▁Sa	-11.8026
▁thankfully	-11.8027
▁consistency	-11.8035
▁roof	-11.8046
bones	-11.8052
▁restor	-11.8064
iked	-11.8069
▁inspired	-11.8069
▁toggl	-11.8071
ife	-11.8075
biased	-11.8075
▁snow	-11.8076
access	-11.8086
ually	-11.8088
▁rethink	-11.809
▁cup	-11.8091
▁dies	-11.8096
month	-11.8098
da	-11.8106
▁beats	-11.8112
▁rotated	-11.8112
aka	-11.8129
▁configur	-11.8138
▁monopol	-11.8142
▁intuitively	-11.815
▁transactions	-11.8151
▁begining	-11.8157
▁dual	-11.8159
ustom	-11.816
▁expanding	-11.8161
▁Insta	-11.817
▁desk	-11.8176
ye	-11.8178
▁specially	-11.8181
ds	-11.8185
ages	-11.8189
itting	-11.8205
olden	-11.8211
▁billion	-11.8223
▁pm	-11.8241
ently	-11.8251
▁sd	-11.8271
starstarstarstar	-11.8276
▁replays	-11.8276
▁grabs	-11.8293
werk	-11.8298
▁St	-11.83
room	-11.8301
▁guides	-11.8304
▁bang	-11.8311
▁trimm	-11.8321
▁fb	-11.8324
andy	-11.8329
songs	-11.8339
▁storylines	-11.8341
▁etern	-11.8342
▁existent	-11.8353
▁vc	-11.8355
fire	-11.8382
gs	-11.8393
int	-11.8399
▁pisse	-11.8405
▁yr	-11.8423
▁sc	-11.8433
▁her	-11.8441
ship	-11.8443
▁positions	-11.8453
frustrating	-11.8482
oto	-11.8485
▁Soon	-11.8522
▁deactivate	-11.853
▁deactivated	-11.8551
▁responds	-11.8594
▁driver	-11.8597
▁Abo	-11.86
▁cult	-11.8601
▁calendars	-11.8616
ial	-11.8617
res	-11.8617
▁despise	-11.8624
▁maker	-11.8624
▁manages	-11.8641
rating	-11.8651
▁scream	-11.8655
▁producer	-11.8671
merged	-11.8678
▁touchy	-11.8681
▁ro	-11.8681
igned	-11.8684
inting	-11.8691
ISS	-11.8696
▁km	-11.87
ite	-11.8703
ond	-11.8724
never	-11.8739
▁towns	-11.8748
▁animate	-11.8751
▁gardens	-11.8752
▁sift	-11.8753
▁piss	-11.8753
▁Sort	-11.8755
iant	-11.8773
▁ram	-11.8779
▁ski	-11.8792
▁introduc	-11.8795
anta	-11.8799
nything	-11.88
videos	-11.8821
otmail	-11.8823
▁gam	-11.8832
▁gram	-11.8835
▁wood	-11.8835
▁turne	-11.8836
▁construct	-11.8845
▁fin	-11.8846
ress	-11.8851
▁mbs	-11.8854
rows	-11.8892
▁bear	-11.8903
ned	-11.8919
▁enabl	-11.8921
auto	-11.893
ism	-11.8932
printing	-11.8936
▁upward	-11.894
▁tvs	-11.8942
ags	-11.8947
▁ramp	-11.895
▁door	-11.8952
ank	-11.8955
loading	-11.8956
▁echo	-11.8985
une	-11.8986
▁accelerati	-11.8988
mobileautomobile	-11.8998
ified	-11.9002
▁medic	-11.903
▁indicate	-11.9032
▁schedul	-11.904
▁Typical	-11.9077
▁descen	-11.9092
thank	-11.9094
▁tile	-11.9097
▁restrict	-11.9097
could	-11.9099
▁hesita	-11.9103
▁anti	-11.9114
finity	-11.9119
adio	-11.9121
streaming	-11.9127
cents	-11.9134
ives	-11.9135
ffer	-11.9136
▁script	-11.914
▁mirror	-11.9142
pository	-11.9146
em	-11.915
double	-11.9151
▁involve	-11.9165
▁chicken	-11.9188
▁alignment	-11.9194
share	-11.9196
rovide	-11.9196
ecided	-11.9197
ontact	-11.9198
▁carrier	-11.9199
▁multiplier	-11.9201
efault	-11.9205
▁voicenote	-11.9206
▁Tweet	-11.9207
▁outfit	-11.9208
▁balloon	-11.921
pped	-11.921
▁interval	-11.921
▁paragraph	-11.9211
▁attachment	-11.9211
▁teammate	-11.9211
▁outcome	-11.9211
ssues	-11.9212
estart	-11.9216
▁variation	-11.9218
▁correction	-11.9227
▁typo	-11.9228
▁inevitabl	-11.9231
▁satisfy	-11.9232
thanks	-11.9235
▁Sometime	-11.9235
▁doc	-11.9237
gest	-11.9238
▁vanish	-11.9241
▁describ	-11.9241
▁mac	-11.9243
▁synchroni	-11.9247
device	-11.9251
urrent	-11.9254
di	-11.9262
▁facef	-11.9263
osts	-11.9264
▁prioriti	-11.9264
▁categori	-11.9265
▁alphabet	-11.9268
xcel	-11.927
elieve	-11.9271
orld	-11.9271
ultiplayer	-11.9273
unctionality	-11.9274
referred	-11.9275
ecommendations	-11.9275
ompared	-11.9275
arvel	-11.9275
▁soft	-11.9276
▁voltage	-11.9278
rainbow	-11.9278
▁accommodate	-11.9278
▁associate	-11.9278
▁clumsy	-11.9278
▁consecutive	-11.9278
▁dissapear	-11.9278
▁exorbitant	-11.9278
▁inbetween	-11.9278
▁mundane	-11.9278
▁nostalgia	-11.9278
▁protocol	-11.9278
▁reluctant	-11.9278
▁synopsis	-11.9278
▁hindrance	-11.9278
▁detriment	-11.9278
▁dysfunctional	-11.9278
▁twenty	-11.9278
▁responsible	-11.9278
▁timestamp	-11.9278
▁violence	-11.9278
▁abundan	-11.9278
▁gradient	-11.9278
▁fortune	-11.9278
▁dissatisfied	-11.9278
▁finicky	-11.9278
▁shotgun	-11.9278
cc	-11.9278
▁tiresome	-11.9278
▁unwilling	-11.9278
▁underrated	-11.9278
▁rhythm	-11.9278
▁ladies	-11.9278
otorola	-11.9278
▁dynamic	-11.9278
▁disagree	-11.9278
▁lightweight	-11.9278
▁predator	-11.9278
▁relentless	-11.9278
▁excruciating	-11.9278
▁investment	-11.9279
▁inaccessible	-11.9279
▁manipulation	-11.9279
▁dissappear	-11.9279
▁revamp	-11.9279
▁staff	-11.9279
▁impression	-11.9279
▁relaunch	-11.9279
▁crossplatform	-11.9279
▁rewrite	-11.9279
▁treasure	-11.9279
▁suspect	-11.9279
▁penalty	-11.9279
▁myster	-11.9279
▁downtown	-11.9279
▁fraud	-11.9279
▁peeve	-11.9279
▁nutrition	-11.9279
▁generous	-11.9279
▁Alien	-11.928
ixelbite	-11.928
▁distortion	-11.928
▁birthday	-11.928
omics	-11.928
▁suspended	-11.928
▁nonetheless	-11.928
▁Alright	-11.928
nreliable	-11.928
▁renewal	-11.9281
▁friendship	-11.9282
▁Social	-11.9282
▁troublesome	-11.9282
▁dissapointing	-11.9282
▁manga	-11.9282
▁travelling	-11.9282
▁lightning	-11.9283
▁module	-11.9283
▁rebuild	-11.9283
▁tremendously	-11.9283
hapters	-11.9283
▁spotty	-11.9283
▁centre	-11.9284
▁matrix	-11.9284
▁guidelines	-11.9284
▁scatter	-11.9284
▁safety	-11.9284
pgraded	-11.9285
▁dragging	-11.9285
▁domain	-11.9286
▁beware	-11.9287
▁surviving	-11.9287
▁spikes	-11.9287
▁excel	-11.9288
▁onoff	-11.9289
▁thankyou	-11.9291
▁hyper	-11.9291
▁musthave	-11.9292
▁shortcomings	-11.9294
▁flipped	-11.9295
▁historical	-11.9295
▁shirts	-11.9296
pdating	-11.9297
▁recharging	-11.9297
▁drill	-11.9299
▁activating	-11.9299
▁buds	-11.93
▁resend	-11.9303
▁annotate	-11.9304
▁glich	-11.9306
▁tactics	-11.9306
▁scoring	-11.9308
essons	-11.9308
▁intermittently	-11.9308
▁serve	-11.9308
▁brick	-11.9309
▁topdown	-11.931
▁controler	-11.931
▁authori	-11.9312
litchy	-11.9312
▁meantime	-11.9313
▁intention	-11.9313
aggy	-11.9315
▁chunks	-11.9316
▁canned	-11.9318
ouble	-11.9318
▁checkpoints	-11.9319
▁crown	-11.932
▁deck	-11.9322
▁comeback	-11.9325
▁pleasure	-11.9326
▁decreased	-11.9326
▁archived	-11.9326
▁advancement	-11.9332
▁ranking	-11.9333
▁parties	-11.9333
▁accomplished	-11.9333
▁burned	-11.9333
▁appointments	-11.9334
▁todo	-11.9334
▁Inbox	-11.9335
▁tweaking	-11.9336
▁mountains	-11.9337
ollowing	-11.9339
older	-11.9339
hones	-11.934
▁described	-11.934
▁pathway	-11.9342
roid	-11.9348
▁exceed	-11.9349
▁faves	-11.9351
ction	-11.9352
▁corrections	-11.9353
▁Along	-11.9355
▁fruits	-11.9356
ick	-11.9357
▁conclude	-11.9358
▁instruction	-11.9358
▁promotion	-11.9358
start	-11.9359
▁incorporate	-11.9359
▁starred	-11.9364
▁club	-11.9364
▁fulltime	-11.9368
▁vertically	-11.9369
▁charts	-11.9373
▁remained	-11.9375
▁doors	-11.9376
si	-11.9378
▁hitch	-11.9378
losed	-11.9379
▁alto	-11.9381
▁recorder	-11.9381
▁fastpass	-11.9382
▁alive	-11.9383
▁soul	-11.9383
person	-11.9384
rices	-11.9384
ontally	-11.9385
confused	-11.9386
estarted	-11.939
ime	-11.9391
▁cold	-11.9394
▁mob	-11.9406
pable	-11.9408
▁urgent	-11.941
▁efficiently	-11.9411
▁moon	-11.9414
▁reconnected	-11.9416
▁da	-11.9416
learning	-11.9422
▁remarkable	-11.9422
▁stressed	-11.9423
▁columns	-11.9423
▁anxious	-11.9427
▁dp	-11.9429
city	-11.9431
▁fool	-11.9432
▁metal	-11.9434
tsapp	-11.9437
▁automation	-11.9438
▁whatsApp	-11.9438
▁vocab	-11.9439
▁handsc	-11.944
▁arm	-11.9442
▁beauty	-11.9442
▁ships	-11.9443
▁watermark	-11.9443
▁coordination	-11.9445
▁sim	-11.945
▁tongue	-11.945
▁controlls	-11.9454
mistakenly	-11.9457
▁dial	-11.9457
▁professionally	-11.9462
▁alb	-11.9465
▁longtime	-11.9467
▁conditions	-11.947
woman	-11.9471
arm	-11.9471
▁fiddl	-11.9472
▁concerning	-11.9475
▁gamer	-11.9476
Android	-11.9486
▁separat	-11.9492
▁hd	-11.9493
▁spir	-11.9495
peaking	-11.9496
ocal	-11.9498
pe	-11.9504
listen	-11.9504
▁arrange	-11.9512
round	-11.9516
▁relate	-11.9517
▁meetings	-11.9519
▁lux	-11.9522
▁threat	-11.9523
▁drawings	-11.9529
▁Server	-11.9535
▁swapp	-11.9537
serves	-11.9538
roblems	-11.9538
▁collected	-11.9551
▁calculate	-11.9553
▁inconveniences	-11.9555
▁rendered	-11.9555
▁tax	-11.9561
▁al	-11.9561
ep	-11.9562
▁smartphones	-11.9565
irl	-11.9568
▁plant	-11.9575
els	-11.9583
▁guard	-11.9585
▁advertises	-11.9585
▁Top	-11.9601
opped	-11.9602
▁actors	-11.9617
looking	-11.9623
best	-11.9625
▁decades	-11.963
▁abuse	-11.963
alling	-11.9631
ucki	-11.9631
iest	-11.9631
▁Subtitle	-11.9642
sensitive	-11.9647
▁holidays	-11.965
arden	-11.9664
▁senders	-11.9665
▁won	-11.9667
▁unpair	-11.9668
▁alike	-11.9687
▁layers	-11.9688
▁stone	-11.9696
nit	-11.9697
built	-11.9701
▁engineer	-11.9702
list	-11.9704
son	-11.9706
reading	-11.9711
▁feelings	-11.9712
▁scar	-11.9715
▁sped	-11.9718
skull	-11.9731
▁earnings	-11.9734
band	-11.9743
▁comp	-11.9748
onest	-11.9749
▁processed	-11.9751
▁dated	-11.9755
ded	-11.9763
tar	-11.9763
▁le	-11.9764
▁yt	-11.9771
▁begg	-11.9776
▁toss	-11.9777
▁lambo	-11.9782
▁relearn	-11.9784
iddle	-11.979
mon	-11.9794
▁respective	-11.9797
▁gender	-11.9804
▁weirdly	-11.9809
▁realis	-11.9809
isp	-11.9821
▁filtering	-11.9826
with	-11.984
yth	-11.9841
▁batch	-11.9848
▁Shar	-11.9851
ully	-11.9874
▁terr	-11.9874
ba	-11.9875
download	-11.9879
▁anger	-11.9893
mous	-11.9894
fre	-11.9913
▁shy	-11.9915
dfather	-11.9925
kan	-11.9946
▁sta	-11.9949
▁sword	-11.9956
nder	-11.9972
install	-11.9972
second	-11.9985
umpy	-11.9996
▁expression	-12.0003
text	-12.0008
ptical	-12.003
ving	-12.0033
▁rea	-12.0039
obs	-12.0049
▁bl	-12.005
fun	-12.006
ities	-12.0065
▁lil	-12.0068
match	-12.007
▁surpass	-12.0072
▁emailing	-12.0075
uffers	-12.0075
ck	-12.0076
left	-12.008
hings	-12.0089
▁populate	-12.0098
▁pv	-12.0106
control	-12.0114
ories	-12.0128
▁math	-12.0139
print	-12.0144
▁achiev	-12.0157
▁differences	-12.0161
▁insu	-12.0167
▁messy	-12.017
▁refunds	-12.018
▁marking	-12.0184
▁eras	-12.0186
▁collapse	-12.0192
▁usb	-12.0193
▁cameras	-12.0201
ans	-12.0211
▁communications	-12.0217
▁caches	-12.0226
▁bull	-12.0233
ealth	-12.0236
▁gross	-12.0249
ats	-12.026
gun	-12.0283
allow	-12.0284
space	-12.0285
tin	-12.0302
vote	-12.0324
▁gra	-12.0327
playlists	-12.033
matical	-12.0362
tap	-12.0376
▁sink	-12.0394
ides	-12.0395
▁mere	-12.0399
oooo	-12.0408
That	-12.0415
Thanks	-12.0419
again	-12.0425
roll	-12.0449
▁punishe	-12.046
served	-12.0467
peg	-12.0497
eno	-12.05
ov	-12.0501
tried	-12.0502
ging	-12.051
hort	-12.0521
▁interpret	-12.0526
uote	-12.0527
▁Article	-12.0554
pass	-12.0563
wifi	-12.0581
black	-12.0589
▁analy	-12.0589
▁oppo	-12.0616
▁spec	-12.0632
▁birds	-12.0633
hot	-12.0653
tty	-12.0672
ouse	-12.0695
▁expects	-12.0715
tomo	-12.0719
correct	-12.0723
▁laptops	-12.0731
▁arra	-12.0739
▁tongues	-12.0745
▁rec	-12.0752
ption	-12.0763
got	-12.0782
▁comm	-12.0786
▁av	-12.0797
working	-12.0803
without	-12.0806
▁rad	-12.0812
▁passive	-12.082
couple	-12.0824
give	-12.0834
▁experi	-12.0842
movie	-12.0846
lipping	-12.0854
xchange	-12.0855
▁dim	-12.0856
▁measure	-12.0859
mount	-12.086
photo	-12.0865
ocking	-12.0867
▁companion	-12.0868
information	-12.0871
▁checkmark	-12.0872
▁mountain	-12.0875
▁segment	-12.0876
▁appointment	-12.0878
▁shortcut	-12.0878
▁headline	-12.0878
▁photographer	-12.0879
book	-12.0879
▁insight	-12.0882
▁scenario	-12.0884
charged	-12.0884
ical	-12.0889
▁multitask	-12.0894
▁chop	-12.0896
▁trailer	-12.0899
▁India	-12.0899
▁Africa	-12.09
irect	-12.09
▁flyer	-12.0909
▁experiment	-12.0911
xpensive	-12.0914
omplete	-12.0915
files	-12.0918
▁warn	-12.092
▁routine	-12.0921
▁global	-12.0921
▁crowd	-12.0924
mula	-12.0925
▁unsubscrib	-12.093
roken	-12.0932
ummy	-12.0934
avigation	-12.0935
xceptional	-12.0935
rofessor	-12.0938
ommunity	-12.0939
hallenge	-12.0939
aramount	-12.094
iamonds	-12.094
▁chick	-12.0941
avigating	-12.0941
essaging	-12.0941
arkour	-12.0941
ancelled	-12.0942
edrock	-12.0943
▁discuss	-12.0944
akistan	-12.0944
▁Infuriating	-12.0944
▁apocalyp	-12.0944
▁credentials	-12.0944
▁earliest	-12.0944
▁gumball	-12.0944
▁lifesaver	-12.0944
▁nonsensical	-12.0944
▁rectangle	-12.0944
▁snippet	-12.0944
▁painstaking	-12.0944
▁perpetual	-12.0944
▁rectified	-12.0944
▁premature	-12.0944
▁megaskins	-12.0944
▁loudspeaker	-12.0944
▁consumption	-12.0944
▁attitude	-12.0945
▁illegal	-12.0945
▁enchant	-12.0945
▁detract	-12.0945
▁ownership	-12.0945
▁cashgrab	-12.0945
▁incompatible	-12.0945
▁circum	-12.0945
▁enticing	-12.0945
▁grenade	-12.0945
▁evolution	-12.0945
▁cliff	-12.0945
laystation	-12.0945
▁shiftlock	-12.0945
pecifically	-12.0945
isleading	-12.0945
▁confusion	-12.0945
▁harsh	-12.0945
▁fluency	-12.0945
ualities	-12.0945
▁artificial	-12.0945
▁dumpster	-12.0945
▁spinner	-12.0945
▁gamified	-12.0945
▁deceptive	-12.0946
▁Sleep	-12.0946
▁ashamed	-12.0946
▁Application	-12.0946
▁revisit	-12.0946
▁legend	-12.0946
▁Strange	-12.0946
▁silhouette	-12.0946
▁evil	-12.0946
▁glitchiness	-12.0947
▁personalities	-12.0947
tinent	-12.0947
▁deselect	-12.0947
▁existence	-12.0947
▁crappy	-12.0947
▁branch	-12.0947
▁inception	-12.0947
▁diversity	-12.0947
emember	-12.0948
epeatedly	-12.0948
▁modified	-12.0948
eedback	-12.0948
nlimited	-12.0949
▁unavoidable	-12.0949
▁captivating	-12.0949
▁reflow	-12.095
▁accompan	-12.095
▁hideout	-12.0951
eriod	-12.0951
▁implementation	-12.0952
ohn	-12.0952
▁bias	-12.0952
▁metrics	-12.0952
▁estate	-12.0952
▁exaggerating	-12.0953
▁faith	-12.0953
▁favour	-12.0953
▁advertisers	-12.0955
als	-12.0955
▁compliments	-12.0955
▁financially	-12.0955
▁horrific	-12.0956
hi	-12.0956
▁goodbye	-12.0957
▁Improve	-12.0957
▁considerably	-12.0957
▁neighbor	-12.0957
▁webpage	-12.0959
▁lbs	-12.0959
▁remixes	-12.0961
▁cursed	-12.0962
▁faded	-12.0962
▁buried	-12.0962
ropped	-12.0963
▁bingo	-12.0964
▁cookies	-12.0964
▁conflicts	-12.0964
▁enclosures	-12.0964
▁sooooo	-12.0965
▁routinely	-12.0968
▁globally	-12.0968
▁translator	-12.0968
▁mph	-12.0969
ploading	-12.0969
▁compressed	-12.0969
▁homework	-12.097
▁someday	-12.097
▁chip	-12.0971
armin	-12.0972
▁vanished	-12.0972
▁grant	-12.0973
istory	-12.0974
▁substitute	-12.0975
▁degraded	-12.0976
▁exhausting	-12.0977
▁extensions	-12.0977
nity	-12.0977
rance	-12.0983
▁alternate	-12.0985
▁cont	-12.0988
▁chime	-12.0988
▁mutual	-12.0988
▁iteration	-12.0988
▁whatnot	-12.0989
iewing	-12.099
▁occupie	-12.099
▁altered	-12.099
▁plugins	-12.0991
▁slick	-12.0991
▁trivia	-12.0995
plus	-12.0997
▁halo	-12.0997
▁overtime	-12.0998
▁gaps	-12.0999
corporate	-12.1
▁lemurs	-12.1001
▁execute	-12.1002
▁breach	-12.1005
mili	-12.1006
▁shifted	-12.1007
ewest	-12.1007
▁cook	-12.1008
uirk	-12.1008
▁tagging	-12.101
der	-12.101
▁memes	-12.1013
▁advised	-12.1014
olor	-12.1016
▁measures	-12.1017
loor	-12.1018
pisodes	-12.1018
▁accordingly	-12.1023
▁led	-12.1027
▁underage	-12.1027
▁recaps	-12.1029
orlds	-12.1029
▁variations	-12.1029
▁confirmed	-12.1032
▁payout	-12.1034
istening	-12.1035
estarting	-12.1038
▁bcu	-12.1038
laptop	-12.104
▁danger	-12.1043
▁tournaments	-12.1044
▁dung	-12.105
xt	-12.1051
▁defend	-12.1051
▁dr	-12.1051
▁malfunctioning	-12.1058
▁fence	-12.1059
ishing	-12.1059
▁cartoon	-12.106
▁consist	-12.106
▁apk	-12.1061
make	-12.1062
▁street	-12.1062
▁migrat	-12.1063
▁flights	-12.1066
▁smallest	-12.1066
▁operations	-12.1067
▁scratched	-12.1068
▁surface	-12.1069
uy	-12.1071
▁detected	-12.1074
▁landed	-12.1076
▁gen	-12.108
▁warp	-12.1081
▁gum	-12.1086
▁enthusiast	-12.1087
▁nick	-12.1089
▁logic	-12.1093
▁studying	-12.1093
▁shad	-12.1093
▁cherr	-12.1094
▁tear	-12.1095
▁bread	-12.1097
▁Alas	-12.1105
▁expansions	-12.1105
▁hub	-12.1106
▁famous	-12.1107
sure	-12.111
▁trends	-12.111
▁typical	-12.1111
▁dum	-12.1115
▁ar	-12.112
▁nic	-12.1123
▁winter	-12.1125
▁recovery	-12.1125
▁ploy	-12.1129
▁tha	-12.1132
ache	-12.1134
▁crouch	-12.1134
▁regions	-12.1137
▁starstruck	-12.1141
▁assure	-12.1142
▁Aim	-12.1144
▁intelligen	-12.1145
▁property	-12.1147
▁blah	-12.1147
▁greatness	-12.1149
▁mastered	-12.1149
hanges	-12.1149
ails	-12.1153
▁compress	-12.1156
▁schemes	-12.1157
nter	-12.1159
▁browsers	-12.116
▁rep	-12.116
amn	-12.1167
media	-12.1168
▁faulty	-12.1168
▁clues	-12.1183
▁failures	-12.1184
ited	-12.1188
exus	-12.119
▁shu	-12.1194
every	-12.1196
▁mindless	-12.1202
wide	-12.1203
▁crushing	-12.1204
▁trade	-12.1206
▁listeners	-12.1207
▁inconsistenc	-12.121
▁width	-12.1212
nes	-12.1215
▁virus	-12.1219
▁callers	-12.1223
▁solo	-12.1225
▁programme	-12.1229
▁rage	-12.1232
hole	-12.1232
▁mining	-12.1234
hell	-12.1235
▁arriv	-12.1236
▁cop	-12.1238
▁rerun	-12.1241
asic	-12.1245
▁minimalist	-12.1246
▁slack	-12.1249
▁filtered	-12.1253
▁deaths	-12.1257
▁exclude	-12.1261
▁notif	-12.127
▁bird	-12.1271
▁environments	-12.1274
▁yard	-12.1281
▁backend	-12.1296
▁wir	-12.13
oads	-12.1303
▁ig	-12.1309
▁Subs	-12.1311
▁musicpodcast	-12.1316
▁reenable	-12.1317
tally	-12.1318
review	-12.1325
▁shake	-12.133
▁emotional	-12.1337
nn	-12.1342
▁involv	-12.1343
▁poll	-12.1346
▁lagg	-12.1347
lf	-12.1348
people	-12.1358
chat	-12.136
flip	-12.1361
▁fired	-12.1371
emo	-12.1371
▁buffered	-12.1375
▁doable	-12.1376
ender	-12.1379
▁tube	-12.1382
▁branding	-12.1384
▁agenc	-12.139
▁optimis	-12.1392
▁annoyances	-12.1392
▁Actual	-12.1394
▁ge	-12.14
▁rush	-12.1406
▁incline	-12.1407
▁broadcasting	-12.141
link	-12.1417
▁wrap	-12.1417
house	-12.1418
▁logos	-12.1418
ag	-12.1418
▁oriented	-12.1422
▁mother	-12.1423
▁wheels	-12.1423
played	-12.1428
table	-12.1429
term	-12.1438
oked	-12.1445
hing	-12.145
▁fist	-12.1464
▁poop	-12.1465
▁impress	-12.1476
▁structures	-12.1479
mpire	-12.1483
standing	-12.1483
iv	-12.15
▁stripp	-12.1505
verse	-12.1508
▁facts	-12.1525
▁swi	-12.153
▁gig	-12.1536
▁obsess	-12.1541
▁rent	-12.1543
▁darn	-12.1543
▁trashy	-12.1546
lm	-12.1555
nds	-12.1557
▁appreciat	-12.1558
ries	-12.156
reaking	-12.1565
▁Androids	-12.1573
▁stumbl	-12.1574
▁brands	-12.1581
arn	-12.1581
ealing	-12.1601
▁grading	-12.1609
▁tests	-12.1612
▁purp	-12.1623
playlist	-12.1628
explod	-12.1631
edited	-12.1633
▁beac	-12.1642
oal	-12.1647
▁warnings	-12.165
▁ai	-12.1651
host	-12.167
▁frustrations	-12.1673
▁nav	-12.168
▁Suggest	-12.1687
sleeping	-12.1687
▁trace	-12.1694
▁signals	-12.1696
▁leak	-12.1712
▁sling	-12.1719
▁dodg	-12.1727
▁sparkles	-12.1741
ances	-12.1763
▁sha	-12.1765
▁woke	-12.1767
called	-12.1768
▁Score	-12.1773
▁bag	-12.1785
▁ordering	-12.1795
sparkl	-12.1806
▁stuffs	-12.1814
making	-12.1823
wiping	-12.1834
ords	-12.1842
▁Say	-12.1846
ways	-12.1851
inor	-12.1854
▁installs	-12.1867
ster	-12.1867
know	-12.1873
▁accelerat	-12.1874
continue	-12.1874
▁interfaces	-12.1879
▁pertain	-12.1896
▁nigh	-12.1898
tal	-12.19
apping	-12.19
▁controll	-12.1913
ase	-12.1919
▁Till	-12.1925
cs	-12.1931
ibly	-12.1939
▁worrie	-12.1948
▁stairs	-12.1951
fe	-12.1969
▁obtrusive	-12.1977
▁abs	-12.1987
ification	-12.1995
▁int	-12.1996
acking	-12.1998
oney	-12.1999
▁landscapes	-12.2014
▁Through	-12.2014
step	-12.2017
▁hu	-12.2022
lol	-12.2027
rich	-12.2027
▁Share	-12.2033
ricket	-12.2038
▁fixable	-12.2048
ev	-12.2056
▁performances	-12.2063
create	-12.2065
vidi	-12.2068
forward	-12.2071
▁compos	-12.2075
especially	-12.2078
iven	-12.208
▁Sudden	-12.2081
nline	-12.2084
though	-12.2085
▁debug	-12.2094
▁Talk	-12.2096
itter	-12.2109
▁complains	-12.2112
▁announce	-12.2115
▁Automatic	-12.2135
▁hid	-12.2137
▁header	-12.2141
▁scrap	-12.2164
glow	-12.2165
stream	-12.2168
ened	-12.2175
ixing	-12.2178
▁tooth	-12.2188
year	-12.2194
▁dear	-12.2212
▁wipe	-12.2215
SSA	-12.2221
lu	-12.2225
eit	-12.2259
aw	-12.2262
▁role	-12.2268
Thank	-12.2269
▁notices	-12.2285
med	-12.2285
ich	-12.2308
enter	-12.2311
system	-12.2312
▁recommends	-12.2318
▁State	-12.232
▁sa	-12.2331
shows	-12.2335
tter	-12.2345
eems	-12.2346
stating	-12.2348
iness	-12.2354
uns	-12.2354
ssistan	-12.2359
▁flags	-12.2365
▁organise	-12.2375
agging	-12.238
bot	-12.2392
mium	-12.2393
cking	-12.2402
reset	-12.2406
vi	-12.2413
oking	-12.2421
icated	-12.2423
bo	-12.2428
▁neut	-12.2432
adfinger	-12.2435
▁adventures	-12.2476
rains	-12.2486
tapping	-12.2491
Its	-12.2504
met	-12.2517
her	-12.2525
▁readd	-12.253
▁larg	-12.2538
▁creat	-12.2541
▁capitali	-12.255
ested	-12.2555
▁Special	-12.2564
▁tre	-12.2581
shed	-12.2605
designed	-12.2606
▁reput	-12.2609
sue	-12.2611
open	-12.2615
story	-12.2617
▁lit	-12.2622
half	-12.2623
ormal	-12.2625
▁favorited	-12.2627
dictiona	-12.2637
sp	-12.2659
oop	-12.2661
your	-12.2663
▁citi	-12.2665
▁kn	-12.2678
points	-12.2678
▁embed	-12.2685
▁invalid	-12.2688
however	-12.2689
act	-12.2699
ole	-12.2706
aaaa	-12.2721
onnect	-12.2724
▁rob	-12.2724
world	-12.2735
sion	-12.2746
▁Ac	-12.2753
onsider	-12.2757
▁debat	-12.2783
▁stumble	-12.2784
ems	-12.2784
factor	-12.2786
sad	-12.2789
ovely	-12.2803
▁expir	-12.2803
better	-12.2808
stic	-12.2814
ai	-12.2817
maybe	-12.2818
▁Sigh	-12.2819
▁cake	-12.2822
lessly	-12.2823
mov	-12.2827
▁Soo	-12.2829
type	-12.283
ga	-12.2848
▁lv	-12.2848
▁plagu	-12.2849
▁furnace	-12.286
▁distraction	-12.2862
shoot	-12.2863
▁collaborate	-12.2868
aske	-12.2872
▁arise	-12.2873
▁lemur	-12.2877
▁phrase	-12.2878
▁attribute	-12.2882
utton	-12.2884
uilding	-12.2895
▁reciev	-12.2897
lots	-12.29
▁tense	-12.2903
▁.....	-12.2905
▁slap	-12.2905
▁murder	-12.2914
▁your	-12.2915
▁smi	-12.2919
cool	-12.292
computer	-12.2921
▁minigame	-12.2923
▁Serious	-12.2923
▁strict	-12.2924
▁unselect	-12.2924
▁evolve	-12.293
▁discontinue	-12.2931
▁efficien	-12.2931
▁limitation	-12.2933
magine	-12.2937
xplore	-12.2937
ractice	-12.2937
ortrait	-12.2938
epetitive	-12.2939
ifferent	-12.2939
igital	-12.294
ashing	-12.294
ekki	-12.2941
onetheless	-12.2941
ubbish	-12.2941
orrendous	-12.2942
▁sporadic	-12.2943
ackground	-12.2943
olume	-12.2943
▁inch	-12.2943
riendly	-12.2943
serfriendly	-12.2944
eyond	-12.2944
▁saturat	-12.2944
andalorian	-12.2944
pikpok	-12.2944
▁Similar	-12.2944
▁behaviour	-12.2944
▁concentrate	-12.2944
▁devastated	-12.2944
▁exponentially	-12.2944
▁fascinating	-12.2944
▁iTunes	-12.2944
▁inexplicabl	-12.2944
▁insufferable	-12.2944
▁leisure	-12.2944
▁narrator	-12.2944
▁outweigh	-12.2944
▁predecessor	-12.2944
▁privilege	-12.2944
▁renovate	-12.2944
▁rudimentary	-12.2944
▁spectrum	-12.2944
▁unbeatable	-12.2944
astonished	-12.2944
▁Irritating	-12.2944
▁artifact	-12.2944
▁commerical	-12.2944
▁crucial	-12.2944
▁criminal	-12.2944
▁evidence	-12.2944
▁paytowin	-12.2944
▁families	-12.2944
▁flaky	-12.2944
▁epilep	-12.2944
▁fantasy	-12.2944
▁hustle	-12.2944
▁chaotic	-12.2944
arlson	-12.2944
▁fingertips	-12.2944
▁Immediately	-12.2944
▁depict	-12.2945
▁deterrent	-12.2945
▁unsafe	-12.2945
▁trustworthy	-12.2945
▁unprofessional	-12.2945
▁summari	-12.2945
▁neglect	-12.2945
▁banknote	-12.2945
▁gadget	-12.2945
▁happiness	-12.2945
▁eager	-12.2945
▁hilarious	-12.2945
▁lackluster	-12.2945
▁national	-12.2945
▁Supposed	-12.2945
▁subtle	-12.2945
▁chainsaw	-12.2945
▁unwind	-12.2945
▁dancing	-12.2945
▁August	-12.2945
▁barrel	-12.2945
▁censorship	-12.2945
▁rigid	-12.2945
▁propaganda	-12.2945
▁npc	-12.2945
▁royal	-12.2945
▁wedding	-12.2945
▁hahaha	-12.2945
▁imagination	-12.2946
▁awake	-12.2946
▁hungry	-12.2946
▁robotic	-12.2946
▁transmission	-12.2946
▁cousin	-12.2946
▁multimedia	-12.2946
▁denied	-12.2946
▁grafic	-12.2946
▁demoted	-12.2946
▁stylus	-12.2946
▁snack	-12.2947
▁digging	-12.2947
▁operator	-12.2947
▁overnight	-12.2947
▁standby	-12.2947
▁interference	-12.2947
▁overkill	-12.2947
▁restrictive	-12.2947
▁scummy	-12.2947
▁aggravation	-12.2947
nistalling	-12.2948
▁champ	-12.2948
▁Sports	-12.2948
▁lonely	-12.2948
▁technological	-12.2948
▁paytoplay	-12.2948
▁stepping	-12.2948
▁timeconsuming	-12.2948
▁beef	-12.2948
▁moderator	-12.2948
▁marvel	-12.2948
▁hindi	-12.2949
▁violation	-12.2949
▁childish	-12.2949
▁datacache	-12.2949
▁statues	-12.2949
▁motivational	-12.2949
▁gigab	-12.295
▁consent	-12.295
▁advertisment	-12.295
▁infact	-12.295
arshals	-12.295
▁mysterious	-12.295
▁calender	-12.295
▁bursts	-12.295
▁lifestyle	-12.295
▁elevator	-12.295
▁continuity	-12.295
▁centur	-12.295
▁sur	-12.2951
▁Arab	-12.2951
▁hideous	-12.2951
▁harass	-12.2951
▁slender	-12.2951
▁gcash	-12.2951
▁fuss	-12.2953
▁mbps	-12.2953
▁forcefully	-12.2953
eather	-12.2954
▁shopping	-12.2955
▁shaders	-12.2955
ledge	-12.2955
▁smartwatch	-12.2955
eird	-12.2956
▁sidebar	-12.2956
▁eyesgri	-12.2956
hop	-12.2957
▁popularity	-12.2957
▁reveal	-12.2957
▁substantially	-12.2958
urope	-12.2958
▁yield	-12.2958
▁strike	-12.2958
▁blurred	-12.2958
nconsistent	-12.2959
▁downthumbs	-12.296
▁height	-12.2961
▁gliches	-12.2961
▁fooled	-12.2961
▁chanel	-12.2962
▁heartrate	-12.2962
card	-12.2962
earn	-12.2962
▁egg	-12.2963
▁scammed	-12.2964
▁horse	-12.2964
▁vanishes	-12.2964
rack	-12.2965
agic	-12.2965
▁faithful	-12.2966
▁goddam	-12.2967
▁tiring	-12.2969
rashed	-12.2969
▁medal	-12.2969
▁Suggestion	-12.2969
▁busted	-12.2969
▁frustat	-12.2969
▁surroundings	-12.2969
▁daters	-12.297
▁Sincerely	-12.297
ayout	-12.297
▁isolate	-12.297
▁cheapest	-12.297
▁worsened	-12.2971
▁granted	-12.2971
perfect	-12.2971
▁newbies	-12.2972
▁ghost	-12.2973
▁crowded	-12.2973
▁disk	-12.2973
▁starter	-12.2974
▁photoshop	-12.2974
▁numeric	-12.2974
▁deadline	-12.2974
rigger	-12.2975
▁stalls	-12.2976
▁randomness	-12.2977
▁warned	-12.2977
▁beach	-12.2977
▁pricy	-12.2978
unning	-12.2979
▁troph	-12.2979
ondering	-12.2982
▁inviting	-12.2982
▁bosses	-12.2983
esume	-12.2984
▁hashtags	-12.2985
▁cutters	-12.2989
images	-12.2989
▁tire	-12.2991
▁blatant	-12.2994
▁unused	-12.2995
▁captured	-12.2996
▁innovation	-12.2996
▁urge	-12.2996
▁bog	-12.2997
▁concerts	-12.2997
▁glorif	-12.2999
ont	-12.3
▁dimensions	-12.3001
▁promoting	-12.3006
▁pauseplay	-12.3006
▁multitasking	-12.3006
▁persisted	-12.3008
cause	-12.301
▁outlet	-12.3013
thinking	-12.3015
▁guidebook	-12.3017
▁preferable	-12.3017
▁confuse	-12.302
vents	-12.3021
▁obtained	-12.3021
atsapp	-12.3023
▁stacked	-12.3026
ab	-12.3031
▁insights	-12.3031
▁outbox	-12.3032
ern	-12.3032
▁charming	-12.3032
▁wallride	-12.3034
▁generat	-12.3034
▁cartoons	-12.3035
break	-12.3037
▁mentions	-12.3039
▁sigh	-12.304
▁Tweets	-12.3048
▁outfits	-12.3051
▁plague	-12.3053
▁flickers	-12.3054
▁enhancement	-12.3055
oints	-12.3057
fixed	-12.3059
▁flood	-12.3059
▁admins	-12.3061
watching	-12.3062
av	-12.3063
hecking	-12.3063
▁Side	-12.3064
ural	-12.3065
▁idiots	-12.3066
▁science	-12.3073
▁Technical	-12.3079
cise	-12.3079
▁censors	-12.3081
▁upto	-12.3081
onus	-12.3081
▁generation	-12.3082
anted	-12.309
▁Setting	-12.309
missing	-12.3092
▁filler	-12.3095
▁Su	-12.3099
▁Americans	-12.3099
reative	-12.3103
wing	-12.3104
▁lobby	-12.3107
▁partners	-12.3107
▁creep	-12.3108
sparkles	-12.3111
nskippable	-12.3112
max	-12.3118
▁twin	-12.3119
eedless	-12.3119
oming	-12.312
version	-12.3121
atched	-12.3122
roughly	-12.3128
▁integr	-12.3132
▁excessively	-12.3133
orces	-12.3134
▁standings	-12.3134
▁chees	-12.3135
▁strangely	-12.3137
vent	-12.3139
▁informations	-12.3143
evaluate	-12.3144
rew	-12.3144
▁varies	-12.3145
▁scrubb	-12.3146
▁taping	-12.3149
ownloading	-12.3149
proves	-12.3154
▁chopp	-12.3158
hite	-12.3162
▁rang	-12.3164
▁dubb	-12.317
▁grabbing	-12.3172
iew	-12.3175
ointless	-12.3176
▁fetch	-12.3177
▁garbled	-12.318
▁copypaste	-12.3182
▁attacks	-12.3182
▁bullying	-12.3183
▁browsed	-12.3187
group	-12.3187
▁pairing	-12.3188
▁obsesse	-12.3189
attel	-12.3192
▁funds	-12.3192
ali	-12.3192
▁highlighted	-12.3194
▁engage	-12.3194
▁invitation	-12.3194
▁melt	-12.3202
account	-12.3202
ility	-12.3203
▁appropriately	-12.3205
▁advantages	-12.3208
portable	-12.3209
Still	-12.3211
▁rhy	-12.3214
once	-12.3215
▁censored	-12.3216
▁noticabl	-12.3217
▁ans	-12.3218
▁reactivate	-12.3221
▁yours	-12.3222
▁reproduce	-12.3233
▁disput	-12.3234
▁Skin	-12.324
hora	-12.3243
controls	-12.3248
▁emote	-12.325
lid	-12.3263
▁convinc	-12.3264
▁diminish	-12.3264
▁revives	-12.3265
rr	-12.3265
trying	-12.3266
▁lineup	-12.3268
▁gramm	-12.3273
▁dry	-12.3277
▁clickable	-12.328
tired	-12.3283
▁performing	-12.3284
▁spawning	-12.3284
▁stole	-12.3288
▁targeting	-12.3288
ics	-12.329
▁pun	-12.3291
▁repairing	-12.3293
▁settle	-12.3296
▁scal	-12.3305
▁editable	-12.3307
eeping	-12.3313
▁asset	-12.3318
nothing	-12.3319
▁cords	-12.3322
uip	-12.3325
▁cue	-12.3339
▁notifs	-12.3344
acks	-12.3347
ustrating	-12.3352
glasses	-12.3357
▁becua	-12.3358
▁Season	-12.336
send	-12.3367
App	-12.3367
▁spammer	-12.3379
▁burner	-12.338
▁gifting	-12.3381
▁blasts	-12.3381
▁Sav	-12.3387
▁sever	-12.3392
▁tops	-12.3393
iff	-12.3401
ocks	-12.3402
roller	-12.3404
▁Image	-12.3406
rrent	-12.3406
solved	-12.3408
ins	-12.3409
block	-12.3411
▁makeover	-12.3415
▁occuring	-12.3416
▁banners	-12.3422
uide	-12.3425
▁goodies	-12.3428
▁autosave	-12.3436
▁unmute	-12.344
shes	-12.3443
▁meter	-12.3444
▁meal	-12.3444
▁cent	-12.3447
▁ringing	-12.3453
▁greet	-12.3462
▁vine	-12.3468
need	-12.3469
▁vibrat	-12.347
specific	-12.3475
▁gripes	-12.3479
subscription	-12.3479
▁temp	-12.3479
series	-12.3486
▁employe	-12.3497
ision	-12.35
▁parse	-12.3501
artist	-12.3506
glitch	-12.3507
ues	-12.3516
years	-12.3517
drop	-12.3523
▁thoughts	-12.3531
elps	-12.3559
lc	-12.3569
▁roads	-12.3573
ssential	-12.3582
▁filing	-12.3582
ober	-12.3586
games	-12.3592
onal	-12.3599
con	-12.36
refore	-12.3604
ama	-12.3613
▁poster	-12.3623
▁sti	-12.3627
ased	-12.3639
placed	-12.3652
▁determined	-12.3656
rin	-12.3662
▁Includ	-12.3664
endors	-12.3668
script	-12.3668
▁consoles	-12.3678
▁fx	-12.368
uts	-12.3688
▁leap	-12.3711
▁scams	-12.3722
▁inca	-12.3724
▁STAT	-12.3725
▁Sho	-12.3726
days	-12.3727
uh	-12.3732
▁expands	-12.3734
▁swipes	-12.3736
next	-12.3738
▁blam	-12.374
tor	-12.374
friends	-12.3743
▁bottle	-12.3744
who	-12.3749
inel	-12.3753
▁participat	-12.3754
▁mus	-12.3757
town	-12.3761
▁essentials	-12.3761
curring	-12.3766
▁comple	-12.3775
haven	-12.3778
▁productive	-12.378
▁reviewer	-12.3791
many	-12.3794
▁reboots	-12.3797
▁grows	-12.38
oh	-12.3804
▁throttle	-12.3805
▁Schedule	-12.3806
▁textbook	-12.3813
▁blox	-12.3825
▁capab	-12.3826
gle	-12.3827
ude	-12.3828
acked	-12.383
▁ambien	-12.385
▁flushed	-12.3859
ph	-12.3867
pu	-12.3867
plit	-12.3869
nowing	-12.387
found	-12.3874
▁du	-12.3885
fy	-12.3886
dollar	-12.3889
oys	-12.3895
▁keyboards	-12.3897
his	-12.3897
rong	-12.3902
generated	-12.3902
static	-12.3909
▁trapp	-12.3915
▁....	-12.3916
▁mixer	-12.3922
developed	-12.3923
▁ra	-12.3924
den	-12.3945
▁notifi	-12.3947
mentioned	-12.3949
▁simplifie	-12.3952
levels	-12.3971
mil	-12.3973
mkv	-12.3978
▁autorotat	-12.3983
▁ww	-12.3986
much	-12.3988
▁innovati	-12.4006
ular	-12.4012
▁cal	-12.4013
obtrusive	-12.4015
urned	-12.4019
▁calculat	-12.4028
fi	-12.4029
ptions	-12.4029
eath	-12.4032
ards	-12.4035
struction	-12.4039
file	-12.404
stairs	-12.4049
▁wander	-12.4054
▁evening	-12.4058
indi	-12.4066
home	-12.4069
dictive	-12.4071
front	-12.4076
add	-12.4077
▁exports	-12.4085
▁exhaust	-12.4088
populate	-12.4088
So	-12.4094
reating	-12.4095
xp	-12.4106
frontf	-12.412
weight	-12.4129
▁surpasse	-12.413
▁yall	-12.4134
twitch	-12.4139
common	-12.4141
opportun	-12.4151
▁har	-12.4152
▁ecl	-12.4154
▁holder	-12.4159
ange	-12.4162
▁diet	-12.4165
▁allott	-12.4169
tify	-12.4177
▁kb	-12.4182
▁innovat	-12.4187
presenting	-12.4191
▁impos	-12.4209
▁tb	-12.4209
▁Ten	-12.422
asp	-12.4233
illion	-12.4239
eel	-12.424
▁changer	-12.4247
claim	-12.4248
late	-12.4256
▁rise	-12.4257
course	-12.4267
mber	-12.427
speaking	-12.4292
lights	-12.4293
maintaining	-12.4297
fro	-12.4306
tech	-12.4322
support	-12.4324
▁hav	-12.433
humbs	-12.4332
▁prop	-12.4336
▁impli	-12.4341
▁doubletap	-12.4347
▁frustrat	-12.4354
dd	-12.4359
around	-12.436
intend	-12.436
▁deduct	-12.4368
▁Spend	-12.4377
ram	-12.4381
▁progresses	-12.4408
skin	-12.4416
logging	-12.4427
▁porta	-12.4432
stal	-12.4435
always	-12.4453
▁outs	-12.4458
▁wire	-12.4465
▁mor	-12.4472
▁resync	-12.4475
▁recreat	-12.4485
allen	-12.4491
▁featur	-12.4499
▁rear	-12.45
▁seemless	-12.4509
ample	-12.4509
eve	-12.4513
owngrade	-12.4516
login	-12.4525
saved	-12.4529
take	-12.4538
▁bin	-12.454
log	-12.4571
osting	-12.458
hromecasting	-12.4585
▁allot	-12.4597
pposed	-12.461
▁fe	-12.4622
▁conse	-12.4637
▁Somethi	-12.4643
want	-12.4653
▁wan	-12.4655
▁sci	-12.4655
▁endure	-12.4657
little	-12.4658
▁mentioning	-12.4661
change	-12.4671
rust	-12.468
▁shall	-12.4692
▁snip	-12.4703
nause	-12.4709
▁pushe	-12.4717
▁escalat	-12.4719
des	-12.4727
select	-12.4728
▁truthful	-12.4759
▁Increase	-12.4764
...........	-12.4786
wn	-12.4789
▁Selecti	-12.4793
experience	-12.4796
place	-12.4799
▁mouthf	-12.4812
abit	-12.4815
power	-12.4829
lows	-12.4856
▁Install	-12.4856
etry	-12.4871
far	-12.4881
▁pac	-12.4888
ectic	-12.489
▁mov	-12.4892
▁forwarded	-12.4897
friendly	-12.4917
pointing	-12.4925
ute	-12.4926
▁activ	-12.4938
mies	-12.4942
itive	-12.4943
▁sl	-12.4947
bt	-12.495
win	-12.4951
ght	-12.4951
▁doubl	-12.4953
atches	-12.4962
scored	-12.4984
▁smoke	-12.4987
wear	-12.4997
atical	-12.4998
▁scr	-12.4999
things	-12.4999
alled	-12.5006
ush	-12.5007
▁fixture	-12.5008
ys	-12.5011
ctic	-12.502
▁Ab	-12.5023
▁nail	-12.5025
lent	-12.5027
ton	-12.5027
▁exclud	-12.5029
call	-12.503
ream	-12.5034
▁ske	-12.5036
ordinary	-12.5041
▁defin	-12.5049
first	-12.5056
▁rescan	-12.5056
▁switche	-12.5063
▁pleas	-12.5065
mmm	-12.5078
respective	-12.5079
orm	-12.5085
niverse	-12.5089
press	-12.5095
lo	-12.5108
▁gre	-12.5108
▁tri	-12.5113
▁merg	-12.5132
▁Sub	-12.5133
ghin	-12.5134
dom	-12.5135
coins	-12.515
pointed	-12.5153
pop	-12.516
selected	-12.5161
▁Thumb	-12.5162
done	-12.5163
▁robu	-12.5173
commercials	-12.519
▁troubles	-12.5193
astic	-12.5196
▁keeper	-12.5197
▁sol	-12.5201
▁customise	-12.5204
tick	-12.5212
▁pale	-12.5225
▁pars	-12.5227
sive	-12.5229
mobile	-12.5231
▁dive	-12.5233
same	-12.5236
scroll	-12.5251
▁lived	-12.5252
▁timers	-12.5255
added	-12.5262
was	-12.5266
notification	-12.5271
▁tra	-12.5275
rash	-12.5277
ctivity	-12.5281
▁acces	-12.5282
nts	-12.5293
raft	-12.5294
arning	-12.5298
▁Thankful	-12.5298
onnection	-12.53
▁lak	-12.5309
icing	-12.5311
ended	-12.5312
esponse	-12.5316
hance	-12.5324
ormat	-12.5324
▁des	-12.5326
▁mask	-12.5335
▁digit	-12.5336
ians	-12.5336
ographic	-12.5337
ung	-12.5338
ocument	-12.5343
riving	-12.5343
haracter	-12.5346
▁tea	-12.535
unction	-12.5356
▁exhibit	-12.536
▁bookstore	-12.5366
▁bridge	-12.5368
▁unistall	-12.5368
kill	-12.5369
▁renovation	-12.5371
▁keyword	-12.5371
▁dimension	-12.5373
▁prev	-12.5375
▁calibrat	-12.5376
▁subfolder	-12.5377
▁concert	-12.5377
▁collaborat	-12.5377
▁monster	-12.5378
▁recipe	-12.5378
ancel	-12.5379
roup	-12.5383
▁chunk	-12.5385
▁surround	-12.5387
ntertaining	-12.5387
▁cube	-12.5388
▁stunt	-12.5389
▁checkpoint	-12.539
▁declin	-12.539
cha	-12.5391
nails	-12.5391
har	-12.5392
▁scammer	-12.5394
▁powerup	-12.5396
ollow	-12.5398
pher	-12.5403
chapter	-12.5404
ocus	-12.5405
▁Terribl	-12.5409
▁clickbait	-12.5411
ontinuous	-12.5414
▁woul	-12.5414
ortunately	-12.5419
igure	-12.5425
worked	-12.5428
asier	-12.5428
▁config	-12.543
pgrade	-12.5435
rogress	-12.5436
▁elevat	-12.5437
▁starstarstar	-12.5437
kind	-12.5438
yrics	-12.5438
ppreciate	-12.5438
urchased	-12.5438
▁oct	-12.5438
ousician	-12.5438
rivacy	-12.5439
erformance	-12.5439
andscape	-12.544
bnoxious	-12.544
rank	-12.5441
inimal	-12.5441
aximum	-12.5441
egative	-12.5441
eek	-12.5441
efund	-12.5441
orgeous	-12.5441
▁definite	-12.5442
veryday	-12.5442
edium	-12.5442
oncept	-12.5442
last	-12.5442
rammer	-12.5442
onfusing	-12.5443
oodbye	-12.5443
ootball	-12.5443
▁dramatic	-12.5444
▁disorient	-12.5444
angladesh	-12.5444
oodlecake	-12.5444
▁astonishing	-12.5444
▁blockbuster	-12.5444
▁captcha	-12.5444
▁concentration	-12.5444
▁convoluted	-12.5444
▁economy	-12.5444
▁embarrassed	-12.5444
▁exhaling	-12.5444
▁mindblowing	-12.5444
▁misaligned	-12.5444
▁oblivious	-12.5444
▁overcrowded	-12.5444
▁punctuation	-12.5444
▁regenerate	-12.5444
▁replenish	-12.5444
▁restaurant	-12.5444
▁retention	-12.5444
▁ribbon	-12.5444
▁sheriff	-12.5444
▁splendid	-12.5444
▁superfluous	-12.5444
▁understatement	-12.5444
▁undoubtedly	-12.5444
▁versatility	-12.5444
▁Tutorial	-12.5444
▁america	-12.5444
▁cowboy	-12.5444
▁spectacular	-12.5444
▁glimps	-12.5444
▁studies	-12.5444
▁underwater	-12.5444
▁galore	-12.5444
▁occurrence	-12.5444
▁religious	-12.5444
▁disregard	-12.5444
▁nuances	-12.5444
▁underhanded	-12.5444
▁onthego	-12.5444
▁contols	-12.5444
▁progess	-12.5445
▁fierce	-12.5445
xygen	-12.5445
▁exaggeration	-12.5445
▁crawl	-12.5445
▁expansive	-12.5445
▁daimond	-12.5445
▁coincidence	-12.5445
▁broadband	-12.5445
▁receipt	-12.5445
▁entrance	-12.5445
▁spilt	-12.5445
▁grainy	-12.5445
▁rogue	-12.5445
▁remedy	-12.5445
▁stagger	-12.5445
▁outrageous	-12.5445
iewers	-12.5445
▁telephone	-12.5445
▁Surface	-12.5445
▁thirty	-12.5445
▁rupees	-12.5445
aptop	-12.5445
▁dreadful	-12.5445
▁defective	-12.5445
page	-12.5445
▁nevertheless	-12.5445
almart	-12.5445
▁unusual	-12.5445
▁kitchen	-12.5445
▁disruptions	-12.5445
▁dropouts	-12.5445
▁techni	-12.5445
▁fingerprint	-12.5445
▁redstone	-12.5445
▁mindfulness	-12.5445
▁correspond	-12.5445
▁upnp	-12.5445
▁plural	-12.5445
▁titan	-12.5445
▁deceiving	-12.5445
▁elementary	-12.5445
▁bogus	-12.5446
▁migration	-12.5446
runchy	-12.5446
▁intolerable	-12.5446
▁vicious	-12.5446
▁thumbstick	-12.5446
▁midnight	-12.5446
▁baseline	-12.5446
▁discern	-12.5446
obux	-12.5446
▁malicious	-12.5446
▁stellar	-12.5446
▁relief	-12.5446
▁barrier	-12.5447
▁minimap	-12.5447
▁glued	-12.5447
▁deaf	-12.5447
▁intrigued	-12.5447
▁System	-12.5447
▁Alexa	-12.5447
▁offputting	-12.5447
▁expiration	-12.5447
▁specify	-12.5447
▁tycoon	-12.5447
▁Signal	-12.5447
▁Sha	-12.5448
▁withdrawal	-12.5448
eyboard	-12.5448
▁bootleg	-12.5449
appened	-12.5449
proxim	-12.5449
▁unforgiving	-12.5449
▁italic	-12.5449
inished	-12.5449
▁transparency	-12.5449
uery	-12.5449
▁Admin	-12.5449
▁overrated	-12.5449
▁autofill	-12.545
▁uncontrollably	-12.545
▁donation	-12.545
nnecessary	-12.545
▁succession	-12.545
▁obligated	-12.545
▁indep	-12.545
▁unreal	-12.545
▁motor	-12.5451
▁underwhelming	-12.5451
ossible	-12.5451
▁adopt	-12.5451
▁violent	-12.5451
▁tonethumbs	-12.5452
▁sliver	-12.5452
▁turtle	-12.5452
▁Animation	-12.5452
▁throttling	-12.5452
proved	-12.5452
▁fiber	-12.5453
▁cramped	-12.5453
see	-12.5453
▁notebook	-12.5453
▁Snapseed	-12.5453
▁definition	-12.5453
▁relation	-12.5453
▁reshuffle	-12.5453
▁canyon	-12.5454
▁cooperate	-12.5454
▁retarded	-12.5454
nknown	-12.5454
▁Scam	-12.5454
▁Scheduling	-12.5454
▁engagement	-12.5454
▁musician	-12.5454
▁whack	-12.5454
▁observation	-12.5455
▁adsupported	-12.5455
▁loophole	-12.5455
▁imitat	-12.5455
▁insulting	-12.5456
▁lectures	-12.5456
▁flex	-12.5456
▁decreasing	-12.5456
▁participants	-12.5456
▁central	-12.5457
▁shine	-12.5458
▁Surprising	-12.5458
▁Sky	-12.5459
▁organisation	-12.5459
▁haha	-12.546
▁handthumbs	-12.546
▁innocen	-12.546
ranted	-12.546
▁gamemodes	-12.546
▁serial	-12.5461
▁heaven	-12.5461
arshalls	-12.5461
acity	-12.5461
dressed	-12.5461
trolls	-12.5462
▁robbed	-12.5462
▁alphabeti	-12.5463
bl	-12.5464
▁grammer	-12.5464
track	-12.5464
▁irritation	-12.5465
▁subbed	-12.5466
stances	-12.5466
▁measurement	-12.5467
casting	-12.5467
▁adverti	-12.5468
ongtime	-12.5468
issed	-12.5468
ollowed	-12.5468
▁incremental	-12.5469
▁cardio	-12.5469
▁interpretation	-12.5469
▁panorama	-12.5469
▁gigabyte	-12.5469
▁homescapes	-12.5469
▁emergenc	-12.547
▁contemplat	-12.5471
▁loooo	-12.5471
▁googling	-12.5472
everything	-12.5472
▁belong	-12.5472
▁soundbar	-12.5473
▁infinity	-12.5473
oops	-12.5473
▁variable	-12.5475
matic	-12.5475
ploaded	-12.5475
▁covid	-12.5475
ugations	-12.5475
▁complications	-12.5475
ressing	-12.5476
▁winnable	-12.5476
uestionable	-12.5476
▁explosives	-12.5477
▁emphasis	-12.5477
▁limitless	-12.5478
▁statements	-12.5478
upload	-12.5478
▁remake	-12.5479
▁mailboxes	-12.5479
▁classical	-12.548
▁phonetablet	-12.5481
▁cultures	-12.5483
▁factual	-12.5483
▁govern	-12.5484
▁restoration	-12.5484
▁transport	-12.5485
evices	-12.5485
eekly	-12.5486
▁incorporated	-12.5486
▁obsolete	-12.5487
▁refusal	-12.5487
▁tabletop	-12.5487
▁bon	-12.5489
achel	-12.549
▁urgently	-12.5491
▁acknowledged	-12.5491
ropping	-12.5491
▁fading	-12.5493
▁afore	-12.5494
▁crate	-12.5494
▁attain	-12.5494
▁coupons	-12.5494
▁vain	-12.5495
▁unplug	-12.5496
▁fades	-12.5497
▁slowness	-12.5497
▁gimmicks	-12.5498
▁curs	-12.5498
▁therap	-12.5499
▁funnie	-12.5499
anceling	-12.5501
dvertisement	-12.5504
▁aligned	-12.5504
▁cargo	-12.5504
▁dismissed	-12.5504
▁biome	-12.5506
▁passport	-12.5507
▁costumer	-12.5507
▁desynced	-12.5508
▁magnif	-12.5509
▁fluently	-12.551
▁crime	-12.551
anguish	-12.5511
▁verson	-12.5511
einstall	-12.5513
▁perk	-12.5513
ough	-12.5513
▁eyesight	-12.5514
▁grips	-12.5514
▁chaper	-12.5514
▁shocking	-12.5515
▁gamble	-12.5516
▁poses	-12.5516
▁planted	-12.5517
▁renovations	-12.5518
▁admi	-12.5519
▁grouping	-12.5519
fac	-12.5519
▁keywords	-12.5519
▁optimal	-12.552
▁dodging	-12.5521
▁offscreen	-12.5521
▁tidy	-12.5524
▁consumed	-12.5525
▁parrot	-12.5526
▁eggs	-12.5532
▁Seamless	-12.5534
▁tenses	-12.5534
heap	-12.5535
▁wound	-12.5537
▁chains	-12.554
ersonal	-12.5541
▁booted	-12.5542
▁forwardrewind	-12.5543
emoved	-12.5544
▁represented	-12.5545
▁permit	-12.5549
▁snake	-12.5549
uietly	-12.5552
▁streets	-12.5552
All	-12.5553
▁diary	-12.5553
▁meals	-12.5554
▁publishing	-12.5554
htm	-12.5554
▁frust	-12.5555
▁cringe	-12.5556
easy	-12.5556
editing	-12.5558
stakes	-12.5559
utside	-12.5559
▁checkmarks	-12.5561
▁masks	-12.5561
▁proofread	-12.5566
▁annotation	-12.5567
▁ru	-12.5567
▁Tower	-12.557
▁reversed	-12.557
ummer	-12.557
▁sadden	-12.5571
▁blocker	-12.5571
ennyworth	-12.5572
▁chal	-12.5575
▁scree	-12.5575
▁snoo	-12.5575
eeling	-12.5577
▁kin	-12.5581
avi	-12.5581
arol	-12.5582
ped	-12.5584
▁voicenotes	-12.5584
▁scanner	-12.5586
unny	-12.5587
▁outcomes	-12.5588
▁Tues	-12.5592
▁carrie	-12.5593
▁spell	-12.5595
palm	-12.5595
ewer	-12.5596
washed	-12.56
▁restricts	-12.5602
▁stabili	-12.5603
atcher	-12.5605
..............	-12.5607
irtual	-12.5609
eg	-12.5615
▁ill	-12.5615
▁lean	-12.5622
▁Subscriptions	-12.5623
arity	-12.5626
hit	-12.5628
▁xx	-12.563
topped	-12.5636
▁whatapp	-12.5645
stories	-12.5648
xpress	-12.5649
gg	-12.565
rift	-12.5651
▁clover	-12.5651
olls	-12.5655
▁him	-12.5656
▁inconsistently	-12.5658
sibility	-12.5659
▁inclusi	-12.566
▁robb	-12.566
▁ag	-12.5661
▁yell	-12.5665
ctively	-12.5666
▁traveled	-12.5672
▁converting	-12.5674
▁weekends	-12.5676
▁pane	-12.5677
hate	-12.5678
validate	-12.5679
▁captures	-12.5681
▁plugin	-12.5685
ogging	-12.5686
users	-12.5686
auses	-12.5688
▁redesigned	-12.5689
▁trun	-12.5689
nish	-12.569
week	-12.569
▁sup	-12.5691
ferent	-12.5691
▁supporters	-12.5691
▁lens	-12.5694
▁tagged	-12.5694
lost	-12.5699
▁bell	-12.5699
▁casually	-12.5704
▁modifying	-12.5704
▁multiply	-12.5706
▁throats	-12.5707
▁handled	-12.5708
▁skew	-12.5709
▁thrilling	-12.5709
▁frontend	-12.571
▁continent	-12.5715
ictures	-12.5719
▁externally	-12.572
▁reappearing	-12.5728
night	-12.573
▁relationships	-12.573
▁winners	-12.5731
android	-12.5739
▁Town	-12.5741
aged	-12.5742
big	-12.5743
pens	-12.5745
▁sens	-12.5746
▁pencil	-12.5748
ecting	-12.5748
pls	-12.5749
▁dishonest	-12.575
▁interm	-12.5751
▁approve	-12.5752
▁soundtracks	-12.5753
minded	-12.5762
▁authentic	-12.5763
ocate	-12.5765
▁dedicat	-12.5766
▁Attempt	-12.5766
▁boast	-12.5772
▁downward	-12.5773
▁lat	-12.5774
▁Than	-12.5778
▁Americas	-12.5784
▁pie	-12.5785
▁clothing	-12.5785
▁lvls	-12.5791
▁ple	-12.5795
▁onestar	-12.5799
aha	-12.5807
oint	-12.5808
▁va	-12.581
urns	-12.5817
▁pity	-12.5825
▁dec	-12.5831
asted	-12.5834
sup	-12.5837
rish	-12.5838
arlie	-12.584
▁unintentional	-12.5849
▁papers	-12.5854
▁mon	-12.5855
▁offerings	-12.5856
▁minut	-12.5857
▁dreams	-12.5857
▁dia	-12.586
enus	-12.5861
▁ATT	-12.5861
three	-12.5866
compromised	-12.5875
▁backround	-12.5877
▁retweet	-12.5879
ushing	-12.588
▁combinations	-12.5881
▁fam	-12.5882
come	-12.5886
▁caps	-12.5891
before	-12.5897
uc	-12.59
▁pockets	-12.5901
▁redecorate	-12.5904
▁era	-12.5905
minent	-12.5905
▁refer	-12.591
▁unen	-12.5913
hristi	-12.5915
views	-12.5924
▁coops	-12.5926
▁flower	-12.5928
uates	-12.5934
▁coff	-12.5936
voice	-12.5937
self	-12.594
cific	-12.5941
▁shear	-12.5943
▁courte	-12.5946
▁issu	-12.5947
▁ni	-12.5947
▁politic	-12.5949
▁crank	-12.595
icking	-12.595
▁exploit	-12.5956
▁reupload	-12.5959
▁panic	-12.596
rand	-12.5961
▁wink	-12.5967
hap	-12.5969
inal	-12.5973
opics	-12.5974
checked	-12.5976
uat	-12.5977
boots	-12.5984
rint	-12.5991
▁lif	-12.6
lit	-12.6004
▁pet	-12.6007
▁ratios	-12.601
ditor	-12.6011
▁facewe	-12.6011
▁stimulat	-12.6018
iss	-12.6019
▁than	-12.6021
anon	-12.603
buy	-12.6039
image	-12.604
▁bounds	-12.6043
eart	-12.6051
cloud	-12.6053
▁amend	-12.6054
rushing	-12.6059
▁boosting	-12.6059
▁hello	-12.6059
force	-12.6061
▁practic	-12.6067
▁snail	-12.6067
ooo	-12.6067
rave	-12.6068
▁pool	-12.6069
▁fore	-12.6075
▁wen	-12.6079
sible	-12.6086
locked	-12.609
arry	-12.6114
▁evolving	-12.6121
▁scamm	-12.6126
evert	-12.6132
nest	-12.6132
▁appservice	-12.6138
▁scapes	-12.6146
tarted	-12.6151
lix	-12.6153
ysteri	-12.6166
▁ect	-12.6168
▁crypt	-12.6178
▁aggravate	-12.6183
▁del	-12.6189
touch	-12.6189
▁saturation	-12.6199
▁frick	-12.62
▁fath	-12.6204
aired	-12.6204
▁clarif	-12.6206
ef	-12.6209
▁snipe	-12.6212
lined	-12.6212
▁deci	-12.6217
ively	-12.6222
▁belief	-12.6224
▁lett	-12.6227
resume	-12.6228
▁ripp	-12.623
▁accepts	-12.6235
▁sampl	-12.6235
ripping	-12.6237
ounding	-12.6238
▁cared	-12.624
Adobe	-12.6244
▁reconnects	-12.625
browser	-12.6258
▁kit	-12.6262
ara	-12.6271
urs	-12.6276
sy	-12.6284
inus	-12.6285
▁reinforc	-12.6286
kers	-12.6287
▁textbox	-12.63
lle	-12.6302
▁identi	-12.6311
ran	-12.6311
five	-12.6314
▁shock	-12.6317
eaving	-12.632
▁developments	-12.6325
bits	-12.6325
option	-12.6326
nintuitive	-12.6331
▁schooler	-12.6337
bre	-12.6338
has	-12.634
ambo	-12.6349
lled	-12.6352
▁thou	-12.6353
▁Tok	-12.6358
▁dress	-12.6361
▁shout	-12.6363
gram	-12.6365
▁dub	-12.6365
▁addressing	-12.6366
▁forest	-12.6371
▁violate	-12.6371
▁Swip	-12.6375
panish	-12.6381
rn	-12.6381
▁investigate	-12.6388
▁presses	-12.6395
Tubi	-12.6404
▁rap	-12.6417
▁widgets	-12.6427
▁veiw	-12.6429
▁curse	-12.6429
rated	-12.6436
▁pushy	-12.6452
makers	-12.6455
ouTuber	-12.6458
nytime	-12.6466
delete	-12.6466
▁aud	-12.6477
similar	-12.6478
recognised	-12.6497
ents	-12.6504
ATS	-12.6508
▁positives	-12.6511
▁gl	-12.6533
web	-12.6535
▁ser	-12.6541
ti	-12.6543
▁wonders	-12.6544
mel	-12.6563
ury	-12.657
eads	-12.6572
umb	-12.6585
ube	-12.6591
whatsapp	-12.6591
includ	-12.6594
utomatically	-12.6613
rl	-12.6616
▁hap	-12.6617
lux	-12.6617
........	-12.6617
arly	-12.662
social	-12.6622
▁speaks	-12.6626
▁sheets	-12.6627
▁Spe	-12.6628
▁beco	-12.6635
hall	-12.6636
uild	-12.6639
▁pour	-12.6643
idle	-12.6645
▁suite	-12.6659
pin	-12.6659
ips	-12.666
▁bounc	-12.6663
▁recast	-12.6664
▁cha	-12.6668
too	-12.6668
▁discourage	-12.6671
updates	-12.6678
something	-12.6691
▁devi	-12.6694
▁Troubleshoot	-12.6698
▁spo	-12.6699
forms	-12.6704
▁enlarg	-12.6719
▁hint	-12.6721
▁preserv	-12.6726
eon	-12.673
blank	-12.674
▁collaps	-12.6748
▁tactic	-12.6752
life	-12.6767
▁rotates	-12.6771
▁messe	-12.6773
pod	-12.6795
leas	-12.6798
dits	-12.6801
known	-12.6818
hang	-12.6823
rain	-12.6828
.............	-12.6834
wav	-12.6834
▁Streamer	-12.6842
▁Subscribe	-12.6845
tive	-12.6849
▁appli	-12.6857
dmi	-12.6857
▁drawer	-12.6884
▁mk	-12.6888
▁invert	-12.6891
lse	-12.6899
race	-12.6902
groups	-12.6908
▁selects	-12.6911
▁agrees	-12.6917
▁serving	-12.6922
radio	-12.6923
arily	-12.6938
iversity	-12.6947
ud	-12.6947
ines	-12.6948
score	-12.695
iment	-12.6966
functional	-12.697
charge	-12.6975
order	-12.6981
ingreinstalling	-12.6986
illed	-12.699
▁crackl	-12.6995
horoughly	-12.6996
lying	-12.6998
float	-12.6998
mance	-12.7012
positioning	-12.7021
▁refreshe	-12.7028
ype	-12.7032
▁dock	-12.7033
ours	-12.7038
rough	-12.7041
hef	-12.7042
source	-12.7047
ana	-12.7047
ustif	-12.7066
▁reasonabl	-12.7067
▁bur	-12.7072
ami	-12.7073
arth	-12.7078
lace	-12.7083
ection	-12.7084
ort	-12.7085
Then	-12.7085
▁silenc	-12.7103
ric	-12.7108
▁backspac	-12.7108
▁enforce	-12.7115
▁incentiv	-12.7116
written	-12.7122
scape	-12.7127
▁patr	-12.7129
▁labell	-12.7142
▁definetl	-12.7146
▁fakes	-12.7156
versa	-12.7157
instead	-12.7174
▁simulat	-12.7174
motion	-12.7174
istant	-12.7176
icket	-12.7181
▁blo	-12.7183
ses	-12.7184
effective	-12.7191
▁duplicat	-12.7205
supported	-12.7217
▁goof	-12.7224
▁fires	-12.7238
ger	-12.7248
important	-12.7251
close	-12.7252
ised	-12.7256
▁applau	-12.7258
▁how	-12.7264
▁pointer	-12.7275
▁snaps	-12.7278
Store	-12.7284
▁rub	-12.7285
▁reedit	-12.7286
proof	-12.7286
etti	-12.7289
sometime	-12.729
porting	-12.7307
▁shee	-12.7307
oc	-12.7307
ates	-12.7309
ili	-12.7323
song	-12.7327
issues	-12.7331
flushed	-12.7332
familiar	-12.7333
subscriptions	-12.7344
rising	-12.7353
▁fluctuat	-12.7367
▁renam	-12.7373
wish	-12.7376
▁preload	-12.7385
ilities	-12.7395
ured	-12.741
▁androids	-12.7416
▁roam	-12.7418
bit	-12.7422
longer	-12.7425
wood	-12.7438
adly	-12.7442
growing	-12.7449
dies	-12.7455
▁procedur	-12.746
cover	-12.7466
been	-12.7467
▁bing	-12.7467
▁contribute	-12.7474
▁pat	-12.748
ubbed	-12.7486
▁halt	-12.7486
▁cus	-12.7491
productive	-12.7491
▁Afterward	-12.7492
alt	-12.7493
▁sug	-12.7504
hip	-12.7507
▁deem	-12.7508
she	-12.7513
had	-12.7521
cock	-12.753
purp	-12.7536
ky	-12.7537
storm	-12.7538
▁ke	-12.7556
▁Import	-12.7557
unt	-12.7581
almost	-12.7583
tes	-12.7585
draws	-12.7591
advert	-12.7595
syncing	-12.7596
▁career	-12.7607
tarstarstarstar	-12.7619
ham	-12.7623
▁advances	-12.7624
production	-12.7637
input	-12.7644
lig	-12.7645
licking	-12.7647
ross	-12.7657
▁stead	-12.7658
▁resent	-12.7662
craft	-12.7678
▁shov	-12.7681
graphics	-12.7692
mapping	-12.7695
▁skull	-12.7708
▁veri	-12.772
▁tim	-12.7725
ella	-12.7733
mark	-12.7733
nock	-12.7734
▁fork	-12.7737
▁dur	-12.7744
▁prove	-12.7747
▁oldie	-12.7764
scanning	-12.7776
ching	-12.7784
sight	-12.7786
cto	-12.7789
▁ir	-12.7796
crashes	-12.7797
paid	-12.7797
▁bra	-12.7802
responsiveness	-12.7805
▁bla	-12.7812
▁ki	-12.7824
▁tendenc	-12.7826
▁grin	-12.7855
▁obstruct	-12.7855
creating	-12.7858
mulator	-12.7872
rook	-12.789
put	-12.7895
▁humbl	-12.7895
ament	-12.7895
▁tin	-12.7913
sm	-12.7913
photos	-12.792
▁Struggle	-12.7931
▁trans	-12.7933
apps	-12.7936
talk	-12.7952
born	-12.7956
hil	-12.7977
▁retract	-12.7978
Spotify	-12.7982
▁infr	-12.7985
icks	-12.7988
lve	-12.799
eck	-12.7994
▁relie	-12.7998
anvas	-12.8
forced	-12.8001
▁disp	-12.8013
bug	-12.8016
shape	-12.8021
reward	-12.8025
aring	-12.8026
▁musicvideo	-12.8039
▁conn	-12.8049
isit	-12.8054
▁vibra	-12.8055
erson	-12.8056
▁stretche	-12.8061
centered	-12.8072
nded	-12.8076
stalled	-12.8078
▁wishes	-12.8087
bby	-12.8092
alter	-12.8095
beam	-12.8109
crap	-12.811
▁dimond	-12.8118
dly	-12.8134
▁becu	-12.8142
ss	-12.8146
udu	-12.8163
▁territor	-12.8163
oid	-12.8166
▁Ideal	-12.8184
▁ensur	-12.8187
ission	-12.8198
hrist	-12.8211
tly	-12.8213
ravi	-12.8215
mming	-12.8216
ourse	-12.8216
▁rights	-12.8217
▁balls	-12.8221
▁gri	-12.8227
▁disa	-12.8228
olid	-12.8235
ometer	-12.8238
bc	-12.8248
att	-12.8258
gl	-12.8264
▁y	-12.8264
seems	-12.8276
▁grip	-12.8283
east	-12.8286
problem	-12.8289
settings	-12.8292
works	-12.8304
▁blacks	-12.8305
ak	-12.8316
▁reinstalls	-12.8323
nedrive	-12.8325
issue	-12.834
fields	-12.8352
ouple	-12.836
▁yhe	-12.8361
neut	-12.8363
building	-12.8365
ants	-12.8369
green	-12.8371
▁ingredient	-12.8377
draw	-12.8381
▁sym	-12.8393
anks	-12.8395
▁cram	-12.8395
askbar	-12.8396
▁updat	-12.8397
▁gro	-12.8412
min	-12.8425
service	-12.843
▁sus	-12.8433
airing	-12.8437
outh	-12.8443
pening	-12.8445
otes	-12.8445
test	-12.845
suming	-12.845
getting	-12.845
soccer	-12.8451
smi	-12.8453
rashing	-12.8456
verage	-12.8458
▁buys	-12.8463
asses	-12.8473
heel	-12.8478
▁fitbits	-12.8481
▁ass	-12.8482
▁mock	-12.8485
tures	-12.8486
mara	-12.8497
nstalling	-12.8519
ward	-12.8539
rent	-12.8565
olo	-12.8571
xperiment	-12.8581
espawn	-12.8586
▁cycl	-12.8588
▁promot	-12.8591
uota	-12.8597
boy	-12.8628
aging	-12.8637
▁slam	-12.8642
ask	-12.8642
▁puls	-12.8643
seful	-12.8651
movies	-12.8652
rogram	-12.8661
▁lineups	-12.8663
xpect	-12.8665
▁Age	-12.8667
ositive	-12.8668
grade	-12.8669
▁explode	-12.8669
▁dud	-12.8677
▁occup	-12.868
cient	-12.8683
strating	-12.8685
▁distort	-12.8685
eapon	-12.8692
▁impossibl	-12.8692
xpand	-12.8694
▁sooooooo	-12.8695
▁avenue	-12.8696
▁compensate	-12.8697
▁senses	-12.8697
fall	-12.8698
▁spr	-12.87
▁captur	-12.8701
▁omg	-12.8701
blem	-12.8702
odcast	-12.8702
▁gimmick	-12.8704
aced	-12.8705
▁hashtag	-12.8706
enya	-12.8707
row	-12.8707
▁extension	-12.8708
▁coworker	-12.8709
▁hiccup	-12.8709
▁russia	-12.8709
▁condition	-12.8712
▁nude	-12.8713
▁coupon	-12.8713
unctional	-12.8715
▁succes	-12.8715
recent	-12.8715
lan	-12.8716
▁dislik	-12.8716
▁decoration	-12.8717
etflixs	-12.8719
nger	-12.8719
sharing	-12.8723
▁temple	-12.8723
▁emotion	-12.8728
evised	-12.8729
hin	-12.8733
heats	-12.8734
Touch	-12.8735
ina	-12.8737
▁hacker	-12.8738
▁polic	-12.8742
▁contest	-12.8743
▁highe	-12.8746
▁warrant	-12.8748
▁calori	-12.8748
ared	-12.875
▁spoiler	-12.875
learn	-12.875
▁weigh	-12.8751
peria	-12.8752
▁incessant	-12.8752
▁possess	-12.8753
▁financial	-12.8754
▁substantial	-12.8755
ragon	-12.8756
▁polish	-12.8757
▁misspell	-12.8758
commend	-12.876
▁reimburse	-12.8761
▁batter	-12.8761
crobat	-12.8761
ritical	-12.8765
▁revise	-12.8766
▁dirt	-12.8767
ompany	-12.8768
xperiencing	-12.877
xactly	-12.877
▁complicate	-12.877
ovement	-12.877
xclusive	-12.877
chievements	-12.877
ccording	-12.8771
henomenal	-12.8772
hildren	-12.8772
ongrat	-12.8772
omputer	-12.8772
▁xxxx	-12.8772
oggle	-12.8773
isgusting	-12.8773
hysics	-12.8773
irefox	-12.8773
ountry	-12.8774
reevee	-12.8774
hasms	-12.8774
pponent	-12.8774
icrophone	-12.8774
lawless	-12.8774
owadays	-12.8775
laystore	-12.8775
slaught	-12.8776
owerful	-12.8776
oxnews	-12.8776
imond	-12.8776
imited	-12.8776
atalog	-12.8777
▁criti	-12.8777
uarant	-12.8777
ullscreen	-12.8777
nparalleled	-12.8778
ournalism	-12.8778
oyTunes	-12.8778
unkphishing	-12.8778
urnett	-12.8778
▁Supreme	-12.8778
▁Terrarium	-12.8778
▁abomination	-12.8778
▁adrenaline	-12.8778
▁arbitrarily	-12.8778
▁astronomical	-12.8778
▁dealbreaker	-12.8778
▁discrepanc	-12.8778
▁elaborate	-12.8778
▁emoticons	-12.8778
▁franchise	-12.8778
▁heavier	-12.8778
▁insomnia	-12.8778
▁mimicking	-12.8778
▁monocle	-12.8778
▁narrative	-12.8778
▁rectangular	-12.8778
▁rediculas	-12.8778
▁renovating	-12.8778
▁tangible	-12.8778
▁tornado	-12.8778
▁treadmill	-12.8778
▁vanilla	-12.8778
▁Increasing	-12.8778
▁Simpsons	-12.8778
▁asinine	-12.8778
▁comprehend	-12.8778
▁enthrall	-12.8778
uisition	-12.8778
▁invaluable	-12.8778
▁skindex	-12.8778
▁studied	-12.8778
▁caveats	-12.8778
▁contrived	-12.8778
▁gaudy	-12.8778
▁illusion	-12.8778
▁nitpick	-12.8778
▁pornography	-12.8778
▁studder	-12.8778
▁uncompressed	-12.8778
▁Answer	-12.8778
▁Sweet	-12.8778
▁butterfl	-12.8778
▁perplex	-12.8778
▁Sunday	-12.8778
▁Ignore	-12.8778
▁feasible	-12.8778
▁necessity	-12.8778
▁bikini	-12.8778
▁gravity	-12.8778
▁regression	-12.8778
▁fluke	-12.8778
▁irregular	-12.8778
▁monotony	-12.8778
▁werewol	-12.8778
▁Shadow	-12.8778
▁disgrace	-12.8778
▁ocean	-12.8778
▁pregnancy	-12.8778
▁comprehension	-12.8778
▁samba	-12.8778
▁pixilated	-12.8778
▁bpm	-12.8778
▁screensaver	-12.8778
▁upadate	-12.8778
▁condense	-12.8778
▁divorce	-12.8778
▁cyber	-12.8778
▁fluff	-12.8778
▁Shooter	-12.8778
▁irrational	-12.8778
▁unencrypted	-12.8778
ohnson	-12.8778
▁heartslives	-12.8778
▁iptv	-12.8778
▁reflex	-12.8778
eweled	-12.8778
▁explosion	-12.8778
▁hastle	-12.8778
stuary	-12.8778
uibble	-12.8778
▁gamechanger	-12.8778
▁economical	-12.8778
▁abroad	-12.8778
▁atmos	-12.8778
▁precision	-12.8778
▁foggy	-12.8778
essenger	-12.8778
▁conscious	-12.8778
▁veteran	-12.8778
▁bedroom	-12.8778
▁knockoff	-12.8778
▁torture	-12.8778
▁downvote	-12.8778
▁inundate	-12.8778
▁teeth	-12.8778
complete	-12.8778
▁nauseous	-12.8778
▁swift	-12.8778
▁controvers	-12.8778
▁hobby	-12.8778
▁gouging	-12.8778
▁nudity	-12.8778
▁crossbones	-12.8779
▁overwrite	-12.8779
▁capitalism	-12.8779
▁propose	-12.8779
▁perfectionist	-12.8779
▁Argh	-12.8779
▁flair	-12.8779
▁cinematic	-12.8779
▁freinds	-12.8779
▁godawful	-12.8779
▁Atmos	-12.8779
▁fla	-12.8779
▁sickening	-12.8779
▁unresolved	-12.8779
▁eyestraining	-12.8779
▁adamant	-12.8779
▁vault	-12.8779
ardware	-12.8779
▁turbo	-12.8779
▁slabs	-12.8779
orthless	-12.8779
▁nationality	-12.8779
▁furious	-12.8779
▁Silent	-12.8779
▁functionalities	-12.8779
▁agenda	-12.8779
▁ceases	-12.878
▁midair	-12.878
▁cartoonish	-12.878
▁steroids	-12.878
easonable	-12.878
▁permitted	-12.878
▁vehiche	-12.878
▁Storage	-12.878
ontrolling	-12.878
rightness	-12.878
▁stylish	-12.878
▁appreciation	-12.878
▁Stock	-12.878
▁sideswipe	-12.878
▁heartbreaking	-12.878
▁champions	-12.878
mobi	-12.8781
▁bingewatching	-12.8781
▁drunk	-12.8781
eover	-12.8781
▁mgmt	-12.8781
▁debrid	-12.8781
▁congratulat	-12.8781
▁illustrated	-12.8781
▁slaughter	-12.8781
▁inactivity	-12.8782
▁oversight	-12.8782
▁midsong	-12.8782
▁ordeal	-12.8782
▁armour	-12.8782
▁picsvideos	-12.8782
▁minecoins	-12.8782
▁swarm	-12.8782
▁motorsport	-12.8782
▁remedie	-12.8782
▁mansion	-12.8782
▁vouch	-12.8782
rripay	-12.8783
▁gaslight	-12.8783
▁passcode	-12.8783
▁somthing	-12.8783
▁bearable	-12.8783
▁uncover	-12.8783
▁familiarity	-12.8783
▁standpoint	-12.8783
articular	-12.8783
▁freebies	-12.8783
▁supplied	-12.8783
regulated	-12.8783
▁distractive	-12.8783
▁honor	-12.8783
▁kmh	-12.8783
arge	-12.8783
▁comparatively	-12.8784
▁unchanged	-12.8784
▁premade	-12.8784
▁grabbed	-12.8784
epublic	-12.8784
▁instinctive	-12.8784
▁nekki	-12.8784
▁curio	-12.8785
▁replicate	-12.8785
▁madness	-12.8785
▁Trump	-12.8785
ummed	-12.8786
▁cancer	-12.8786
▁distinction	-12.8786
shot	-12.8786
▁unoriginal	-12.8786
▁division	-12.8786
▁motivator	-12.8786
▁authority	-12.8786
lingual	-12.8787
▁hotel	-12.8787
▁unhide	-12.8787
▁freevee	-12.8788
▁replayability	-12.8788
▁patron	-12.8788
sembl	-12.8789
▁withhold	-12.8789
▁cutscene	-12.8789
▁crippling	-12.879
▁sofa	-12.879
▁deteriorating	-12.879
ealms	-12.879
▁disconnection	-12.8791
▁marshals	-12.8791
▁demotivating	-12.8791
▁elderly	-12.8791
▁bugsglitches	-12.8792
▁evident	-12.8792
ravo	-12.8792
▁socialising	-12.8792
reedy	-12.8793
olours	-12.8793
ugatti	-12.8794
riod	-12.8794
▁meaningless	-12.8795
▁reimbursed	-12.8795
▁challanges	-12.8795
▁referrals	-12.8795
▁hobbies	-12.8795
▁outdoors	-12.8795
▁effortlessly	-12.8795
oubt	-12.8795
▁slowdowns	-12.8795
▁pirating	-12.8796
▁chaos	-12.8796
▁reduction	-12.8796
▁divide	-12.8796
▁growth	-12.8796
ueries	-12.8797
▁groupchats	-12.8797
▁announcement	-12.8798
▁periodic	-12.8798
▁videospictures	-12.8798
▁InApp	-12.8799
▁revised	-12.8799
▁disorder	-12.88
tshirt	-12.88
▁blacklist	-12.8802
frica	-12.8802
▁discre	-12.8803
▁Among	-12.8803
▁incessantly	-12.8803
itchen	-12.8804
▁rollout	-12.8805
▁portray	-12.8805
▁roleplay	-12.8805
▁superhard	-12.8806
▁abnormal	-12.8806
▁expectation	-12.8806
▁auther	-12.8806
▁softer	-12.8806
▁aggravated	-12.8807
▁panda	-12.8807
▁onwards	-12.8808
▁expedition	-12.8809
fortunately	-12.8809
gb	-12.8809
interupted	-12.881
▁viruses	-12.881
▁hesitation	-12.881
▁eyesthumbs	-12.881
▁ridden	-12.881
▁harddrive	-12.881
▁installment	-12.881
esolve	-12.8811
gger	-12.8811
utstanding	-12.8811
ualify	-12.8811
▁exploited	-12.8812
ndless	-12.8812
▁inches	-12.8812
▁scarf	-12.8813
▁exhausted	-12.8813
▁coinspoints	-12.8813
oneti	-12.8814
▁teens	-12.8814
ophob	-12.8814
▁repet	-12.8814
▁dishearten	-12.8814
ntegration	-12.8815
▁priorities	-12.8816
hoice	-12.8816
▁turnoff	-12.8817
▁overlapping	-12.8817
eturning	-12.8819
▁intel	-12.8819
▁myth	-12.882
▁invent	-12.882
▁planks	-12.882
▁imagevideo	-12.882
sfx	-12.8821
ustomi	-12.8821
reators	-12.8822
▁singleplayer	-12.8822
▁unfold	-12.8822
attery	-12.8824
▁massages	-12.8824
eached	-12.8824
▁clickbaity	-12.8825
▁assignments	-12.8825
▁neck	-12.8826
▁theirs	-12.8826
▁pres	-12.8827
▁observ	-12.8827
▁adapter	-12.8827
▁unselected	-12.8827
▁dampen	-12.8828
▁constraint	-12.883
▁thereof	-12.883
rivate	-12.883
▁Info	-12.883
▁retro	-12.883
▁flac	-12.8831
▁Stone	-12.8831
▁extention	-12.8832
AAA	-12.8833
esson	-12.8835
▁retries	-12.8838
▁dialect	-12.8839
▁overlooked	-12.8843
▁paycheck	-12.8843
dependent	-12.8844
▁corse	-12.8844
odcasts	-12.8847
idgets	-12.8848
▁fishy	-12.8848
▁temples	-12.8848
▁accus	-12.8849
▁personality	-12.8851
▁nudes	-12.8852
▁clima	-12.8853
▁Adam	-12.8854
▁enhancing	-12.8855
eporting	-12.8857
ournalist	-12.8857
▁abc	-12.8857
eeding	-12.8858
▁unistalling	-12.886
▁bounced	-12.8861
wield	-12.8862
▁alleg	-12.8862
▁islands	-12.8862
ddy	-12.8865
▁greeting	-12.8866
▁readi	-12.8866
platform	-12.8867
hilip	-12.8868
▁Spen	-12.8868
▁spotlight	-12.8869
▁Sim	-12.887
▁inserted	-12.887
rtment	-12.8873
▁decay	-12.8876
exico	-12.8878
▁overthe	-12.888
▁blaster	-12.888
rden	-12.8881
▁suffice	-12.8881
ku	-12.8883
▁manageable	-12.8883
cks	-12.8883
▁resolv	-12.8885
▁lure	-12.8885
krain	-12.8885
▁bridges	-12.8886
▁singers	-12.8887
▁African	-12.8891
▁dinged	-12.8891
scription	-12.8891
idget	-12.8893
▁whitelist	-12.8893
▁compressing	-12.8893
▁geni	-12.8894
lexic	-12.8894
estimated	-12.8895
apped	-12.8897
gested	-12.8897
▁polls	-12.8897
▁Indian	-12.8898
▁skies	-12.8898
vertime	-12.8901
▁singer	-12.8902
▁suppress	-12.8906
nstru	-12.8908
▁Access	-12.8908
▁assign	-12.8908
manag	-12.8909
pened	-12.8909
unfriendly	-12.8909
▁welcomed	-12.891
siness	-12.8912
uildings	-12.8913
▁digits	-12.8914
rati	-12.8915
▁ph	-12.8917
▁plead	-12.8919
▁freeware	-12.892
makes	-12.8924
▁Tik	-12.8924
citing	-12.8924
understand	-12.8926
▁Scan	-12.8928
▁disallow	-12.8928
▁smell	-12.8928
▁patches	-12.8928
tell	-12.8929
▁sounding	-12.8929
▁hover	-12.8932
▁cracking	-12.8932
andwi	-12.8933
▁Island	-12.8934
▁murderer	-12.8934
▁crossbo	-12.8935
▁converted	-12.8937
efaults	-12.8938
▁reflected	-12.8938
▁uneven	-12.8938
ista	-12.8938
▁hardwork	-12.8939
uttons	-12.8942
▁peek	-12.8943
apan	-12.8946
▁companions	-12.8947
▁christ	-12.8948
▁payouts	-12.8949
▁steer	-12.8949
▁promotions	-12.8953
paying	-12.8953
▁nois	-12.8954
▁slog	-12.8955
▁timeframe	-12.8957
▁drinking	-12.8958
egend	-12.8958
orror	-12.896
ersey	-12.8962
rdu	-12.8963
▁silently	-12.8964
▁asf	-12.8965
▁remakes	-12.8966
▁decks	-12.8966
▁await	-12.8968
rovides	-12.8969
aining	-12.8969
▁Step	-12.8972
▁cancelation	-12.8974
▁inout	-12.8976
▁multipliers	-12.8978
▁rankings	-12.898
▁director	-12.8981
▁initiate	-12.8983
uins	-12.8984
▁submitting	-12.8985
▁Site	-12.8988
▁para	-12.8991
oorly	-12.8991
▁intens	-12.8995
tleast	-12.8996
▁relaxed	-12.8997
▁beatable	-12.8997
▁labor	-12.9
▁uninspir	-12.9001
▁wings	-12.9001
pping	-12.9002
▁consumers	-12.9008
▁belt	-12.9009
▁meme	-12.901
▁slamm	-12.9016
▁aaps	-12.9017
ters	-12.9018
▁collaborati	-12.9021
▁elon	-12.9022
exploded	-12.9023
▁thirst	-12.9023
icul	-12.9023
▁chickens	-12.9024
uninstall	-12.9025
munit	-12.9026
▁mos	-12.9026
related	-12.9027
▁kilo	-12.9028
loper	-12.9029
cial	-12.903
▁impair	-12.9031
▁ounce	-12.9032
▁cork	-12.9041
hours	-12.9043
▁discounts	-12.9044
stress	-12.9044
▁reposts	-12.9045
▁brilliantly	-12.9047
▁exploiter	-12.9048
lette	-12.9052
▁remaster	-12.9055
▁radi	-12.9057
▁snapp	-12.9057
▁cri	-12.9063
lox	-12.9066
▁esignature	-12.9067
retired	-12.9068
▁readded	-12.9068
ered	-12.9069
evin	-12.9072
▁underline	-12.9076
▁reccomended	-12.9077
▁voluntar	-12.9078
▁resemble	-12.908
peech	-12.9084
skip	-12.9087
▁respects	-12.9088
▁paywalled	-12.9089
super	-12.9092
▁hunting	-12.9093
uaint	-12.9097
mu	-12.9101
rri	-12.9104
ves	-12.9106
ten	-12.9106
▁rearrang	-12.9107
▁grave	-12.9111
▁fianc	-12.9111
▁med	-12.9113
▁packet	-12.9117
organised	-12.9121
▁alas	-12.9131
▁moto	-12.9132
▁airplanes	-12.9134
ldr	-12.9138
▁signin	-12.9139
▁furth	-12.9139
itle	-12.9141
ori	-12.9141
▁blessing	-12.9146
▁cutter	-12.9148
raw	-12.9148
allery	-12.9165
▁ballad	-12.9165
▁encompass	-12.9171
berg	-12.9178
ovels	-12.9179
▁asso	-12.9181
declare	-12.9183
Sometimes	-12.9185
wards	-12.9186
ult	-12.9188
uke	-12.9197
▁erratic	-12.9198
aken	-12.9199
▁occured	-12.9209
mes	-12.921
unless	-12.9213
▁Australia	-12.9214
▁gosh	-12.9214
controllable	-12.9216
▁needless	-12.9218
▁follower	-12.922
▁defined	-12.9222
urni	-12.9225
▁Albums	-12.9229
evis	-12.923
▁tour	-12.9234
▁pts	-12.9235
▁slope	-12.9236
okes	-12.9242
▁comercial	-12.9248
ucks	-12.9251
▁milk	-12.9252
▁mount	-12.9254
▁classy	-12.9258
onald	-12.9259
▁hammer	-12.9266
uff	-12.9269
dia	-12.9276
xamples	-12.9278
▁blurr	-12.9283
ved	-12.9284
leasant	-12.9284
▁humans	-12.9288
abel	-12.9293
aries	-12.9293
▁daughters	-12.9293
▁traction	-12.9294
▁sen	-12.9295
scrolling	-12.9297
▁youth	-12.9301
rite	-12.9305
▁costume	-12.9316
▁bound	-12.9317
▁livescore	-12.9318
orgi	-12.9324
feature	-12.9325
enu	-12.9326
napseed	-12.9327
rings	-12.9338
▁Ta	-12.9341
▁kindle	-12.9342
giving	-12.9347
▁Air	-12.9349
mind	-12.935
▁creations	-12.9353
esses	-12.9354
oss	-12.9358
turn	-12.9359
grossing	-12.9363
▁subgame	-12.9375
▁overtake	-12.9375
▁graphing	-12.9376
forgivable	-12.9382
▁converter	-12.9386
▁dumps	-12.9386
▁sabotage	-12.9389
picture	-12.9393
thor	-12.9402
▁armors	-12.9404
tho	-12.9405
▁undownload	-12.9405
▁mindful	-12.9411
▁dish	-12.9414
lines	-12.9414
war	-12.9416
eac	-12.9416
▁accessable	-12.9419
▁charger	-12.943
ically	-12.9435
tails	-12.9443
cel	-12.9449
luster	-12.9451
sided	-12.9451
ford	-12.9455
disappointed	-12.9467
yt	-12.9468
▁fab	-12.9469
events	-12.9477
ional	-12.9481
wsome	-12.9485
dimonds	-12.949
xit	-12.9491
▁fastfo	-12.9494
business	-12.9497
▁prescripti	-12.9505
▁fon	-12.9505
▁changelog	-12.9508
switch	-12.9515
▁lover	-12.9518
▁lik	-12.9523
▁tiers	-12.9526
pictures	-12.9529
▁triggering	-12.9532
▁conduct	-12.9538
▁wee	-12.954
scales	-12.9546
ni	-12.9547
raid	-12.9559
▁recommendable	-12.9564
▁edges	-12.9567
▁remodel	-12.957
rcade	-12.9578
▁doom	-12.9579
food	-12.9583
▁critic	-12.9583
channel	-12.9586
literally	-12.959
oll	-12.9592
stops	-12.9596
▁tray	-12.9599
▁exceptions	-12.9603
▁gane	-12.9604
▁headaches	-12.9608
▁void	-12.9609
active	-12.961
▁filming	-12.9612
▁toons	-12.9622
keeper	-12.9625
▁recheck	-12.9626
▁spit	-12.9629
bligation	-12.963
ago	-12.9646
▁chromecasting	-12.9647
cess	-12.9648
shi	-12.9653
iling	-12.9658
otential	-12.966
riginals	-12.9669
rest	-12.9672
features	-12.9679
▁nation	-12.9695
started	-12.9698
▁overlook	-12.97
▁arr	-12.9707
▁delet	-12.9708
▁cla	-12.9711
crolling	-12.9723
fer	-12.9724
▁punch	-12.9731
▁dice	-12.9737
sets	-12.9745
▁lud	-12.9762
dis	-12.9763
nclusion	-12.9769
▁tether	-12.977
▁sucker	-12.9773
▁shoes	-12.9775
lympic	-12.9782
andar	-12.9784
As	-12.9787
▁sacrific	-12.9794
ytime	-12.9794
▁stalling	-12.9795
tone	-12.9799
calls	-12.9799
▁crackle	-12.9806
▁gambler	-12.981
▁los	-12.9811
trait	-12.9812
mics	-12.9814
remove	-12.9815
short	-12.9827
etty	-12.983
phones	-12.9832
aded	-12.9839
▁fade	-12.9839
▁Set	-12.9852
▁lab	-12.9855
▁Swipe	-12.9858
stood	-12.9861
▁tran	-12.9863
▁facecr	-12.9867
fit	-12.9875
usy	-12.9881
▁firefire	-12.9887
aint	-12.989
xy	-12.9893
changing	-12.9907
worthy	-12.9908
ering	-12.9908
easier	-12.9911
whenever	-12.9914
▁persever	-12.9916
cho	-12.9924
echnology	-12.9926
ined	-12.9928
............	-12.9929
▁den	-12.9932
▁dv	-12.9935
▁trashed	-12.9935
▁calibrate	-12.9936
▁blackmail	-12.9936
▁catagor	-12.9938
▁eater	-12.9944
running	-12.9944
▁tele	-12.9948
▁satif	-12.9949
▁sucky	-12.995
▁Addon	-12.995
▁amusing	-12.9952
folder	-12.9953
ega	-12.9955
▁capes	-12.9978
icely	-12.9984
▁rail	-12.9989
pinning	-13.0001
▁themed	-13.0004
gif	-13.0008
▁yay	-13.0011
ormul	-13.0016
nx	-13.0029
cable	-13.003
▁wth	-13.0039
▁steamer	-13.0043
offline	-13.0044
▁darken	-13.0047
uplicate	-13.0049
burg	-13.005
developers	-13.0052
ipe	-13.0057
▁bone	-13.0063
oos	-13.0074
▁Struggl	-13.0082
yet	-13.0085
plan	-13.0087
▁cruis	-13.0092
tched	-13.0094
xcite	-13.0098
▁nause	-13.0099
riggin	-13.0099
nned	-13.0099
▁irr	-13.0107
▁shorten	-13.0107
▁levelup	-13.0114
▁Addict	-13.0114
code	-13.0129
ggy	-13.0131
▁easi	-13.0133
▁lingo	-13.0137
▁redm	-13.0138
mission	-13.0142
▁vin	-13.0147
silenced	-13.0149
odes	-13.0152
orrid	-13.0153
rote	-13.0159
layout	-13.0162
nite	-13.0168
▁char	-13.0186
▁chee	-13.0192
▁lifes	-13.0193
whatever	-13.0194
buffering	-13.0196
cate	-13.0198
era	-13.0208
▁photovideo	-13.0226
▁wand	-13.0228
▁sk	-13.0228
gets	-13.0244
▁compares	-13.0248
▁devolve	-13.025
otation	-13.0254
form	-13.0255
upgrade	-13.0258
▁bea	-13.0258
▁twe	-13.0259
▁facew	-13.0266
installed	-13.0269
books	-13.0273
▁overcomplicat	-13.0274
▁contribut	-13.0275
remember	-13.0288
▁outlin	-13.0292
▁instru	-13.0293
▁paw	-13.0297
overall	-13.0306
gives	-13.0323
eyes	-13.0326
episodes	-13.0327
▁intr	-13.034
▁Surprise	-13.0347
amp	-13.0348
cars	-13.0349
fil	-13.0358
ifting	-13.0359
▁bid	-13.0363
content	-13.0363
▁cur	-13.0374
humbnails	-13.0375
▁hom	-13.0376
mand	-13.0381
anything	-13.0392
▁beep	-13.0392
▁irresponsib	-13.0392
▁veg	-13.0393
uci	-13.0397
▁presum	-13.0398
▁platformer	-13.0401
▁wast	-13.0402
▁paths	-13.0406
▁highlighter	-13.0421
▁sat	-13.0422
▁announc	-13.0431
▁owl	-13.0438
▁Shee	-13.0441
▁degrade	-13.0453
ronic	-13.0453
idate	-13.0456
▁schools	-13.0458
challenges	-13.0467
tification	-13.0467
via	-13.0475
▁downgrades	-13.0477
▁thw	-13.049
▁terminate	-13.0491
awful	-13.0498
▁bite	-13.05
cut	-13.0501
▁shi	-13.0508
rais	-13.0508
▁skim	-13.0517
▁recycle	-13.0524
▁entertainer	-13.0524
▁wars	-13.0531
▁offens	-13.0533
cons	-13.0539
constant	-13.0544
▁che	-13.0544
family	-13.0556
finally	-13.0562
▁prem	-13.0564
▁goodbut	-13.0564
▁compil	-13.0568
▁transform	-13.057
shing	-13.0589
▁Asia	-13.0592
lling	-13.06
▁toil	-13.0606
▁usages	-13.0609
▁buggi	-13.0616
ipping	-13.0621
iber	-13.0625
highly	-13.0638
▁ears	-13.0644
▁hur	-13.0648
▁downer	-13.065
hill	-13.0664
toms	-13.0671
▁bike	-13.0676
deleting	-13.0686
edmi	-13.0693
ener	-13.0694
▁customis	-13.0699
▁licens	-13.0702
uninstalling	-13.0712
▁skipp	-13.0719
▁rides	-13.0734
▁integra	-13.0736
reply	-13.0738
▁wick	-13.0744
figured	-13.0747
▁monet	-13.0748
ikes	-13.0758
▁finals	-13.076
▁cre	-13.0769
▁camp	-13.0776
documents	-13.0782
ubbing	-13.0788
▁lap	-13.0792
album	-13.0793
exit	-13.0799
▁helper	-13.08
▁moive	-13.0817
action	-13.0828
▁cached	-13.0843
loved	-13.0847
▁impl	-13.0857
lat	-13.086
▁comedi	-13.0862
cifi	-13.0862
▁perm	-13.0864
▁str	-13.0868
display	-13.0877
▁invad	-13.0878
▁Active	-13.0885
▁Aloud	-13.0897
aching	-13.0898
ourth	-13.09
▁hat	-13.0902
etic	-13.0927
stand	-13.0931
cards	-13.0937
status	-13.0937
holes	-13.094
ffr	-13.0942
destructi	-13.0953
▁displeas	-13.0968
▁bases	-13.0969
▁nagivat	-13.097
▁alt	-13.0975
▁mono	-13.0978
ival	-13.0989
hood	-13.1001
▁exemp	-13.1002
ication	-13.1006
members	-13.1008
them	-13.1009
dent	-13.1015
▁fest	-13.1036
blink	-13.104
hyyy	-13.1043
ixture	-13.1069
kick	-13.1074
ingle	-13.1082
▁bru	-13.1085
emoving	-13.109
▁unsav	-13.109
▁rol	-13.1108
laws	-13.1111
▁ie	-13.1118
eable	-13.1121
▁applie	-13.1124
emind	-13.113
clapp	-13.1133
▁stall	-13.1134
▁waaa	-13.1141
site	-13.1144
road	-13.1144
▁documentar	-13.1154
color	-13.1155
graphic	-13.1157
▁ep	-13.1165
eams	-13.1169
mostly	-13.1171
button	-13.1172
cal	-13.1174
rch	-13.1189
lag	-13.1191
asking	-13.1192
▁fave	-13.1193
▁dood	-13.1198
▁Absolut	-13.1203
minisc	-13.1206
▁ana	-13.1213
abulous	-13.1215
▁preform	-13.1221
mps	-13.1224
▁consol	-13.1229
although	-13.1231
▁hor	-13.1231
otherwise	-13.1236
▁imagin	-13.1245
resting	-13.1251
bu	-13.1266
isable	-13.128
nsure	-13.1286
▁rain	-13.1286
hankfully	-13.1289
Add	-13.1289
sync	-13.1294
▁peer	-13.1311
▁prim	-13.132
downloads	-13.1324
▁Sono	-13.1325
breaks	-13.1334
tracks	-13.1337
head	-13.1339
recogni	-13.1343
▁shower	-13.1348
multiplayer	-13.1357
▁recon	-13.137
▁ye	-13.137
services	-13.1371
coding	-13.1377
lr	-13.1378
numbing	-13.1384
everyone	-13.1385
wipes	-13.1387
SIT	-13.1396
▁crap	-13.1398
▁creatives	-13.1412
net	-13.1413
▁cave	-13.1419
phi	-13.1422
▁finest	-13.143
▁blues	-13.1434
▁reacharge	-13.1439
bugs	-13.1445
fish	-13.1455
arts	-13.1467
▁gate	-13.1467
cell	-13.1468
mental	-13.1478
orc	-13.1486
▁castle	-13.1488
▁sideload	-13.1489
▁against	-13.1497
▁mak	-13.1501
chromebook	-13.1503
▁storys	-13.1509
▁sparkl	-13.1513
locks	-13.1518
▁sore	-13.1525
writing	-13.1527
rown	-13.1534
yl	-13.1543
practical	-13.1544
uin	-13.1548
tomy	-13.155
▁fiction	-13.1557
actic	-13.1579
others	-13.1579
acted	-13.1582
responsibility	-13.1591
thin	-13.1601
flow	-13.1605
nc	-13.1607
▁ri	-13.1607
brightness	-13.1611
subscribe	-13.1619
products	-13.1621
reserved	-13.1621
uuu	-13.1625
mute	-13.1631
stable	-13.1638
collision	-13.1638
shooting	-13.1639
aim	-13.1648
gging	-13.165
ported	-13.166
▁unsave	-13.1661
eful	-13.1666
▁plat	-13.1668
▁reselect	-13.167
under	-13.167
resolution	-13.1673
tr	-13.1673
installing	-13.1689
▁tones	-13.17
▁fp	-13.1703
chamet	-13.1714
seconds	-13.1737
note	-13.1744
▁eco	-13.1747
▁Steve	-13.1761
asked	-13.1764
message	-13.1767
unlike	-13.1768
eps	-13.1777
uhh	-13.1782
cheaper	-13.1784
▁blu	-13.1789
school	-13.1792
sity	-13.18
optional	-13.1802
mons	-13.1804
ells	-13.1806
▁watchable	-13.1813
ssss	-13.1818
mk	-13.1822
bi	-13.1825
winning	-13.1827
consider	-13.1832
▁spi	-13.1833
menus	-13.1833
▁ev	-13.1834
istic	-13.1837
feed	-13.1839
nice	-13.1843
▁bust	-13.1848
▁impro	-13.185
ancy	-13.1852
▁cas	-13.1856
sports	-13.186
▁nam	-13.1865
xcit	-13.1866
eadict	-13.187
entertaining	-13.1882
bottle	-13.1883
sorry	-13.1889
▁compat	-13.189
▁systematic	-13.1897
breaking	-13.1911
liding	-13.1918
▁struggl	-13.1926
▁nas	-13.1927
pent	-13.1928
▁timewast	-13.1929
▁Include	-13.1932
thro	-13.1932
rly	-13.1934
▁craps	-13.1936
advanced	-13.1941
brand	-13.1942
▁functioned	-13.1945
▁Slide	-13.1946
gender	-13.1947
base	-13.1951
▁dem	-13.1954
▁fir	-13.1977
lagging	-13.1978
▁whi	-13.1981
cam	-13.1982
weekly	-13.1985
trigger	-13.1986
teaching	-13.1987
▁Styl	-13.2001
▁violat	-13.2005
official	-13.2008
balance	-13.2024
mic	-13.2048
least	-13.2051
satisfied	-13.2055
recorded	-13.206
▁Sh	-13.2065
photography	-13.207
▁stre	-13.2081
Score	-13.2083
sident	-13.2089
▁outer	-13.2094
stars	-13.2095
▁slipp	-13.2095
▁reinforce	-13.2096
▁drown	-13.2101
reader	-13.2104
beginners	-13.2105
shock	-13.2108
battle	-13.2108
critical	-13.211
▁Suc	-13.2118
▁conversational	-13.2121
heavy	-13.2121
provoking	-13.2128
truck	-13.2129
▁att	-13.2129
yellow	-13.213
runner	-13.2133
▁cooperati	-13.2133
dy	-13.2134
▁mem	-13.2136
occer	-13.2139
loss	-13.2143
▁blacked	-13.215
lingo	-13.2151
employment	-13.2156
▁pirat	-13.216
persever	-13.2164
▁rel	-13.2166
tiktok	-13.2173
▁moron	-13.2175
yeah	-13.2181
billion	-13.2183
affling	-13.2186
usive	-13.2187
▁distribut	-13.2189
reopening	-13.2189
ices	-13.2193
firefire	-13.2194
belief	-13.2202
▁reporte	-13.2202
Art	-13.2205
▁unsu	-13.2222
▁pains	-13.2222
latency	-13.2222
isual	-13.2226
determined	-13.2229
competitive	-13.223
oriented	-13.224
mma	-13.2243
▁loa	-13.2244
topics	-13.2245
saturation	-13.2247
timate	-13.2248
run	-13.2248
prompted	-13.2255
tches	-13.2256
cycles	-13.2264
sticker	-13.2265
mportant	-13.227
ists	-13.2272
nfront	-13.2272
▁fri	-13.2276
state	-13.2277
anning	-13.2284
texture	-13.2287
onts	-13.2295
▁explod	-13.2298
▁prov	-13.23
desk	-13.2301
▁neur	-13.2308
contrast	-13.2314
AA	-13.2317
yi	-13.2323
spoke	-13.2325
chrome	-13.2327
ening	-13.2328
documentaries	-13.2329
mina	-13.2332
path	-13.2333
impressed	-13.2334
ticto	-13.2337
ki	-13.2339
nonym	-13.2341
fade	-13.235
until	-13.235
fixing	-13.2351
▁poke	-13.2359
doll	-13.2361
boat	-13.2367
tandard	-13.2372
uploads	-13.2379
volving	-13.2391
riddle	-13.2391
▁compile	-13.2393
aggressive	-13.2401
sic	-13.2402
Insta	-13.2407
punch	-13.2411
tapped	-13.2416
▁sided	-13.2417
ign	-13.2417
lands	-13.242
▁negat	-13.2426
▁feat	-13.2426
logs	-13.2428
aaa	-13.2429
ift	-13.2438
label	-13.2447
▁exept	-13.2457
owning	-13.246
nding	-13.2461
click	-13.2466
▁cod	-13.2471
onopoly	-13.2474
critic	-13.2482
▁compa	-13.2494
thirds	-13.2496
▁sel	-13.2497
uuuu	-13.25
pdfs	-13.2501
▁slim	-13.2506
letter	-13.2507
players	-13.2509
▁preci	-13.2517
descend	-13.2517
▁refresher	-13.2532
reconnect	-13.2543
significant	-13.2543
bye	-13.2549
▁Tool	-13.2553
sponsor	-13.2565
worth	-13.257
banned	-13.2578
ched	-13.2579
stopp	-13.258
tions	-13.2581
ffects	-13.2609
▁clouds	-13.2614
listed	-13.2614
during	-13.2622
▁irre	-13.2626
bounds	-13.2627
search	-13.2629
enough	-13.263
▁clo	-13.2673
iming	-13.2676
▁assistan	-13.268
special	-13.2681
constantly	-13.2689
▁cables	-13.2708
▁Sw	-13.271
imulator	-13.2713
ising	-13.2715
▁inc	-13.2716
needs	-13.2721
loop	-13.2724
anger	-13.2733
▁court	-13.2738
ator	-13.2738
aft	-13.2749
sent	-13.2756
▁shoulder	-13.2756
opup	-13.2758
oone	-13.2758
▁ambi	-13.2759
▁escap	-13.276
builds	-13.2766
fic	-13.2779
scam	-13.2794
clusive	-13.2806
▁bene	-13.2807
replace	-13.2809
▁slash	-13.281
▁authenticat	-13.2814
spiring	-13.2818
ointed	-13.2825
▁gar	-13.2834
virus	-13.2844
nk	-13.2845
▁sabotag	-13.2852
four	-13.2857
takes	-13.2872
▁predicti	-13.2878
remodel	-13.288
▁unban	-13.2883
texts	-13.2883
▁feats	-13.2884
atin	-13.2887
▁purchas	-13.289
▁wrongly	-13.2895
fs	-13.2901
▁Tr	-13.2914
owns	-13.2916
ania	-13.2916
▁Twic	-13.2919
▁diminishe	-13.2923
agg	-13.2926
▁origin	-13.2941
ann	-13.2942
say	-13.2957
▁astro	-13.2965
amming	-13.2968
evolving	-13.2969
▁reformat	-13.297
vers	-13.2987
lea	-13.2991
ya	-13.2995
nuseable	-13.3001
picks	-13.3001
lapped	-13.3013
angle	-13.3015
pot	-13.3016
ident	-13.3018
rial	-13.3043
▁overrid	-13.3044
tube	-13.3056
compress	-13.3057
▁logins	-13.3059
informed	-13.3069
rm	-13.3074
nin	-13.3074
▁deter	-13.3081
umi	-13.3082
▁lea	-13.3088
tra	-13.3094
ups	-13.3094
formatting	-13.3095
▁hardco	-13.3097
▁contr	-13.3109
▁whip	-13.311
ches	-13.311
ahh	-13.3125
cross	-13.3131
installreinstall	-13.3143
▁interupt	-13.3145
ior	-13.3161
▁unf	-13.3163
ron	-13.3163
blur	-13.3164
mad	-13.3188
awning	-13.3192
▁printer	-13.3194
▁phon	-13.3202
eak	-13.3202
▁Scr	-13.3205
▁simulate	-13.3205
wire	-13.3214
ora	-13.3228
▁determin	-13.3247
dicated	-13.3255
resh	-13.3257
ungle	-13.3265
amet	-13.3269
udo	-13.327
▁curr	-13.3278
mini	-13.328
▁accou	-13.3281
kin	-13.3282
fb	-13.3284
rds	-13.3286
forest	-13.3301
▁conduc	-13.3304
msung	-13.3304
▁relia	-13.3309
▁resembl	-13.3312
mbo	-13.3316
ady	-13.3321
▁Str	-13.3328
uation	-13.3335
▁exc	-13.3345
sted	-13.3352
▁happend	-13.3359
▁ther	-13.3364
▁incorporat	-13.3364
At	-13.3366
bla	-13.3376
etho	-13.3384
lame	-13.3384
▁diag	-13.3396
▁Translat	-13.3396
▁conve	-13.3398
▁loo	-13.34
▁reopens	-13.3402
▁eternal	-13.3404
▁acknowledg	-13.3407
▁flo	-13.3408
mple	-13.3408
▁unrel	-13.3409
viewable	-13.3413
ecorating	-13.3413
tain	-13.3415
olb	-13.3417
atter	-13.3418
latform	-13.3429
tel	-13.343
activity	-13.3438
playback	-13.3447
▁dam	-13.3461
ills	-13.3471
aker	-13.3475
fill	-13.3484
recently	-13.3497
▁smile	-13.3506
pts	-13.351
▁Tru	-13.3514
iring	-13.3517
▁scare	-13.3522
▁ty	-13.3523
▁mobil	-13.3528
dates	-13.3529
ducing	-13.3531
▁uninstal	-13.3537
ogan	-13.3538
raphic	-13.3539
lty	-13.3541
esthetic	-13.3543
resum	-13.3547
▁sinc	-13.355
nlock	-13.355
lim	-13.3553
▁xs	-13.3555
▁influenc	-13.3567
devices	-13.357
▁cheer	-13.3573
▁its	-13.3578
▁subscrip	-13.3578
connect	-13.3579
▁enters	-13.358
eaks	-13.3585
irec	-13.3592
elay	-13.3592
mpress	-13.3603
▁vot	-13.361
sound	-13.3613
▁interfac	-13.3618
atively	-13.3622
▁cert	-13.3625
▁spark	-13.3629
▁genera	-13.3633
inf	-13.3636
stead	-13.3638
▁serv	-13.3638
died	-13.3639
pload	-13.3639
xtra	-13.364
▁credi	-13.364
▁gall	-13.3651
ournal	-13.3651
▁poof	-13.3653
▁splitt	-13.3656
dominant	-13.3659
▁cow	-13.3664
▁sleeps	-13.367
ila	-13.367
tainable	-13.3671
anag	-13.3677
erky	-13.3679
▁estimate	-13.3681
rofile	-13.3684
▁profil	-13.3689
▁infinit	-13.3692
▁constrain	-13.3694
▁insur	-13.3694
ommercial	-13.3695
▁Improvement	-13.3697
licked	-13.3697
itbits	-13.3697
beg	-13.3698
▁assignment	-13.3702
▁landscap	-13.3702
uffle	-13.3703
▁emphasi	-13.3705
▁selfie	-13.3707
▁enclosure	-13.3707
▁conflict	-13.3707
▁spirit	-13.3708
▁explosive	-13.3709
▁massage	-13.3709
▁filename	-13.3709
▁earbud	-13.3709
▁cookie	-13.371
▁pronounce	-13.371
▁complication	-13.3711
otorious	-13.3712
atures	-13.3713
▁doctor	-13.3715
▁statement	-13.3717
▁tolera	-13.3718
cated	-13.372
ril	-13.3722
▁pronoun	-13.3722
ale	-13.3723
▁Soft	-13.3731
sthetic	-13.3731
▁newbie	-13.3731
▁fille	-13.3731
ml	-13.3732
meters	-13.3733
▁Thrill	-13.3733
nbelievabl	-13.3738
▁photograph	-13.3738
▁unskip	-13.3739
eeeee	-13.374
▁remap	-13.3741
meter	-13.3741
emocrat	-13.3743
ugation	-13.3743
ninstal	-13.3746
▁intern	-13.3747
motes	-13.3748
▁incompeten	-13.3748
▁culture	-13.3749
nstantly	-13.375
ecogni	-13.375
▁instantaneous	-13.375
bvious	-13.3751
▁userfriendl	-13.3753
scribe	-13.3754
▁Techni	-13.3754
▁tremendous	-13.3755
▁unles	-13.3756
ntertainer	-13.3757
▁rapid	-13.3757
▁shortcoming	-13.3757
▁memor	-13.3757
cenario	-13.3759
nterior	-13.376
afety	-13.3761
notifications	-13.3761
▁mult	-13.3761
dvanced	-13.3762
▁proficien	-13.3762
elevision	-13.3763
ivescore	-13.3764
▁distinct	-13.3764
▁chrom	-13.3765
nfortunate	-13.3765
▁relevan	-13.3767
hotography	-13.3767
ommon	-13.3768
arrier	-13.3769
ntelligen	-13.377
xercise	-13.377
xcessive	-13.377
ycoon	-13.3771
▁biom	-13.3771
esponsive	-13.3771
ightmares	-13.3771
nstructions	-13.3771
enalty	-13.3771
urchases	-13.3772
ominoes	-13.3772
xplain	-13.3772
ttention	-13.3772
eceptive	-13.3773
espise	-13.3773
issapointed	-13.3773
▁elder	-13.3773
ommunities	-13.3774
▁retard	-13.3774
verpriced	-13.3774
omplain	-13.3774
ffroad	-13.3774
eceiver	-13.3774
harging	-13.3774
orrection	-13.3774
romise	-13.3774
undamental	-13.3774
alicious	-13.3774
eauty	-13.3774
ediocre	-13.3774
arketplace	-13.3774
roadcasters	-13.3774
avourites	-13.3774
ookmarks	-13.3774
tegic	-13.3774
oderation	-13.3775
eagues	-13.3775
ebsite	-13.3775
isappearing	-13.3775
educed	-13.3775
▁explic	-13.3775
lurry	-13.3775
atience	-13.3775
ealistic	-13.3775
ongratulat	-13.3776
egions	-13.3776
ogin	-13.3776
eginning	-13.3776
verybody	-13.3777
reasure	-13.3777
▁peac	-13.3777
titude	-13.3777
reedom	-13.3777
▁pregnan	-13.3778
▁entrepreneur	-13.3778
bisoft	-13.3778
buntu	-13.3778
ebToon	-13.3778
errari	-13.3778
hillipines	-13.3778
olorado	-13.3778
shareholders	-13.3778
uboptimal	-13.3778
uckduckgo	-13.3778
uthoritarian	-13.3778
▁Algorithm	-13.3778
▁Audible	-13.3778
▁Irritated	-13.3778
▁Satellite	-13.3778
▁Secret	-13.3778
▁Selena	-13.3778
▁Sirius	-13.3778
▁Spoiler	-13.3778
▁Swedish	-13.3778
▁Syndrome	-13.3778
▁Transport	-13.3778
▁Tunisia	-13.3778
▁affirm	-13.3778
▁alpha	-13.3778
▁annyoing	-13.3778
▁archaic	-13.3778
▁blossom	-13.3778
▁brotherinlaw	-13.3778
▁celebs	-13.3778
▁copyandpaste	-13.3778
▁cosmetic	-13.3778
▁culprit	-13.3778
▁daunting	-13.3778
▁demonstrat	-13.3778
▁devastating	-13.3778
▁disingenuous	-13.3778
▁elliptical	-13.3778
▁embarrassment	-13.3778
▁encapsulate	-13.3778
▁expenditure	-13.3778
▁fireflies	-13.3778
▁grandmothers	-13.3778
▁haywire	-13.3778
▁hitormiss	-13.3778
▁imperative	-13.3778
▁inexcusable	-13.3778
▁infrastructure	-13.3778
▁insanity	-13.3778
▁interwsting	-13.3778
▁leaflets	-13.3778
▁marathon	-13.3778
▁masculine	-13.3778
▁microstutter	-13.3778
▁miniscule	-13.3778
▁misunderstood	-13.3778
▁mmorpg	-13.3778
▁narration	-13.3778
▁newspaper	-13.3778
▁nobrainer	-13.3778
▁oppressive	-13.3778
▁overbearing	-13.3778
▁pedophilia	-13.3778
▁plummet	-13.3778
▁potato	-13.3778
▁proprietary	-13.3778
▁protagonist	-13.3778
▁reiterate	-13.3778
▁relegated	-13.3778
▁reveiw	-13.3778
▁sandstorms	-13.3778
▁skeleton	-13.3778
▁skyrocket	-13.3778
▁stagnant	-13.3778
▁suffocate	-13.3778
▁tinkering	-13.3778
▁toddler	-13.3778
▁unneccesary	-13.3778
▁unrecoverabl	-13.3778
▁unsuccessful	-13.3778
▁untrustworthy	-13.3778
▁unwelcome	-13.3778
▁volunteer	-13.3778
▁vulgar	-13.3778
▁wallpaper	-13.3778
▁wrinkles	-13.3778
▁Salah	-13.3778
▁hiatus	-13.3778
▁unarmed	-13.3778
▁Tiktok	-13.3778
▁absorb	-13.3778
▁aggrevati	-13.3778
▁crochet	-13.3778
▁ergonomic	-13.3778
▁exasperat	-13.3778
▁flabbergast	-13.3778
▁gentlem	-13.3778
▁gunsmith	-13.3778
▁intellectual	-13.3778
▁monumental	-13.3778
▁salvag	-13.3778
▁unethical	-13.3778
isastrous	-13.3778
▁Informative	-13.3778
▁biceps	-13.3778
▁bolster	-13.3778
▁convient	-13.3778
▁demorali	-13.3778
▁friendliness	-13.3778
▁plagiari	-13.3778
▁promiscu	-13.3778
▁shrunk	-13.3778
▁subliminal	-13.3778
▁travesty	-13.3778
▁undesirable	-13.3778
▁InShot	-13.3778
▁placeholder	-13.3778
▁shortlived	-13.3778
▁victim	-13.3778
▁valley	-13.3778
auldron	-13.3778
▁handshake	-13.3778
▁rythme	-13.3778
▁shitshow	-13.3778
▁disappers	-13.3778
▁dominate	-13.3778
xtrodinar	-13.3778
▁glorious	-13.3778
▁decimal	-13.3778
▁eyecatching	-13.3778
▁nickname	-13.3778
bbath	-13.3778
goddess	-13.3778
lympus	-13.3778
▁Insane	-13.3778
▁expirience	-13.3778
▁midsentence	-13.3778
▁wepons	-13.3778
Salute	-13.3778
▁Alpha	-13.3778
▁mesaage	-13.3778
▁relevent	-13.3778
▁revolutionary	-13.3778
▁regressed	-13.3778
substitutions	-13.3778
▁electro	-13.3778
▁onebyone	-13.3778
igeria	-13.3778
uarrel	-13.3778
▁pickaxe	-13.3778
▁Swift	-13.3778
▁racist	-13.3778
▁reinvent	-13.3778
▁overseas	-13.3778
▁provocati	-13.3778
▁moblie	-13.3778
▁alleviat	-13.3778
▁Tactics	-13.3778
▁compensation	-13.3778
▁grief	-13.3778
▁lmao	-13.3778
▁subcription	-13.3778
▁pornographic	-13.3778
▁streamvod	-13.3778
▁licence	-13.3778
tulip	-13.3778
▁softlocked	-13.3778
▁underwear	-13.3778
▁Idiotic	-13.3778
▁vedeo	-13.3778
▁phenom	-13.3778
eddit	-13.3778
▁compliant	-13.3778
lamethrower	-13.3778
▁dahood	-13.3778
▁balancing	-13.3778
drums	-13.3778
▁opposition	-13.3778
annada	-13.3778
▁subdirectory	-13.3778
▁commutes	-13.3778
▁Survival	-13.3778
▁recalibrat	-13.3778
▁villager	-13.3778
▁bullied	-13.3778
▁divisive	-13.3778
▁Sloooooo	-13.3778
▁athlet	-13.3778
▁walkthrough	-13.3778
▁bikerid	-13.3778
▁painkiller	-13.3779
▁maniac	-13.3779
▁unattainable	-13.3779
unkspam	-13.3779
▁misstep	-13.3779
▁actionpack	-13.3779
▁inconvience	-13.3779
▁humour	-13.3779
▁wellbeing	-13.3779
▁coaches	-13.3779
▁muddle	-13.3779
▁prohibit	-13.3779
▁coffin	-13.3779
▁gyro	-13.3779
▁sensible	-13.3779
▁unpopular	-13.3779
ivo	-13.3779
gggh	-13.3779
▁unfixable	-13.3779
▁imposter	-13.3779
▁sponser	-13.3779
▁Shift	-13.3779
▁Smartphones	-13.3779
▁glancing	-13.3779
uggling	-13.3779
▁glory	-13.3779
▁liberal	-13.3779
▁reassur	-13.3779
▁disposable	-13.3779
▁gyroscope	-13.3779
▁sanity	-13.3779
elcome	-13.3779
▁dedication	-13.3779
▁unnatural	-13.3779
▁liberty	-13.3779
▁freedomof	-13.3779
▁prosper	-13.3779
▁vlogs	-13.3779
▁secular	-13.3779
iacom	-13.3779
▁milestone	-13.3779
▁magnificent	-13.3779
▁mxplayer	-13.378
▁silver	-13.378
▁culos	-13.378
▁celebrit	-13.378
lunky	-13.378
▁puppy	-13.378
▁unchangeable	-13.378
▁outshine	-13.378
▁marvelous	-13.378
▁disclaimer	-13.378
▁techno	-13.378
▁discriminat	-13.378
ancelling	-13.378
▁erotic	-13.378
inimi	-13.378
usband	-13.378
omepage	-13.378
▁wolf	-13.378
▁desirable	-13.378
▁headshot	-13.378
▁circuit	-13.378
▁amplif	-13.378
▁handeye	-13.3781
▁preprogrammed	-13.3781
▁rampant	-13.3781
▁resubscribing	-13.3781
ariety	-13.3781
▁excess	-13.3781
▁magnit	-13.3781
▁timesaver	-13.3781
▁deceit	-13.3781
radical	-13.3781
vulnerable	-13.3781
▁shortfall	-13.3781
▁transmi	-13.3781
eteran	-13.3781
▁repeatitive	-13.3782
nsubscribed	-13.3782
▁editorial	-13.3782
criminate	-13.3782
▁humor	-13.3782
▁Smash	-13.3782
nalytics	-13.3782
▁boaring	-13.3782
▁prettier	-13.3782
▁audiophiles	-13.3782
rackle	-13.3782
▁chatsgroups	-13.3783
▁alias	-13.3783
▁Spider	-13.3783
preadsheet	-13.3783
▁competions	-13.3783
▁bruh	-13.3783
▁forewarn	-13.3783
▁Smh	-13.3783
▁pannel	-13.3783
▁userunfriendly	-13.3783
▁nerfed	-13.3783
▁paperwork	-13.3783
▁tnx	-13.3783
elpful	-13.3783
▁midstory	-13.3783
▁flirt	-13.3784
▁dominoes	-13.3784
decisi	-13.3784
▁disclose	-13.3784
▁extort	-13.3784
▁gloss	-13.3784
ighway	-13.3784
ixelbook	-13.3784
▁experimental	-13.3784
▁anticipated	-13.3784
▁unsub	-13.3784
▁tinder	-13.3784
▁gunman	-13.3784
ccurate	-13.3784
▁tempera	-13.3784
▁tacky	-13.3784
raffic	-13.3784
egular	-13.3784
▁rival	-13.3784
ault	-13.3784
▁congrat	-13.3784
raphs	-13.3785
ntirely	-13.3785
ivestream	-13.3785
aura	-13.3785
▁unneeded	-13.3785
▁predicted	-13.3785
▁technician	-13.3785
mmersion	-13.3785
▁autoreply	-13.3785
▁bangers	-13.3785
▁fluidity	-13.3785
▁weakness	-13.3786
▁occurance	-13.3786
▁towncash	-13.3786
▁dawn	-13.3786
▁firefox	-13.3786
▁grabber	-13.3786
▁programsapps	-13.3786
apster	-13.3786
xxxxx	-13.3786
▁buddy	-13.3787
epair	-13.3787
▁manipulative	-13.3787
unch	-13.3787
▁avator	-13.3787
exi	-13.3788
oppy	-13.3788
▁advisor	-13.3788
hitti	-13.3788
rsenal	-13.3788
▁intelligibl	-13.3788
igans	-13.3788
eliable	-13.3789
▁hookers	-13.3789
▁upbeat	-13.3789
▁staple	-13.3789
▁peraon	-13.3789
▁unsync	-13.379
clothed	-13.379
▁pester	-13.379
▁bytes	-13.379
▁brah	-13.379
▁oldschool	-13.379
bble	-13.379
▁inexpensive	-13.379
▁disgusted	-13.379
laims	-13.3791
▁corporation	-13.3791
▁leech	-13.3791
▁Annoyed	-13.3791
▁worship	-13.3791
nfinished	-13.3791
▁dongle	-13.3791
▁Signature	-13.3791
▁yousician	-13.3791
▁certin	-13.3791
▁unlucky	-13.3792
lowkey	-13.3792
▁melod	-13.3792
ilderness	-13.3792
genious	-13.3792
▁misinterpret	-13.3793
▁dismaying	-13.3793
logue	-13.3793
▁circl	-13.3793
hords	-13.3793
nusable	-13.3793
incarnat	-13.3794
▁profound	-13.3794
▁deposit	-13.3794
▁depressing	-13.3794
▁overdone	-13.3794
▁incident	-13.3794
▁scoreboard	-13.3794
▁proficient	-13.3795
▁adorable	-13.3795
uatic	-13.3795
▁reconect	-13.3795
appening	-13.3795
▁speechless	-13.3796
▁thunder	-13.3796
onthly	-13.3796
oticed	-13.3796
▁reelsvideos	-13.3796
▁possessed	-13.3796
ocations	-13.3796
nacceptable	-13.3796
▁attending	-13.3797
▁handicapp	-13.3797
▁vivid	-13.3797
▁frusterat	-13.3797
amaro	-13.3797
owngrading	-13.3797
▁dictate	-13.3797
▁Showtime	-13.3798
▁endeavo	-13.3798
▁typograph	-13.3799
uccumb	-13.3799
ermission	-13.3799
▁embarassing	-13.3799
▁misbehaving	-13.3799
▁unreinstalling	-13.3799
▁refrain	-13.38
▁pubg	-13.38
naccurate	-13.38
▁hiking	-13.3801
▁socialise	-13.3801
▁refining	-13.3801
rience	-13.3801
▁Spain	-13.3801
bolt	-13.3801
▁effortless	-13.3801
raud	-13.3801
byte	-13.3802
▁seriousness	-13.3802
lk	-13.3803
ewind	-13.3803
niversa	-13.3803
lueprints	-13.3804
▁touchpad	-13.3805
▁songsartists	-13.3805
▁instantaneously	-13.3806
nstable	-13.3806
eginners	-13.3806
▁proble	-13.3806
▁messeng	-13.3806
pgrading	-13.3807
▁goodnovel	-13.3807
▁offended	-13.3807
▁multilayer	-13.3807
▁Anymore	-13.3807
▁struck	-13.3807
▁rigor	-13.3807
▁availab	-13.3807
erification	-13.3808
▁Stopping	-13.3808
▁regulations	-13.3808
▁dandy	-13.3808
▁legac	-13.3808
▁songalbum	-13.3809
▁giveaways	-13.3809
▁scratchers	-13.3809
▁cornfields	-13.3809
▁biometrics	-13.3809
▁metres	-13.3809
▁plsss	-13.3809
▁demographics	-13.381
▁Arripay	-13.381
egret	-13.381
▁monkeys	-13.381
▁intuitiveness	-13.381
▁Sea	-13.381
wasting	-13.381
bandon	-13.3811
igured	-13.3811
tovideo	-13.3811
▁catagory	-13.3811
▁Adverts	-13.3811
▁snapchat	-13.3812
▁clamp	-13.3812
▁synchronised	-13.3812
▁infuriat	-13.3813
yyyyy	-13.3813
▁flies	-13.3814
▁outof	-13.3814
▁ringtones	-13.3815
xpected	-13.3815
▁breast	-13.3816
▁weaponry	-13.3817
▁Stre	-13.3817
reate	-13.3817
hydrated	-13.3817
▁foxnews	-13.3817
▁lockdown	-13.3817
▁prosses	-13.3818
irrors	-13.3818
▁scope	-13.3818
▁modification	-13.3818
elated	-13.3818
▁nfs	-13.3819
onderfull	-13.3819
▁stroke	-13.3819
▁cheers	-13.382
lific	-13.382
ciate	-13.382
anguages	-13.3821
▁stoppage	-13.3821
▁instal	-13.3821
peck	-13.3822
eplies	-13.3822
▁pedal	-13.3822
▁handsthumbs	-13.3822
▁exercising	-13.3822
neously	-13.3822
▁enterior	-13.3824
▁accola	-13.3827
▁adblock	-13.3827
▁tumble	-13.3827
▁kiddo	-13.3828
isco	-13.3828
▁pretend	-13.3829
▁bubbl	-13.383
▁midgame	-13.3831
prise	-13.3831
nternal	-13.3831
▁readiness	-13.3831
▁storms	-13.3832
pital	-13.3832
▁mustang	-13.3832
econnecting	-13.3833
icturein	-13.3833
asual	-13.3833
▁posture	-13.3833
amond	-13.3833
ffered	-13.3834
▁imposes	-13.3834
ontinuously	-13.3834
▁funner	-13.3834
▁Thrills	-13.3835
▁adressed	-13.3835
▁trapping	-13.3835
▁instructor	-13.3836
navailable	-13.3836
anually	-13.3836
ayment	-13.3837
satisfactory	-13.3837
▁formations	-13.3838
▁surrounding	-13.3838
▁idio	-13.3838
▁leaf	-13.3838
cked	-13.3839
▁favorable	-13.3839
eserves	-13.3839
iping	-13.3839
▁ebooks	-13.384
AAAA	-13.384
▁outages	-13.384
▁playthrough	-13.3841
▁publisher	-13.3842
uash	-13.3842
▁unsyncing	-13.3842
rowser	-13.3842
onight	-13.3842
▁glee	-13.3843
▁enduring	-13.3843
iotic	-13.3843
▁bench	-13.3843
dr	-13.3845
▁improvment	-13.3845
eports	-13.3845
iu	-13.3845
▁prefect	-13.3846
▁forwardback	-13.3846
estures	-13.3846
▁painless	-13.3846
napchat	-13.3848
anceled	-13.3848
▁erro	-13.3849
▁gardenscapes	-13.3849
▁soundboard	-13.3849
ustifiabl	-13.385
▁miscon	-13.3851
▁hangout	-13.3851
unner	-13.3851
▁obv	-13.3851
▁doctors	-13.3852
farm	-13.3853
▁awaits	-13.3853
▁snipit	-13.3853
ondon	-13.3853
onnected	-13.3853
▁Stutter	-13.3854
ophi	-13.3854
ewinding	-13.3855
opian	-13.3855
▁hopeful	-13.3855
▁Igua	-13.3856
▁noobs	-13.3856
▁brakes	-13.3857
▁raids	-13.3857
▁exceeded	-13.3858
▁Absolutle	-13.3858
▁Apr	-13.3858
▁acccount	-13.3861
▁pollut	-13.3861
▁spirits	-13.3861
▁null	-13.3861
omedy	-13.3861
erify	-13.3862
▁Improvements	-13.3862
▁prettie	-13.3863
ruits	-13.3863
onsidered	-13.3864
▁filenames	-13.3865
etails	-13.3866
toplay	-13.3867
▁Steer	-13.3868
bie	-13.3869
▁misspelling	-13.387
onger	-13.387
gines	-13.387
lub	-13.387
▁senseless	-13.3871
▁webmail	-13.3872
▁featire	-13.3873
▁upgr	-13.3875
mbits	-13.3875
▁straf	-13.3875
▁perma	-13.3876
ubi	-13.3877
▁photosvideos	-13.3878
▁stub	-13.388
gious	-13.388
▁plea	-13.3881
rofiles	-13.3882
▁catergor	-13.3882
flix	-13.3883
▁haem	-13.3883
▁venting	-13.3884
▁blurb	-13.3885
▁rockin	-13.3885
▁oof	-13.3886
▁awesomeness	-13.3888
▁inconvien	-13.3889
▁consult	-13.3889
▁selfies	-13.389
▁dearly	-13.389
uined	-13.389
▁pcloud	-13.3891
▁stupidity	-13.3891
▁unl	-13.3891
ploads	-13.3892
▁xb	-13.3893
commerc	-13.3893
▁boggl	-13.3894
heat	-13.3895
▁variant	-13.3897
▁highres	-13.3897
▁predomina	-13.3898
▁brainer	-13.3898
▁threaten	-13.3898
▁haunt	-13.3898
mersed	-13.3899
▁revolver	-13.3899
▁respectively	-13.3901
easable	-13.3902
▁iran	-13.3902
ngine	-13.3902
▁undone	-13.3904
▁awfull	-13.3906
▁stranger	-13.3907
▁lib	-13.3907
arket	-13.3908
▁teaser	-13.3908
ssentials	-13.3909
rama	-13.3909
atur	-13.391
▁submenu	-13.3912
▁compliment	-13.3912
▁signingin	-13.3912
xperienced	-13.3913
▁avenues	-13.3915
pronounced	-13.3916
waite	-13.3916
▁vechi	-13.3917
▁highscore	-13.3918
▁frag	-13.3921
▁apologi	-13.3923
▁agitat	-13.3923
▁artis	-13.3923
▁Shout	-13.3926
mggg	-13.3927
▁adaptation	-13.3927
▁terror	-13.3928
▁Alex	-13.3928
▁improvise	-13.3928
▁seperated	-13.393
▁spoilers	-13.3931
wo	-13.3932
▁ffs	-13.3932
enyan	-13.3933
ursed	-13.3934
▁highway	-13.3934
▁island	-13.3934
▁gener	-13.3938
riety	-13.3938
▁destin	-13.3939
ruh	-13.3939
▁lumin	-13.394
▁mater	-13.3941
▁russian	-13.3941
ctivate	-13.3943
uttering	-13.3944
oosts	-13.3947
▁exhi	-13.3952
hhhh	-13.3952
ovements	-13.3952
roups	-13.3954
▁verifi	-13.3955
▁their	-13.3957
imaginative	-13.3959
vision	-13.3962
▁eve	-13.3962
alm	-13.3962
▁revolve	-13.3963
▁upkeep	-13.3963
compensated	-13.3966
escue	-13.3969
away	-13.397
▁gettin	-13.3971
▁cleanest	-13.3972
▁exhibits	-13.3972
unctions	-13.3974
▁strengthen	-13.3974
ova	-13.3974
▁downscale	-13.3974
▁inevitable	-13.3974
▁bookstores	-13.3975
▁cultur	-13.3975
different	-13.3977
dds	-13.3979
progress	-13.398
▁unexplain	-13.3981
iscovery	-13.3984
▁oneplus	-13.3986
fetched	-13.3986
emerges	-13.3987
▁te	-13.3988
▁independently	-13.3988
▁upt	-13.399
▁convinie	-13.3995
▁accont	-13.3997
isunderstanding	-13.3998
▁babbl	-13.3998
▁documentation	-13.3998
▁neg	-13.3999
stick	-13.4
▁contro	-13.4004
eact	-13.4004
▁somet	-13.4005
▁arises	-13.4006
▁intri	-13.4007
▁configurat	-13.4007
epeated	-13.401
▁corp	-13.4012
evelop	-13.4012
hows	-13.4014
▁slice	-13.4015
oblem	-13.4016
▁getaway	-13.4016
▁operated	-13.4023
olors	-13.4024
radual	-13.4027
kn	-13.4028
▁distractions	-13.4028
lder	-13.403
▁furnaces	-13.403
ontinued	-13.4031
▁Solution	-13.4033
▁layered	-13.4036
▁cramp	-13.4037
nfollow	-13.4042
▁garn	-13.4042
stant	-13.4044
▁noob	-13.4046
▁magnifi	-13.4049
▁forcestopp	-13.4051
selves	-13.4051
eaper	-13.4052
▁tease	-13.4053
▁widest	-13.4055
▁orig	-13.4056
▁reflection	-13.4057
vert	-13.4058
xed	-13.406
▁overreac	-13.406
▁facethumbs	-13.4061
▁SmartT	-13.4061
▁gifter	-13.4062
owered	-13.4062
▁stil	-13.4063
inous	-13.4065
connection	-13.4065
▁letdown	-13.4067
▁manu	-13.4067
▁conplete	-13.4068
▁overlayed	-13.4071
▁beeps	-13.4079
▁horrif	-13.4082
▁restricting	-13.4085
▁conceiv	-13.4085
epet	-13.4085
▁supp	-13.4085
▁bore	-13.4085
forgiving	-13.4086
estore	-13.4087
astics	-13.4091
udes	-13.4092
ucky	-13.4094
▁crevice	-13.4094
▁iterations	-13.41
uous	-13.41
▁notifie	-13.41
▁grubb	-13.4101
▁diffent	-13.4101
ewards	-13.4104
enom	-13.4105
meri	-13.4109
ousel	-13.4111
tric	-13.4114
▁minuet	-13.4116
erarch	-13.4116
tiple	-13.4117
inked	-13.4117
▁rigg	-13.4118
▁exe	-13.4121
▁dowload	-13.4122
▁halftime	-13.4123
▁endcredit	-13.4124
ird	-13.4124
▁aids	-13.4126
▁coll	-13.413
▁preroll	-13.4131
▁setback	-13.4132
minds	-13.4134
amm	-13.4135
▁ramps	-13.4136
▁pano	-13.4138
▁divice	-13.414
▁alignments	-13.4142
▁carriers	-13.4143
▁cups	-13.4145
▁stride	-13.4147
▁hurd	-13.4155
nintalling	-13.4156
▁Test	-13.4156
igraine	-13.4157
▁videogames	-13.4158
▁webm	-13.4163
▁superbly	-13.4163
ech	-13.4166
▁mirrors	-13.4167
▁psychologi	-13.4172
▁participated	-13.4178
▁easygoing	-13.4179
iously	-13.4181
ersons	-13.4185
whole	-13.4189
arfare	-13.4195
▁tester	-13.4197
main	-13.4197
earc	-13.4198
▁defeated	-13.4201
everting	-13.4203
ercy	-13.4206
▁slant	-13.4206
▁yank	-13.4208
onexistant	-13.4213
sting	-13.4214
umn	-13.4217
aga	-13.4219
▁definit	-13.422
▁midst	-13.4225
▁Sincere	-13.4225
ci	-13.4229
▁representing	-13.423
▁unpleas	-13.4231
▁tires	-13.4232
edious	-13.4233
▁rig	-13.4235
▁explana	-13.4236
rops	-13.4237
hic	-13.4242
▁grim	-13.4243
urbo	-13.4246
▁poppy	-13.4249
▁amateurs	-13.4253
rossplatform	-13.4255
aut	-13.4257
▁programmer	-13.4257
pro	-13.4257
orthy	-13.4259
episide	-13.4262
▁locat	-13.4265
ectively	-13.4271
plurg	-13.4274
hope	-13.4274
ntm	-13.4274
▁servive	-13.4274
▁identifi	-13.4275
avant	-13.4277
illisecond	-13.428
eplying	-13.4286
▁suspens	-13.4287
▁avali	-13.4287
nished	-13.4292
▁smiley	-13.4294
▁tipping	-13.4295
▁productions	-13.4299
▁boun	-13.4301
rp	-13.4302
▁reall	-13.4305
▁hist	-13.4308
▁huh	-13.4308
pawn	-13.4308
▁adv	-13.431
▁sharps	-13.4313
▁robots	-13.4315
arab	-13.4317
▁Invit	-13.4319
hopping	-13.4321
uple	-13.4323
▁suspend	-13.4324
abbed	-13.4325
▁crappie	-13.4329
▁cor	-13.433
▁bord	-13.433
oals	-13.434
▁impressively	-13.4341
▁Syn	-13.4343
▁respositor	-13.4348
men	-13.4349
sky	-13.4349
ulated	-13.4352
allowe	-13.4353
odge	-13.4356
▁shifting	-13.4364
iful	-13.4367
ules	-13.437
lite	-13.4372
eight	-13.4374
ournaments	-13.4376
anese	-13.4377
▁autosuggest	-13.4383
estarts	-13.4384
Tube	-13.4388
▁disba	-13.4388
raging	-13.439
▁beast	-13.439
rip	-13.4391
▁speciali	-13.4393
▁arse	-13.4393
vis	-13.4396
abilities	-13.4397
erts	-13.4405
▁paints	-13.4406
▁debate	-13.4409
ifs	-13.4417
▁meander	-13.4418
ednes	-13.4419
idal	-13.4426
nent	-13.4427
▁galler	-13.443
ployment	-13.4431
▁venture	-13.4431
uffer	-13.444
▁fury	-13.4451
uspect	-13.4461
ffers	-13.4461
▁plent	-13.4465
▁patent	-13.4465
ingredients	-13.4467
tation	-13.4475
runs	-13.4476
ormer	-13.4485
▁individuali	-13.4494
▁editting	-13.4495
tific	-13.4501
uences	-13.4504
▁det	-13.4512
▁Stage	-13.4516
▁prox	-13.4521
▁conserv	-13.4522
ecoming	-13.4527
▁impass	-13.4531
▁stones	-13.4532
▁synchronis	-13.4537
▁Tablets	-13.4538
▁administrator	-13.4539
▁albumssongs	-13.454
▁popcorn	-13.4542
▁ethic	-13.4546
▁agreement	-13.455
nel	-13.4551
▁buttom	-13.4555
renc	-13.4558
adios	-13.4558
▁redesigns	-13.4566
▁invalidat	-13.4566
▁infl	-13.4573
▁Sand	-13.4577
xtend	-13.4578
▁exaggerate	-13.458
release	-13.4584
eral	-13.4585
▁excuses	-13.4591
▁damp	-13.4591
sho	-13.4592
▁Intro	-13.4597
oses	-13.4598
▁Aday	-13.4598
▁reporter	-13.4599
▁sin	-13.4604
rates	-13.4606
▁Soun	-13.4606
▁defocus	-13.4607
tops	-13.4609
▁promble	-13.4619
▁vile	-13.4626
ushed	-13.4626
ula	-13.4629
spend	-13.4631
▁Sofa	-13.4631
eaders	-13.4631
ka	-13.4632
▁appplatform	-13.464
▁defen	-13.464
▁exper	-13.4643
▁glide	-13.4645
rgin	-13.4647
▁planting	-13.4649
▁punt	-13.4656
xe	-13.4657
▁termin	-13.4662
ypically	-13.4662
▁rever	-13.4662
uessing	-13.4663
dgment	-13.4664
▁flee	-13.4666
▁ahaha	-13.4671
▁mill	-13.4672
▁aimless	-13.4673
eviews	-13.4681
arking	-13.4682
▁grup	-13.4685
stance	-13.4686
▁absen	-13.4688
teria	-13.4689
missions	-13.469
▁demotivat	-13.4702
▁invoice	-13.4703
pecially	-13.4704
choose	-13.4707
fled	-13.4711
reen	-13.4715
▁pointers	-13.4719
▁costum	-13.4721
▁reused	-13.4722
tful	-13.4726
▁hairs	-13.4727
▁dys	-13.4733
▁sociali	-13.4736
▁fwd	-13.4738
hul	-13.474
▁devo	-13.4748
itiful	-13.4751
▁extraordinar	-13.4759
▁hound	-13.476
elayed	-13.4763
▁cab	-13.4768
▁tasteful	-13.477
▁incre	-13.4773
ayer	-13.4798
nar	-13.4805
▁fullest	-13.481
pack	-13.4811
nic	-13.4819
kipping	-13.4829
words	-13.483
▁influencer	-13.4833
reconfigure	-13.484
▁influ	-13.4841
hem	-13.4841
eave	-13.4845
chase	-13.4846
▁provok	-13.4847
ioT	-13.4849
▁bio	-13.4852
elt	-13.4859
ontinues	-13.4865
eld	-13.4876
reatest	-13.4877
nks	-13.4879
▁scien	-13.4881
lander	-13.4881
itch	-13.4897
bugging	-13.4898
▁pixelate	-13.4904
thought	-13.4905
▁lous	-13.4911
smokes	-13.4913
▁stru	-13.4914
py	-13.4916
eye	-13.494
worse	-13.4943
guide	-13.4943
illi	-13.4947
awn	-13.4948
pear	-13.4955
enny	-13.4956
▁frea	-13.4959
position	-13.496
toryline	-13.4962
waiting	-13.4963
▁unlikely	-13.4964
abe	-13.4969
▁expos	-13.4974
vin	-13.4974
each	-13.4987
nnab	-13.4993
oids	-13.4996
ource	-13.4997
certain	-13.4997
lain	-13.5
▁vo	-13.5006
eptic	-13.5013
simple	-13.5013
rantic	-13.5015
▁reacts	-13.5016
▁engross	-13.5025
▁prep	-13.5026
▁respectful	-13.503
▁unma	-13.5031
▁sto	-13.5031
atically	-13.5039
▁faceb	-13.5044
sable	-13.5048
think	-13.5049
▁mate	-13.5052
iably	-13.5053
▁flats	-13.5056
To	-13.5057
▁decod	-13.5058
esk	-13.5059
▁dealer	-13.5062
▁priv	-13.5062
▁spru	-13.5064
downloading	-13.5065
▁storytell	-13.5069
ifle	-13.5079
▁misclick	-13.5079
ando	-13.5084
gul	-13.509
rap	-13.5092
awe	-13.5094
▁Advertise	-13.5099
▁Afi	-13.5099
omehow	-13.51
▁abusi	-13.5102
▁shirt	-13.5103
ITA	-13.511
▁preca	-13.5114
crashing	-13.5117
▁lagbug	-13.5118
nee	-13.5129
▁Spy	-13.5132
heater	-13.5132
▁mouthI	-13.5137
ready	-13.5138
uthenticator	-13.5139
assess	-13.5139
owers	-13.5141
▁merger	-13.5142
▁Separate	-13.5143
▁flop	-13.5153
rimar	-13.5156
egre	-13.5157
▁ranks	-13.5159
▁relog	-13.5162
▁TubiT	-13.5166
▁creater	-13.5167
rue	-13.5168
listening	-13.5169
▁chromebase	-13.5169
playable	-13.5169
iking	-13.5182
▁recommen	-13.5184
▁previewed	-13.5185
▁hoop	-13.5186
glitches	-13.5187
▁payto	-13.5187
▁tiktoks	-13.5191
▁grate	-13.5194
ek	-13.5199
ivements	-13.5208
▁addiciti	-13.5227
▁devot	-13.5232
training	-13.5234
ipher	-13.5237
▁noad	-13.5249
plication	-13.5249
tl	-13.5265
abbe	-13.5269
handed	-13.5273
lang	-13.5274
▁minds	-13.5275
▁surprises	-13.5276
scroller	-13.5281
▁upda	-13.5283
phe	-13.5292
▁grader	-13.5292
▁weed	-13.5292
topping	-13.5294
▁dx	-13.5295
ashed	-13.5299
▁prec	-13.53
ndistinguishable	-13.5306
reign	-13.5308
valent	-13.5309
▁citys	-13.5324
changes	-13.5328
rious	-13.5329
eos	-13.5342
ner	-13.5354
ermany	-13.5358
aaay	-13.5359
▁refin	-13.5361
ideout	-13.5367
arr	-13.537
▁untru	-13.538
▁bleep	-13.5382
▁courage	-13.5382
▁marke	-13.5383
daily	-13.5387
complicated	-13.5392
▁limb	-13.5397
▁othe	-13.54
uals	-13.5404
ophon	-13.5405
ained	-13.5409
▁perf	-13.541
▁sector	-13.5413
▁rescann	-13.5417
▁Terr	-13.542
aaaay	-13.542
comfort	-13.5421
chapters	-13.5423
changeable	-13.5427
▁aff	-13.5427
▁dare	-13.5431
▁overlapp	-13.5439
▁Item	-13.5447
hear	-13.5448
▁straighten	-13.545
▁compell	-13.5454
▁ext	-13.5457
ontra	-13.5465
xcellence	-13.5468
abbing	-13.5476
▁eliminat	-13.5476
▁sittings	-13.5482
real	-13.5487
random	-13.5488
▁during	-13.5492
▁kne	-13.5492
yes	-13.5493
move	-13.5499
xolo	-13.5501
tall	-13.5507
▁descend	-13.5512
fests	-13.5514
▁gla	-13.5515
closed	-13.5516
clear	-13.5517
oman	-13.5545
▁disposa	-13.5545
▁negate	-13.5566
ntill	-13.5566
▁voi	-13.5566
rat	-13.5571
ntly	-13.5576
iso	-13.5584
▁sil	-13.5588
tism	-13.5589
▁deterr	-13.5601
redo	-13.5603
remov	-13.5603
▁behaviors	-13.5614
rag	-13.5614
▁spike	-13.5617
ducative	-13.5619
▁timewatch	-13.5623
▁madfing	-13.5633
mpy	-13.5634
▁wis	-13.5637
rful	-13.5641
▁reputa	-13.5644
ams	-13.5649
ces	-13.565
▁escalati	-13.565
wice	-13.5658
mas	-13.5659
SIS	-13.5663
sun	-13.5669
ints	-13.5673
matter	-13.5676
imes	-13.5685
unge	-13.5688
▁videogame	-13.5695
▁employment	-13.5704
verbia	-13.5705
car	-13.5705
pers	-13.5707
▁dense	-13.5722
▁disorgani	-13.5725
.........	-13.573
▁theu	-13.5731
▁sincere	-13.5733
▁AIs	-13.5733
▁motive	-13.574
intuitive	-13.5742
▁speck	-13.5744
ixes	-13.5747
▁blog	-13.5749
▁pos	-13.5751
reas	-13.5754
▁rega	-13.576
mediate	-13.5767
▁applica	-13.5772
▁const	-13.5774
says	-13.578
▁provoking	-13.5784
▁hos	-13.5788
eni	-13.5794
fed	-13.5801
▁acou	-13.5825
minis	-13.5827
▁beau	-13.5837
▁Thin	-13.584
sit	-13.5855
▁tack	-13.5856
▁tract	-13.5858
▁van	-13.588
subbing	-13.5881
ensor	-13.5884
ensitivity	-13.5893
▁truthfull	-13.5893
▁asp	-13.5906
▁democra	-13.5907
▁downgrad	-13.5911
van	-13.5912
▁omission	-13.5914
▁spoile	-13.5916
pi	-13.5917
rid	-13.5918
▁cancell	-13.5922
▁formed	-13.5925
oftware	-13.5928
gian	-13.5929
tablet	-13.5936
eclutter	-13.5938
body	-13.5956
imi	-13.5959
rava	-13.5967
▁tape	-13.5968
▁softwareapp	-13.5974
▁matte	-13.5987
▁stripe	-13.6004
uster	-13.6015
▁Twi	-13.6022
▁Stoppe	-13.6024
apt	-13.6025
▁dura	-13.6033
▁useage	-13.6038
lone	-13.6039
▁tweeting	-13.6044
▁autoclose	-13.6045
vaible	-13.605
ca	-13.6054
ething	-13.6056
cla	-13.6057
▁boomer	-13.6063
pth	-13.6065
father	-13.6067
▁bal	-13.6079
▁stitch	-13.6088
acting	-13.6089
fp	-13.609
cline	-13.6095
omebody	-13.6103
eenager	-13.611
previous	-13.6114
cr	-13.6116
▁hai	-13.6116
▁smartly	-13.6125
[...]
