<unk>	0
<s>	0
</s>	0
▁	-1.84712
.	-2.60953
▁I	-3.17639
▁app	-4.27128
s	-4.61691
▁game	-4.90561
▁The	-4.99733
▁It	-5.00131
▁like	-5.14307
ing	-5.18151
▁is	-5.22233
▁would	-5.47887
▁get	-5.48053
▁good	-5.55652
▁time	-5.5889
▁one	-5.6248
▁it	-5.65167
▁am	-5.67779
▁play	-5.68449
▁great	-5.69675
▁really	-5.71155
▁cannot	-5.7576
▁use	-5.75865
▁have	-5.77025
▁love	-5.88041
y	-5.91465
▁even	-5.97121
ed	-5.97902
ly	-6.01261
▁Thi	-6.02356
▁phone	-6.04207
▁back	-6.05572
▁want	-6.06465
▁music	-6.06879
▁new	-6.07792
▁ads	-6.12578
ut	-6.12976
▁free	-6.13876
▁also	-6.14844
o	-6.17623
▁way	-6.1794
I	-6.18613
▁make	-6.22729
▁work	-6.23122
▁much	-6.23166
▁fix	-6.23412
▁update	-6.24094
▁screen	-6.25144
e	-6.26268
▁still	-6.28415
▁A	-6.30327
▁go	-6.31728
▁many	-6.33251
▁playing	-6.34743
▁problem	-6.35374
▁see	-6.35809
▁watch	-6.37143
▁video	-6.37559
▁every	-6.40541
▁issue	-6.41748
▁keep	-6.42316
▁not	-6.43681
▁T	-6.44021
▁that	-6.45081
▁using	-6.466
▁better	-6.46994
▁could	-6.4884
▁lot	-6.4944
▁find	-6.49948
...	-6.5035
▁fun	-6.50804
▁need	-6.52748
▁stars	-6.54707
▁well	-6.55174
▁annoying	-6.55911
▁option	-6.57805
▁able	-6.59788
▁used	-6.63283
▁shows	-6.64154
▁thing	-6.64332
▁songs	-6.6505
▁times	-6.6529
▁add	-6.65511
▁If	-6.65771
▁There	-6.65997
A	-6.66639
ou	-6.67309
T	-6.68942
▁version	-6.69466
▁people	-6.69677
▁And	-6.69881
▁easy	-6.70063
▁sometimes	-6.70553
▁without	-6.70809
▁issues	-6.71328
▁Also	-6.72581
▁years	-6.7336
▁things	-6.74037
▁something	-6.74389
▁games	-6.75065
▁there	-6.7535
lease	-6.76217
▁read	-6.77268
▁best	-6.77329
▁movies	-6.78608
▁give	-6.80472
▁always	-6.81429
▁try	-6.82226
▁en	-6.82434
▁show	-6.82759
▁know	-6.82928
▁works	-6.84247
▁feature	-6.85033
▁though	-6.86278
▁song	-6.8633
▁think	-6.87135
▁since	-6.87383
▁long	-6.88839
▁face	-6.89355
▁you	-6.90927
▁different	-6.90977
▁apps	-6.92453
▁features	-6.94596
▁never	-6.94681
▁pay	-6.95034
▁money	-6.95314
d	-6.95955
▁watching	-6.96471
▁change	-6.96494
▁first	-6.97676
▁mobile	-6.9781
or	-6.98928
▁makes	-6.99446
▁nice	-6.99597
▁experience	-7.00357
▁ad	-7.004
▁going	-7.00563
▁open	-7.01108
▁hard	-7.01502
▁will	-7.02409
▁please	-7.02876
▁coins	-7.0375
▁getting	-7.04274
▁last	-7.04569
▁level	-7.04841
▁ama	-7.04923
▁everything	-7.06621
▁pretty	-7.07268
ot	-7.07947
▁content	-7.08842
es	-7.0983
▁wish	-7.09967
hen	-7.10154
▁far	-7.10515
▁start	-7.12433
▁day	-7.1277
▁little	-7.13043
▁do	-7.13212
▁got	-7.13892
▁frustrating	-7.1417
▁fine	-7.15049
▁fixed	-7.16709
▁again	-7.16867
▁now	-7.17554
reat	-7.17963
ther	-7.18035
▁this	-7.18943
▁right	-7.19116
▁me	-7.19632
owever	-7.19668
▁turn	-7.19715
▁download	-7.19831
oy	-7.2023
▁reason	-7.21042
▁trying	-7.21086
▁videos	-7.21258
▁button	-7.21263
▁player	-7.21413
▁friends	-7.21544
▁anything	-7.22113
▁tried	-7.22311
▁another	-7.22396
i	-7.23708
▁re	-7.2415
▁next	-7.24984
▁bit	-7.2656
▁mode	-7.2702
▁two	-7.27083
▁bad	-7.272
▁service	-7.27233
▁seems	-7.27928
uality	-7.2804
▁files	-7.28303
▁levels	-7.28839
er	-7.2978
▁takes	-7.30388
▁working	-7.30689
▁to	-7.30693
▁audio	-7.31041
ow	-7.31794
▁movie	-7.32009
ust	-7.32386
▁problems	-7.33147
▁recommend	-7.33419
▁up	-7.33592
▁controls	-7.33792
▁streaming	-7.34389
▁help	-7.34696
▁reading	-7.35089
▁gets	-7.35266
▁needs	-7.35682
▁made	-7.35703
etflix	-7.36039
▁put	-7.36553
n	-7.36786
▁let	-7.36953
▁instead	-7.36967
▁minutes	-7.37529
▁graphics	-7.37561
is	-7.37896
▁them	-7.38091
▁sure	-7.38151
▁say	-7.38547
▁actually	-7.40638
▁options	-7.40677
▁listen	-7.41113
▁ever	-7.41655
▁all	-7.42435
▁account	-7.42545
▁stop	-7.43242
▁star	-7.4389
▁bugs	-7.44049
▁look	-7.44494
▁take	-7.44654
▁close	-7.44938
▁enough	-7.45023
▁old	-7.45661
▁load	-7.46988
▁device	-7.47363
▁user	-7.47597
ery	-7.48613
▁bug	-7.49287
▁almost	-7.49683
▁end	-7.49714
▁message	-7.50471
▁search	-7.50675
▁Android	-7.50789
▁list	-7.50862
▁nothing	-7.51021
▁sound	-7.51338
▁especially	-7.52018
verall	-7.5249
▁played	-7.52556
▁seconds	-7.52658
▁email	-7.52718
▁are	-7.53091
▁making	-7.53729
▁started	-7.53774
▁difficult	-7.54072
▁etc	-7.54273
▁playlist	-7.5446
st	-7.54499
▁story	-7.54736
▁premium	-7.54949
▁often	-7.56276
▁point	-7.56761
▁That	-7.57048
▁available	-7.57298
▁i	-7.58115
▁live	-7.58206
▁longer	-7.5904
▁days	-7.59296
▁text	-7.59619
▁updates	-7.6014
▁hope	-7.60191
potify	-7.60276
▁us	-7.60347
▁data	-7.6129
▁send	-7.61671
▁recently	-7.62528
ove	-7.6264
▁come	-7.62874
▁favorite	-7.62937
▁around	-7.63009
▁review	-7.63446
▁media	-7.63714
▁photos	-7.63775
▁multiple	-7.64029
▁less	-7.64928
▁episode	-7.64948
▁kind	-7.64952
▁least	-7.65346
▁messages	-7.65656
▁access	-7.65689
▁selection	-7.66048
▁move	-7.66083
ne	-7.66187
▁either	-7.66277
▁overall	-7.66323
▁fast	-7.66508
▁feel	-7.67094
▁worth	-7.67261
▁found	-7.67896
▁already	-7.679
▁click	-7.6805
▁part	-7.68942
▁App	-7.69129
▁stories	-7.69778
▁full	-7.69825
▁left	-7.70056
▁continue	-7.70272
▁awesome	-7.70573
▁subscription	-7.711
▁settings	-7.71708
▁file	-7.71959
▁save	-7.72336
▁seem	-7.72351
▁view	-7.72986
▁else	-7.73054
▁learning	-7.73374
▁real	-7.7358
uite	-7.73713
▁soon	-7.7374
▁stuff	-7.74054
▁year	-7.74352
▁Thank	-7.74466
▁month	-7.75111
▁notifications	-7.75539
▁slow	-7.75801
▁whole	-7.75941
▁looking	-7.75991
ood	-7.76188
▁choose	-7.76201
▁others	-7.76373
▁Th	-7.76545
▁top	-7.76583
▁on	-7.76807
▁months	-7.76939
▁devices	-7.76972
▁book	-7.77269
▁stream	-7.77346
▁certain	-7.77397
oogle	-7.77562
▁buy	-7.77683
▁simple	-7.77727
▁several	-7.78087
▁amount	-7.7831
▁downloaded	-7.78417
▁away	-7.78607
▁interface	-7.79088
▁however	-7.79093
▁page	-7.79119
▁call	-7.79149
▁run	-7.79332
▁ago	-7.79603
▁support	-7.79878
▁chat	-7.8018
▁absolute	-7.80287
▁completely	-7.80496
▁become	-7.80548
▁perfect	-7.80735
▁anymore	-7.80795
▁progress	-7.81159
▁place	-7.81226
r	-7.81229
▁added	-7.81289
▁done	-7.81597
▁set	-7.82104
▁couple	-7.82302
▁big	-7.82691
▁out	-7.82713
▁learn	-7.82808
▁fact	-7.82954
▁system	-7.84037
ome	-7.84325
▁off	-7.84674
▁cool	-7.84722
▁Thanks	-7.84956
▁playlists	-7.85417
▁in	-7.8552
▁constantly	-7.85786
▁edit	-7.86525
▁past	-7.87048
▁crashes	-7.87371
ometimes	-7.87496
▁main	-7.87706
▁second	-7.87791
▁platform	-7.8803
▁In	-7.88679
▁As	-7.88747
▁connection	-7.88957
▁series	-7.89139
▁lose	-7.89143
▁delete	-7.89159
▁recent	-7.89267
▁control	-7.89714
▁goes	-7.89739
▁home	-7.89827
▁select	-7.90377
▁super	-7.9063
▁allow	-7.90916
▁spend	-7.91445
▁forward	-7.91456
▁yet	-7.9251
▁too	-7.92523
▁updated	-7.92635
▁internet	-7.9303
▁listening	-7.93325
▁stuck	-7.93347
▁daily	-7.93916
▁glitches	-7.94347
▁ability	-7.94441
▁order	-7.94849
▁understand	-7.94974
▁says	-7.95541
▁wrong	-7.95688
▁pause	-7.96169
t	-7.96653
▁gameplay	-7.97063
▁easier	-7.98044
▁they	-7.98062
▁tv	-7.98589
▁pop	-7.9883
▁impossible	-7.98864
▁definitely	-7.98881
▁loading	-7.99201
ould	-7.99286
▁restart	-7.99435
▁smil	-7.99877
ulu	-8.00013
▁someone	-8.00064
▁complete	-8.00136
▁background	-8.00836
▁pass	-8.00842
▁commercials	-8.00961
▁editing	-8.0105
▁maybe	-8.01125
▁All	-8.01161
▁wait	-8.01218
hat	-8.01324
▁skip	-8.01777
▁example	-8.02095
▁scroll	-8.02154
▁may	-8.02219
▁small	-8.02423
ouTube	-8.02634
▁rate	-8.03357
▁hours	-8.03594
till	-8.03698
▁plays	-8.03803
▁players	-8.04165
▁channels	-8.04469
▁books	-8.05025
▁beginning	-8.0568
▁happens	-8.05881
▁easily	-8.05996
▁chapters	-8.06425
▁random	-8.06497
▁clear	-8.06788
▁switch	-8.07116
▁finish	-8.07154
▁thought	-8.07315
▁photo	-8.07805
▁starts	-8.07896
▁automatically	-8.07961
▁error	-8.08563
▁notification	-8.08647
▁changed	-8.08719
able	-8.08851
▁world	-8.09362
▁more	-8.09487
on	-8.09541
▁late	-8.0968
▁useful	-8.09881
▁tell	-8.10004
▁unless	-8.10384
▁single	-8.10472
▁rating	-8.10696
▁After	-8.10833
▁worked	-8.11369
▁variety	-8.11964
▁paying	-8.1213
▁sync	-8.12249
▁hear	-8.12281
▁picture	-8.12328
nly	-8.1258
▁randomly	-8.12858
▁camera	-8.12967
▁lost	-8.13103
▁track	-8.13224
▁application	-8.13619
an	-8.13878
▁points	-8.13904
▁language	-8.13959
en	-8.13996
▁anyone	-8.14035
▁black	-8.14192
▁news	-8.14245
▁changes	-8.1432
▁said	-8.14441
▁half	-8.14573
▁users	-8.14788
ump	-8.14914
▁matter	-8.15448
▁extreme	-8.15455
▁later	-8.15503
▁high	-8.15805
▁storage	-8.16156
▁guys	-8.16225
▁eyes	-8.16488
ame	-8.17195
▁might	-8.17227
hatsApp	-8.1736
dit	-8.17406
▁possible	-8.17536
▁because	-8.17713
▁car	-8.17721
▁cost	-8.17817
▁seen	-8.18075
ven	-8.18129
▁design	-8.18335
▁Its	-8.18361
▁comes	-8.18597
▁hit	-8.18614
▁chapter	-8.18796
ave	-8.19278
▁speed	-8.19617
▁post	-8.1982
pdate	-8.20583
▁type	-8.206
▁ones	-8.20871
est	-8.20895
▁offline	-8.20959
▁properly	-8.20963
▁due	-8.21128
▁price	-8.21588
▁match	-8.21617
hy	-8.21812
▁check	-8.21879
uickly	-8.21982
▁heart	-8.22112
▁paid	-8.22519
▁channel	-8.22885
▁giving	-8.22909
▁stops	-8.23036
▁side	-8.23136
▁section	-8.23917
▁uninstall	-8.24035
▁everyone	-8.24207
▁short	-8.25127
▁android	-8.25156
a	-8.25276
▁previous	-8.25361
▁piano	-8.25479
▁hate	-8.25493
▁pick	-8.25503
▁gone	-8.25904
▁remove	-8.26031
▁person	-8.26167
▁does	-8.26261
▁create	-8.26477
▁week	-8.26579
▁purchase	-8.26602
▁desktop	-8.26669
▁menu	-8.26727
▁running	-8.27324
▁helpful	-8.27411
▁playback	-8.27637
▁emails	-8.27672
ike	-8.27841
..	-8.27896
▁lessons	-8.27901
▁expensive	-8.27932
loud	-8.2827
▁business	-8.2831
▁whenever	-8.28475
▁of	-8.28929
it	-8.29366
▁for	-8.29515
▁function	-8.30302
▁.	-8.30323
▁tablet	-8.30419
▁space	-8.30601
▁happy	-8.30719
▁usually	-8.30929
as	-8.31076
▁navigate	-8.31387
▁worse	-8.31846
▁glitch	-8.31876
▁excellent	-8.32054
▁notes	-8.32456
ob	-8.32491
▁connect	-8.32536
amsung	-8.32605
▁number	-8.32853
ropbox	-8.32977
▁gives	-8.33107
▁items	-8.33131
▁Then	-8.33297
▁wifi	-8.33399
ad	-8.33458
very	-8.33479
▁tap	-8.33707
▁complaint	-8.33884
▁three	-8.34293
▁volume	-8.34302
▁pictures	-8.34319
AT	-8.34324
▁bar	-8.34394
▁mind	-8.344
▁happened	-8.3467
▁bring	-8.34717
▁computer	-8.34848
▁needed	-8.34987
▁stopped	-8.35414
▁five	-8.35561
▁folder	-8.35581
▁images	-8.35822
▁cars	-8.36348
▁middle	-8.36401
▁team	-8.36877
▁what	-8.37086
▁episodes	-8.37141
▁share	-8.37241
ee	-8.3755
▁crashing	-8.37573
▁showing	-8.37585
▁original	-8.376
▁lots	-8.37729
▁except	-8.37785
▁adding	-8.37901
▁online	-8.38547
▁wanted	-8.38644
▁voice	-8.38752
▁extra	-8.39069
....	-8.39185
ation	-8.39238
eally	-8.39338
▁setting	-8.39488
▁interesting	-8.39516
▁saying	-8.40585
▁leave	-8.40821
▁entire	-8.40927
therwise	-8.41282
▁missing	-8.41375
▁adds	-8.4163
▁upload	-8.41631
▁weeks	-8.41677
▁uninstalled	-8.41695
usic	-8.41814
▁minute	-8.4273
▁auto	-8.42781
▁sent	-8.43031
▁phones	-8.43109
▁mini	-8.43206
▁decent	-8.4326
▁fre	-8.4347
▁card	-8.43598
probably	-8.43636
▁press	-8.43825
▁developers	-8.43861
▁terrible	-8.43915
▁status	-8.43918
▁specific	-8.44219
▁plus	-8.44447
▁whatever	-8.44626
▁over	-8.44782
▁ma	-8.44982
▁before	-8.45968
▁feels	-8.4606
▁earn	-8.46098
uick	-8.46341
▁friendly	-8.46446
▁happen	-8.46755
▁upgrade	-8.46975
▁be	-8.4733
isney	-8.47516
▁given	-8.47804
▁library	-8.47823
▁win	-8.47909
ma	-8.48064
▁life	-8.48342
▁customi	-8.48562
▁saved	-8.48689
▁liked	-8.48771
annot	-8.48997
▁allows	-8.49102
ound	-8.49217
▁went	-8.49224
▁buggy	-8.49305
▁so	-8.49347
▁weapons	-8.49531
▁ridiculous	-8.49728
▁took	-8.49781
▁loved	-8.49803
▁crash	-8.49992
▁log	-8.50091
▁happening	-8.50207
▁large	-8.50284
▁remember	-8.50398
▁artists	-8.50844
▁disappointed	-8.51341
▁At	-8.51416
▁per	-8.51515
▁alot	-8.51805
▁character	-8.5198
▁buffering	-8.52086
▁comics	-8.52227
▁program	-8.52353
utlook	-8.52399
▁miss	-8.52639
ith	-8.5298
▁reinstall	-8.53566
▁here	-8.53739
▁trial	-8.5387
▁calls	-8.5403
▁sucks	-8.54094
▁beat	-8.54109
▁huge	-8.54303
▁reinstalled	-8.54339
▁must	-8.54594
▁mess	-8.54603
▁basic	-8.5507
▁ra	-8.55308
▁highly	-8.55372
▁unable	-8.55475
▁pro	-8.55788
h	-8.55814
▁practice	-8.55865
▁down	-8.55964
▁within	-8.55977
uire	-8.56028
▁hands	-8.56032
▁image	-8.56081
▁cache	-8.56101
▁challenges	-8.56124
▁lag	-8.56409
▁group	-8.56437
oyed	-8.56479
▁si	-8.56796
▁noticed	-8.57102
▁mean	-8.57213
▁stay	-8.57216
▁low	-8.5723
oin	-8.5728
▁deleted	-8.57306
▁unlock	-8.57334
▁gave	-8.57525
▁otherwise	-8.57644
▁layout	-8.57879
▁boring	-8.58278
▁smooth	-8.584
▁Twitter	-8.58662
▁higher	-8.58686
▁name	-8.58805
ost	-8.58957
▁Instagram	-8.59151
▁words	-8.59204
▁family	-8.59296
▁across	-8.59756
▁idea	-8.59842
▁resume	-8.59917
▁build	-8.60097
▁wonderful	-8.60121
▁while	-8.60164
▁simply	-8.60268
▁watched	-8.6055
▁looks	-8.60601
▁bottom	-8.60863
▁literally	-8.60884
▁hand	-8.61006
un	-8.61044
▁downloading	-8.61314
▁with	-8.61648
▁lately	-8.61714
▁actual	-8.61739
▁fantastic	-8.61842
▁break	-8.62013
gotten	-8.62391
▁To	-8.62921
▁note	-8.63052
odi	-8.63163
▁appreciate	-8.6408
et	-8.6469
▁challenging	-8.64783
▁improve	-8.64948
verything	-8.65016
▁moves	-8.65162
but	-8.65331
▁everytime	-8.65562
▁general	-8.65602
▁touch	-8.65696
▁figure	-8.65875
▁dark	-8.66087
▁chats	-8.66108
▁suddenly	-8.66114
▁reply	-8.66326
▁important	-8.66418
▁forever	-8.66524
▁viewing	-8.66684
▁un	-8.68234
▁ok	-8.68542
▁swipe	-8.68589
▁opinion	-8.68716
▁box	-8.68861
▁course	-8.69347
▁repetitive	-8.69509
▁shuffle	-8.69524
lus	-8.69639
▁network	-8.69651
▁s	-8.69793
▁follow	-8.69858
▁commercial	-8.6987
▁social	-8.70092
▁helps	-8.70235
▁tracks	-8.70441
▁installed	-8.70563
▁Tubi	-8.70872
▁profile	-8.7092
▁mostly	-8.70966
▁store	-8.71243
▁buttons	-8.71274
▁beautiful	-8.71775
▁manually	-8.7201
▁exit	-8.72153
▁sleep	-8.72172
▁limited	-8.72281
▁weird	-8.72374
▁reviews	-8.72534
lay	-8.72693
▁waiting	-8.72971
▁p	-8.72991
irst	-8.73034
▁install	-8.73148
▁trouble	-8.7315
ox	-8.73152
▁runs	-8.73224
▁force	-8.733
▁information	-8.73516
uest	-8.73635
▁organi	-8.73645
▁deal	-8.73713
▁scrolling	-8.73805
▁sign	-8.74142
▁normal	-8.74491
▁along	-8.74679
▁currently	-8.74792
itbit	-8.75066
▁current	-8.7514
▁honestly	-8.75232
▁useless	-8.7532
▁map	-8.75365
▁ways	-8.75486
l	-8.75574
▁older	-8.75765
▁spent	-8.75769
se	-8.7579
▁friend	-8.75808
▁cable	-8.75817
▁functionality	-8.75896
▁color	-8.75976
▁finally	-8.76044
▁changing	-8.76079
▁harder	-8.76195
▁functions	-8.76489
▁appear	-8.76961
▁server	-8.77051
▁hour	-8.77609
▁limit	-8.77659
oyable	-8.77685
▁starting	-8.7781
▁Adobe	-8.77922
▁based	-8.77951
▁came	-8.78047
▁services	-8.78064
▁building	-8.78566
▁web	-8.78758
▁line	-8.79019
▁choice	-8.79042
▁rid	-8.79074
▁okay	-8.79076
ive	-8.79309
▁coming	-8.79438
▁correct	-8.79654
▁default	-8.7973
▁via	-8.79736
▁sort	-8.79798
▁subtitles	-8.8001
and	-8.80135
▁personal	-8.80152
▁connected	-8.80253
▁display	-8.80376
▁album	-8.80511
▁accounts	-8.80754
▁thank	-8.80828
▁contact	-8.80914
▁perfectly	-8.80984
▁believe	-8.81095
▁icon	-8.8113
▁Am	-8.81279
▁streams	-8.81323
▁events	-8.81346
▁removed	-8.81379
▁folders	-8.81647
▁today	-8.81818
▁documents	-8.81943
hile	-8.8226
▁keyboard	-8.82351
▁Although	-8.82462
▁guess	-8.82475
▁supposed	-8.82512
IT	-8.82575
▁although	-8.82682
▁suggest	-8.82973
▁basically	-8.83184
▁improved	-8.8332
▁cards	-8.83749
▁together	-8.84063
ince	-8.8412
oom	-8.84661
▁tool	-8.8472
▁missions	-8.84884
▁moving	-8.85247
▁messaging	-8.85312
ay	-8.8569
oes	-8.85864
▁prefer	-8.85911
ombie	-8.86061
▁care	-8.8626
▁format	-8.86418
▁reset	-8.86606
▁broken	-8.86697
▁worst	-8.8671
▁opening	-8.86743
nce	-8.87035
▁score	-8.87097
▁a	-8.87134
▁thumbs	-8.87169
▁spending	-8.87187
ix	-8.87333
▁date	-8.87384
▁taking	-8.87484
▁faster	-8.87671
▁l	-8.8794
anva	-8.87952
▁forced	-8.87959
k	-8.88013
▁info	-8.88155
▁lesson	-8.88218
▁tab	-8.88378
▁browser	-8.88467
ell	-8.88494
▁suggestion	-8.88521
▁plan	-8.88546
luto	-8.88555
▁process	-8.88594
▁similar	-8.88618
▁sending	-8.88644
▁behind	-8.8888
▁totally	-8.88975
▁means	-8.89219
▁software	-8.89242
ill	-8.89361
uently	-8.8956
hromecast	-8.89696
▁challenge	-8.90177
▁reinstalling	-8.90226
een	-8.90466
▁sense	-8.9049
▁mission	-8.90632
▁reels	-8.90704
al	-8.90776
▁appears	-8.9099
▁completed	-8.91017
▁controller	-8.91103
▁kick	-8.91289
aybe	-8.91813
smil	-8.9192
▁updating	-8.92006
asy	-8.92031
▁repeat	-8.92086
▁but	-8.92378
▁seeing	-8.92412
luetooth	-8.92435
▁loads	-8.93123
retty	-8.93194
▁constant	-8.9323
▁night	-8.93307
▁customer	-8.9357
▁glitchy	-8.93922
▁Telegram	-8.94315
p	-8.94568
one	-8.94581
▁and	-8.94751
▁finished	-8.94835
eep	-8.94897
▁consider	-8.94925
▁refresh	-8.94937
le	-8.94989
ew	-8.94991
▁cloud	-8.95018
▁thanks	-8.95032
▁cast	-8.95264
▁block	-8.95285
ombies	-8.95325
▁characters	-8.95516
▁case	-8.95547
▁bought	-8.95762
ue	-8.95931
▁uninstalling	-8.96003
▁offer	-8.961
▁town	-8.96153
▁breaks	-8.96318
iscord	-8.96345
▁laptop	-8.96381
orks	-8.96488
▁improvement	-8.96701
▁bigge	-8.96725
▁reopen	-8.96818
▁waste	-8.97151
ice	-8.97309
▁future	-8.97353
▁laggy	-8.97476
kept	-8.97721
▁battery	-8.98159
▁itself	-8.98162
▁casting	-8.98173
▁cut	-8.98277
▁ask	-8.98438
▁lower	-8.98494
▁was	-8.98553
▁skin	-8.98577
▁did	-8.98633
▁rewards	-8.98706
▁includ	-8.98788
▁irritating	-8.98989
▁driving	-8.99193
▁versions	-8.99245
▁finding	-8.99405
▁minor	-8.99526
▁w	-8.99698
▁twice	-8.99775
▁bonus	-8.99787
▁cancel	-9.00061
▁posts	-9.00142
ver	-9.00262
▁talk	-9.00413
inecraft	-9.00415
▁intuitive	-9.00468
▁no	-9.00578
▁artist	-9.00626
▁link	-9.00911
in	-9.01053
▁confusing	-9.01453
▁compared	-9.0151
▁smart	-9.01575
▁receive	-9.01709
▁lags	-9.01835
▁document	-9.01936
▁r	-9.0206
icrosoft	-9.02133
▁four	-9.02254
▁nearly	-9.02448
▁rest	-9.02479
ope	-9.02674
▁drive	-9.02718
▁t	-9.02785
▁poor	-9.02968
▁stupid	-9.03258
▁deleting	-9.03311
▁correctly	-9.03424
uolingo	-9.03781
▁particular	-9.03798
▁mention	-9.04169
▁losing	-9.04442
▁taken	-9.04528
▁art	-9.04552
▁ahead	-9.04837
oying	-9.04933
▁coin	-9.04985
▁expect	-9.05032
▁types	-9.05051
u	-9.05237
▁pu	-9.05268
▁incredibl	-9.0537
▁groups	-9.05508
▁monthly	-9.05696
▁push	-9.0582
▁website	-9.05945
▁favorites	-9.06094
▁area	-9.06242
▁comic	-9.06268
g	-9.0634
▁horrible	-9.06599
▁platforms	-9.06606
▁downloads	-9.06749
▁power	-9.06828
▁c	-9.07233
▁once	-9.0736
▁red	-9.07545
▁Add	-9.07592
▁anywhere	-9.07622
▁servers	-9.07648
alaxy	-9.08184
ish	-9.08228
▁separate	-9.08276
nother	-9.08373
▁keeping	-9.08486
ever	-9.08978
▁tools	-9.09374
▁interested	-9.09455
▁include	-9.09539
▁room	-9.09561
▁solid	-9.10237
▁chance	-9.10447
ecause	-9.10921
▁straight	-9.11099
▁whatsapp	-9.11114
▁offers	-9.11127
▁syncing	-9.11127
▁rewind	-9.11701
▁wants	-9.11895
▁reach	-9.11898
▁near	-9.11899
▁restarting	-9.12007
▁choices	-9.12177
▁bored	-9.12192
▁which	-9.12703
▁contacts	-9.13079
▁An	-9.13101
TI	-9.13137
▁Ads	-9.13274
▁sharing	-9.13472
▁regular	-9.13707
▁return	-9.1378
▁Twitch	-9.14078
f	-9.14492
▁b	-9.14558
espite	-9.14723
▁fitbit	-9.1504
▁Too	-9.15042
▁increase	-9.15043
m	-9.15154
▁wide	-9.15207
▁turns	-9.15222
▁fan	-9.15274
▁th	-9.15566
▁podcasts	-9.15566
▁light	-9.15645
▁kill	-9.15665
▁provide	-9.15779
▁sounds	-9.16118
▁f	-9.16331
▁word	-9.1662
▁concept	-9.16761
decided	-9.16894
▁bunch	-9.16911
▁performance	-9.16958
▁recommended	-9.17062
▁fixes	-9.17233
ting	-9.17592
nfortunately	-9.176
x	-9.17715
▁improvements	-9.17756
▁style	-9.17786
▁whe	-9.17956
▁creators	-9.17987
▁season	-9.18037
re	-9.18167
▁comments	-9.18449
▁fully	-9.1854
▁count	-9.18558
ect	-9.18691
▁convenient	-9.18736
▁immediately	-9.18782
▁discover	-9.18783
▁same	-9.18852
▁pull	-9.18946
uper	-9.1897
▁mark	-9.18987
aving	-9.19384
▁collect	-9.19456
▁learned	-9.19536
ore	-9.19551
▁expected	-9.19653
▁disappointing	-9.19858
▁stopping	-9.19871
▁pain	-9.1991
▁garden	-9.19979
econd	-9.19979
▁multiplayer	-9.20085
▁spot	-9.20116
▁cash	-9.20374
▁feed	-9.20407
▁complaints	-9.20449
▁double	-9.20673
▁m	-9.20745
eems	-9.20779
▁hold	-9.20923
▁disable	-9.20958
▁drop	-9.21068
his	-9.21103
▁from	-9.21245
▁tasks	-9.21251
▁food	-9.21333
▁goal	-9.21357
▁steps	-9.21412
hich	-9.21594
▁clean	-9.21757
▁discord	-9.21835
▁rarely	-9.21881
▁frustrated	-9.21982
▁comment	-9.2203
▁parts	-9.22351
face	-9.22666
▁potential	-9.22814
▁addictive	-9.22816
▁meet	-9.22821
▁recogni	-9.22872
▁errors	-9.23163
▁smoothly	-9.23179
▁password	-9.23334
▁backup	-9.23338
▁cra	-9.23494
▁luck	-9.23578
▁considering	-9.23641
uch	-9.23666
sed	-9.23676
▁lack	-9.23843
▁pages	-9.24041
▁closing	-9.24044
▁places	-9.2408
▁moment	-9.24104
▁copy	-9.24119
▁genre	-9.24275
▁reali	-9.24755
▁fair	-9.25019
▁reliable	-9.25142
▁calendar	-9.25165
▁response	-9.25237
▁sports	-9.25623
▁tru	-9.25653
▁designed	-9.25678
atest	-9.25755
the	-9.25773
▁restarted	-9.25791
▁individual	-9.2593
▁plenty	-9.25969
▁awful	-9.26189
▁suggestions	-9.26214
▁communication	-9.26406
▁feedback	-9.26711
▁slightly	-9.26741
henever	-9.26955
▁selected	-9.27003
▁site	-9.27139
▁inbox	-9.27254
▁causes	-9.27291
▁personally	-9.27421
▁switching	-9.27477
▁difficulty	-9.27489
layer	-9.27504
ots	-9.27509
▁depend	-9.27626
▁interest	-9.27685
▁lives	-9.27712
ity	-9.27722
▁k	-9.27773
▁accidentally	-9.28155
▁hoping	-9.28227
▁albums	-9.28289
▁solve	-9.28357
▁report	-9.28457
▁disappear	-9.28538
▁caus	-9.28618
▁switched	-9.28813
▁non	-9.28951
▁genres	-9.29111
▁filter	-9.29198
▁d	-9.29199
▁attention	-9.29229
▁resolved	-9.29329
▁reader	-9.29399
▁item	-9.29488
▁connecting	-9.29523
▁devs	-9.29587
▁through	-9.29793
othing	-9.29836
specially	-9.2987
no	-9.2999
xcellent	-9.30028
oblox	-9.30116
ueue	-9.30221
▁fall	-9.30459
▁buildings	-9.30561
us	-9.30667
ers	-9.30718
▁developer	-9.30886
▁mix	-9.31234
▁buying	-9.31304
▁loud	-9.31311
▁x	-9.31315
▁searching	-9.31407
▁hearts	-9.3144
▁costs	-9.3145
▁languages	-9.3172
▁helped	-9.31757
▁sad	-9.31766
▁classic	-9.3179
▁popup	-9.31824
▁creative	-9.31905
uit	-9.32057
box	-9.32109
▁talking	-9.32115
▁thinking	-9.32243
▁code	-9.32544
▁white	-9.32613
▁glad	-9.32631
▁fit	-9.32953
▁matches	-9.32963
▁enter	-9.33028
▁sub	-9.33047
▁twitch	-9.33101
ightroom	-9.33561
▁titles	-9.33834
▁the	-9.33836
▁exactly	-9.33876
▁turning	-9.34162
our	-9.34181
▁window	-9.34295
▁shut	-9.34321
▁solution	-9.34402
▁none	-9.3456
▁reasons	-9.34561
ews	-9.34562
▁history	-9.34905
▁v	-9.351
▁attempt	-9.35289
▁tracking	-9.35475
▁pls	-9.35566
▁radio	-9.35653
▁step	-9.35655
▁lagging	-9.35687
akes	-9.35696
▁fire	-9.3586
any	-9.36127
▁min	-9.36146
▁unfortunately	-9.3615
ather	-9.3617
▁occasionally	-9.36192
▁ups	-9.36248
▁demand	-9.36257
▁telegram	-9.36263
▁relaxing	-9.36394
▁wall	-9.36844
▁tricks	-9.37007
▁locked	-9.37079
onestly	-9.37124
▁opened	-9.37168
▁as	-9.37229
▁unusable	-9.37275
▁goals	-9.37286
▁throw	-9.37289
▁company	-9.37475
▁experienced	-9.37548
▁advance	-9.37603
▁clicking	-9.3771
▁product	-9.37717
▁continues	-9.37844
▁payment	-9.3789
▁trick	-9.37998
▁opens	-9.38164
▁closes	-9.38244
▁provides	-9.38269
▁we	-9.38344
▁realistic	-9.3854
▁closed	-9.38626
▁pc	-9.38632
▁grammar	-9.38663
▁diamonds	-9.38696
laylist	-9.38727
▁entertainment	-9.38832
▁tend	-9.38976
▁manage	-9.39037
▁anyway	-9.39084
▁why	-9.39543
▁stick	-9.39771
▁experiencing	-9.39779
▁gold	-9.39838
▁eventually	-9.39918
▁directly	-9.39929
▁ton	-9.39966
ecently	-9.40094
▁addition	-9.40102
▁aspect	-9.40138
▁favourite	-9.4018
▁yes	-9.40313
▁built	-9.40637
▁saving	-9.40702
▁login	-9.40736
efinitely	-9.40748
▁checked	-9.40808
▁afford	-9.40889
▁uni	-9.40897
uired	-9.41125
▁lock	-9.41274
▁fixing	-9.41866
▁catch	-9.4187
▁range	-9.42073
▁split	-9.42151
▁designs	-9.42385
▁google	-9.42514
▁creating	-9.42662
▁term	-9.4271
▁stand	-9.42831
▁upgrades	-9.4314
▁products	-9.43392
▁tone	-9.43456
ast	-9.43621
▁looked	-9.43644
▁roblox	-9.43679
▁bigger	-9.43738
▁stays	-9.43982
▁results	-9.44201
▁cleared	-9.44204
▁writing	-9.4422
▁respond	-9.44304
▁key	-9.44462
ro	-9.4453
indows	-9.44563
▁unlimited	-9.44726
▁popular	-9.44908
▁typing	-9.44921
▁unlike	-9.44929
ideo	-9.44929
▁received	-9.44937
umps	-9.45012
▁result	-9.45304
▁charge	-9.45339
▁expand	-9.45437
▁putting	-9.45485
▁special	-9.45696
▁sudden	-9.45821
▁community	-9.46025
▁userfriendly	-9.46036
▁ends	-9.46279
▁only	-9.46293
▁draw	-9.46329
▁ease	-9.46611
▁skips	-9.46685
▁slide	-9.46732
▁font	-9.46772
▁action	-9.46826
ried	-9.469
▁notice	-9.46913
▁buffer	-9.47
▁transfer	-9.47156
▁honest	-9.47163
▁endless	-9.47189
▁enemies	-9.47331
▁negative	-9.47335
▁teams	-9.47336
▁inconvenient	-9.47343
▁upthumbs	-9.47371
▁skins	-9.47417
▁becoming	-9.47552
▁alone	-9.47595
▁bother	-9.47663
▁boosters	-9.47664
▁write	-9.47683
▁details	-9.47769
▁effects	-9.47842
▁heard	-9.47852
▁export	-9.47853
▁period	-9.48067
▁landscape	-9.48081
▁pdf	-9.48161
ake	-9.48207
▁created	-9.48237
uent	-9.48623
▁about	-9.48671
id	-9.48673
▁spotify	-9.48673
▁explore	-9.4878
▁headphones	-9.48958
▁following	-9.49004
▁loop	-9.4905
▁complicated	-9.49151
▁entirely	-9.49231
▁tired	-9.49237
▁credits	-9.4929
▁Absolute	-9.49324
▁then	-9.49714
▁purchases	-9.50012
▁Alto	-9.50104
▁ruined	-9.50149
▁register	-9.50183
▁hunter	-9.50244
▁autoplay	-9.5049
▁entertaining	-9.50499
▁blue	-9.50569
▁previously	-9.50708
▁programs	-9.50735
▁complain	-9.50786
▁onto	-9.50824
old	-9.51099
▁Acrobat	-9.51388
▁somehow	-9.51404
▁fairly	-9.51787
▁dollars	-9.51832
am	-9.51885
▁location	-9.51981
▁difference	-9.51991
▁guns	-9.51997
▁visual	-9.52526
▁e	-9.52543
opefully	-9.52593
▁asking	-9.52615
▁upgraded	-9.52755
▁Awesome	-9.52771
▁security	-9.52773
▁intrusive	-9.52784
▁sit	-9.5289
remium	-9.52907
▁glitching	-9.52959
▁navigation	-9.53004
rom	-9.53124
▁alternative	-9.5339
TA	-9.53449
▁stable	-9.53449
▁posted	-9.5352
▁fails	-9.53522
▁logging	-9.53679
▁mute	-9.53682
▁theme	-9.53872
▁allowed	-9.53941
▁purpose	-9.54001
▁calling	-9.54285
▁g	-9.54395
▁colors	-9.54439
umping	-9.54571
▁tapping	-9.54723
inning	-9.55042
ight	-9.55116
▁event	-9.55128
▁shooting	-9.55293
all	-9.55579
▁garbage	-9.55606
▁st	-9.55728
▁shoot	-9.55748
▁impressed	-9.55798
▁mins	-9.55803
▁tons	-9.55843
▁agree	-9.55967
c	-9.5601
▁kids	-9.56064
▁included	-9.56154
b	-9.56687
▁finger	-9.56861
▁can	-9.56875
panish	-9.56954
▁fail	-9.57038
▁advertising	-9.57082
▁fill	-9.57155
▁technical	-9.57195
▁h	-9.57328
▁posting	-9.57425
▁method	-9.57716
▁downside	-9.57736
▁worlds	-9.57749
▁fee	-9.57787
▁ended	-9.579
▁focus	-9.57969
.....	-9.58083
▁purchased	-9.58155
▁shame	-9.58195
▁mine	-9.582
▁mail	-9.58233
▁yesterday	-9.58529
▁memory	-9.5853
ls	-9.58594
▁areas	-9.58595
▁called	-9.58777
▁disappeared	-9.58804
▁beside	-9.58821
red	-9.58914
▁seriously	-9.59007
▁collection	-9.59242
▁materials	-9.59259
ar	-9.59285
▁newest	-9.59434
les	-9.59584
hone	-9.59613
nstead	-9.59842
▁school	-9.60106
▁co	-9.60319
▁maps	-9.60353
▁dislike	-9.60365
▁additional	-9.60521
▁chromebook	-9.60542
efore	-9.60616
▁delay	-9.60629
▁die	-9.60725
▁blank	-9.60726
▁other	-9.61065
▁active	-9.61181
▁avoid	-9.61277
▁serious	-9.61349
▁buffers	-9.61555
▁pl	-9.61744
▁forget	-9.61928
▁brightness	-9.62037
▁reward	-9.621
ld	-9.62136
▁missed	-9.6215
▁algorithm	-9.62274
▁clearly	-9.62407
▁tech	-9.62445
▁lol	-9.62597
he	-9.62784
hromebook	-9.62902
▁Though	-9.62951
▁clunky	-9.63064
▁Always	-9.63072
▁frame	-9.63203
mail	-9.6323
rated	-9.63259
▁failed	-9.63279
nglish	-9.63313
▁highlight	-9.63362
▁recommendations	-9.63419
▁shown	-9.63491
▁strong	-9.63551
▁answer	-9.63611
▁round	-9.63628
▁spam	-9.63817
▁gr	-9.63825
eeds	-9.63835
me	-9.64093
▁cu	-9.64127
nd	-9.64312
▁true	-9.64369
▁row	-9.64608
▁hidden	-9.64621
▁dead	-9.64729
▁title	-9.64753
▁optional	-9.64888
▁templates	-9.65184
ree	-9.65327
▁guide	-9.65511
▁con	-9.6562
▁disappears	-9.65771
ects	-9.65994
w	-9.66003
▁widget	-9.66212
▁saw	-9.66239
▁fro	-9.66427
▁tweet	-9.66476
▁tries	-9.66502
▁IT	-9.66577
▁timer	-9.66738
to	-9.66747
▁n	-9.67066
▁task	-9.67074
▁lines	-9.67153
▁graphic	-9.6759
raphics	-9.67729
▁automatic	-9.67814
▁mid	-9.67815
▁parkour	-9.6783
▁awhile	-9.67842
▁uploading	-9.67857
▁annoyed	-9.67959
▁dropbox	-9.6801
▁telling	-9.68389
▁handle	-9.68527
▁setup	-9.68581
▁storyline	-9.68679
▁preview	-9.68695
▁gaming	-9.68819
▁revert	-9.68848
▁podcast	-9.68938
▁tweets	-9.69024
▁exact	-9.69259
▁gallery	-9.69468
▁water	-9.69469
▁kodi	-9.6948
▁record	-9.6949
▁leaving	-9.69497
▁local	-9.69515
▁head	-9.69519
▁hulu	-9.69564
▁consistently	-9.69634
▁necessary	-9.69703
▁aim	-9.69858
▁outlook	-9.69886
▁third	-9.69962
▁complet	-9.70023
▁authors	-9.7004
▁minimi	-9.70066
▁webtoon	-9.7036
▁early	-9.70369
▁animations	-9.70502
▁streamers	-9.70502
ought	-9.70508
app	-9.70582
▁animation	-9.70587
▁related	-9.70743
▁lacks	-9.70782
▁functional	-9.70866
▁gain	-9.7094
▁privacy	-9.71128
▁alright	-9.71129
▁anytime	-9.71132
▁unnecessary	-9.71136
ind	-9.71349
▁mechanics	-9.71369
▁bonuses	-9.71372
▁total	-9.71449
▁forc	-9.71455
▁everyday	-9.71468
▁suggested	-9.71777
▁incredible	-9.7181
▁weapon	-9.72026
▁reel	-9.72191
▁speak	-9.7228
▁self	-9.72461
ally	-9.72748
▁numbers	-9.72748
▁private	-9.7282
▁damn	-9.72824
▁editor	-9.72832
▁minecraft	-9.72902
▁resolve	-9.72988
▁unplayable	-9.73096
▁toward	-9.73309
▁import	-9.73487
v	-9.73502
▁competition	-9.73754
▁walk	-9.73844
▁direction	-9.74078
▁resolution	-9.74183
▁custom	-9.74202
▁minimal	-9.74228
verytime	-9.74289
▁cry	-9.74346
▁throughout	-9.74561
▁programming	-9.74598
▁usage	-9.74631
▁proper	-9.75351
▁communicate	-9.75356
▁position	-9.75389
▁basics	-9.75408
phone	-9.75553
▁standard	-9.75662
lmost	-9.75702
▁man	-9.75937
▁medium	-9.76011
▁browse	-9.76033
ither	-9.76093
hatsapp	-9.76167
▁broke	-9.76202
▁accurate	-9.7621
▁replay	-9.76228
▁chose	-9.76237
▁addicting	-9.76305
▁cuts	-9.7636
▁purchasing	-9.76372
▁nowhere	-9.764
▁has	-9.76567
▁football	-9.76682
ard	-9.76796
ixel	-9.77132
▁credit	-9.7737
▁country	-9.77531
unk	-9.77579
▁paused	-9.77685
▁sends	-9.77804
▁clicked	-9.7791
▁source	-9.77929
oku	-9.77947
▁host	-9.78053
▁beyond	-9.78078
▁continuously	-9.78172
▁likely	-9.78185
▁front	-9.78308
▁scan	-9.78364
▁smaller	-9.78521
ead	-9.78532
▁bots	-9.7857
▁personali	-9.78698
▁reasonable	-9.78723
▁suck	-9.78761
▁skills	-9.78772
ero	-9.78834
▁Any	-9.78968
The	-9.79061
▁positive	-9.79148
▁rotate	-9.79294
▁lacking	-9.79426
▁slowly	-9.79512
less	-9.79534
now	-9.79589
▁meaning	-9.79633
ies	-9.79657
ability	-9.79675
oo	-9.79684
acebook	-9.7976
▁consuming	-9.79934
sing	-9.80114
▁breaking	-9.80136
▁stats	-9.80147
▁chamet	-9.8018
▁skipping	-9.80224
▁checking	-9.80305
▁hundreds	-9.80388
here	-9.8047
▁flow	-9.80533
▁sheet	-9.80598
▁struggle	-9.80631
▁normally	-9.80663
▁asked	-9.80929
▁instance	-9.80944
th	-9.80958
▁articles	-9.80999
▁pre	-9.81046
▁decide	-9.81114
▁effort	-9.81123
▁signal	-9.81162
ook	-9.81365
eed	-9.81488
oystick	-9.81653
▁trash	-9.8172
▁felt	-9.81731
▁outside	-9.81768
ic	-9.81899
ey	-9.8197
▁elements	-9.82007
▁categories	-9.82064
▁loose	-9.82109
▁drain	-9.82136
▁lead	-9.82159
time	-9.82198
▁upon	-9.82234
etter	-9.8228
▁cheaper	-9.82401
▁mistakes	-9.82503
▁professional	-9.82568
▁ideas	-9.82577
▁saves	-9.82599
▁article	-9.82851
▁gripe	-9.83255
at	-9.83293
▁explain	-9.83429
▁address	-9.83457
▁thru	-9.83632
ately	-9.83659
▁apparent	-9.83661
▁cover	-9.83728
▁conversation	-9.83799
▁forces	-9.83825
▁lyrics	-9.83964
▁subscribe	-9.83981
▁pressing	-9.84033
▁displayed	-9.84189
signed	-9.84189
▁ob	-9.84348
▁length	-9.84433
▁clip	-9.84529
▁ruin	-9.84576
▁teach	-9.84595
▁clips	-9.84614
▁movement	-9.84783
▁uno	-9.84861
▁exercise	-9.84926
like	-9.85099
▁shooter	-9.8515
▁flip	-9.85211
▁blocks	-9.8579
▁safe	-9.85836
▁bluetooth	-9.85942
▁regularly	-9.85955
▁br	-9.85971
omething	-9.86132
▁hearing	-9.86277
▁mistake	-9.8644
▁hell	-9.86592
▁kinds	-9.86603
▁redownload	-9.8665
▁screenshot	-9.86689
▁tutorial	-9.8672
▁beginner	-9.86746
▁novel	-9.86753
inally	-9.86882
It	-9.87034
you	-9.87169
▁vari	-9.87229
▁recording	-9.87272
▁insane	-9.87312
ate	-9.87405
▁inside	-9.87537
▁hooked	-9.87545
▁watchlist	-9.87577
nt	-9.87701
▁present	-9.87788
▁category	-9.87821
▁edits	-9.88019
▁slower	-9.88148
▁own	-9.88439
▁ready	-9.88444
▁customers	-9.88476
▁recharge	-9.8853
▁frustration	-9.88651
▁subtitle	-9.88724
folded	-9.88826
▁figured	-9.88845
▁brand	-9.89076
▁form	-9.89181
▁remote	-9.89305
▁secure	-9.89363
▁readers	-9.89438
ons	-9.89454
▁release	-9.89568
▁reduce	-9.89599
▁scores	-9.89665
▁regardless	-9.89681
▁tiny	-9.89789
▁reload	-9.89813
▁matching	-9.90017
thumbs	-9.9004
▁ingame	-9.90068
▁goto	-9.90132
▁barn	-9.90142
▁yeah	-9.90144
▁showed	-9.90193
▁unlocked	-9.9027
▁ruins	-9.90327
▁uploaded	-9.90733
▁client	-9.90752
▁popp	-9.90823
▁odd	-9.90853
▁provider	-9.90883
▁value	-9.91252
▁mentioned	-9.91269
▁speaking	-9.91338
uid	-9.91383
eople	-9.91396
▁moved	-9.91646
▁gun	-9.91653
▁chatting	-9.91689
▁membership	-9.91872
ong	-9.91893
▁mood	-9.91958
▁schedule	-9.92179
▁suit	-9.92182
▁refuses	-9.92195
▁advanced	-9.92426
ring	-9.92619
▁selections	-9.92748
▁streak	-9.92852
▁likes	-9.92949
▁fault	-9.93089
▁effect	-9.93118
▁hide	-9.93166
od	-9.93274
▁tracker	-9.93288
▁drops	-9.93315
usiness	-9.93324
▁filters	-9.9334
▁keys	-9.93448
▁prevent	-9.93669
▁Addi	-9.93754
▁regard	-9.93791
▁soundcloud	-9.938
tionally	-9.93888
▁health	-9.93944
▁tedious	-9.93954
▁films	-9.94138
ose	-9.94139
▁accessible	-9.94214
▁grow	-9.94248
up	-9.94254
▁sec	-9.94341
▁party	-9.94708
▁pic	-9.94745
▁enable	-9.94835
ebtoon	-9.94848
▁hang	-9.94855
▁regatta	-9.94963
age	-9.95042
▁hardly	-9.95043
▁cheap	-9.95086
▁had	-9.95172
ness	-9.95239
▁essential	-9.95252
▁links	-9.95663
▁warning	-9.95677
uests	-9.95685
▁bare	-9.95724
▁repeatedly	-9.95872
▁prices	-9.95937
▁earlier	-9.96007
▁television	-9.9609
▁rare	-9.96131
▁appreciated	-9.96296
▁offered	-9.96308
▁emo	-9.96331
▁boxes	-9.96464
▁barel	-9.96507
▁station	-9.96571
▁written	-9.96607
nable	-9.96616
▁shared	-9.96757
▁names	-9.96758
▁board	-9.96868
▁ending	-9.97038
ersa	-9.97302
ion	-9.97359
▁develop	-9.97373
▁intro	-9.97383
▁should	-9.97415
▁netflix	-9.97511
kay	-9.97581
indly	-9.97617
▁market	-9.97655
▁toggle	-9.977
▁city	-9.9787
▁morning	-9.97928
▁consistent	-9.9793
ce	-9.97951
▁willing	-9.97967
▁rules	-9.98146
▁thus	-9.98181
▁utili	-9.9826
▁pace	-9.9838
▁specifically	-9.98381
▁rock	-9.98396
▁obviously	-9.98466
if	-9.98576
ext	-9.98669
▁green	-9.9877
ve	-9.98816
ng	-9.98836
▁responding	-9.98851
▁ran	-9.98923
▁edited	-9.9925
▁corner	-9.99309
▁restarts	-9.99312
▁avatar	-9.99339
▁portion	-9.99413
etting	-9.99413
eaming	-9.99453
▁pics	-9.99469
▁print	-9.99481
▁angle	-9.99587
▁rocks	-9.99635
▁development	-9.9964
▁Auto	-9.99698
ig	-9.99825
▁helping	-9.99893
▁vs	-9.99945
▁placed	-9.99953
rive	-9.99969
▁timing	-10
▁installing	-10.0001
obile	-10.0004
ector	-10.0012
▁elsewhere	-10.0016
▁infuriating	-10.0017
▁surprised	-10.0023
ely	-10.0032
ote	-10.0037
out	-10.0042
▁pausing	-10.0043
▁million	-10.005
▁remains	-10.0063
▁modes	-10.0068
▁addons	-10.0095
ear	-10.0097
▁se	-10.01
▁covers	-10.0108
▁crashed	-10.0111
▁released	-10.0121
▁webtoons	-10.0123
▁visuals	-10.0133
rime	-10.0133
▁flaw	-10.0138
screen	-10.015
down	-10.0164
▁path	-10.0165
ant	-10.017
▁fake	-10.0175
body	-10.0193
▁skill	-10.021
▁supported	-10.023
andora	-10.0241
▁increasing	-10.0251
▁encountered	-10.0252
▁micro	-10.026
ade	-10.0265
▁uses	-10.0265
▁subscribed	-10.0266
ack	-10.0276
▁contain	-10.0293
▁interact	-10.0298
▁addressed	-10.0303
▁de	-10.0309
ted	-10.0315
▁winning	-10.032
ily	-10.0323
ighly	-10.0342
▁remov	-10.0346
▁common	-10.0366
▁effective	-10.0367
▁hot	-10.0382
▁final	-10.0393
▁package	-10.0394
▁material	-10.0396
▁li	-10.0397
▁at	-10.0402
▁kid	-10.0404
ava	-10.0429
▁sentence	-10.0432
end	-10.0456
▁earned	-10.0461
▁occur	-10.0473
▁horror	-10.0474
▁engaging	-10.0475
▁distance	-10.0475
▁instagram	-10.0475
▁somewhere	-10.0475
▁doubt	-10.0476
▁profiles	-10.0478
▁seemingly	-10.0479
▁improving	-10.048
▁forth	-10.048
▁busy	-10.0484
▁timeline	-10.0494
▁arrow	-10.0509
▁powerful	-10.0513
▁wheel	-10.0515
▁listened	-10.0521
▁dis	-10.053
▁Apple	-10.0551
▁advertisements	-10.0552
arious	-10.0556
▁disconnect	-10.0562
ority	-10.0579
▁boost	-10.0582
▁cell	-10.062
eader	-10.0622
▁killing	-10.0626
▁noise	-10.0632
▁launch	-10.0642
ous	-10.0649
▁max	-10.0655
▁league	-10.0669
▁strange	-10.0686
ecent	-10.069
▁obvious	-10.0693
▁prior	-10.071
▁robux	-10.0712
▁dropped	-10.0713
▁pointless	-10.0719
▁memories	-10.072
▁repeats	-10.072
▁visible	-10.072
▁sometime	-10.0722
▁fac	-10.0732
▁tips	-10.0739
ach	-10.0741
andor	-10.0751
▁Again	-10.0752
▁detail	-10.0763
▁walking	-10.0776
▁lists	-10.0793
▁rd	-10.0816
▁teaching	-10.0845
▁hassle	-10.0859
▁pixel	-10.0866
xtreme	-10.0868
▁begin	-10.0869
▁annoyance	-10.0873
▁console	-10.0873
▁cross	-10.0879
atch	-10.0886
▁rolling	-10.0893
▁members	-10.0898
▁refuse	-10.0913
▁advertisement	-10.0914
▁state	-10.092
▁where	-10.0934
▁occasional	-10.0938
▁efficient	-10.0942
▁claim	-10.0944
▁usual	-10.0945
▁myself	-10.0955
▁unavailable	-10.0957
▁galaxy	-10.0964
▁portrait	-10.0994
▁funny	-10.0999
▁loving	-10.1004
▁pri	-10.1042
▁pieces	-10.1047
▁exercises	-10.1056
▁Is	-10.106
▁center	-10.107
▁road	-10.1071
▁land	-10.1073
not	-10.1097
▁courses	-10.1101
▁canva	-10.1137
▁speaker	-10.1139
▁weekly	-10.1154
▁leaves	-10.1162
ling	-10.1165
▁affect	-10.1171
▁inventory	-10.1206
▁average	-10.1206
▁somewhat	-10.1207
▁survival	-10.1207
▁digital	-10.1208
▁base	-10.1216
▁instantly	-10.1216
▁sections	-10.1219
▁massive	-10.1221
▁formats	-10.1223
▁enabled	-10.1227
▁exist	-10.1231
▁displays	-10.1239
▁thousands	-10.1248
▁input	-10.1264
▁Trying	-10.1267
▁exciting	-10.1268
▁trains	-10.127
▁contacted	-10.1281
ure	-10.1285
▁optimi	-10.1285
▁aiming	-10.1286
▁hopefully	-10.1291
▁flaws	-10.1294
▁pack	-10.1296
tar	-10.13
▁test	-10.1301
asks	-10.1308
▁followed	-10.1317
▁charged	-10.1335
▁earning	-10.1345
▁subscriptions	-10.1352
▁craft	-10.1353
low	-10.1362
▁handy	-10.137
▁circle	-10.138
▁ticket	-10.1382
▁scene	-10.1398
▁seasons	-10.1406
▁multi	-10.1412
ere	-10.1415
xcept	-10.1422
▁experiences	-10.1429
her	-10.1432
▁deep	-10.1434
▁confused	-10.145
▁structure	-10.145
▁campaign	-10.1462
▁swiping	-10.1469
▁chords	-10.149
▁versa	-10.1492
▁fitness	-10.1501
▁presets	-10.1502
▁currency	-10.1502
▁receiving	-10.1507
▁obstacles	-10.1515
▁particularly	-10.1522
▁resets	-10.1529
please	-10.1531
▁gifts	-10.1533
▁weight	-10.1546
▁gift	-10.1553
ello	-10.1581
ent	-10.1584
▁Audio	-10.1586
▁nd	-10.1588
▁such	-10.1589
▁liking	-10.1602
▁reboot	-10.1616
▁reconnect	-10.1623
uestion	-10.1638
robably	-10.1648
▁stage	-10.1676
▁annoy	-10.1688
▁bars	-10.1689
▁member	-10.1699
▁manual	-10.1706
▁solved	-10.1707
▁mouse	-10.172
▁numerous	-10.1725
▁reccomend	-10.1726
▁management	-10.1726
▁appearing	-10.1726
▁everywhere	-10.1727
▁aggravating	-10.1727
▁Two	-10.173
▁cutting	-10.1731
▁choosing	-10.1734
▁advertised	-10.1737
▁restore	-10.1745
▁bigo	-10.1757
▁atleast	-10.1764
▁provided	-10.1764
▁stress	-10.1765
▁countries	-10.1765
▁loss	-10.1766
▁youtube	-10.1767
▁yrs	-10.1775
▁binge	-10.1778
▁sorry	-10.1778
▁backwards	-10.1788
▁aware	-10.1792
▁banned	-10.1802
▁kicked	-10.183
▁wear	-10.1843
▁passes	-10.1852
▁cute	-10.1857
▁drag	-10.1885
▁aspects	-10.1895
ang	-10.1904
even	-10.1912
te	-10.1916
▁adventure	-10.1917
ra	-10.1925
▁dog	-10.1929
ist	-10.194
▁subscriber	-10.1952
▁shot	-10.1961
▁greatest	-10.1969
▁impressive	-10.1971
▁excessive	-10.1973
▁brilliant	-10.1975
▁incorrect	-10.1976
▁most	-10.1984
astly	-10.1988
▁minimum	-10.1995
TT	-10.1995
▁compatible	-10.1998
▁nightmare	-10.2
▁progression	-10.2002
▁halfway	-10.2004
▁mixes	-10.203
▁vlc	-10.2032
▁interruptions	-10.2032
▁wasted	-10.2039
▁fox	-10.2059
▁reached	-10.2067
▁badly	-10.2067
▁satisfying	-10.2073
▁disabled	-10.2073
▁satisfied	-10.2077
▁activity	-10.2081
▁ten	-10.2085
▁lucky	-10.2087
top	-10.2105
▁topics	-10.2106
▁mic	-10.2108
▁imagine	-10.212
▁accident	-10.2121
▁compare	-10.2144
▁fonts	-10.2146
▁fresh	-10.2152
▁bothers	-10.2154
AI	-10.2165
ary	-10.2172
▁killer	-10.2173
▁attempts	-10.218
▁environment	-10.2191
▁floor	-10.2195
▁feeling	-10.2202
▁peoples	-10.2207
▁refreshing	-10.2213
oundcloud	-10.2246
urrently	-10.2264
▁opposite	-10.2266
▁upgrading	-10.2271
▁recognition	-10.2274
▁struggling	-10.2282
▁lightroom	-10.2283
▁reduced	-10.2286
▁distracting	-10.2288
▁gems	-10.2323
▁blocked	-10.2338
▁stickers	-10.2345
▁menus	-10.2346
▁rewatch	-10.2349
▁stored	-10.2351
uestions	-10.2351
ire	-10.2352
▁fingers	-10.2363
laying	-10.2367
▁sorted	-10.2374
▁broadcast	-10.242
▁canceling	-10.2425
ooks	-10.2435
▁oh	-10.2443
▁repeating	-10.2449
▁scale	-10.2498
▁bec	-10.2499
ser	-10.2503
▁field	-10.2517
▁infinite	-10.2533
▁house	-10.2544
▁Adventure	-10.2552
▁capabilities	-10.2558
▁internal	-10.2559
ontrols	-10.2563
▁primary	-10.2563
▁basis	-10.2564
▁aside	-10.2568
▁disconnected	-10.2577
▁resources	-10.2586
which	-10.2594
▁model	-10.261
▁applications	-10.2626
▁resi	-10.2638
▁playable	-10.2639
ment	-10.2641
▁ap	-10.2655
▁odds	-10.2662
▁wonder	-10.2676
▁holding	-10.2684
▁discovered	-10.2694
▁sources	-10.2711
when	-10.2721
▁listed	-10.2723
ideos	-10.2727
▁eye	-10.2731
▁ages	-10.2756
▁sensitive	-10.2764
▁age	-10.2766
▁alert	-10.2768
▁signature	-10.2776
▁fell	-10.2787
▁logg	-10.2789
▁pin	-10.279
▁growing	-10.2793
▁loaded	-10.2797
▁casual	-10.2824
this	-10.2841
antastic	-10.2843
▁opportunity	-10.2846
▁unknown	-10.2846
▁supplies	-10.2852
▁flawlessly	-10.2855
▁introduced	-10.2863
ninstalled	-10.2864
▁accept	-10.2879
▁sunglasses	-10.2881
▁apart	-10.2882
▁beg	-10.2884
▁timed	-10.2889
▁tag	-10.2894
▁slight	-10.2895
▁misleading	-10.2897
▁browsing	-10.2897
▁opt	-10.2898
aid	-10.2903
▁tilt	-10.2912
coming	-10.2917
▁cycle	-10.2919
ch	-10.2931
either	-10.2939
▁fly	-10.2955
▁dee	-10.2958
▁heartr	-10.296
▁downgrade	-10.297
▁competitive	-10.2982
▁known	-10.2987
uir	-10.2989
ften	-10.299
ode	-10.3006
lon	-10.3041
hould	-10.3057
▁Team	-10.306
▁explanation	-10.3068
▁logo	-10.3087
elp	-10.3101
▁staying	-10.3116
▁train	-10.3119
▁film	-10.3124
ntil	-10.3127
ltra	-10.3131
▁ideal	-10.3137
▁paste	-10.3137
atching	-10.3142
▁avail	-10.3144
▁detect	-10.3145
▁foreign	-10.3149
▁airport	-10.3149
▁budget	-10.315
▁forgot	-10.315
▁surprising	-10.3155
▁notified	-10.3157
▁anime	-10.316
▁physics	-10.3164
▁continuing	-10.3177
▁competitors	-10.318
▁inapp	-10.3181
ninstalling	-10.3184
▁trigger	-10.319
▁increased	-10.3194
▁remind	-10.3195
▁vector	-10.3199
▁xbox	-10.3199
▁permissions	-10.3202
▁native	-10.3235
▁viewers	-10.3248
▁speakers	-10.3248
▁wasting	-10.325
▁folded	-10.3253
▁documentaries	-10.3274
▁originally	-10.3285
▁...	-10.3292
▁grind	-10.33
tv	-10.332
ain	-10.3322
▁taste	-10.3334
▁class	-10.3342
▁shuts	-10.3352
▁sick	-10.3355
nning	-10.3376
▁practical	-10.3387
back	-10.339
▁crop	-10.3391
▁rely	-10.34
▁greatly	-10.3404
imple	-10.3414
▁among	-10.3416
▁chromecast	-10.342
▁guy	-10.3431
▁styles	-10.3444
▁catalog	-10.346
▁childhood	-10.3461
▁connectivity	-10.3461
▁rigged	-10.3462
▁virtual	-10.3462
▁empty	-10.3463
▁bundle	-10.3464
▁interactive	-10.3464
▁sliding	-10.3465
▁preferred	-10.3466
▁permanently	-10.3474
▁neat	-10.3476
▁instructions	-10.3476
▁public	-10.3478
▁duolingo	-10.3478
▁screens	-10.3481
▁edge	-10.3484
▁master	-10.3494
▁supports	-10.3498
▁into	-10.3502
▁transition	-10.3513
▁dialogue	-10.3515
▁weak	-10.3518
oved	-10.3519
▁individually	-10.352
▁tabs	-10.3533
▁race	-10.3543
▁focused	-10.3551
▁meant	-10.3554
▁dev	-10.3559
rs	-10.3566
▁stations	-10.3573
▁complaining	-10.3577
▁research	-10.3599
▁filled	-10.3599
▁AI	-10.3612
pad	-10.3616
▁disappearing	-10.3648
▁moments	-10.3703
▁description	-10.3703
▁mb	-10.3738
▁messing	-10.3739
▁who	-10.3759
▁soundtrack	-10.3763
▁tears	-10.3777
▁superb	-10.3779
edia	-10.3781
▁vocabulary	-10.3784
▁creativity	-10.3784
▁twitter	-10.3784
▁unresponsive	-10.3784
▁repetition	-10.3784
▁stunning	-10.3785
▁technology	-10.3785
udos	-10.379
▁advertise	-10.3796
▁beta	-10.3797
▁patient	-10.3797
▁relative	-10.38
ens	-10.3805
▁streamer	-10.381
sides	-10.3819
ui	-10.3821
▁scratch	-10.3823
▁captions	-10.3826
uicker	-10.3837
▁wherever	-10.3838
▁perhaps	-10.3838
ts	-10.385
▁wise	-10.3864
imply	-10.3882
igo	-10.3883
▁leagues	-10.3895
▁texting	-10.39
▁hundred	-10.3921
▁conversations	-10.3922
▁designing	-10.3933
ual	-10.3934
▁Take	-10.3941
uel	-10.3958
▁blow	-10.3966
▁cord	-10.3967
uali	-10.3974
ia	-10.3974
▁slides	-10.3982
riginal	-10.3983
▁when	-10.4013
▁behavior	-10.402
▁bed	-10.4024
▁blast	-10.4024
▁synced	-10.4032
▁inconvenience	-10.4035
▁panel	-10.4035
orry	-10.406
▁orders	-10.4062
▁flash	-10.4063
so	-10.4067
▁implement	-10.4097
ersonally	-10.4114
▁whatsoever	-10.4117
▁Township	-10.4117
▁activities	-10.4117
▁external	-10.4118
▁outstanding	-10.4118
▁patience	-10.4119
▁unfair	-10.4121
▁la	-10.4121
▁greedy	-10.4122
uo	-10.4123
▁success	-10.4123
▁destroy	-10.4124
▁knowledge	-10.4129
▁bucks	-10.4134
▁interrupted	-10.4146
▁tested	-10.4147
▁air	-10.4153
▁locks	-10.4157
▁talent	-10.4158
▁speech	-10.417
▁genuine	-10.417
▁extend	-10.4182
▁shorter	-10.4185
▁deserves	-10.4192
ur	-10.4199
▁vary	-10.4203
▁edition	-10.4209
other	-10.4249
eeps	-10.4251
▁assume	-10.4255
▁releases	-10.4259
▁sport	-10.4261
▁Their	-10.4273
▁steam	-10.4335
ames	-10.4345
ble	-10.4367
▁creator	-10.4387
▁pauses	-10.4403
bility	-10.442
▁kills	-10.4455
aking	-10.446
asically	-10.446
▁opportunities	-10.4462
▁enemy	-10.4462
▁grateful	-10.4462
▁unwatchable	-10.4462
▁comparison	-10.4462
▁phenomenal	-10.4463
▁hearteyes	-10.4463
▁disappointment	-10.4463
▁messenger	-10.4464
▁nowadays	-10.4464
▁desired	-10.4469
▁dumb	-10.4469
▁express	-10.4474
▁troubleshooting	-10.4478
▁replies	-10.4479
▁clock	-10.4483
▁highest	-10.449
▁tune	-10.449
▁detailed	-10.4492
▁seamless	-10.4498
uare	-10.4503
ectives	-10.4504
rench	-10.4505
▁ground	-10.4506
▁travel	-10.4508
▁connects	-10.4515
▁perks	-10.4521
tars	-10.4536
▁physical	-10.4539
free	-10.457
▁letters	-10.457
▁sides	-10.4573
▁introduce	-10.4577
▁ratio	-10.4585
ark	-10.4593
sually	-10.4595
▁finishing	-10.4607
▁networks	-10.4614
ool	-10.4617
▁some	-10.4648
▁locations	-10.4664
▁acting	-10.467
▁by	-10.4673
slightly	-10.4681
ine	-10.4691
▁prompt	-10.4696
▁expecting	-10.4706
▁met	-10.4736
▁di	-10.4738
▁situation	-10.4739
▁deserve	-10.4742
ustment	-10.4746
▁my	-10.4749
ating	-10.4764
heart	-10.4765
▁undo	-10.4766
▁session	-10.4774
▁backward	-10.4797
▁initial	-10.48
▁direct	-10.4807
oining	-10.4811
▁atmosphere	-10.4819
▁target	-10.4819
▁straightforward	-10.482
▁anybody	-10.482
▁asleep	-10.482
▁choppy	-10.4821
▁spinning	-10.4821
▁sweat	-10.4821
▁typically	-10.4822
▁skipped	-10.4822
▁cancelled	-10.4823
iterally	-10.4824
▁navigating	-10.4827
▁spelling	-10.4828
▁advice	-10.4829
▁seek	-10.4832
▁comfortable	-10.4833
▁piece	-10.4833
▁Try	-10.4836
▁wild	-10.4841
▁grab	-10.4846
▁compete	-10.4852
▁upset	-10.4857
▁encourage	-10.4859
▁smoother	-10.4872
▁relevant	-10.4884
▁counter	-10.4884
▁doing	-10.4885
treaming	-10.4895
▁gear	-10.491
▁curve	-10.4919
ax	-10.4927
▁scenes	-10.4933
▁excit	-10.4945
way	-10.4946
▁linked	-10.4952
▁packs	-10.496
▁mad	-10.4983
▁redo	-10.4985
▁table	-10.4998
ho	-10.5016
▁after	-10.502
▁filling	-10.5023
▁bot	-10.5025
use	-10.5026
▁concern	-10.5039
▁remain	-10.5042
▁windows	-10.5079
▁pricey	-10.5083
▁activate	-10.5101
roblem	-10.5104
▁coop	-10.5109
▁vast	-10.5109
▁interests	-10.511
▁benefit	-10.511
▁fav	-10.5129
▁under	-10.5132
▁unlocking	-10.5136
ooms	-10.5142
▁suppose	-10.5164
▁enhance	-10.518
▁memori	-10.518
erfect	-10.5183
esktop	-10.5186
▁unacceptable	-10.519
apanese	-10.519
▁official	-10.519
▁energy	-10.5191
eah	-10.5191
▁ultra	-10.5191
ameplay	-10.5194
▁continually	-10.5194
▁exploring	-10.5196
ovies	-10.5197
▁intended	-10.5198
▁Internet	-10.5198
▁monsters	-10.5204
▁seamlessly	-10.5211
eb	-10.5216
▁bank	-10.5218
▁achievements	-10.5219
earch	-10.522
▁speeds	-10.5224
▁plain	-10.5226
▁bands	-10.5237
▁knowing	-10.524
video	-10.5245
▁reread	-10.5245
▁viewer	-10.5245
▁worry	-10.5248
▁followers	-10.5264
▁colour	-10.5271
tion	-10.5287
el	-10.53
▁dropping	-10.5311
▁hangs	-10.5312
▁retry	-10.533
▁poorly	-10.5331
▁farm	-10.5332
▁manager	-10.5333
▁pleased	-10.5335
▁convert	-10.5336
▁or	-10.5337
ry	-10.5346
▁six	-10.5349
eneral	-10.535
▁thinks	-10.535
tory	-10.5355
light	-10.5363
▁..	-10.5366
▁repair	-10.537
▁sentences	-10.5375
mart	-10.5393
▁produce	-10.5393
▁purposes	-10.5405
▁interrupt	-10.5426
oing	-10.5427
▁killed	-10.5428
▁excite	-10.5433
▁patch	-10.5434
▁surprise	-10.5466
▁despi	-10.5479
▁interior	-10.5487
▁mis	-10.5492
▁chasm	-10.5495
▁bookmark	-10.5495
▁manag	-10.55
▁Are	-10.55
▁popups	-10.5509
▁spin	-10.551
▁bubble	-10.554
▁recommendation	-10.5547
gr	-10.5547
▁inconsistent	-10.5552
harge	-10.5553
rustrating	-10.5571
▁signing	-10.5571
dyssey	-10.5574
▁cumbersome	-10.5574
hristmas	-10.5574
▁addicted	-10.5575
▁complex	-10.5575
▁charging	-10.5577
▁ongoing	-10.5578
▁creation	-10.5578
▁statistics	-10.5582
▁favor	-10.5587
▁chest	-10.5596
▁uploads	-10.5601
▁sensitivity	-10.5611
▁stack	-10.5612
▁trust	-10.5614
▁occasions	-10.5617
▁logge	-10.5624
▁knew	-10.563
▁views	-10.5643
▁sender	-10.5644
▁decrease	-10.5648
▁teacher	-10.5649
▁minigames	-10.5655
▁repeated	-10.5659
▁limits	-10.5665
▁animals	-10.5674
▁plane	-10.5681
▁corrected	-10.5695
▁viewed	-10.5706
▁decorations	-10.5708
▁integrate	-10.5711
core	-10.5713
by	-10.5733
▁tutorials	-10.5733
▁carry	-10.5734
▁notify	-10.5738
▁recorded	-10.5744
▁usable	-10.5754
▁developed	-10.5784
▁collections	-10.5785
▁burn	-10.5794
laylists	-10.5799
▁understanding	-10.5803
▁bet	-10.5806
▁picked	-10.5825
times	-10.5834
os	-10.5846
......	-10.5853
▁refund	-10.5861
ninstall	-10.5868
▁ac	-10.5868
ying	-10.5872
▁decade	-10.5877
mp	-10.5883
▁catalogue	-10.5885
▁machine	-10.5887
▁Aside	-10.5888
▁sitting	-10.5889
▁ti	-10.5889
how	-10.589
▁swap	-10.5893
▁possibl	-10.5907
▁exceptional	-10.5921
▁relax	-10.5929
▁template	-10.5936
▁workout	-10.5951
▁false	-10.5954
▁attach	-10.5955
▁exclusive	-10.5956
▁scam	-10.5959
▁advise	-10.596
Thi	-10.5971
▁versatile	-10.5974
▁obnoxious	-10.5974
▁women	-10.5974
▁unreliable	-10.5974
▁cursor	-10.5974
▁stressful	-10.5975
▁maximum	-10.5975
ithout	-10.5977
▁bringing	-10.5978
▁roll	-10.5981
▁providing	-10.5981
▁affordable	-10.5984
▁tablets	-10.5985
▁sky	-10.5992
▁overwhelming	-10.5993
nless	-10.5994
▁revive	-10.5998
▁chosen	-10.5998
▁miles	-10.6
▁if	-10.601
▁stated	-10.6017
▁placement	-10.6021
▁muted	-10.6024
nlike	-10.6031
▁factories	-10.6036
▁sorts	-10.6047
▁fullscreen	-10.6047
▁workouts	-10.6055
▁careful	-10.6062
ruly	-10.6066
▁icons	-10.6067
▁cause	-10.6068
▁prime	-10.6076
▁ratings	-10.6076
ful	-10.6086
▁importantly	-10.611
▁replace	-10.6126
▁novels	-10.614
usted	-10.6143
etc	-10.6157
ol	-10.6171
▁he	-10.6204
▁angry	-10.6219
▁author	-10.6221
▁act	-10.6228
▁decides	-10.6231
rying	-10.6236
▁label	-10.6238
pix	-10.6245
▁motion	-10.6252
▁nicely	-10.6258
▁beginners	-10.6264
And	-10.6309
▁computers	-10.6313
▁translation	-10.6318
▁dream	-10.6322
▁hurt	-10.6329
▁modify	-10.6341
ug	-10.6345
▁Time	-10.6351
▁regret	-10.6355
▁spaces	-10.6361
▁systems	-10.6368
▁continuous	-10.6372
▁bright	-10.6378
▁achieve	-10.6383
hrome	-10.6385
▁happily	-10.6391
▁revenue	-10.6391
▁downhill	-10.6391
▁folks	-10.6391
▁inappropriate	-10.6391
▁diverse	-10.6391
▁manner	-10.6391
▁child	-10.6391
▁tubi	-10.6392
▁bombard	-10.6394
▁fewer	-10.6395
▁epix	-10.6399
▁expectations	-10.6401
▁bugged	-10.6402
▁usability	-10.6405
▁golden	-10.6406
▁brother	-10.6407
▁factory	-10.6414
▁office	-10.6416
▁implemented	-10.6417
▁teaches	-10.6421
▁writer	-10.6433
▁calories	-10.6456
▁render	-10.6466
▁ensure	-10.6476
amused	-10.648
▁separately	-10.6482
................	-10.6483
▁alerts	-10.6504
▁lie	-10.6513
▁runner	-10.6525
▁exists	-10.6527
▁gb	-10.6541
▁photography	-10.6593
▁mo	-10.6604
its	-10.6606
good	-10.6635
play	-10.6643
▁periods	-10.6648
▁rich	-10.6658
▁output	-10.6662
▁walls	-10.6663
▁raw	-10.667
▁anyways	-10.6672
▁rat	-10.6682
▁sorting	-10.6706
▁bc	-10.671
▁pdfs	-10.671
ably	-10.673
▁death	-10.6737
▁banner	-10.6744
ac	-10.6755
▁Ad	-10.6759
▁raise	-10.6759
▁integration	-10.6794
▁thumb	-10.6802
▁paywall	-10.6804
ance	-10.6805
▁diamond	-10.6807
▁exception	-10.6809
▁participate	-10.6814
uiet	-10.6816
▁both	-10.6821
eautiful	-10.6822
▁cases	-10.6825
ormally	-10.6826
▁heavily	-10.6826
▁tiktok	-10.6826
▁contrast	-10.6826
▁risk	-10.6827
▁homepage	-10.6827
▁modern	-10.6828
▁blurry	-10.6828
▁intense	-10.6833
▁plans	-10.6836
▁motivated	-10.6837
▁significantly	-10.6837
▁Tab	-10.6839
ence	-10.684
▁knock	-10.6845
▁midi	-10.6855
▁laughing	-10.6858
▁shape	-10.6861
part	-10.6864
▁hrs	-10.6867
▁hori	-10.687
▁amounts	-10.6872
▁tough	-10.6873
▁accurately	-10.6875
▁wo	-10.688
▁ignore	-10.6882
▁token	-10.6896
▁wondering	-10.69
▁girls	-10.6903
▁obscure	-10.6904
pressed	-10.6912
▁benefits	-10.692
▁searched	-10.6927
▁reads	-10.694
▁considered	-10.6941
▁blueprints	-10.6949
oving	-10.6951
▁endlessly	-10.6955
uested	-10.6964
▁failing	-10.6972
▁occurs	-10.6979
▁disconnects	-10.6979
▁training	-10.6985
pdated	-10.6986
▁begins	-10.699
▁crops	-10.6994
▁meeting	-10.6997
andy	-10.7035
▁returning	-10.7042
▁rename	-10.7044
avid	-10.7072
bout	-10.7085
pensive	-10.7088
▁sight	-10.7129
▁flat	-10.7133
▁stretch	-10.7136
veryone	-10.7138
▁trend	-10.714
▁classics	-10.714
▁actions	-10.7152
▁dealing	-10.7153
ontinue	-10.7168
ile	-10.7188
▁gamers	-10.719
▁pocket	-10.7191
▁armor	-10.7194
▁sh	-10.7196
▁advantage	-10.7196
▁returns	-10.7196
▁pattern	-10.7197
ps	-10.7198
▁permission	-10.7201
▁smartphone	-10.7201
▁preference	-10.7202
▁increases	-10.7205
usting	-10.7212
▁slider	-10.7224
▁monitor	-10.7233
▁girl	-10.7261
▁ex	-10.7272
ontent	-10.7277
▁awkward	-10.728
▁helicopter	-10.728
▁communities	-10.7281
▁outdated	-10.7281
▁bummer	-10.7281
uency	-10.7281
▁accessibility	-10.7281
▁impact	-10.7282
▁scenery	-10.7282
▁superior	-10.7283
▁racing	-10.7285
▁entertained	-10.7287
▁screw	-10.7289
▁showsmovies	-10.7291
▁fps	-10.7294
▁tree	-10.7298
▁creates	-10.7312
▁convenience	-10.7313
▁rendering	-10.7322
▁defeat	-10.7326
▁responsive	-10.7327
▁former	-10.7328
▁pleasing	-10.733
ious	-10.733
▁ammo	-10.7343
▁unstable	-10.7346
▁children	-10.7346
rowning	-10.7382
▁gray	-10.7385
▁wa	-10.7388
eside	-10.739
▁bold	-10.7397
▁stages	-10.7421
▁sooner	-10.7434
▁ha	-10.7439
▁syncs	-10.7439
▁controll	-10.7444
ter	-10.7461
▁clients	-10.7462
eing	-10.7466
▁movements	-10.7478
▁rewarding	-10.7482
▁prepare	-10.7486
ooking	-10.749
ass	-10.7492
▁pitch	-10.7517
ap	-10.7553
ide	-10.7561
player	-10.7565
▁faced	-10.7569
ifi	-10.7575
ros	-10.7596
▁bu	-10.7598
tore	-10.7618
▁glow	-10.7639
▁static	-10.764
game	-10.7649
▁engine	-10.7654
▁sites	-10.7654
▁invite	-10.7657
▁headache	-10.7665
▁combination	-10.7671
▁decision	-10.7675
▁thumbnail	-10.7676
▁thousand	-10.7677
▁perform	-10.7681
more	-10.7693
go	-10.7703
ads	-10.7705
▁recover	-10.771
▁reflect	-10.7711
onderful	-10.7722
onstant	-10.7734
▁contents	-10.7734
▁permanent	-10.7737
▁according	-10.7737
▁instant	-10.7739
led	-10.7739
▁reverse	-10.7743
▁def	-10.7747
layed	-10.7748
▁capacity	-10.7756
▁yourself	-10.7757
▁unskippable	-10.7757
▁combat	-10.7757
▁gorgeous	-10.7757
▁glass	-10.7757
▁caught	-10.7758
▁completion	-10.7759
▁simulator	-10.7761
▁weather	-10.7763
ll	-10.7763
▁younger	-10.7764
▁describe	-10.7767
▁involved	-10.7768
▁delivered	-10.7773
▁stability	-10.7779
▁startup	-10.7779
▁Third	-10.7781
otifications	-10.7784
▁pleasant	-10.7789
▁exchange	-10.779
▁stock	-10.7792
▁picks	-10.7797
▁living	-10.7799
▁disney	-10.7803
oping	-10.7806
▁rais	-10.7807
adly	-10.7812
▁those	-10.7822
▁ba	-10.7824
▁grinding	-10.783
have	-10.7831
▁fold	-10.7835
igh	-10.7838
▁drawing	-10.7847
▁sadly	-10.7848
▁testing	-10.7853
▁disconnecting	-10.7855
▁dates	-10.7862
ustments	-10.7869
▁tags	-10.7871
▁fight	-10.7873
na	-10.7877
▁canceled	-10.7877
▁locate	-10.7879
oth	-10.7881
▁statuses	-10.7885
▁reminders	-10.7885
▁vertical	-10.7886
▁remaining	-10.7886
▁port	-10.7892
▁simpler	-10.791
▁beautifully	-10.7911
ty	-10.7911
▁watches	-10.7919
▁phrases	-10.7921
ostly	-10.7926
▁body	-10.7931
ownload	-10.7937
▁priced	-10.7943
star	-10.7943
▁colours	-10.7951
▁recordings	-10.7957
own	-10.7968
▁dollar	-10.7971
om	-10.7972
▁previews	-10.7997
▁answers	-10.8008
▁scanning	-10.8013
▁directions	-10.8048
bar	-10.8056
▁saver	-10.8059
▁par	-10.806
▁rounds	-10.807
▁fi	-10.8102
▁each	-10.8119
▁encounter	-10.8123
eat	-10.8127
▁meh	-10.814
right	-10.814
lowing	-10.8162
▁paper	-10.8167
▁gesture	-10.8176
▁preset	-10.8182
▁chore	-10.8182
outube	-10.8191
▁shield	-10.8193
eriously	-10.8195
▁chart	-10.8197
oke	-10.8203
▁study	-10.8209
▁partner	-10.8229
bviously	-10.8231
hotoshop	-10.8249
▁topic	-10.8256
▁altogether	-10.8256
ourney	-10.8257
▁immersive	-10.8257
▁indeed	-10.8258
▁bedrock	-10.8258
▁adobe	-10.8259
▁further	-10.8259
▁relieve	-10.826
▁somebody	-10.8261
▁freedom	-10.8261
▁steering	-10.8262
▁su	-10.8264
▁silly	-10.8266
▁handling	-10.8272
▁difficulties	-10.8273
onstantly	-10.8276
▁codec	-10.8278
▁powerups	-10.828
▁initially	-10.8288
▁everybody	-10.829
▁Issue	-10.8291
▁adverts	-10.8295
▁existed	-10.8298
▁nose	-10.8301
▁insanely	-10.8307
oice	-10.8309
▁human	-10.8311
▁docs	-10.8313
▁blowing	-10.8316
ower	-10.832
op	-10.8335
▁critical	-10.8338
upport	-10.8343
▁preferences	-10.8346
▁bookmarks	-10.8362
▁counts	-10.8365
▁situations	-10.837
ense	-10.8372
▁promote	-10.8373
evs	-10.8374
▁drives	-10.8376
▁caller	-10.84
▁painful	-10.8407
▁businesses	-10.8414
▁been	-10.8423
man	-10.8434
▁gifs	-10.8463
king	-10.8471
▁offering	-10.8476
▁themes	-10.8477
▁flips	-10.8479
▁sell	-10.8483
▁freak	-10.8499
▁park	-10.8507
▁dating	-10.8512
▁backgrounds	-10.8517
▁tempo	-10.8517
side	-10.8519
lear	-10.8528
using	-10.854
▁secs	-10.8543
▁tunes	-10.8556
aster	-10.8568
▁tight	-10.8607
wise	-10.8607
▁builds	-10.861
▁dig	-10.8617
▁rank	-10.8619
ail	-10.8635
▁unit	-10.8665
▁escape	-10.8671
▁lat	-10.8677
▁vi	-10.868
▁audios	-10.8683
▁shift	-10.8687
▁supporting	-10.869
icture	-10.869
▁drawback	-10.8694
▁username	-10.8698
▁attack	-10.8703
▁beca	-10.8711
▁disappoint	-10.8712
▁plot	-10.8712
▁texts	-10.8713
over	-10.8716
asting	-10.8718
▁continued	-10.8724
while	-10.8731
that	-10.8732
▁region	-10.8739
▁letter	-10.8746
▁aesthetic	-10.8764
▁unfortunate	-10.8766
▁calorie	-10.8779
ardenscapes	-10.8779
io	-10.8781
▁nuisance	-10.8783
▁shrugging	-10.8783
▁temporarily	-10.8783
▁brief	-10.8783
▁grammatical	-10.8783
▁dashboard	-10.8783
▁duration	-10.8783
▁capability	-10.8783
▁replacement	-10.8783
▁strategy	-10.8783
▁disruptive	-10.8783
▁independent	-10.8783
▁construction	-10.8784
▁unread	-10.8784
▁discussion	-10.8784
▁problematic	-10.8784
▁simultaneously	-10.8784
▁failure	-10.8786
▁renew	-10.8786
▁hardware	-10.8788
▁Anyone	-10.879
▁showmovie	-10.8791
ongs	-10.8792
▁linear	-10.8794
▁playstore	-10.8795
leading	-10.8798
▁forgotten	-10.8804
▁animat	-10.8808
raged	-10.8808
▁abilities	-10.8814
evelopers	-10.8816
▁replaced	-10.8817
▁persists	-10.8818
▁were	-10.8818
▁incorrectly	-10.8822
oor	-10.8823
aily	-10.8829
▁forums	-10.8833
arch	-10.8839
▁interrupting	-10.885
▁core	-10.8854
▁students	-10.8855
▁recipient	-10.8856
▁alarm	-10.8857
▁boom	-10.8857
▁soo	-10.8858
▁breaker	-10.886
▁political	-10.8862
love	-10.8863
▁thoroughly	-10.8864
▁balanced	-10.8868
▁Today	-10.8875
▁covered	-10.8882
▁visit	-10.8893
▁chasms	-10.8894
▁hanging	-10.8895
▁dots	-10.8908
▁counted	-10.892
▁integrat	-10.8922
used	-10.8929
▁balance	-10.893
▁mp	-10.8931
▁cons	-10.8947
▁vice	-10.8955
▁cr	-10.8973
music	-10.8979
ebtoons	-10.8981
▁communicat	-10.8987
▁stayed	-10.8989
▁discovery	-10.899
▁notch	-10.9002
▁knows	-10.9006
pace	-10.9011
▁minus	-10.9017
eading	-10.903
▁competitions	-10.9035
▁Apps	-10.9053
ata	-10.9058
▁Terribl	-10.9067
▁bree	-10.9072
▁trip	-10.9084
▁hitt	-10.9084
▁lighting	-10.9084
▁wake	-10.9089
thing	-10.91
evel	-10.9124
▁insta	-10.9126
ull	-10.913
▁thrill	-10.9134
▁reports	-10.914
▁bump	-10.9153
ha	-10.9158
▁wow	-10.9188
▁connections	-10.9193
▁individuals	-10.9201
▁cheat	-10.9214
▁translate	-10.9216
hield	-10.9224
▁context	-10.9237
▁perspective	-10.925
▁operate	-10.9251
▁scheme	-10.9254
▁interaction	-10.9255
locking	-10.9259
▁element	-10.9261
ations	-10.9267
▁god	-10.9277
▁crush	-10.929
▁disturb	-10.9291
▁fo	-10.9293
▁successful	-10.9312
▁alphabetical	-10.9318
tarted	-10.932
▁obtain	-10.9322
▁mechanic	-10.9332
▁percent	-10.9336
▁TikTok	-10.9338
▁companies	-10.9338
▁sluggish	-10.9338
▁malfunction	-10.9338
▁wingsuit	-10.9338
▁wireless	-10.9338
▁terrific	-10.9338
▁Apparent	-10.9339
▁archive	-10.9339
▁wonky	-10.9339
▁between	-10.934
▁artwork	-10.934
▁headset	-10.934
▁admit	-10.9341
▁percentage	-10.9342
▁nerves	-10.9342
▁rotation	-10.9342
▁Annoying	-10.9342
▁occurred	-10.9345
iano	-10.9346
▁blood	-10.9346
▁reenter	-10.9355
▁noticeable	-10.9358
▁enhanced	-10.936
alf	-10.9361
▁attached	-10.9366
▁exclusively	-10.9366
inux	-10.9368
▁motivate	-10.9379
▁broad	-10.9384
▁recall	-10.9389
▁apple	-10.9394
▁adapt	-10.9394
▁forms	-10.9401
▁produc	-10.9405
▁dump	-10.9405
▁persons	-10.9409
▁presentation	-10.941
▁heavy	-10.9413
▁drafts	-10.9414
▁detection	-10.9415
▁mainstream	-10.9417
▁graphs	-10.9417
▁directory	-10.9422
itro	-10.9425
▁tiles	-10.9425
▁wi	-10.9428
rely	-10.9432
▁aap	-10.9438
im	-10.9442
ets	-10.9447
▁appropriate	-10.9449
▁these	-10.9457
▁firing	-10.9461
▁prompts	-10.9467
▁crossed	-10.9475
▁musical	-10.9475
▁familiar	-10.9476
ie	-10.948
▁treat	-10.9482
▁gamepad	-10.9491
▁ultimate	-10.9496
tories	-10.951
▁earbuds	-10.9512
▁existing	-10.9519
day	-10.9523
▁compar	-10.9524
ated	-10.953
▁concerns	-10.9538
▁falling	-10.9543
organi	-10.9547
▁cam	-10.9548
▁reporting	-10.9558
▁whil	-10.9571
uate	-10.9585
▁enlarge	-10.9605
▁lame	-10.9606
dark	-10.9608
▁wh	-10.9609
▁Allow	-10.962
lad	-10.963
witch	-10.9631
▁algorithms	-10.9637
▁fr	-10.9643
▁appeared	-10.9654
ooming	-10.9655
▁frames	-10.9656
▁alternatives	-10.9666
▁ride	-10.9667
la	-10.9714
▁chase	-10.974
based	-10.9742
pl	-10.9747
▁extras	-10.9756
▁react	-10.9771
fore	-10.9785
▁stutter	-10.98
▁bro	-10.9817
emand	-10.9823
▁trail	-10.9827
▁symbol	-10.9845
▁chances	-10.9845
▁student	-10.9846
▁habit	-10.9847
▁draft	-10.9847
▁blueprint	-10.9847
▁interruption	-10.9848
▁assist	-10.985
tic	-10.9852
▁cap	-10.9865
ones	-10.9873
▁plug	-10.9873
huffle	-10.9879
▁woman	-10.9879
lex	-10.9885
▁confirm	-10.9903
▁chill	-10.9905
▁expire	-10.9909
▁approach	-10.9912
▁recieve	-10.9922
layback	-10.9924
ustomer	-10.9925
▁fluid	-10.9926
▁deliver	-10.9926
uipment	-10.9927
▁verification	-10.9927
▁database	-10.9927
▁taught	-10.9928
▁unintuitive	-10.9928
▁cropping	-10.9928
▁survive	-10.9929
▁aswell	-10.9929
▁upper	-10.9934
▁route	-10.9936
▁epic	-10.9939
reviously	-10.994
▁moviesshows	-10.994
▁combined	-10.9942
▁transferred	-10.9944
▁determine	-10.9959
▁ca	-10.9967
▁aliens	-10.997
eatures	-10.9972
▁audiobooks	-10.9976
▁rates	-10.9977
▁monet	-10.9982
▁lowest	-10.9992
▁nonsense	-11
▁mouth	-11.0011
iles	-11.0021
▁precise	-11.0025
▁thumbnails	-11.0028
▁easie	-11.0039
▁progressive	-11.0043
▁spins	-11.0045
eels	-11.0068
▁yearly	-11.008
▁Anyways	-11.0085
▁thr	-11.0085
uess	-11.0089
▁stat	-11.0099
▁yellow	-11.0104
▁submit	-11.0105
▁nonstop	-11.0107
▁young	-11.0129
▁eliminate	-11.0134
▁chrome	-11.0146
▁affects	-11.0155
▁regattas	-11.0156
▁bus	-11.0159
hange	-11.0175
▁broadcasts	-11.0178
▁award	-11.0185
▁boosts	-11.021
▁closer	-11.0217
▁pinn	-11.0229
▁thin	-11.0255
arely	-11.0261
There	-11.0266
▁tip	-11.0282
▁primar	-11.0289
ping	-11.0311
ke	-11.0314
▁boards	-11.0321
▁favourites	-11.0325
▁sticks	-11.0326
angry	-11.0331
▁acc	-11.0334
appy	-11.0342
▁disabl	-11.0344
▁overlay	-11.0345
▁pad	-11.0347
▁solutions	-11.0348
▁searches	-11.0355
▁freely	-11.0377
lue	-11.0403
▁marks	-11.0409
▁forwarding	-11.0414
▁compet	-11.0414
eta	-11.0433
▁reopening	-11.0457
ub	-11.0466
▁lvl	-11.047
ip	-11.0486
▁laugh	-11.0492
xperience	-11.0497
▁fed	-11.0497
▁caption	-11.0503
▁foot	-11.0506
revious	-11.0525
▁extensive	-11.0527
eview	-11.0532
▁flawless	-11.0534
▁desire	-11.0543
▁spoil	-11.055
asily	-11.0551
▁fashion	-11.0552
▁orientation	-11.0552
▁female	-11.0552
ecember	-11.0552
▁temporary	-11.0552
▁uptodate	-11.0552
▁invisible	-11.0552
▁themselves	-11.0552
▁nostalgic	-11.0552
▁compact	-11.0552
▁explicit	-11.0552
▁bulk	-11.0552
▁unwanted	-11.0552
▁possibilities	-11.0552
▁drama	-11.0552
ovember	-11.0553
▁identify	-11.0553
▁facility	-11.0553
hamet	-11.0554
▁commentary	-11.0554
▁disgusting	-11.0554
▁legit	-11.0554
▁flashscore	-11.0554
▁unbearable	-11.0555
▁proceed	-11.0557
▁outright	-11.0558
▁router	-11.0559
▁shuffling	-11.0564
reinstall	-11.0564
▁verify	-11.0565
▁pricing	-11.0565
▁retain	-11.0567
▁reminder	-11.0569
evice	-11.057
▁resuming	-11.0572
▁crates	-11.0574
▁ignored	-11.0577
▁sooo	-11.0591
▁dying	-11.0595
▁realms	-11.0595
▁affected	-11.0602
▁stuttering	-11.0602
egardless	-11.0603
▁catches	-11.0609
▁international	-11.061
▁generated	-11.061
▁texture	-11.0616
data	-11.0618
▁explained	-11.0619
▁duplicate	-11.0625
▁cluttered	-11.0625
▁vehicles	-11.0628
▁combine	-11.0632
▁practicing	-11.0632
▁cellular	-11.0634
▁encrypted	-11.0638
▁damage	-11.0638
il	-11.0643
▁restricted	-11.0643
▁gestures	-11.0654
ownloaded	-11.0655
▁grown	-11.0666
▁income	-11.0668
▁battle	-11.0673
art	-11.068
▁verb	-11.0681
setting	-11.0683
uge	-11.0684
▁Turn	-11.069
▁blind	-11.0695
▁stutters	-11.0708
▁vibe	-11.0708
▁having	-11.0708
▁decorate	-11.0717
rate	-11.0721
▁var	-11.0721
▁magic	-11.0741
ok	-11.0744
▁gap	-11.0747
aming	-11.0751
▁seeking	-11.0759
there	-11.0768
▁packages	-11.0775
▁states	-11.0783
ock	-11.0792
▁natural	-11.0795
▁timeout	-11.0811
▁finishes	-11.0818
▁vids	-11.082
▁floors	-11.0824
case	-11.0827
▁shooters	-11.083
▁utter	-11.0831
▁sets	-11.0835
▁hr	-11.0842
▁counting	-11.085
▁addon	-11.086
ple	-11.0862
▁boy	-11.0867
▁highlights	-11.0871
▁delays	-11.0887
my	-11.0919
ually	-11.0927
orst	-11.0927
uring	-11.093
▁factor	-11.0938
they	-11.0944
ective	-11.095
▁flag	-11.0965
herefore	-11.0966
▁lovely	-11.0974
rror	-11.0977
ears	-11.0985
▁passed	-11.0998
▁ya	-11.1009
can	-11.1015
▁holiday	-11.1019
ixed	-11.1046
▁originals	-11.1051
find	-11.1065
ars	-11.1072
▁pit	-11.1075
▁spots	-11.1081
enrag	-11.1091
erally	-11.1114
▁America	-11.1115
▁hair	-11.1128
▁winner	-11.1132
▁Anyway	-11.1132
▁voices	-11.1134
▁vehicle	-11.1137
▁resource	-11.1139
lays	-11.114
▁websites	-11.1152
▁streamed	-11.1155
ept	-11.1158
▁shove	-11.1158
▁incom	-11.1164
▁drift	-11.117
lby	-11.1176
▁calm	-11.1179
▁truth	-11.1185
do	-11.1187
▁eyesb	-11.1188
ecommend	-11.1194
▁welcome	-11.1204
IA	-11.1209
isappointed	-11.1211
▁pair	-11.1215
▁exclamation	-11.1218
▁horrendous	-11.1218
▁metronome	-11.1218
▁college	-11.1218
▁irrelevant	-11.1219
ord	-11.1219
▁desert	-11.1219
▁unhappy	-11.1219
▁mediocre	-11.1219
▁immensely	-11.1219
▁ondemand	-11.1219
▁generic	-11.1219
▁introduction	-11.122
▁cropped	-11.122
▁firestick	-11.122
▁streamlined	-11.1221
▁sideways	-11.1221
▁loosing	-11.1223
▁eyesgri	-11.1224
▁encouraging	-11.1227
▁masking	-11.123
▁hints	-11.1231
▁enrag	-11.1233
▁roku	-11.1233
▁invested	-11.1233
▁cancelling	-11.1234
andom	-11.1235
▁upsetting	-11.1236
▁scammers	-11.1242
▁Incredible	-11.1242
▁hinder	-11.1242
essages	-11.1244
▁biomes	-11.1245
▁musicians	-11.1246
▁Interesting	-11.1248
▁classes	-11.1249
uirks	-11.1252
▁hi	-11.1253
orth	-11.1254
▁paragraphs	-11.1255
new	-11.1259
▁gif	-11.1261
▁cubes	-11.1265
get	-11.1272
▁delight	-11.1273
▁fighting	-11.1281
earning	-11.1281
eats	-11.1281
▁bombs	-11.1281
▁reactions	-11.1282
▁mobs	-11.1289
▁fulfill	-11.1289
▁tweaks	-11.129
line	-11.1296
▁gather	-11.1297
creen	-11.1304
for	-11.1307
▁overlap	-11.1313
uence	-11.1318
only	-11.1322
▁adfree	-11.1344
▁functioning	-11.1345
▁shapes	-11.1345
lean	-11.1359
▁generate	-11.1365
▁grey	-11.1366
▁designer	-11.1373
rolling	-11.138
opping	-11.1393
▁vid	-11.1405
▁parent	-11.1411
▁dogs	-11.1414
fficient	-11.142
▁globe	-11.1423
▁indicate	-11.1437
▁died	-11.1444
▁eat	-11.1455
▁shop	-11.1461
▁loyal	-11.1462
▁role	-11.1466
orse	-11.1472
ground	-11.1472
▁throwing	-11.1475
▁mods	-11.1487
ess	-11.15
also	-11.1523
▁planes	-11.1541
ettings	-11.1553
ta	-11.1559
pp	-11.1569
▁passing	-11.1576
▁costly	-11.1589
▁pi	-11.1589
▁rearrange	-11.1596
▁glitched	-11.1603
▁downsides	-11.1604
erman	-11.1607
▁formatting	-11.1611
▁reference	-11.1611
ervice	-11.1613
two	-11.1614
▁float	-11.162
eal	-11.1635
▁univers	-11.1647
▁hel	-11.1661
▁appeal	-11.1675
pen	-11.1687
ends	-11.1693
▁dot	-11.1703
would	-11.1713
lot	-11.1722
▁charges	-11.1739
▁she	-11.1781
▁Tri	-11.1786
▁progressing	-11.1794
are	-11.1802
de	-11.1806
fully	-11.1807
▁paint	-11.1817
▁band	-11.1826
▁mod	-11.1834
reinstalled	-11.184
▁gambl	-11.1845
hannel	-11.1848
▁ch	-11.1848
▁restrict	-11.1852
▁animal	-11.1856
ctually	-11.1857
pdates	-11.1861
▁clue	-11.1862
▁badge	-11.1869
ley	-11.1876
▁slot	-11.1878
▁rule	-11.1896
▁sticker	-11.19
▁rooms	-11.1904
ventually	-11.1905
og	-11.1914
fix	-11.1915
ertain	-11.1915
▁silent	-11.1915
ontal	-11.1918
eh	-11.1922
style	-11.1923
nspire	-11.1924
▁tier	-11.1926
ccasionally	-11.1928
valuable	-11.1931
▁motivation	-11.1931
▁daughter	-11.1932
▁maneuver	-11.1932
▁accuracy	-11.1932
▁atrocious	-11.1932
▁comprehensive	-11.1932
▁crosshair	-11.1932
▁nonexistent	-11.1932
▁unnecessarily	-11.1932
▁monotonous	-11.1933
▁happier	-11.1933
▁opponent	-11.1933
▁acceleration	-11.1933
hinese	-11.1933
▁marketplace	-11.1933
▁vital	-11.1933
▁tailor	-11.1934
▁worldwide	-11.1934
▁bankrupt	-11.1934
▁vomiting	-11.1934
▁confident	-11.1935
▁swear	-11.1935
▁satellite	-11.1935
▁colorful	-11.1935
▁whoever	-11.1935
▁discouraging	-11.1938
▁reappear	-11.194
▁discograph	-11.194
▁chord	-11.1941
▁above	-11.1943
▁below	-11.1944
▁mailbox	-11.1946
ffice	-11.1953
▁updown	-11.1954
▁screwed	-11.1955
▁dep	-11.1956
▁webcomic	-11.1957
▁movieshow	-11.1967
▁stunts	-11.1969
clapp	-11.1972
▁dime	-11.1977
▁synch	-11.1977
orked	-11.1977
▁sprint	-11.1978
▁wrote	-11.1981
▁soooo	-11.1988
▁wider	-11.1989
▁sake	-11.199
uirements	-11.1992
▁nature	-11.1993
ian	-11.1996
paced	-11.1996
Also	-11.2001
▁unexpected	-11.2006
▁owners	-11.2007
▁ipad	-11.201
▁understandable	-11.2011
▁solving	-11.2016
▁duplicates	-11.2021
▁strangers	-11.2023
▁incentive	-11.2023
▁invasive	-11.2024
▁reverted	-11.2024
▁climb	-11.2025
▁reviewers	-11.2028
▁bothersome	-11.2037
evels	-11.204
▁trees	-11.2044
▁thankfully	-11.2044
ties	-11.205
▁reconnecting	-11.2067
dge	-11.2067
inding	-11.2072
▁possibilit	-11.2073
▁betting	-11.2076
▁trips	-11.2084
ggest	-11.2087
uly	-11.2093
▁sessions	-11.2099
▁eg	-11.2152
▁cos	-11.2159
ild	-11.216
▁rotat	-11.2164
▁legal	-11.2189
rior	-11.2189
ony	-11.219
▁wor	-11.2191
acing	-11.2194
▁appealing	-11.2203
▁avatars	-11.2204
ments	-11.2204
ff	-11.2221
▁heck	-11.2222
▁decorating	-11.2222
▁suffer	-11.2223
▁follows	-11.2225
▁guest	-11.223
▁bigg	-11.2233
iving	-11.2247
▁maintain	-11.2257
▁overly	-11.2264
ired	-11.2268
▁plac	-11.2274
ti	-11.2291
▁intentional	-11.2298
▁signatures	-11.2303
▁farther	-11.2314
ge	-11.2314
▁va	-11.2317
▁ga	-11.2324
▁upside	-11.2332
▁hated	-11.2343
lack	-11.2359
▁butt	-11.239
victor	-11.2401
▁snap	-11.2421
cy	-11.2421
usk	-11.2428
ending	-11.2429
▁regards	-11.2434
read	-11.2435
▁payments	-11.2447
▁additions	-11.2463
▁processing	-11.2493
▁license	-11.2545
▁refus	-11.2555
xample	-11.2585
▁redesign	-11.26
tick	-11.2606
dition	-11.2608
▁occasion	-11.2611
▁competitor	-11.2622
▁discount	-11.2624
▁command	-11.2624
▁combo	-11.2625
ovie	-11.2629
▁thread	-11.2635
▁beam	-11.2639
off	-11.2649
mooth	-11.2655
▁com	-11.2663
▁tweak	-11.2664
▁porn	-11.2665
▁charm	-11.2678
▁seperate	-11.2678
▁insert	-11.2679
▁accomplish	-11.2681
▁faces	-11.2682
▁immediate	-11.2683
ugh	-11.2685
▁alphabet	-11.269
▁throat	-11.2691
ussia	-11.2691
well	-11.2693
acts	-11.2693
▁boss	-11.2694
▁surf	-11.2696
idiculous	-11.2698
alendar	-11.2698
ultiple	-11.2698
▁dialog	-11.2698
lashscore	-11.2698
omescapes	-11.2699
isappointing	-11.27
▁encryption	-11.2702
▁flexibility	-11.2702
▁pandemic	-11.2702
▁satisfaction	-11.2702
▁clothes	-11.2702
▁intriguing	-11.2702
▁traffic	-11.2702
arlem	-11.2702
rashes	-11.2702
▁bandwidth	-11.2702
▁exposure	-11.2702
▁copies	-11.2702
▁stereo	-11.2702
▁persistent	-11.2702
▁attractive	-11.2702
▁simplicity	-11.2703
▁inaccurate	-11.2703
▁educational	-11.2703
▁staff	-11.2703
▁uncomfortable	-11.2703
onsidering	-11.2704
▁Austin	-11.2704
▁brain	-11.2704
▁coverage	-11.2704
▁recomend	-11.2704
▁nitro	-11.2705
▁terribly	-11.2706
▁priority	-11.2707
▁removal	-11.2707
▁indicator	-11.2708
airly	-11.2708
ersion	-11.2711
amera	-11.2711
emove	-11.2714
▁irritated	-11.2714
▁flyers	-11.2715
▁hacked	-11.2718
▁homescreen	-11.272
▁correction	-11.272
▁operating	-11.2721
▁worthless	-11.2722
tation	-11.2723
▁Interface	-11.2726
▁hiccups	-11.2732
▁bi	-11.2741
▁experiments	-11.2745
▁mature	-11.2746
▁shadow	-11.275
ovel	-11.2754
▁addresses	-11.2757
▁clapp	-11.2761
▁sprinting	-11.2762
▁passion	-11.2771
▁blend	-11.2771
▁alb	-11.2773
▁combos	-11.278
▁commands	-11.2782
spite	-11.2782
diting	-11.2787
▁bullet	-11.2788
▁Truly	-11.2789
▁root	-11.2793
▁argu	-11.2793
▁sucked	-11.2796
mall	-11.2797
ks	-11.2797
▁locally	-11.28
▁reorder	-11.2801
▁traveling	-11.2806
ical	-11.2806
▁farming	-11.2807
▁delayed	-11.281
▁thi	-11.2811
▁bosses	-11.2811
tc	-11.2829
nto	-11.283
ownloads	-11.2831
▁guard	-11.2839
▁concerned	-11.284
▁vision	-11.285
▁significant	-11.2853
▁polic	-11.2856
udge	-11.2862
▁incomplete	-11.2863
▁scary	-11.2864
ify	-11.287
▁erase	-11.2872
rking	-11.2874
▁marketing	-11.2874
▁transferr	-11.288
▁pushed	-11.2883
▁soccer	-11.2886
▁inter	-11.2896
▁son	-11.2898
▁races	-11.2903
▁explanations	-11.2915
▁retrieve	-11.2926
▁leader	-11.2928
▁apply	-11.2954
▁spac	-11.2954
hundred	-11.2959
▁entered	-11.296
▁claims	-11.2964
▁handful	-11.2965
▁pixels	-11.2968
▁aggressive	-11.297
▁pile	-11.2972
▁sold	-11.2988
▁angles	-11.2992
▁net	-11.2992
elect	-11.2993
▁ab	-11.2999
cent	-11.2999
sign	-11.2999
ir	-11.2999
most	-11.3003
outh	-11.3004
rush	-11.3008
▁yo	-11.3009
▁heads	-11.3021
party	-11.303
great	-11.3031
tart	-11.3031
▁boot	-11.3034
ct	-11.3078
▁heal	-11.3085
ays	-11.3092
▁TI	-11.3093
▁rip	-11.3095
crolling	-11.3101
▁ear	-11.3107
▁methods	-11.3146
drive	-11.3173
▁slip	-11.3195
▁receiver	-11.32
still	-11.3201
▁Think	-11.3207
ah	-11.3211
▁sp	-11.3237
▁oppos	-11.3244
▁specials	-11.3255
▁differences	-11.3268
ops	-11.3273
pending	-11.3302
ware	-11.3302
▁adore	-11.3316
ier	-11.3322
▁Text	-11.3329
▁leveling	-11.333
rd	-11.3366
vice	-11.3366
ning	-11.337
rop	-11.3371
▁trim	-11.3387
waited	-11.3387
pon	-11.3389
eating	-11.3395
▁grade	-11.3396
▁intend	-11.3405
▁pan	-11.3408
▁any	-11.3412
▁subs	-11.3416
level	-11.3434
▁gardens	-11.3434
▁falls	-11.344
▁airplane	-11.3449
▁column	-11.345
▁companion	-11.345
▁adult	-11.3458
▁forum	-11.3459
▁wins	-11.346
▁backflip	-11.3462
▁reaction	-11.3464
▁workaround	-11.3465
otally	-11.3471
▁fans	-11.3473
coins	-11.3476
▁bass	-11.3476
eit	-11.3482
▁bomb	-11.3482
▁distract	-11.3486
▁owner	-11.3488
▁overheat	-11.3493
ral	-11.3501
▁feeds	-11.3502
point	-11.3508
▁soft	-11.3509
ible	-11.3522
▁decline	-11.3526
lassic	-11.3529
▁dang	-11.3529
friend	-11.353
hanging	-11.3531
arvel	-11.3532
orrible	-11.3533
▁xp	-11.3533
▁abrupt	-11.3535
▁nostalgia	-11.3535
▁varieties	-11.3535
▁wierd	-11.3535
▁dynamic	-11.3535
▁legendary	-11.3535
▁component	-11.3535
▁criticism	-11.3535
▁glaring	-11.3535
▁conclusion	-11.3535
▁unrealistic	-11.3535
▁clarity	-11.3535
▁butler	-11.3535
▁husband	-11.3535
▁compression	-11.3535
▁easytouse	-11.3535
▁Addictive	-11.3536
▁copied	-11.3536
▁unfinished	-11.3536
▁Alien	-11.3536
▁immersion	-11.3536
▁supplement	-11.3536
▁drastically	-11.3536
▁invest	-11.3537
▁moderation	-11.3537
▁horribly	-11.3537
▁withdraw	-11.3537
▁proud	-11.3537
▁clever	-11.3538
▁studio	-11.3538
▁midway	-11.3539
▁earth	-11.3539
▁cellphone	-11.3539
▁checkmark	-11.3539
▁spare	-11.3539
▁reliably	-11.3539
▁dosent	-11.354
▁wiped	-11.3541
pictureinpicture	-11.3541
▁bless	-11.3542
unter	-11.3542
▁appearance	-11.3542
▁ugly	-11.3543
▁intake	-11.3543
▁corrupted	-11.3543
▁repost	-11.3544
▁featured	-11.3545
▁contests	-11.3545
▁downfall	-11.3546
▁sister	-11.3546
▁dull	-11.3547
ommercials	-11.355
▁reducing	-11.3551
▁anoying	-11.3552
▁balloons	-11.3553
oyment	-11.3554
▁meters	-11.3555
▁narrow	-11.3555
▁dependable	-11.3556
▁hosts	-11.3559
▁consideration	-11.3559
▁hung	-11.356
▁restrictions	-11.3561
▁applied	-11.3561
▁mirroring	-11.3562
▁appointment	-11.3564
▁border	-11.3564
hatever	-11.3565
▁typos	-11.3565
tarting	-11.3565
▁flashes	-11.3567
▁steep	-11.3568
▁emotes	-11.3573
▁annual	-11.3574
▁subscribing	-11.3574
▁disc	-11.3579
▁availability	-11.3581
▁meta	-11.3582
witching	-11.3584
▁yea	-11.3586
▁suspense	-11.3588
▁premi	-11.3589
▁tapp	-11.3591
rial	-11.3596
▁shortcuts	-11.3596
▁distinguish	-11.3597
avorites	-11.3598
▁selling	-11.3598
▁pa	-11.3602
▁rebooted	-11.3606
▁accent	-11.3607
ages	-11.3607
▁compatibility	-11.3609
▁effectively	-11.3612
▁dope	-11.362
▁disliked	-11.3623
▁differentiate	-11.3624
▁facebook	-11.3625
▁Tech	-11.363
layers	-11.3635
▁pleasure	-11.3641
▁unpause	-11.3653
▁Track	-11.3654
▁charts	-11.3656
ort	-11.3656
▁units	-11.3658
▁rewarded	-11.3658
▁flashing	-11.3658
▁operates	-11.3665
▁nuts	-11.3672
▁complained	-11.3679
▁broadcasting	-11.3682
▁few	-11.3688
▁prompted	-11.3692
▁redirect	-11.3695
▁translations	-11.3702
▁gradual	-11.3713
▁landing	-11.3716
▁interacting	-11.372
▁unsubscribe	-11.3725
▁ios	-11.3729
▁translat	-11.3734
▁textures	-11.3738
▁cat	-11.3746
▁lowered	-11.3752
▁descriptions	-11.3753
▁bloat	-11.3754
▁tastes	-11.3758
▁reopened	-11.3764
ork	-11.3779
▁senders	-11.378
hame	-11.3782
▁sand	-11.3802
▁tickets	-11.3811
▁gra	-11.3811
▁trade	-11.3821
▁spoke	-11.3846
▁sleeping	-11.3848
board	-11.3848
▁steal	-11.3863
▁streaks	-11.387
cal	-11.3873
▁grouped	-11.3882
▁mu	-11.3899
▁efforts	-11.3919
▁layouts	-11.3921
inking	-11.3922
▁proof	-11.3923
▁accelerate	-11.3935
▁ban	-11.3938
ked	-11.3939
▁Tap	-11.3947
▁bye	-11.3951
ev	-11.3951
▁editors	-11.396
▁metal	-11.3966
set	-11.3966
after	-11.3973
bps	-11.3978
microtransaction	-11.3978
▁gam	-11.3995
gh	-11.4006
gged	-11.4012
▁punish	-11.4013
▁breath	-11.4027
ingly	-11.4038
▁alter	-11.4044
▁signs	-11.4046
▁frustrate	-11.4057
▁graph	-11.4061
wei	-11.4063
▁war	-11.4075
▁improves	-11.4079
▁heat	-11.4081
▁arrange	-11.4091
ber	-11.4098
▁assum	-11.4109
ues	-11.4112
be	-11.4123
▁lasted	-11.4135
mb	-11.4139
live	-11.4166
▁ins	-11.4187
▁suggesting	-11.4194
▁involve	-11.42
cannot	-11.4222
▁vers	-11.4229
etwork	-11.4245
ease	-11.4247
▁pet	-11.4264
▁reli	-11.4268
icrotransactions	-11.4271
ite	-11.4273
▁spamm	-11.4276
adio	-11.4288
▁cent	-11.4315
▁slowed	-11.4317
▁figur	-11.4321
▁inf	-11.4329
ini	-11.4338
▁hole	-11.4341
▁sw	-11.4343
▁replac	-11.4344
▁excuse	-11.4346
▁sav	-11.4347
▁relationship	-11.4356
▁vibration	-11.4357
uddenly	-11.4358
▁penny	-11.4362
▁fruit	-11.4369
orking	-11.4376
▁hunt	-11.4381
▁sale	-11.4383
▁identi	-11.4387
▁timely	-11.4391
update	-11.4393
▁booster	-11.4393
▁spawn	-11.4393
eaning	-11.4397
sh	-11.44
▁unbelievabl	-11.4407
▁roman	-11.4411
▁operation	-11.4416
▁bits	-11.4425
▁thankful	-11.4428
▁promise	-11.4432
irect	-11.4434
erhaps	-11.4435
wiping	-11.4435
▁indi	-11.4441
mails	-11.4442
▁facepalming	-11.4444
uivalent	-11.4444
▁inspiration	-11.4444
▁spontaneous	-11.4444
▁transparent	-11.4444
▁guidance	-11.4444
▁April	-11.4444
▁overhaul	-11.4444
▁wreck	-11.4444
▁diffrent	-11.4444
▁protection	-11.4444
▁audible	-11.4445
▁grasp	-11.4445
▁impatient	-11.4445
▁sleek	-11.4445
▁directories	-11.4445
▁wrist	-11.4445
lenty	-11.4445
▁Application	-11.4445
▁necessarily	-11.4446
▁configuration	-11.4446
uarter	-11.4446
▁nonetheless	-11.4447
▁obby	-11.4447
▁conversion	-11.4448
▁threw	-11.4448
▁guidelines	-11.4449
▁afterwards	-11.4449
▁chunk	-11.445
▁captivating	-11.4451
▁polished	-11.4451
▁margin	-11.4452
▁analysis	-11.4455
ussian	-11.4456
everal	-11.4457
▁forgetting	-11.4457
▁Tablet	-11.4458
ahoo	-11.4458
▁playpause	-11.4461
▁beans	-11.4462
▁unfollow	-11.4463
▁electric	-11.4464
▁gmail	-11.4465
▁club	-11.4466
▁damaged	-11.4466
urther	-11.4466
▁grid	-11.4469
▁arrows	-11.4469
▁broadcasters	-11.4469
▁policy	-11.447
ecommended	-11.4472
▁fluent	-11.4472
uns	-11.4474
▁obtained	-11.4479
▁successfully	-11.448
▁acceptable	-11.4482
▁expert	-11.4484
▁resort	-11.4486
▁scenarios	-11.4488
▁wave	-11.4489
▁American	-11.4489
▁concepts	-11.4491
▁hack	-11.4495
▁intervals	-11.4495
▁headlines	-11.4496
▁consume	-11.4501
▁nope	-11.4502
▁allot	-11.4503
▁kiss	-11.4503
▁attributes	-11.4504
olid	-11.4506
▁leaderboards	-11.4511
ings	-11.4512
▁untill	-11.4513
hold	-11.4522
▁clutter	-11.4522
▁chasing	-11.4533
▁backflips	-11.4535
ucks	-11.4537
▁monitoring	-11.4542
▁teleport	-11.4545
▁Installed	-11.4553
▁logs	-11.4553
▁vibes	-11.4554
▁installation	-11.4555
▁imported	-11.4558
▁offroad	-11.456
▁leftright	-11.4565
▁fift	-11.4566
ugs	-11.4568
▁wallet	-11.4572
presented	-11.4574
▁decor	-11.4575
▁Touch	-11.4577
▁factors	-11.4584
▁informed	-11.4584
▁pla	-11.4584
▁plann	-11.4595
roxim	-11.4601
nitially	-11.4605
▁owned	-11.4606
▁oldest	-11.4606
ailed	-11.4607
▁comfort	-11.4611
▁trailer	-11.4613
▁hurts	-11.4614
▁assign	-11.4615
▁ver	-11.4617
▁muting	-11.4617
▁Thought	-11.4619
▁pressure	-11.4619
▁collected	-11.4624
umble	-11.4628
orean	-11.4639
lies	-11.4641
▁unistall	-11.4646
▁gripes	-11.4649
▁interrupts	-11.4657
▁logical	-11.467
▁ball	-11.4672
▁ne	-11.4684
▁prob	-11.4685
▁contract	-11.4703
ec	-11.4717
▁opinions	-11.4729
▁id	-11.4729
▁focusing	-11.4749
▁canvas	-11.4755
▁boat	-11.4765
▁ta	-11.4775
dfather	-11.4775
▁hook	-11.4782
▁vibrat	-11.4784
▁silence	-11.4787
▁ship	-11.4793
▁string	-11.4796
▁dp	-11.48
ea	-11.4802
▁corners	-11.4806
▁uh	-11.4814
ception	-11.4814
▁cris	-11.4817
▁biased	-11.482
playing	-11.4825
ounds	-11.4839
▁tr	-11.4844
umbled	-11.4844
aka	-11.4861
cash	-11.4882
▁vine	-11.4882
▁standards	-11.4891
uits	-11.4899
▁km	-11.4902
▁lies	-11.4935
▁rewinding	-11.4937
with	-11.4939
team	-11.4946
▁bugg	-11.4946
▁typed	-11.4949
made	-11.4951
heck	-11.4957
mo	-11.4972
▁adventures	-11.4985
▁lo	-11.4989
▁gum	-11.4995
hey	-11.5011
notch	-11.5036
▁ditch	-11.5037
issing	-11.5039
▁accumulate	-11.5043
▁afr	-11.5046
placed	-11.5061
why	-11.5062
▁iron	-11.5067
▁cup	-11.5081
long	-11.5097
▁sho	-11.51
ns	-11.5108
▁bat	-11.5109
ocial	-11.5112
▁pr	-11.5115
▁promo	-11.5123
▁shade	-11.5128
▁hop	-11.5128
▁responses	-11.5131
came	-11.5138
abit	-11.5144
loses	-11.5151
▁fu	-11.5155
▁limiting	-11.5167
keep	-11.5172
▁bas	-11.5181
▁af	-11.5226
ick	-11.5231
structured	-11.5233
▁strip	-11.5266
▁rage	-11.5268
▁shares	-11.528
work	-11.5285
watch	-11.5293
ife	-11.5298
election	-11.5303
▁mining	-11.5313
learning	-11.5321
▁measure	-11.5343
▁pronunciation	-11.5352
eveloper	-11.5353
▁possib	-11.5354
▁secret	-11.5358
▁expansion	-11.5359
▁outcome	-11.536
▁transaction	-11.5361
▁respect	-11.5362
▁achievement	-11.5364
sure	-11.5367
uirement	-11.5367
▁variation	-11.5368
▁alien	-11.537
▁audiobook	-11.5372
liability	-11.5374
uck	-11.5381
iscover	-11.5383
▁mass	-11.5387
lock	-11.5392
▁sun	-11.5395
▁troubleshoot	-11.5398
▁Incredibl	-11.5408
▁standing	-11.541
▁towns	-11.5415
ocket	-11.542
▁desync	-11.542
ught	-11.5427
▁guarantee	-11.543
epeat	-11.5438
ultiplayer	-11.5439
rilliant	-11.5441
ebruary	-11.5444
uantity	-11.5444
▁beneficial	-11.5444
▁chronological	-11.5444
▁conservative	-11.5444
▁eyebrow	-11.5444
▁multitude	-11.5444
▁traditional	-11.5444
▁sloppy	-11.5444
▁parameter	-11.5444
▁productivity	-11.5444
▁dictionar	-11.5444
▁uninterrupted	-11.5444
▁subpar	-11.5444
edrock	-11.5444
▁multiplier	-11.5444
▁borderline	-11.5444
▁swimming	-11.5444
▁awsome	-11.5444
▁foreground	-11.5444
▁harvest	-11.5444
▁frankly	-11.5445
▁correspond	-11.5445
▁skewed	-11.5445
▁dramatically	-11.5445
▁respawn	-11.5445
▁decoder	-11.5445
▁creatures	-11.5445
▁hurry	-11.5445
▁execution	-11.5445
▁audience	-11.5445
▁periodically	-11.5445
▁pinch	-11.5445
▁simplistic	-11.5445
▁compass	-11.5446
▁sketchy	-11.5446
▁dragging	-11.5446
omcast	-11.5446
▁swim	-11.5447
▁momentum	-11.5447
▁friendship	-11.5447
▁tutor	-11.5447
▁matrix	-11.5448
▁marvel	-11.5448
riends	-11.5448
▁engaged	-11.5449
▁enclosures	-11.5449
▁advancing	-11.545
▁shocked	-11.545
▁incorporate	-11.5451
▁deducted	-11.5452
▁entirety	-11.5453
▁remixes	-11.5456
▁tonight	-11.5456
▁smoothness	-11.5457
▁mutants	-11.5457
▁shortcomings	-11.5458
indle	-11.5458
▁compressed	-11.5458
▁promised	-11.5459
▁twist	-11.5459
amily	-11.5459
▁globally	-11.546
onnecting	-11.5466
▁plugins	-11.5467
▁entry	-11.5469
▁overwhelm	-11.547
oads	-11.5472
▁alive	-11.5472
▁recipes	-11.5474
▁located	-11.5477
▁decreased	-11.5482
▁hits	-11.5484
hotos	-11.5487
uys	-11.5487
▁flicks	-11.5492
▁billing	-11.5495
▁vods	-11.5495
▁spread	-11.5495
▁iteration	-11.5498
▁controllers	-11.5502
▁pickup	-11.5502
curated	-11.5509
▁calming	-11.5511
omeone	-11.5513
warm	-11.5514
ua	-11.5516
ex	-11.5517
▁Images	-11.5519
▁bills	-11.552
▁restored	-11.5521
▁captioning	-11.5525
▁cheating	-11.553
hanged	-11.5532
ions	-11.5532
▁refill	-11.5537
▁standings	-11.5541
▁excel	-11.5545
▁safely	-11.555
hannels	-11.5555
▁categori	-11.5557
▁sorta	-11.5559
▁learners	-11.5559
▁duo	-11.5564
ands	-11.5574
▁nights	-11.5575
eft	-11.5578
▁valid	-11.5579
▁reconsider	-11.5581
hows	-11.5585
▁habits	-11.5587
▁symbols	-11.5588
inner	-11.559
▁designers	-11.5611
chat	-11.5616
▁decisions	-11.5623
ama	-11.5624
eri	-11.5629
▁blame	-11.5632
because	-11.5636
▁tolerable	-11.5647
ustable	-11.5659
▁moderate	-11.5665
▁synchroni	-11.5667
▁touches	-11.5676
▁sponsor	-11.5676
tary	-11.5688
ace	-11.5689
puts	-11.569
▁gen	-11.569
▁behave	-11.5699
▁shuffled	-11.57
make	-11.5721
▁Teams	-11.573
▁configure	-11.5742
pay	-11.5742
▁sliders	-11.5742
▁restor	-11.5744
▁reverting	-11.5746
▁houses	-11.5751
▁comedy	-11.5753
▁environments	-11.5755
▁performs	-11.5762
▁sole	-11.5766
▁roller	-11.5768
▁subscribers	-11.5771
▁longest	-11.5774
▁cooler	-11.5779
inor	-11.578
▁circles	-11.5781
▁esp	-11.5784
loading	-11.5785
▁fish	-11.5787
mi	-11.5802
▁models	-11.5803
▁hype	-11.5812
▁convince	-11.5817
▁fa	-11.5817
▁pen	-11.582
▁truck	-11.5821
hole	-11.5822
▁bothering	-11.5825
▁production	-11.5827
fits	-11.5829
fire	-11.583
▁suggests	-11.5831
▁portions	-11.5835
▁po	-11.5835
▁buff	-11.5851
vid	-11.5854
▁intros	-11.5859
ank	-11.5859
ms	-11.586
▁clicks	-11.5865
▁driver	-11.5868
ipped	-11.587
▁degrad	-11.5873
▁sum	-11.5876
▁sta	-11.5894
▁listener	-11.5902
▁index	-11.5906
ether	-11.5907
test	-11.5907
▁an	-11.5913
▁instances	-11.5914
double	-11.5917
▁differ	-11.5924
▁flipp	-11.5928
lips	-11.5933
ater	-11.5941
▁storylines	-11.5977
aps	-11.6
ats	-11.6041
▁paired	-11.6042
▁shots	-11.605
▁Tid	-11.6098
pdf	-11.6102
▁landscapes	-11.6107
▁Al	-11.611
atcher	-11.6115
vy	-11.612
▁rough	-11.6133
▁decid	-11.6149
sers	-11.6154
▁fear	-11.6155
▁introduc	-11.6157
since	-11.6158
▁loops	-11.6171
roved	-11.6173
▁op	-11.6185
gun	-11.6187
idia	-11.6192
ittle	-11.6203
▁ordered	-11.6213
ul	-11.6234
ait	-11.6239
▁codes	-11.6251
ich	-11.6255
best	-11.6269
aya	-11.6276
we	-11.6277
▁tick	-11.6279
▁automat	-11.6281
elete	-11.6283
▁networking	-11.6285
really	-11.6301
▁da	-11.6301
▁wind	-11.6315
▁sm	-11.6322
▁severe	-11.6338
▁res	-11.6346
▁differently	-11.6348
ause	-11.6369
oto	-11.6383
▁realm	-11.6392
mouth	-11.6406
▁exhaust	-11.6424
egatta	-11.6426
ities	-11.6428
eature	-11.643
▁partial	-11.6431
arre	-11.6436
hot	-11.6441
▁som	-11.6441
▁dedicate	-11.6448
▁bill	-11.6459
▁capture	-11.646
pisode	-11.6461
avorite	-11.6463
▁finds	-11.6465
▁sharp	-11.6465
▁doc	-11.6466
▁leaderboard	-11.6473
▁shortcut	-11.6476
▁flowers	-11.6476
▁cube	-11.6479
printing	-11.648
▁powers	-11.6493
▁satisfy	-11.6509
replying	-11.6512
premium	-11.6515
▁im	-11.6515
ifficult	-11.6515
▁vanish	-11.652
▁strength	-11.6522
▁gem	-11.6527
text	-11.6529
▁meaningful	-11.6532
▁routine	-11.6533
▁distort	-11.6535
▁pe	-11.6536
▁persist	-11.6536
Thank	-11.6539
ri	-11.6542
rigger	-11.6545
isten	-11.6549
hallenging	-11.6551
atrix	-11.6551
onetheless	-11.6552
irestick	-11.6552
▁myster	-11.6553
mates	-11.6553
olume	-11.6554
▁absurd	-11.6555
▁anxiety	-11.6555
▁degree	-11.6555
▁maintenance	-11.6555
▁unpredictable	-11.6555
▁Awful	-11.6555
▁hashtag	-11.6555
▁gradient	-11.6555
▁informative	-11.6555
▁steadily	-11.6555
▁registration	-11.6555
▁referring	-11.6555
▁unpleasant	-11.6555
▁finicky	-11.6555
▁grenade	-11.6555
▁rhythm	-11.6556
▁rubbish	-11.6556
▁confusion	-11.6556
▁libraries	-11.6556
▁mechanism	-11.6556
▁rectify	-11.6556
▁seldom	-11.6556
▁inferior	-11.6556
▁fabulous	-11.6556
▁modified	-11.6556
▁mandatory	-11.6556
▁crossplatform	-11.6556
▁dies	-11.6556
▁counterpart	-11.6556
▁lunch	-11.6556
▁bummed	-11.6556
▁unclear	-11.6556
▁indication	-11.6557
▁Tucker	-11.6557
▁entries	-11.6557
▁industry	-11.6557
uggy	-11.6557
▁lossless	-11.6558
▁submitted	-11.6558
▁collage	-11.6559
▁toolbar	-11.656
▁scatter	-11.656
▁triple	-11.656
▁supply	-11.656
▁curious	-11.656
▁established	-11.656
▁dropdown	-11.6561
▁sweet	-11.6562
▁dirty	-11.6562
▁instrument	-11.6563
▁meditation	-11.6563
▁robot	-11.6564
▁discouraged	-11.6565
▁onoff	-11.6565
▁mega	-11.6566
▁crew	-11.6566
▁u	-11.6566
▁creepy	-11.6566
▁musthave	-11.6566
▁strictly	-11.6567
▁disrupt	-11.6568
▁peaceful	-11.6569
▁desperately	-11.6569
▁semi	-11.6569
▁tuning	-11.6569
▁idiot	-11.657
▁subfolders	-11.6571
▁prediction	-11.6573
▁pissed	-11.6573
▁dance	-11.6573
▁whatnot	-11.6577
co	-11.6577
▁rushed	-11.6577
▁perfection	-11.6582
▁accomplished	-11.6586
▁donate	-11.6587
▁pink	-11.6589
▁Account	-11.6589
▁expired	-11.6589
heers	-11.659
▁manipulat	-11.6592
▁sensor	-11.6593
▁alphabetically	-11.6597
anky	-11.6601
▁dms	-11.6602
▁purp	-11.6603
▁smash	-11.6609
▁consist	-11.6609
▁scanned	-11.661
▁refunded	-11.6616
▁alto	-11.6617
▁understood	-11.6617
▁bo	-11.6619
▁overheating	-11.6619
▁tower	-11.6621
eason	-11.6622
▁limitations	-11.6624
▁fastpass	-11.6624
▁supportive	-11.6628
▁maxim	-11.6631
▁collapse	-11.6635
▁dear	-11.664
ond	-11.6641
▁remix	-11.6641
ouse	-11.6642
pic	-11.6649
tball	-11.6653
▁disturbing	-11.6655
eries	-11.6659
▁configur	-11.6661
tarts	-11.6662
▁grindy	-11.6662
▁browsers	-11.6662
▁adults	-11.6666
▁studying	-11.6666
▁brush	-11.6668
▁stor	-11.6673
▁remotely	-11.6673
▁famous	-11.6675
▁subse	-11.6676
▁flexible	-11.668
▁baby	-11.668
If	-11.6681
That	-11.6685
▁hoops	-11.6686
▁watermark	-11.6693
▁makeup	-11.6694
▁underrated	-11.6694
iff	-11.6697
▁le	-11.6698
titude	-11.6699
hard	-11.67
▁agent	-11.6703
▁potion	-11.6707
▁highlighted	-11.6708
▁nast	-11.6712
▁distorted	-11.6714
▁matters	-11.6714
table	-11.6726
▁terr	-11.6728
lutoT	-11.6729
▁presentations	-11.6731
▁redeem	-11.6739
▁drawn	-11.674
designed	-11.6741
▁shifts	-11.6741
city	-11.6743
▁starters	-11.6747
▁recap	-11.6749
annoying	-11.675
▁shields	-11.675
▁coding	-11.6751
▁dated	-11.6759
▁drawings	-11.6762
some	-11.6767
worthy	-11.6782
▁Top	-11.6784
▁bait	-11.6795
uares	-11.6797
um	-11.6797
▁labels	-11.6803
serves	-11.6807
gging	-11.6812
▁dealt	-11.6815
▁motivating	-11.6817
moving	-11.6818
▁livestream	-11.6821
▁cand	-11.6836
▁decades	-11.6843
tatus	-11.6845
mpire	-11.6846
▁intuitively	-11.6848
rows	-11.6851
elps	-11.6862
▁calculate	-11.6868
▁vc	-11.6871
▁refreshed	-11.688
▁latency	-11.6886
▁Trash	-11.689
full	-11.689
▁discontinue	-11.6894
▁verifi	-11.6896
▁holidays	-11.6904
▁specially	-11.6918
ath	-11.6921
▁facesmi	-11.693
▁recur	-11.6932
▁looping	-11.695
▁Issues	-11.695
▁comp	-11.6952
▁pure	-11.6956
rating	-11.6963
▁lovers	-11.6963
▁noises	-11.6965
songs	-11.6966
In	-11.6975
▁prints	-11.6977
pc	-11.6984
list	-11.6988
▁wonderfully	-11.6989
▁listing	-11.6993
med	-11.6998
▁notic	-11.6999
ture	-11.7001
▁dragon	-11.7004
losing	-11.703
▁values	-11.7031
roll	-11.7036
create	-11.7042
▁providers	-11.7044
▁yr	-11.7052
download	-11.7053
▁sex	-11.7067
band	-11.7067
▁appreciat	-11.707
uint	-11.7075
▁trackers	-11.7075
▁woke	-11.7084
call	-11.7093
ik	-11.7097
▁beats	-11.7103
speed	-11.7112
res	-11.7114
show	-11.7138
▁anti	-11.7161
couple	-11.7164
group	-11.7171
▁records	-11.7192
thinking	-11.72
▁exclude	-11.7202
▁ho	-11.7238
▁messe	-11.7249
ky	-11.7257
▁messy	-11.7258
▁cult	-11.726
hand	-11.7261
▁fl	-11.7271
▁sms	-11.7281
▁producer	-11.7301
▁al	-11.7301
▁stores	-11.7302
▁scar	-11.7316
▁flagg	-11.7325
▁mental	-11.7327
ustom	-11.7363
▁fat	-11.7368
li	-11.7374
space	-11.7383
gest	-11.7386
▁expose	-11.7387
▁intention	-11.7417
ected	-11.7426
▁dm	-11.7432
ision	-11.7432
incerely	-11.7448
inting	-11.7448
hh	-11.745
boy	-11.7452
ified	-11.7457
land	-11.7479
ned	-11.7519
▁backups	-11.752
igned	-11.7527
little	-11.754
▁men	-11.7545
rt	-11.7554
▁irritate	-11.7562
money	-11.7567
▁mom	-11.7568
otification	-11.7572
ors	-11.7608
▁blur	-11.7627
eady	-11.7641
bs	-11.7659
▁leg	-11.7664
▁indicat	-11.7671
book	-11.7676
cing	-11.7687
▁pip	-11.7688
litch	-11.7694
▁chicken	-11.7696
▁advert	-11.7698
▁destination	-11.7704
▁alignment	-11.7704
rovide	-11.771
hallenge	-11.7715
▁amateur	-11.7716
▁ramp	-11.7721
▁tournament	-11.7722
pecifically	-11.7722
generated	-11.7723
aiting	-11.7725
▁flicker	-11.7726
▁attribute	-11.7727
▁flight	-11.7734
▁weekend	-11.7738
plus	-11.7742
mode	-11.7743
▁shrink	-11.7746
▁drink	-11.7754
room	-11.7754
▁multitask	-11.7755
▁recognise	-11.7761
▁represent	-11.7765
▁Africa	-11.7775
▁actors	-11.7784
▁global	-11.7785
uffering	-11.7786
house	-11.7789
lu	-11.7789
▁extrem	-11.779
sometimes	-11.779
early	-11.7791
▁compromise	-11.7791
ffline	-11.7794
xceptional	-11.7795
date	-11.7795
eleting	-11.7798
omehow	-11.7798
▁fetch	-11.7798
▁bias	-11.7799
ibrary	-11.78
ominos	-11.7801
▁techni	-11.7801
▁roof	-11.7801
oodnovel	-11.7802
▁criti	-11.7802
emember	-11.7804
▁extent	-11.7805
andalorian	-11.7805
▁accommodate	-11.7805
▁atmospheric	-11.7805
▁credentials	-11.7805
▁disadvantage	-11.7805
▁tomorrow	-11.7805
▁Italian	-11.7805
▁adventurous	-11.7805
▁summary	-11.7805
anuary	-11.7805
▁disagree	-11.7805
▁promising	-11.7805
▁leisure	-11.7805
▁msgs	-11.7805
▁afternoon	-11.7806
▁hectic	-11.7806
▁confidence	-11.7806
▁masterpiece	-11.7806
otorola	-11.7806
▁overpriced	-11.7806
▁household	-11.7806
▁innovative	-11.7806
▁toxic	-11.7806
▁agenda	-11.7806
▁abysmal	-11.7806
▁tiresome	-11.7806
▁hotspot	-11.7806
ualities	-11.7806
▁customisation	-11.7806
▁impression	-11.7806
▁downtown	-11.7806
etween	-11.7807
▁excitement	-11.7807
▁responsiveness	-11.7807
▁peeve	-11.7807
▁suspended	-11.7807
▁silhouette	-11.7807
▁interference	-11.7807
▁Alright	-11.7807
▁dangerous	-11.7807
▁garage	-11.7807
▁niche	-11.7807
▁radar	-11.7808
▁offensive	-11.7808
▁compelling	-11.7808
▁inspire	-11.7808
▁branch	-11.7808
▁disaster	-11.7808
▁module	-11.7809
▁embedded	-11.7809
▁furnace	-11.781
▁distortion	-11.781
▁rude	-11.781
▁releasing	-11.781
efault	-11.781
▁latter	-11.781
▁monopol	-11.781
▁cmon	-11.7811
▁troublesome	-11.7812
▁dominos	-11.7815
▁lbs	-11.7815
▁firm	-11.7816
▁eaten	-11.7816
▁evolved	-11.7817
▁rapidly	-11.7818
▁thankyou	-11.7818
▁dude	-11.7821
▁executed	-11.7822
▁addiction	-11.7822
▁published	-11.7823
▁summer	-11.7823
▁guaranteed	-11.7823
▁classical	-11.7825
▁execute	-11.7828
▁graphical	-11.7829
intermediate	-11.783
take	-11.7834
▁topdown	-11.7834
▁archived	-11.784
▁erased	-11.7841
▁unexpectedly	-11.7843
▁alternate	-11.7845
hones	-11.7845
▁facegri	-11.7848
▁recieved	-11.7848
▁upwards	-11.7851
▁Inbox	-11.7852
▁fastforward	-11.7852
▁todo	-11.7854
▁parties	-11.7855
▁extensions	-11.7856
▁described	-11.7856
▁unbelievable	-11.7858
▁him	-11.7861
▁prioriti	-11.7868
▁absolut	-11.787
▁fulltime	-11.7872
▁demo	-11.7873
▁unreasonabl	-11.7874
estarting	-11.7875
▁patched	-11.7875
▁meals	-11.7877
▁attachments	-11.7879
riginally	-11.7879
aying	-11.788
▁rolled	-11.788
▁realtime	-11.788
▁roads	-11.7881
▁slick	-11.7882
▁headphone	-11.7882
▁gaps	-11.7885
▁tongue	-11.7887
itting	-11.7889
▁doors	-11.789
▁tournaments	-11.7891
edit	-11.7892
▁faves	-11.7893
▁drifting	-11.79
▁suffering	-11.7904
▁cleaner	-11.7905
ptical	-11.7909
▁horns	-11.7914
▁sales	-11.7915
▁fruits	-11.792
▁ships	-11.7921
reinstalling	-11.7923
glow	-11.7923
▁launched	-11.7923
▁snow	-11.7924
umber	-11.7931
▁commit	-11.7931
▁pathetic	-11.7931
▁flawed	-11.7932
▁elses	-11.7941
▁tagged	-11.7946
▁tendenc	-11.7946
▁remarkable	-11.7946
▁corrections	-11.795
intuitive	-11.7952
▁wife	-11.7954
▁manga	-11.7955
▁vocab	-11.7955
▁education	-11.7955
▁crawl	-11.7958
▁listings	-11.7958
oins	-11.7959
earing	-11.7963
▁birds	-11.7963
▁badges	-11.7964
▁billion	-11.7967
▁realis	-11.7976
▁lvls	-11.7977
▁hackers	-11.7979
ooked	-11.7981
▁minded	-11.7982
▁concerning	-11.7982
occurr	-11.7987
▁answered	-11.7988
▁delivers	-11.7988
▁o	-11.799
▁gamer	-11.7991
als	-11.8008
load	-11.8008
▁aesthetics	-11.8014
▁chores	-11.8015
better	-11.8023
▁duper	-11.8026
▁listeners	-11.8027
▁serve	-11.8029
ives	-11.8031
▁spir	-11.8031
▁unrelat	-11.8038
access	-11.8039
▁pros	-11.8041
▁patterns	-11.8046
▁bang	-11.8047
▁yt	-11.8049
▁fb	-11.8052
▁unpair	-11.8052
▁banners	-11.8056
uide	-11.8065
streaming	-11.8066
fast	-11.8072
intend	-11.8072
roblems	-11.8084
▁national	-11.8085
▁Artist	-11.8086
every	-11.8088
▁won	-11.8089
▁bubbles	-11.809
▁interfere	-11.8107
of	-11.811
▁grabs	-11.8111
▁intelligen	-11.8117
▁phase	-11.8126
▁arm	-11.8127
▁rethink	-11.8135
▁inconveniences	-11.8137
▁panels	-11.8137
▁logos	-11.814
▁transactions	-11.8163
otion	-11.8172
einstalled	-11.8175
▁phishing	-11.818
▁dual	-11.8181
▁batch	-11.8181
▁Assistant	-11.8181
▁inform	-11.8182
cious	-11.8182
▁bridge	-11.8182
oring	-11.8187
▁profit	-11.8194
▁hiding	-11.82
▁alike	-11.8203
bones	-11.8205
▁shutt	-11.8208
videos	-11.8212
ingle	-11.8212
▁inch	-11.8222
▁launching	-11.8225
▁grading	-11.8227
▁reviewer	-11.824
▁inputs	-11.8246
▁murder	-11.8251
rice	-11.8252
ification	-11.8255
▁existent	-11.8256
Thanks	-11.8266
▁dash	-11.8271
▁tactic	-11.8274
▁structures	-11.8277
going	-11.8281
▁victor	-11.8282
however	-11.8282
▁grand	-11.8283
...............	-11.8284
ara	-11.8288
▁lineups	-11.8294
▁touched	-11.8296
ality	-11.83
stream	-11.8315
▁teammate	-11.832
▁sing	-11.8326
▁lasts	-11.8341
▁directed	-11.8342
▁relate	-11.8348
▁lite	-11.838
▁trimm	-11.8382
ding	-11.8391
▁filtering	-11.8406
pg	-11.8406
▁ui	-11.841
lessly	-11.8426
select	-11.8432
air	-11.8433
▁animate	-11.8462
▁lil	-11.8463
eply	-11.8466
After	-11.8472
▁keyboards	-11.8472
let	-11.8476
▁suits	-11.8476
▁presents	-11.8485
▁scrolls	-11.85
▁shortly	-11.8505
▁guides	-11.8509
▁arra	-11.853
esign	-11.8532
▁progresses	-11.8535
▁sword	-11.8537
cast	-11.8558
mm	-11.8565
Its	-11.8566
▁draws	-11.8568
▁bull	-11.8573
per	-11.8574
▁rearrang	-11.8588
▁hyper	-11.8591
ags	-11.8593
person	-11.8602
ress	-11.8609
verse	-11.8617
lly	-11.8638
apped	-11.8655
▁arrive	-11.8661
teammates	-11.8681
lose	-11.8683
▁hd	-11.8694
▁prepar	-11.8707
stic	-11.8758
ric	-11.8763
iant	-11.8764
pls	-11.8766
ption	-11.8775
iked	-11.8776
ging	-11.8781
atched	-11.8781
aw	-11.8788
▁analy	-11.8801
▁hu	-11.8801
▁scal	-11.8814
eek	-11.8822
nap	-11.8822
tap	-11.8825
▁correcting	-11.883
term	-11.8838
spect	-11.8838
▁recommending	-11.886
peaking	-11.8864
▁calendars	-11.8867
leep	-11.8885
▁plugg	-11.8895
ync	-11.8909
▁hesitate	-11.8913
▁til	-11.8917
form	-11.892
iness	-11.8924
▁mbs	-11.893
▁troph	-11.8957
front	-11.8963
movie	-11.8965
▁magical	-11.8971
never	-11.8976
broken	-11.8979
▁fade	-11.8981
▁regrett	-11.8982
▁customise	-11.8992
▁ram	-11.8996
artist	-11.8998
explod	-11.9012
wide	-11.9023
hose	-11.9031
ial	-11.9032
▁tile	-11.9046
▁AT	-11.9047
bit	-11.9047
wood	-11.9052
ash	-11.9054
▁favorited	-11.9058
yncing	-11.9062
▁hesita	-11.9064
ada	-11.9067
▁trap	-11.9071
▁dim	-11.9072
▁robu	-11.9076
vidi	-11.9092
ft	-11.9094
thanks	-11.9099
pe	-11.9103
▁pv	-11.9104
▁attract	-11.9114
loaded	-11.9145
▁outfit	-11.9148
raction	-11.9149
▁mountain	-11.915
▁attachment	-11.9151
▁interval	-11.9152
▁paragraph	-11.9152
▁obstacle	-11.9153
uilding	-11.9153
▁photographer	-11.9153
▁headline	-11.9154
▁Tweet	-11.9154
▁experiment	-11.9155
▁consumer	-11.916
▁stunt	-11.9161
pecially	-11.9162
▁succeed	-11.9175
si	-11.9175
▁minigame	-11.9188
▁entertain	-11.919
▁vod	-11.92
▁limitation	-11.9203
▁stranger	-11.9204
ni	-11.9209
▁dismiss	-11.9212
roid	-11.9213
hecked	-11.9214
▁thorough	-11.9214
▁align	-11.9215
ab	-11.9219
▁desk	-11.922
▁mile	-11.922
▁evolve	-11.9221
▁accidental	-11.9222
▁glich	-11.9223
orce	-11.9223
ortrait	-11.9225
laystation	-11.9228
epetitive	-11.923
ecommendations	-11.923
unctionality	-11.923
corporate	-11.9231
ompared	-11.9231
▁na	-11.9232
ompletely	-11.9233
ubtitles	-11.9233
▁voltage	-11.9234
▁dissapear	-11.9234
▁dissapointing	-11.9234
▁fascinating	-11.9234
▁inbetween	-11.9234
▁predecessor	-11.9234
▁reluctant	-11.9234
▁warrant	-11.9234
▁hindrance	-11.9234
▁twenty	-11.9234
rainbow	-11.9234
▁electronic	-11.9234
▁megaskins	-11.9234
▁revamp	-11.9234
▁lifesaver	-11.9234
▁crucial	-11.9234
▁vague	-11.9234
▁enchant	-11.9234
▁muscle	-11.9234
▁ladies	-11.9234
▁spikes	-11.9234
▁comfortably	-11.9234
▁fantasy	-11.9234
▁shiftlock	-11.9234
▁mileage	-11.9234
▁assistance	-11.9234
▁shotgun	-11.9234
eriod	-11.9235
▁outline	-11.9235
▁fundamental	-11.9235
▁relaunch	-11.9235
▁regenerate	-11.9235
▁diversity	-11.9235
▁horrid	-11.9235
▁stinks	-11.9235
▁illustration	-11.9235
▁revisit	-11.9235
▁penalty	-11.9235
▁destruction	-11.9235
▁theory	-11.9235
▁premade	-11.9236
▁nutrition	-11.9236
▁generous	-11.9236
▁deselect	-11.9236
▁innovation	-11.9236
▁withdrawal	-11.9237
▁beef	-11.9237
▁increments	-11.9237
nlimited	-11.9237
▁bypass	-11.9237
▁faith	-11.9237
▁slender	-11.9237
▁kidding	-11.9238
orld	-11.9239
▁detract	-11.9239
ault	-11.9239
▁confirmation	-11.924
▁merge	-11.924
▁professor	-11.924
▁penali	-11.924
nough	-11.924
▁lightning	-11.9241
▁workflow	-11.9241
▁fingertips	-11.9241
▁granted	-11.9242
▁safety	-11.9242
▁utility	-11.9243
▁strike	-11.9243
▁domain	-11.9243
orced	-11.9243
ssentials	-11.9244
appens	-11.9244
▁bland	-11.9244
▁popularity	-11.9245
▁horrific	-11.9246
litches	-11.9246
▁insist	-11.9247
▁donation	-11.9248
▁centre	-11.9248
▁bounce	-11.9248
▁expects	-11.9249
▁slightest	-11.9249
▁protected	-11.9251
▁spell	-11.9251
▁reflow	-11.9253
round	-11.9254
▁historical	-11.9254
▁coworkers	-11.9254
▁acknowledge	-11.9255
▁resend	-11.9256
▁definetl	-11.9257
▁compliments	-11.9258
▁bingo	-11.9259
▁praise	-11.9262
▁trophy	-11.9264
▁exceed	-11.9266
▁lifetime	-11.9269
▁programmers	-11.9269
confused	-11.9269
▁admin	-11.9272
lip	-11.9273
andomly	-11.9274
▁cop	-11.9274
▁hey	-11.9274
▁dodging	-11.9275
uirk	-11.9276
▁advancement	-11.9276
▁comeback	-11.9276
▁Thankyou	-11.9278
▁blinking	-11.9279
▁tik	-11.9282
xpress	-11.9282
treams	-11.9282
▁maintained	-11.9283
▁checkpoints	-11.9283
▁hog	-11.9285
▁occupie	-11.9286
▁flick	-11.9288
▁exhausting	-11.9292
▁litter	-11.9296
▁accordingly	-11.9299
▁mild	-11.9301
▁achieved	-11.9303
cho	-11.9304
alls	-11.9309
▁True	-11.9311
▁shorts	-11.9313
ausing	-11.9315
▁mountains	-11.9319
▁photographers	-11.9319
di	-11.9319
otmail	-11.932
▁street	-11.9322
av	-11.9322
▁explorer	-11.9322
▁stabili	-11.9326
▁planet	-11.9327
▁Along	-11.933
▁tweaking	-11.9331
▁Artists	-11.9335
▁thrilling	-11.9337
▁rev	-11.9337
▁debug	-11.9338
▁accepted	-11.9339
▁reminded	-11.934
▁posters	-11.9341
▁soundtracks	-11.9345
▁infinitely	-11.9346
▁checkin	-11.9352
▁worrie	-11.9354
▁veiw	-11.9355
▁mirror	-11.9357
▁stressed	-11.9358
woman	-11.9358
▁moon	-11.9365
mili	-11.9367
▁Americans	-11.9373
earching	-11.9377
riday	-11.9378
▁parsing	-11.9379
▁brick	-11.9383
▁workarounds	-11.9383
▁threads	-11.9384
▁bag	-11.9393
mon	-11.9395
downloaded	-11.9396
▁winter	-11.9398
know	-11.94
reative	-11.9401
▁automation	-11.9402
▁professionally	-11.9403
▁suspicious	-11.9407
▁beauty	-11.9407
▁Abo	-11.9408
▁redundant	-11.9409
▁pur	-11.9416
easy	-11.9417
rr	-11.9425
▁cartoons	-11.9429
eeing	-11.944
▁expires	-11.9441
uggestion	-11.9442
oming	-11.9446
▁sheep	-11.9446
▁fool	-11.945
mistakenly	-11.9452
mg	-11.9456
▁solo	-11.9464
high	-11.9464
▁bells	-11.9465
view	-11.947
▁sim	-11.9476
▁your	-11.9476
▁override	-11.9481
▁exits	-11.9482
▁meal	-11.9495
▁editable	-11.95
▁lift	-11.9503
▁pisse	-11.9504
thers	-11.9515
starstarstarstar	-11.9516
▁rerun	-11.952
▁smartphones	-11.9521
▁backend	-11.9526
▁filtered	-11.9537
▁lambo	-11.9539
lready	-11.9541
▁playability	-11.9552
▁abuse	-11.9554
ods	-11.9562
▁engineer	-11.9564
▁cook	-11.9567
wing	-11.9576
▁compos	-11.958
▁respective	-11.9581
▁wander	-11.9582
▁tok	-11.9584
▁reputa	-11.9585
stop	-11.9595
img	-11.9602
▁Insta	-11.9603
▁rise	-11.9618
▁shy	-11.9618
alse	-11.962
▁flags	-11.9636
▁doable	-11.9644
▁yard	-11.9649
▁publish	-11.9659
allow	-11.9667
emo	-11.9668
▁ar	-11.9673
served	-11.9675
▁stumbl	-11.9677
▁capab	-11.9686
▁learner	-11.9686
▁fields	-11.9688
▁meetings	-11.9709
▁unbias	-11.9712
ime	-11.9716
ny	-11.9727
▁generat	-11.9733
▁weirdly	-11.9741
▁det	-11.9741
ucki	-11.9743
▁inspired	-11.9751
▁rings	-11.9753
▁organise	-11.9756
yth	-11.9766
▁feelings	-11.9768
▁sample	-11.9769
▁reloads	-11.9778
close	-11.978
▁earnings	-11.9784
atsapp	-11.9785
▁examples	-11.9797
sible	-11.9798
pt	-11.9798
son	-11.9801
▁span	-11.9817
urely	-11.9817
ards	-11.9819
▁replays	-11.983
▁thoughts	-11.9836
month	-11.9844
▁bl	-11.9857
▁pray	-11.986
cient	-11.986
left	-11.9862
▁ple	-11.9877
rich	-11.9895
▁sc	-11.9896
umpy	-11.9899
raw	-11.9913
night	-11.9915
▁mkv	-11.9916
▁sever	-11.9931
▁sling	-11.9932
cc	-11.9935
▁mone	-11.9935
▁toss	-11.9942
▁slack	-11.9943
▁tests	-11.9946
lots	-11.9947
cha	-11.9956
ixing	-11.9957
▁mor	-11.9959
playlists	-11.9966
bug	-11.997
▁citi	-11.998
thor	-11.9984
▁positions	-11.9988
▁visuali	-11.999
could	-11.9996
▁dial	-12.003
▁Aloud	-12.0041
ase	-12.0041
ocused	-12.0042
step	-12.0044
dited	-12.0048
eeping	-12.0057
▁construct	-12.0071
dled	-12.0078
▁marking	-12.0089
werk	-12.0097
▁scream	-12.0099
days	-12.0103
iven	-12.0104
▁led	-12.0106
▁populate	-12.0109
em	-12.0113
▁purposeful	-12.0132
▁ass	-12.0138
vote	-12.0148
done	-12.0149
▁imp	-12.0158
arn	-12.0167
log	-12.0182
hit	-12.0187
ded	-12.0191
inks	-12.0197
▁tax	-12.0201
ag	-12.0205
ped	-12.0207
▁expands	-12.0217
▁schedul	-12.0219
arlier	-12.0233
story	-12.0236
▁maker	-12.0242
▁replie	-12.0245
▁authori	-12.0263
▁etern	-12.0278
check	-12.028
▁lineup	-12.0286
ving	-12.0287
▁script	-12.0295
lipping	-12.0307
will	-12.0325
boots	-12.0338
ontrol	-12.0365
merged	-12.0369
▁hitch	-12.0376
▁obtrusive	-12.0379
oon	-12.0384
ealth	-12.0393
▁sink	-12.0409
▁mi	-12.0417
▁activat	-12.042
nter	-12.042
▁forwarded	-12.0436
▁door	-12.0447
▁medic	-12.0457
she	-12.0457
▁resync	-12.0468
peg	-12.0469
▁enabl	-12.0471
▁ske	-12.0473
▁communications	-12.0475
uals	-12.0479
ates	-12.0492
minded	-12.0508
nder	-12.0509
pped	-12.0522
▁Improve	-12.0525
▁cake	-12.0537
though	-12.0548
▁complains	-12.0563
pposed	-12.0579
nails	-12.0588
fun	-12.0601
▁rescan	-12.0606
▁halt	-12.0613
ten	-12.063
▁overload	-12.0633
friends	-12.0634
▁ai	-12.064
▁sexual	-12.0642
ubscription	-12.0647
ambo	-12.0649
▁spa	-12.0661
▁relearn	-12.067
▁tra	-12.0673
▁sa	-12.0702
▁echo	-12.0708
fe	-12.0714
▁obsess	-12.072
ides	-12.0736
▁hire	-12.0738
▁reasonabl	-12.0738
thank	-12.0752
▁spec	-12.0756
finity	-12.0767
▁mac	-12.077
nds	-12.0773
give	-12.0782
▁corrupt	-12.0784
▁tongues	-12.0791
▁buck	-12.0797
▁distraction	-12.08
▁programme	-12.0806
▁segment	-12.0814
▁renovation	-12.0814
block	-12.0815
▁voicenote	-12.0817
▁theater	-12.0817
▁lemur	-12.0818
▁poo	-12.0821
▁scenario	-12.0824
▁insight	-12.0827
▁powerup	-12.0831
▁emote	-12.0836
ep	-12.0843
▁sur	-12.0844
▁logic	-12.0851
ster	-12.0851
▁rush	-12.0852
▁fanc	-12.0854
xchange	-12.0859
estart	-12.0861
eath	-12.0867
▁clickbait	-12.0868
eird	-12.0869
▁mob	-12.0871
▁remake	-12.0876
▁instruction	-12.0877
tone	-12.0877
▁consecutive	-12.0878
▁intermittent	-12.088
▁reviewed	-12.088
▁desperate	-12.088
con	-12.088
▁protect	-12.0881
▁crowd	-12.0881
hoto	-12.0881
torage	-12.0881
▁peace	-12.0881
tuff	-12.0883
people	-12.0884
▁continual	-12.0885
ury	-12.0889
▁deactivate	-12.089
media	-12.0892
assive	-12.0892
rofessor	-12.0894
omi	-12.0894
andscape	-12.0895
ifferent	-12.0895
ountry	-12.0896
esume	-12.0896
ampaign	-12.0897
essenger	-12.0897
▁chick	-12.0897
avigating	-12.0897
arbage	-12.0897
ackground	-12.0898
uperb	-12.0899
ootball	-12.0899
arkour	-12.0899
ltimate	-12.0899
eyboard	-12.09
iewers	-12.09
akistan	-12.09
▁birthday	-12.09
▁clumsy	-12.09
▁earliest	-12.09
▁excruciating	-12.09
▁narrator	-12.09
▁rectified	-12.09
andarin	-12.09
uarantine	-12.09
▁perpetual	-12.09
▁overseas	-12.09
▁sneak	-12.09
▁timestamp	-12.09
▁werewol	-12.09
▁hilarious	-12.0901
▁violence	-12.0901
▁abundan	-12.0901
▁butterflies	-12.0901
▁legitimate	-12.0901
arlson	-12.0901
▁deliberate	-12.0901
arshalls	-12.0901
▁cutscene	-12.0901
▁hobby	-12.0901
▁unbeatable	-12.0901
▁maddening	-12.0901
▁trolls	-12.0901
▁enticing	-12.0901
▁harsh	-12.0901
▁lightweight	-12.0901
▁crystal	-12.0901
▁chainsaw	-12.0901
▁department	-12.0901
▁cliff	-12.0901
▁evolution	-12.0901
▁redstone	-12.0901
▁neighbor	-12.0902
▁glance	-12.0902
▁collaboration	-12.0902
▁imagination	-12.0902
▁multimedia	-12.0902
▁heartbeat	-12.0902
▁gym	-12.0902
▁legend	-12.0902
▁expiration	-12.0902
▁gamble	-12.0902
▁gamified	-12.0902
▁dvd	-12.0903
▁existence	-12.0903
▁authentication	-12.0903
tinent	-12.0903
▁overnight	-12.0903
▁glitchiness	-12.0904
▁inception	-12.0904
▁calender	-12.0904
ixelbite	-12.0904
▁modification	-12.0904
▁engagement	-12.0904
referred	-12.0904
▁beforehand	-12.0904
▁personalities	-12.0904
▁rectangle	-12.0904
▁dimension	-12.0905
▁underline	-12.0905
▁principle	-12.0905
▁straw	-12.0905
iamonds	-12.0905
▁lifestyle	-12.0905
▁overboard	-12.0905
try	-12.0905
▁technological	-12.0906
▁reveal	-12.0906
▁travelling	-12.0906
▁surviving	-12.0906
▁Arab	-12.0906
▁xplayer	-12.0907
▁blurred	-12.0907
▁spotty	-12.0907
▁tagging	-12.0908
guitar	-12.0908
▁hideout	-12.0908
▁indefinitely	-12.0909
laptop	-12.0909
▁spirit	-12.0909
▁shirts	-12.0909
▁colleagues	-12.091
▁laptops	-12.091
ontacts	-12.091
▁buried	-12.091
hapters	-12.091
pgraded	-12.091
▁substantially	-12.091
▁tremendously	-12.091
▁haha	-12.091
▁upfront	-12.091
▁shaders	-12.0911
▁unreadable	-12.0911
▁considerably	-12.0911
▁strategies	-12.0912
▁debit	-12.0912
▁expense	-12.0913
▁cardio	-12.0913
ropped	-12.0914
▁gamemodes	-12.0914
▁filename	-12.0915
▁misspelling	-12.0917
▁limitless	-12.0917
▁financially	-12.0918
▁noticabl	-12.0918
▁height	-12.0919
▁greeting	-12.0919
▁gigabyte	-12.0921
▁intermittently	-12.0921
uestionable	-12.0922
▁discard	-12.0922
▁flipped	-12.0922
▁sniper	-12.0922
▁eyesthumbs	-12.0924
played	-12.0924
▁mph	-12.0924
▁eras	-12.0925
▁someday	-12.0926
essons	-12.0927
▁timers	-12.0928
▁daters	-12.0928
egards	-12.0928
▁captured	-12.0929
▁inviting	-12.0932
ewer	-12.0932
▁factual	-12.0933
▁intent	-12.0935
ology	-12.0937
▁govern	-12.0937
▁outlet	-12.0939
▁annotate	-12.094
▁cutters	-12.0941
▁meantime	-12.0942
▁renovating	-12.0942
▁ranking	-12.0945
anks	-12.0945
▁chains	-12.0945
arden	-12.0947
anted	-12.0951
▁deck	-12.0952
▁scoring	-12.0953
▁strategi	-12.0956
ontally	-12.0959
▁halo	-12.0961
einstalling	-12.0962
howing	-12.0962
ewest	-12.0963
▁outbox	-12.0964
▁advised	-12.0965
learly	-12.0966
▁confirmed	-12.0966
▁danger	-12.0968
▁multitasking	-12.0969
specific	-12.0971
▁passport	-12.0972
▁sooooo	-12.0972
istening	-12.0973
▁skippable	-12.0973
ollowing	-12.0973
▁recovered	-12.0979
loor	-12.0981
▁losses	-12.0981
olor	-12.0981
▁verses	-12.0984
▁censor	-12.0986
▁preferable	-12.0988
witched	-12.0988
▁voicenotes	-12.0988
Tube	-12.0992
▁admins	-12.0994
▁instruct	-12.0994
▁frust	-12.0995
▁starred	-12.0999
▁greed	-12.1002
dispens	-12.1005
pisodes	-12.1006
istory	-12.1007
▁breach	-12.1008
▁remained	-12.1009
▁pairing	-12.101
▁expression	-12.1011
▁recovery	-12.1012
roughly	-12.1017
ithin	-12.1026
rage	-12.1028
▁upto	-12.1033
▁parse	-12.1034
▁surface	-12.1034
oints	-12.1036
▁hides	-12.104
▁cameras	-12.1041
ron	-12.1043
drop	-12.1047
▁expansions	-12.1049
iew	-12.1054
itter	-12.1054
▁efficiently	-12.1054
oals	-12.1056
ball	-12.1059
▁township	-12.1059
▁operations	-12.1065
▁pluto	-12.1067
too	-12.107
▁condition	-12.1072
▁lens	-12.1073
▁whatsApp	-12.1077
▁smallest	-12.1077
▁companions	-12.108
▁columns	-12.108
▁airplanes	-12.1083
▁hub	-12.1083
▁Technical	-12.1093
▁satisfactory	-12.1094
▁career	-12.1096
napseed	-12.1097
▁anxious	-12.1098
▁oriented	-12.1103
▁scanner	-12.1106
▁copypaste	-12.1107
▁coordination	-12.1108
▁clues	-12.111
▁whistles	-12.1113
▁printer	-12.1115
then	-12.1115
▁censored	-12.1117
xt	-12.1122
▁troubles	-12.1126
▁fe	-12.1129
▁asset	-12.1131
▁mere	-12.1132
▁capitali	-12.1133
▁definition	-12.1135
▁greatness	-12.1136
▁transform	-12.1145
oint	-12.1146
beam	-12.1161
ied	-12.1164
▁hills	-12.1168
hanges	-12.1169
▁goodness	-12.1172
▁schemes	-12.1174
▁interactions	-12.1177
▁width	-12.1177
resolution	-12.1177
type	-12.1181
▁incline	-12.1181
pass	-12.1185
refore	-12.1186
eem	-12.1198
ship	-12.1204
▁roam	-12.1213
▁determined	-12.1219
▁mindless	-12.122
▁gi	-12.1228
listen	-12.1234
▁advantages	-12.1237
▁swiped	-12.1252
nything	-12.1257
▁how	-12.1258
games	-12.1259
▁minimalist	-12.126
▁awfully	-12.1262
astic	-12.1275
▁mus	-12.1279
▁conveniently	-12.128
▁rotated	-12.1285
▁boosting	-12.1291
ton	-12.1297
booted	-12.1309
▁hill	-12.131
▁callers	-12.1313
device	-12.1314
oad	-12.1328
cloud	-12.1329
▁controlls	-12.1329
ways	-12.133
▁branding	-12.1341
tuck	-12.1344
▁pool	-12.1344
ck	-12.1348
▁cater	-12.1349
Android	-12.1349
static	-12.1354
▁separat	-12.1355
ans	-12.1356
▁cords	-12.136
ticks	-12.1362
alling	-12.1363
▁rang	-12.1364
▁sd	-12.1367
rcade	-12.1367
▁toggl	-12.1367
has	-12.1377
adfinger	-12.1379
itive	-12.1387
▁bear	-12.1387
cs	-12.1392
playlist	-12.1403
looking	-12.1406
oul	-12.1407
▁wack	-12.1415
iling	-12.1417
▁blink	-12.1419
standing	-12.1421
far	-12.1428
▁notif	-12.1431
▁edges	-12.1447
▁discourage	-12.1447
▁twin	-12.145
obtrusive	-12.1451
▁impos	-12.1454
tify	-12.1456
link	-12.1476
want	-12.1477
tech	-12.1479
▁misses	-12.1479
making	-12.1486
ean	-12.1488
sensitive	-12.1493
▁rebuild	-12.15
▁cl	-12.1508
especially	-12.1508
▁abs	-12.1512
ole	-12.1518
onest	-12.1529
built	-12.1533
▁annoyances	-12.1538
▁consoles	-12.1543
▁bottle	-12.1548
▁snaps	-12.156
▁turne	-12.1573
halt	-12.1581
▁tear	-12.1585
sleeping	-12.1589
▁blox	-12.1589
nts	-12.159
uster	-12.1592
host	-12.1598
shows	-12.16
start	-12.16
▁clears	-12.1616
▁fore	-12.1627
continue	-12.1641
aste	-12.1648
▁ski	-12.1648
▁faults	-12.1649
skull	-12.165
▁snail	-12.1651
▁leap	-12.1654
▁Talk	-12.1681
▁obsesse	-12.1687
wink	-12.1688
match	-12.1689
lol	-12.1701
▁wrap	-12.1705
plit	-12.1706
▁frustrations	-12.1715
sparkl	-12.1717
kin	-12.1736
▁dodg	-12.1755
user	-12.1777
▁arriv	-12.1778
▁dock	-12.1783
▁sparkles	-12.1803
▁av	-12.1805
▁piss	-12.1805
apping	-12.1813
▁participat	-12.1819
errible	-12.1819
▁emotional	-12.182
▁int	-12.1821
subscription	-12.1831
▁exclud	-12.1833
forward	-12.1841
pent	-12.1847
▁conversational	-12.1848
ural	-12.1868
▁irl	-12.1868
rising	-12.1872
chedule	-12.188
rance	-12.1891
▁ringing	-12.19
int	-12.1905
hort	-12.1916
▁debat	-12.1917
nis	-12.1963
maintaining	-12.1968
rgh	-12.1974
ink	-12.1976
reading	-12.1992
ries	-12.2013
▁nick	-12.2016
▁exept	-12.2028
learn	-12.2032
earn	-12.2036
friendly	-12.2037
count	-12.2038
▁tops	-12.2039
▁plant	-12.2042
lo	-12.2047
ci	-12.2049
▁punishe	-12.2064
pers	-12.2067
▁rea	-12.2073
wn	-12.2075
▁collaborate	-12.2076
control	-12.2086
cause	-12.21
▁fixable	-12.2105
▁nigh	-12.2121
year	-12.2124
eel	-12.2125
▁wir	-12.2127
▁math	-12.2127
watching	-12.2135
▁fires	-12.2137
▁tre	-12.2139
oooo	-12.2141
▁wood	-12.2165
ender	-12.2186
avi	-12.2187
bot	-12.2191
ged	-12.2196
▁Through	-12.2197
▁manages	-12.2199
▁scrap	-12.2213
▁scare	-12.2227
▁hv	-12.223
commercials	-12.223
▁vibra	-12.2232
mula	-12.2248
▁tempt	-12.2253
amp	-12.2255
▁defin	-12.2257
▁sup	-12.2285
pin	-12.2287
print	-12.2287
▁leak	-12.2308
▁kb	-12.232
add	-12.2321
▁whet	-12.2322
second	-12.2332
haring	-12.2348
▁cares	-12.2352
▁dr	-12.2355
▁mount	-12.2356
com	-12.2364
rashing	-12.2364
▁kin	-12.2364
amn	-12.2365
hip	-12.2369
▁practic	-12.2378
cool	-12.2387
things	-12.2396
▁slap	-12.2398
vent	-12.24
world	-12.2401
▁sift	-12.2411
pping	-12.2414
uery	-12.2421
matic	-12.2446
▁creat	-12.248
frustrating	-12.2485
▁notices	-12.2491
tarstarstarstar	-12.2514
▁predict	-12.252
▁pac	-12.2523
▁reproduce	-12.2528
sion	-12.2537
rent	-12.2548
ocking	-12.2551
points	-12.257
▁updat	-12.2579
install	-12.2583
ports	-12.2599
uota	-12.2601
▁flood	-12.2613
▁beac	-12.2617
ometime	-12.2618
gg	-12.263
▁invalid	-12.2633
▁shad	-12.2643
helpful	-12.2646
▁featur	-12.2648
eno	-12.2648
cation	-12.265
▁smi	-12.2652
▁tea	-12.2653
running	-12.2664
ache	-12.2667
half	-12.2668
ems	-12.2692
▁cue	-12.2694
handed	-12.2698
computer	-12.2699
▁compress	-12.2705
tream	-12.2705
▁begg	-12.2711
tupid	-12.2718
▁doubletap	-12.2724
lous	-12.2725
▁ww	-12.2726
▁outs	-12.273
▁plead	-12.2746
▁exp	-12.2749
▁interfaces	-12.2764
▁describ	-12.2771
riving	-12.2772
▁interpret	-12.2777
what	-12.278
▁disp	-12.2782
pository	-12.2782
▁ge	-12.2786
▁pik	-12.2792
▁operat	-12.2796
unction	-12.2798
xpand	-12.2798
imilar	-12.28
▁poll	-12.2805
essage	-12.2813
lick	-12.2814
xpensive	-12.2815
▁chip	-12.2815
onnect	-12.2815
roup	-12.2815
▁extension	-12.2817
missing	-12.2818
▁hiccup	-12.2818
▁monster	-12.2819
images	-12.282
▁phrase	-12.282
xcel	-12.282
ancel	-12.2822
citing	-12.2825
▁arise	-12.2827
▁scammer	-12.283
action	-12.2832
▁achiev	-12.2836
button	-12.284
▁chop	-12.2845
▁larg	-12.2846
▁surpass	-12.2848
▁reciev	-12.2848
▁renovat	-12.2849
ntertaining	-12.2852
▁scrub	-12.2855
▁warn	-12.2856
▁typo	-12.2858
▁musician	-12.2862
rain	-12.2864
▁weigh	-12.2864
▁biome	-12.287
▁tense	-12.2873
▁unsubscrib	-12.2873
older	-12.2877
ortunately	-12.2878
break	-12.2878
ummer	-12.2878
▁abandon	-12.2878
urrent	-12.2878
▁financial	-12.288
▁rapid	-12.2881
▁strict	-12.2882
veryday	-12.2883
▁literal	-12.2883
▁unselect	-12.2884
reating	-12.2885
inished	-12.2886
kip	-12.289
sparkles	-12.289
bo	-12.289
avigation	-12.2891
▁bounc	-12.2891
xclusive	-12.2892
yrics	-12.2893
ractice	-12.2894
card	-12.2894
▁crate	-12.2896
aramount	-12.2896
ommunity	-12.2897
laystore	-12.2897
ekki	-12.2897
▁simulati	-12.2899
▁Access	-12.2899
riendly	-12.29
ownside	-12.29
serfriendly	-12.29
rightness	-12.29
▁arbitrar	-12.29
eyond	-12.29
▁Infuriating	-12.29
▁associate	-12.29
▁assortment	-12.29
▁behaviour	-12.29
▁concentration	-12.29
▁continously	-12.29
▁criteria	-12.29
▁dungeon	-12.29
▁enthrall	-12.29
▁exponentially	-12.29
▁inadvertently	-12.29
▁inexplicabl	-12.29
▁lectures	-12.29
▁niggle	-12.29
▁protocol	-12.29
▁punctuation	-12.29
▁replenish	-12.29
▁ribbon	-12.29
▁undoubtedly	-12.29
▁burden	-12.29
▁dealbreaker	-12.29
▁inevitabl	-12.29
▁sacrific	-12.29
▁dysfunctional	-12.29
▁paytowin	-12.29
▁snippet	-12.29
▁galore	-12.29
▁nuances	-12.29
▁consumption	-12.2901
▁onthego	-12.2901
▁glued	-12.2901
▁loudspeaker	-12.2901
▁deterrent	-12.2901
▁screensaver	-12.2901
xygen	-12.2901
▁families	-12.2901
▁flaky	-12.2901
▁veteran	-12.2901
▁ocean	-12.2901
▁singular	-12.2901
▁banknote	-12.2901
▁splash	-12.2901
▁gadget	-12.2901
▁reminisce	-12.2901
▁unprofessional	-12.2901
▁incompatible	-12.2901
ontacted	-12.2901
▁happiness	-12.2901
▁overcrowded	-12.2901
▁Title	-12.2901
▁cashgrab	-12.2901
igeria	-12.2901
▁definite	-12.2901
rimental	-12.2901
▁censorship	-12.2901
▁dissapointed	-12.2901
▁rigid	-12.2901
▁treasure	-12.2901
▁rediculous	-12.2901
▁fluency	-12.2901
▁propaganda	-12.2901
▁subtle	-12.2901
▁accomplishment	-12.2901
▁trivia	-12.2901
aptop	-12.2902
▁avenue	-12.2902
imited	-12.2902
▁demoted	-12.2902
▁spinner	-12.2902
▁transmission	-12.2902
▁cousin	-12.2902
roken	-12.2902
▁awake	-12.2902
▁idiotic	-12.2902
▁mansion	-12.2902
▁relentless	-12.2902
▁assistant	-12.2902
▁specify	-12.2903
▁snack	-12.2903
▁Alexa	-12.2903
▁inefficient	-12.2903
▁minimap	-12.2903
▁complication	-12.2903
▁grammer	-12.2903
▁snowboard	-12.2903
▁transparency	-12.2904
▁dissappear	-12.2904
▁crappy	-12.2904
asier	-12.2904
▁despawn	-12.2904
▁stylus	-12.2905
▁thumbstick	-12.2905
▁hindi	-12.2905
▁elevator	-12.2905
▁rewrite	-12.2905
▁canyon	-12.2905
▁wallride	-12.2906
▁unavoidable	-12.2906
▁paytoplay	-12.2906
omics	-12.2906
▁makeover	-12.2906
▁lonely	-12.2906
▁unskip	-12.2906
▁fastpaced	-12.2906
▁statues	-12.2906
▁replayability	-12.2907
▁forcefully	-12.2907
▁stellar	-12.2907
▁prematurely	-12.2908
arshals	-12.2908
▁subtract	-12.2908
▁starstruck	-12.2909
▁pixelated	-12.2909
▁baseline	-12.2909
▁beware	-12.2909
▁flashlight	-12.291
▁googling	-12.291
▁embarrassing	-12.291
▁adopt	-12.2911
▁fuss	-12.2911
▁goodbye	-12.2911
uip	-12.2911
astonished	-12.2911
▁drill	-12.2911
▁enhancing	-12.2912
▁incremental	-12.2913
▁exercising	-12.2913
ohn	-12.2914
▁mysterious	-12.2914
▁newbies	-12.2915
▁stalls	-12.2917
isleading	-12.2917
ledge	-12.2917
urope	-12.2917
▁worsened	-12.2917
▁portray	-12.2918
▁interpretation	-12.2918
▁recharging	-12.2919
unning	-12.2919
ayout	-12.292
epub	-12.2921
▁webpage	-12.2922
▁exaggerating	-12.2922
▁unselected	-12.2924
▁covid	-12.2926
▁alphabeti	-12.2926
▁abc	-12.2927
▁faithful	-12.2927
▁busted	-12.2928
▁homework	-12.2929
▁measurement	-12.2929
▁ringer	-12.2929
▁surroundings	-12.2931
▁pricy	-12.2931
▁deadline	-12.2932
▁adapter	-12.2932
▁dismissed	-12.2932
▁aligned	-12.2933
▁tolerate	-12.2933
▁divide	-12.2933
apps	-12.2933
▁advertisers	-12.2933
▁afore	-12.2933
▁incorporated	-12.2935
▁disk	-12.2936
▁orange	-12.2936
▁consumed	-12.2938
anda	-12.2938
▁downgrading	-12.294
▁crown	-12.2942
▁vanished	-12.2943
▁billed	-12.2945
▁declined	-12.2946
▁concerts	-12.2946
version	-12.2948
▁conflicts	-12.295
▁annotations	-12.2951
ph	-12.2956
▁surpasse	-12.2956
▁politic	-12.2957
▁territor	-12.2957
▁sore	-12.2957
▁eyesight	-12.2958
▁downtime	-12.2959
▁overtime	-12.2961
▁snoo	-12.2961
isplay	-12.2961
▁bore	-12.2963
▁silently	-12.2964
losed	-12.2965
▁permit	-12.2968
▁explosives	-12.2969
▁audiovideo	-12.297
correct	-12.2971
ninstaller	-12.2977
▁slamm	-12.2977
▁slowdown	-12.2978
▁bcu	-12.2978
rong	-12.2979
▁launcher	-12.298
▁enhancement	-12.2981
▁renewed	-12.2982
nskippable	-12.2984
▁inout	-12.2986
▁yall	-12.2986
ovely	-12.2989
ouble	-12.2989
▁disallow	-12.2993
erious	-12.2993
▁grips	-12.2996
▁tidy	-12.2998
ocal	-12.2998
much	-12.2999
orror	-12.3001
▁insights	-12.3001
▁pathway	-12.3001
▁downward	-12.3003
▁mindful	-12.3003
except	-12.3003
touch	-12.3004
▁lemurs	-12.3005
hite	-12.3006
▁accompany	-12.3006
▁segments	-12.3007
▁renovations	-12.3007
▁theaters	-12.3008
anta	-12.3013
▁activated	-12.3013
▁memes	-12.3014
ownloading	-12.3014
une	-12.3015
▁streets	-12.3019
▁charming	-12.3019
oading	-12.3019
▁trusted	-12.302
▁clone	-12.3021
▁estate	-12.3024
▁recorder	-12.3025
▁Tweets	-12.3026
▁integr	-12.3027
fer	-12.3029
▁outfits	-12.303
▁promptly	-12.3033
ecame	-12.3033
onus	-12.3033
▁grace	-12.3034
▁traveled	-12.3035
▁dura	-12.3039
mark	-12.3042
▁blessing	-12.3045
▁bon	-12.3046
▁recaps	-12.3047
▁exploit	-12.3052
▁diary	-12.3055
estarted	-12.3058
▁chain	-12.3059
▁lobby	-12.3061
▁sigh	-12.3064
information	-12.3068
▁brilliantly	-12.3073
▁captures	-12.3073
ection	-12.308
▁saturated	-12.3081
▁variations	-12.3087
▁skiing	-12.3088
▁measures	-12.3088
▁tha	-12.3091
▁uncheck	-12.3092
▁Town	-12.3095
▁crushing	-12.31
▁bell	-12.3101
▁clubs	-12.3106
▁shifting	-12.3114
cheduling	-12.3116
▁handled	-12.3118
eedless	-12.3121
▁fixture	-12.3124
▁backround	-12.3126
▁altered	-12.3131
▁crank	-12.3136
page	-12.3137
▁ru	-12.3137
▁Anime	-12.3142
▁bread	-12.3143
▁trustworthy	-12.3144
▁dimonds	-12.3144
ppreciate	-12.3146
▁rhy	-12.3149
▁wink	-12.3153
win	-12.3156
▁trends	-12.3157
▁armour	-12.3158
▁performing	-12.3158
eave	-12.3163
▁employee	-12.3164
▁unlink	-12.3165
opped	-12.3166
▁modifying	-12.3166
▁repairing	-12.3168
without	-12.3171
▁clothing	-12.3174
▁coff	-12.318
downloading	-12.3181
portable	-12.3185
▁walked	-12.3188
ited	-12.3188
ude	-12.3189
power	-12.319
▁consistency	-12.3194
layrix	-12.32
▁cow	-12.3204
▁livescore	-12.3204
▁crowded	-12.3206
▁assists	-12.3217
▁avoided	-12.3223
App	-12.3223
▁prev	-12.3227
els	-12.3227
▁sha	-12.3227
▁chopp	-12.323
hi	-12.3234
ictures	-12.3234
arlie	-12.3243
▁their	-12.3246
▁trashy	-12.3247
many	-12.3255
ancy	-12.3258
paces	-12.3258
▁usernames	-12.3261
inus	-12.3269
▁gro	-12.3269
ested	-12.3272
▁inconsistenc	-12.3273
▁unusual	-12.3274
▁virus	-12.328
▁tube	-12.3286
▁combinations	-12.33
uates	-12.3302
ask	-12.331
▁functionally	-12.331
news	-12.3311
similar	-12.3312
glitch	-12.3312
▁buffered	-12.3313
▁thrille	-12.3324
tin	-12.3329
your	-12.333
xp	-12.3331
fre	-12.3332
▁impress	-12.3333
▁Typical	-12.3339
tried	-12.3341
▁gifting	-12.3349
▁varies	-12.3349
▁flower	-12.3351
glasses	-12.3352
▁ratios	-12.3355
oop	-12.3362
▁notifs	-12.3366
da	-12.3375
next	-12.3383
▁remodel	-12.3384
▁unmute	-12.3387
▁esignature	-12.3393
solved	-12.3395
hang	-12.3396
share	-12.3408
▁becua	-12.3422
alog	-12.3422
verage	-12.3428
tions	-12.3429
▁reinforc	-12.3431
▁melt	-12.3432
▁crack	-12.3432
act	-12.344
cifi	-12.344
cking	-12.345
lights	-12.3466
▁stairs	-12.3469
▁bike	-12.3472
▁bur	-12.3474
pu	-12.3475
aura	-12.3475
▁ro	-12.3478
▁fon	-12.3482
▁payout	-12.3482
radio	-12.3497
▁fil	-12.3511
recogni	-12.3513
▁recast	-12.3518
ently	-12.3519
▁du	-12.3526
▁tank	-12.3529
cents	-12.353
▁accepts	-12.353
▁goodies	-12.3534
tops	-12.3545
▁conclude	-12.3545
▁sounding	-12.3553
functional	-12.356
▁deci	-12.3565
.............	-12.3569
frame	-12.3575
home	-12.3575
▁ev	-12.3585
nline	-12.3588
▁pinning	-12.3598
▁fin	-12.3599
movies	-12.3604
▁contribute	-12.3607
aha	-12.3608
▁presses	-12.3615
▁era	-12.3617
▁preload	-12.3619
wav	-12.3621
▁truthful	-12.3629
▁Action	-12.3635
▁textbook	-12.3637
mentioned	-12.3642
▁programm	-12.3643
▁swipes	-12.3649
flip	-12.365
▁emerge	-12.3651
edited	-12.3666
ively	-12.3671
ifting	-12.3677
▁restores	-12.3687
▁sped	-12.3693
▁generation	-12.3698
support	-12.3701
▁Total	-12.3703
anage	-12.3708
▁stripp	-12.372
effective	-12.372
▁paths	-12.3725
motion	-12.3727
umb	-12.373
▁coup	-12.3736
feature	-12.3738
uote	-12.3746
▁hol	-12.3747
▁goof	-12.3754
ushed	-12.3756
years	-12.376
ncy	-12.3761
▁gre	-12.3763
▁involv	-12.3767
dollar	-12.3777
life	-12.3778
ds	-12.378
▁ecl	-12.3781
▁developments	-12.3782
ud	-12.3785
nowing	-12.3788
▁gifter	-12.3788
▁conse	-12.3797
▁sen	-12.3797
mium	-12.3806
ully	-12.3809
AAA	-12.3818
▁essentials	-12.3821
does	-12.3824
growing	-12.3831
▁Age	-12.3834
teve	-12.3836
rook	-12.3853
▁pane	-12.3862
leas	-12.3863
▁header	-12.3882
▁forest	-12.3882
ysteri	-12.3889
aves	-12.3897
▁tb	-12.3904
ishing	-12.3915
always	-12.3919
.......	-12.392
ak	-12.3933
nauseat	-12.3943
ended	-12.3946
arity	-12.3947
▁clipp	-12.3948
▁fave	-12.3958
common	-12.3963
populate	-12.3964
▁threat	-12.3976
▁changer	-12.3982
▁wire	-12.3984
▁countrys	-12.3993
▁anger	-12.3996
idle	-12.4012
▁fiddl	-12.4013
ili	-12.4014
exus	-12.4023
▁rotates	-12.4031
series	-12.4032
▁rep	-12.4036
ism	-12.4045
▁ill	-12.4047
▁Androids	-12.4049
frontf	-12.4052
▁diet	-12.4053
▁wan	-12.4057
file	-12.4065
▁stone	-12.4066
opportun	-12.4073
label	-12.4078
kind	-12.4084
▁fakes	-12.4086
▁rec	-12.4094
▁Article	-12.4094
ont	-12.4098
tandard	-12.4102
▁str	-12.4112
gle	-12.4117
▁gri	-12.4141
▁facecr	-12.4152
saved	-12.4154
▁renam	-12.4167
hop	-12.4169
race	-12.417
▁sol	-12.4175
different	-12.4176
▁touchy	-12.4189
▁gl	-12.4194
uffers	-12.4195
▁nauseat	-12.4206
ute	-12.4219
deal	-12.423
▁mentioning	-12.4235
▁accelerat	-12.4252
ov	-12.4252
ami	-12.4253
▁rap	-12.4254
▁Addict	-12.427
lows	-12.4274
messages	-12.4276
▁agrees	-12.4277
speaking	-12.4278
ups	-12.4279
▁lit	-12.429
illing	-12.4291
gs	-12.4305
ants	-12.4306
eather	-12.4319
arr	-12.4324
ger	-12.4328
fy	-12.4328
▁rear	-12.4329
ober	-12.4339
▁deduct	-12.4341
ntensity	-12.4343
▁resting	-12.4345
ectic	-12.4351
seful	-12.4352
aaaa	-12.4354
dd	-12.4359
icated	-12.4367
logging	-12.4375
ashing	-12.4387
see	-12.4405
script	-12.4411
change	-12.4411
▁shee	-12.4427
▁comple	-12.4462
ptions	-12.4469
▁doubl	-12.4493
▁dumps	-12.4501
ram	-12.4506
something	-12.4507
▁continu	-12.4513
shes	-12.4515
production	-12.4527
rl	-12.4536
▁gui	-12.4543
features	-12.4569
▁te	-12.457
▁fri	-12.4574
login	-12.4575
lin	-12.4579
TAT	-12.4589
listed	-12.464
nes	-12.4644
▁pres	-12.467
wish	-12.4675
iv	-12.4678
udo	-12.4699
▁obstruct	-12.4701
▁calibrat	-12.4703
▁dubb	-12.4703
▁degrade	-12.4703
▁cont	-12.4705
▁advances	-12.4711
▁comm	-12.4714
▁splitt	-12.4726
facts	-12.473
experience	-12.4746
▁realise	-12.475
mobile	-12.4774
der	-12.4784
trying	-12.4785
gain	-12.4789
▁pale	-12.4796
lit	-12.48
▁nail	-12.4804
▁che	-12.4813
▁bing	-12.4817
▁serv	-12.4823
peed	-12.4828
erver	-12.4829
simple	-12.4838
▁descen	-12.4843
▁grip	-12.4846
▁mov	-12.4857
ipping	-12.4873
lightly	-12.4875
iddle	-12.4876
▁scr	-12.4881
writing	-12.4882
inal	-12.4886
▁prop	-12.4888
arry	-12.4898
ush	-12.4901
buy	-12.4905
formatting	-12.4917
▁performances	-12.4927
ef	-12.4935
▁starter	-12.4949
▁dish	-12.495
ka	-12.495
▁stuffs	-12.4952
makers	-12.4957
▁champ	-12.4961
agging	-12.4962
seless	-12.4971
fact	-12.4974
▁Absolut	-12.4985
▁lagg	-12.4992
ersonal	-12.4998
▁mon	-12.5002
▁lover	-12.5004
mov	-12.5006
▁carrie	-12.5021
ances	-12.503
ouple	-12.5037
▁lak	-12.504
▁observ	-12.504
ories	-12.506
▁....	-12.5071
mind	-12.5077
rew	-12.5078
▁kn	-12.5088
▁mono	-12.5101
track	-12.5107
niverse	-12.5108
▁ashame	-12.5113
▁humbl	-12.5121
mini	-12.513
ye	-12.5135
▁urge	-12.5149
rings	-12.5153
▁wipe	-12.5153
hooter	-12.5162
rack	-12.5164
editing	-12.5169
▁sti	-12.5169
▁multipl	-12.517
▁Ac	-12.517
▁sl	-12.5186
urface	-12.5186
maybe	-12.5187
▁stead	-12.519
▁lotus	-12.5196
▁distribut	-12.521
nfront	-12.5211
▁expir	-12.5211
caution	-12.5211
ogging	-12.5214
onsider	-12.5215
ressing	-12.5238
ina	-12.524
photo	-12.5241
ream	-12.5244
raid	-12.5249
▁Install	-12.525
▁simulat	-12.5251
option	-12.5256
xperiment	-12.5261
hare	-12.5268
▁spark	-12.5269
▁mask	-12.5269
proved	-12.527
utting	-12.5276
raphic	-12.5278
ult	-12.5283
▁readd	-12.5285
hance	-12.5289
▁reactivate	-12.5289
▁creep	-12.5296
oft	-12.5297
▁tycoon	-12.5298
▁authentic	-12.5301
........	-12.5302
▁beco	-12.5305
▁manipulati	-12.5306
▁influence	-12.5306
▁occup	-12.5307
ographic	-12.5308
▁keyword	-12.5308
anon	-12.5309
▁carrier	-12.5309
▁gimmick	-12.5311
▁explosive	-12.5315
ecided	-12.5316
▁recipe	-12.5319
▁restriction	-12.5321
▁upward	-12.5324
▁polish	-12.5325
▁culture	-12.5326
▁decoration	-12.5326
▁temple	-12.5326
▁checkpoint	-12.5331
ocus	-12.5333
▁bird	-12.5335
ugation	-12.5335
chapter	-12.5341
▁disorient	-12.5349
etry	-12.5355
▁dislik	-12.5357
▁Asia	-12.5361
▁woul	-12.5365
▁darn	-12.5366
ontinuous	-12.5367
xport	-12.5371
▁India	-12.5372
▁Tool	-12.5374
▁costum	-12.5376
overall	-12.5377
anvas	-12.5378
pointing	-12.5381
treamers	-12.5382
trange	-12.5382
xciting	-12.5383
▁engage	-12.5383
▁efficien	-12.5387
▁rent	-12.5389
nn	-12.539
xplore	-12.5392
elieve	-12.5392
rogress	-12.5392
nstructions	-12.5393
▁starstarstar	-12.5393
tho	-12.5394
erformance	-12.5394
urchasing	-12.5395
omputer	-12.5395
ongrat	-12.5396
agic	-12.5396
haracter	-12.5396
igital	-12.5397
inimal	-12.5397
oderation	-12.5397
▁apocalyp	-12.5397
egative	-12.5397
orgeous	-12.5397
mpossible	-12.5398
rackle	-12.5398
rammer	-12.5398
ossible	-12.5399
▁substitut	-12.54
▁dramatic	-12.54
angladesh	-12.54
oodlecake	-12.54
uadruple	-12.54
▁Australia	-12.54
▁Irritating	-12.54
▁Tycoon	-12.54
▁adrenaline	-12.54
▁anniversar	-12.54
▁blockbuster	-12.54
▁economy	-12.54
▁epilep	-12.54
▁evidence	-12.54
▁exhaling	-12.54
▁hiatus	-12.54
▁iTunes	-12.54
▁insomnia	-12.54
▁luxury	-12.54
▁misaligned	-12.54
▁mundane	-12.54
▁narrative	-12.54
▁obsolete	-12.54
▁outweigh	-12.54
▁referrals	-12.54
▁retention	-12.54
▁rudimentary	-12.54
▁splendid	-12.54
▁stimulating	-12.54
▁summari	-12.54
▁synopsis	-12.54
▁tangible	-12.54
▁versatility	-12.54
▁wallpaper	-12.54
▁discrepanc	-12.54
▁gaudy	-12.54
▁spectacular	-12.54
▁masculine	-12.54
▁painstaking	-12.54
▁religious	-12.54
▁instantaneous	-12.54
▁underwater	-12.54
▁breathtaking	-12.5401
▁pornography	-12.5401
▁dancing	-12.5401
▁feasible	-12.5401
▁triangle	-12.5401
▁unwind	-12.5401
▁contols	-12.5401
▁hustle	-12.5401
▁gravity	-12.5401
▁bikini	-12.5401
▁daimond	-12.5401
▁kilomet	-12.5401
▁circum	-12.5401
▁mimicking	-12.5401
▁harmless	-12.5401
▁fluff	-12.5401
▁palette	-12.5401
▁depict	-12.5401
▁explosion	-12.5401
▁chaotic	-12.5401
▁entrance	-12.5401
uibble	-12.5401
▁spilt	-12.5401
▁neglect	-12.5401
▁dissatisfied	-12.5401
▁ownership	-12.5401
▁imitate	-12.5401
▁grabbing	-12.5401
▁thirty	-12.5401
▁eager	-12.5401
▁hahaha	-12.5401
▁unintentional	-12.5401
▁telephone	-12.5401
▁mindfulness	-12.5401
▁rifle	-12.5401
▁metrics	-12.5401
▁freinds	-12.5401
▁amplif	-12.5401
▁deceptive	-12.5401
▁desirable	-12.5401
iacom	-12.5401
▁dropouts	-12.5401
▁flair	-12.5401
▁barcode	-12.5401
▁plural	-12.5402
▁unforgiving	-12.5402
▁fingerprint	-12.5402
▁excess	-12.5402
▁artificial	-12.5402
▁harass	-12.5402
▁sporadically	-12.5402
▁nitpick	-12.5402
▁cinematic	-12.5402
▁nevertheless	-12.5402
▁smoke	-12.5402
▁repetative	-12.5402
▁relief	-12.5402
▁motorsport	-12.5402
▁robotic	-12.5402
▁barrier	-12.5402
▁bedroom	-12.5402
▁wedding	-12.5402
▁recycle	-12.5402
▁assured	-12.5403
▁oversight	-12.5403
▁anticipated	-12.5403
▁inaccessible	-12.5403
▁vault	-12.5403
▁overkill	-12.5404
ormat	-12.5404
▁continent	-12.5404
▁spectrum	-12.5404
▁adsupported	-12.5404
▁daytoday	-12.5404
▁inactive	-12.5404
▁stylish	-12.5405
▁withhold	-12.5405
▁oldschool	-12.5405
▁nekki	-12.5405
▁violation	-12.5405
▁uncontrollably	-12.5405
▁vocal	-12.5405
▁timeconsuming	-12.5406
ravo	-12.5406
▁datacache	-12.5406
▁succession	-12.5406
▁adorable	-12.5407
▁vivid	-12.5407
▁turtle	-12.5407
▁hotel	-12.5407
▁indep	-12.5407
hef	-12.5407
▁favour	-12.5407
▁disheartening	-12.5408
▁advertisment	-12.5408
eedback	-12.5408
▁bursts	-12.5409
▁hostage	-12.5409
▁paramount	-12.5409
ummy	-12.541
▁chanel	-12.541
▁bog	-12.541
▁tonethumbs	-12.541
▁announcement	-12.541
▁cramped	-12.541
▁meaningless	-12.541
▁gcash	-12.541
▁settled	-12.541
▁revised	-12.5411
▁instinctive	-12.5411
▁effortlessly	-12.5411
▁slideshow	-12.5411
▁chaos	-12.5412
▁division	-12.5412
▁studies	-12.5412
▁duplicating	-12.5412
▁marshals	-12.5412
▁smartwatch	-12.5412
▁retired	-12.5413
▁onwards	-12.5413
ayment	-12.5413
kraine	-12.5414
▁grass	-12.5414
edium	-12.5414
▁honor	-12.5414
▁caveats	-12.5415
▁cookies	-12.5415
▁growth	-12.5415
▁abnormal	-12.5415
▁earphones	-12.5415
▁periodic	-12.5415
▁hobbies	-12.5415
ranted	-12.5416
▁unfixed	-12.5416
▁heaven	-12.5417
▁groupchats	-12.5417
▁buds	-12.5417
ewind	-12.5418
▁viruses	-12.5418
▁invaluable	-12.5418
▁tire	-12.5418
▁wearable	-12.542
dvertisement	-12.542
▁superhard	-12.542
▁irritation	-12.5421
upposed	-12.5421
▁gliches	-12.5422
▁swarm	-12.5422
▁observation	-12.5422
▁singer	-12.5423
▁predicted	-12.5423
▁scarf	-12.5423
▁Addons	-12.5424
▁organisation	-12.5424
▁proofreading	-12.5424
▁extention	-12.5424
▁homescapes	-12.5425
omebody	-12.5426
dom	-12.5426
▁myth	-12.5426
▁bounds	-12.5427
▁retro	-12.5428
▁mistaken	-12.5428
▁deactivated	-12.5428
▁imperfect	-12.5429
▁soundbar	-12.5432
▁beggining	-12.5432
▁transport	-12.5432
▁belong	-12.5433
▁abandoned	-12.5433
▁vanishes	-12.5434
▁gardenscapes	-12.5434
pdating	-12.5435
▁puls	-12.5436
achel	-12.5437
▁warned	-12.5437
▁medal	-12.5438
▁tiring	-12.5438
▁contemplat	-12.5438
▁playstation	-12.544
▁promotions	-12.5441
▁deletion	-12.5442
eekly	-12.5442
lub	-12.5443
▁promoting	-12.5446
anguish	-12.5447
▁simplifie	-12.5448
everything	-12.545
ai	-12.5451
▁mut	-12.5451
▁disorienting	-12.5453
asic	-12.5453
▁blocker	-12.5455
▁settle	-12.5456
sfx	-12.5457
▁Animation	-12.5457
odcasts	-12.5457
▁dread	-12.5457
▁verson	-12.5458
▁magnif	-12.546
▁central	-12.5462
▁italics	-12.5462
▁personality	-12.5462
▁prox	-12.5463
▁convey	-12.5463
interupted	-12.5463
▁chaper	-12.5465
litchy	-12.5466
▁nud	-12.5466
▁interview	-12.5466
osts	-12.5468
▁African	-12.5468
▁blaster	-12.5469
▁suffice	-12.5469
▁autofill	-12.547
▁scrubb	-12.547
▁fluently	-12.5472
ucky	-12.5474
All	-12.5474
▁freeware	-12.5474
▁manageable	-12.5478
▁eggs	-12.548
▁enthusiasts	-12.548
tates	-12.5481
▁underage	-12.5482
▁reupload	-12.5483
ugations	-12.5488
▁digits	-12.5489
▁reversed	-12.549
▁gimmicks	-12.549
▁publishing	-12.5491
ervers	-12.5492
▁belt	-12.5495
▁waist	-12.55
ooo	-12.5501
htm	-12.5503
▁terminate	-12.5504
lexic	-12.5504
▁malic	-12.5505
▁lab	-12.5506
from	-12.5508
▁tenses	-12.551
leared	-12.5512
▁ignor	-12.5512
▁cheated	-12.5512
ushing	-12.5514
▁agreement	-12.5516
▁singers	-12.5518
▁confuse	-12.5519
▁brighten	-12.5519
inel	-12.552
▁shifted	-12.5523
notification	-12.5523
whenever	-12.5523
▁chees	-12.5524
uietly	-12.5524
▁censors	-12.5527
acking	-12.5528
▁encouraged	-12.5528
need	-12.5528
olden	-12.553
▁stacked	-12.5532
▁fades	-12.5532
▁reflected	-12.5535
▁lv	-12.5536
arol	-12.5537
▁facethumbs	-12.5538
unfriendly	-12.5539
delete	-12.5542
armville	-12.5543
▁preserv	-12.5545
humbs	-12.5545
▁paywalled	-12.5546
▁admi	-12.5548
▁falsely	-12.5552
suggestion	-12.5553
▁commer	-12.5554
eware	-12.5554
▁spawning	-12.5555
▁beast	-12.5555
▁conce	-12.5555
▁science	-12.5555
vents	-12.5556
▁egg	-12.5558
voice	-12.5558
utside	-12.5563
▁filler	-12.5563
ormal	-12.5563
▁consumers	-12.5564
▁hunting	-12.5565
utomatically	-12.5565
▁xx	-12.5565
orlds	-12.557
▁oof	-12.557
▁readded	-12.5571
▁motive	-12.5571
▁repli	-12.5574
upload	-12.5574
▁partners	-12.5575
▁fluctuat	-12.5575
eeling	-12.5575
▁unlockable	-12.5576
enter	-12.5578
▁wings	-12.558
▁reappearing	-12.558
▁conferenc	-12.5582
users	-12.5583
▁expressed	-12.5589
▁flights	-12.5589
▁amateurs	-12.5592
▁controlled	-12.5596
▁fortune	-12.5599
▁mastered	-12.5603
▁scree	-12.5606
▁charger	-12.5606
▁avali	-12.5615
fox	-12.5619
▁distinct	-12.5626
▁yell	-12.5629
▁chilling	-12.563
▁casually	-12.5633
▁warp	-12.5641
rices	-12.5643
▁fam	-12.5644
▁redesigned	-12.5648
eyes	-12.5648
rand	-12.565
stakes	-12.5651
palm	-12.5653
olo	-12.5655
▁outcomes	-12.5657
▁strangely	-12.5659
allery	-12.566
ured	-12.5661
oh	-12.5663
▁relationships	-12.567
▁reenable	-12.567
▁vibrations	-12.567
self	-12.5671
athetic	-12.5676
▁bio	-12.5677
▁individuali	-12.568
▁wishes	-12.5681
▁occured	-12.5683
▁symp	-12.5684
▁numer	-12.5684
▁Actual	-12.5686
▁dedicat	-12.5695
▁discounts	-12.5696
▁impair	-12.5698
blah	-12.5701
▁bumping	-12.5702
▁conscious	-12.5703
▁ig	-12.5704
▁its	-12.5705
ocs	-12.5707
▁elon	-12.5708
ovid	-12.5709
▁saturation	-12.571
▁ki	-12.5711
▁tour	-12.5711
▁crouch	-12.5716
▁throats	-12.5718
mapping	-12.572
nit	-12.5728
▁greet	-12.5731
▁nation	-12.5734
▁interm	-12.5734
▁apk	-12.5735
▁kit	-12.5737
▁defined	-12.5739
whatever	-12.5745
▁property	-12.5745
wifi	-12.5746
black	-12.5747
validate	-12.575
three	-12.5756
▁compromised	-12.5756
raining	-12.5758
▁tiers	-12.5759
▁funds	-12.576
factor	-12.576
thriller	-12.5761
evices	-12.5762
▁attain	-12.5762
▁invitation	-12.5771
episodes	-12.5772
▁winners	-12.5773
innish	-12.5775
ib	-12.5776
range	-12.5784
▁Americas	-12.5787
▁cal	-12.5791
aging	-12.5793
uaint	-12.5794
▁fence	-12.5795
▁fullest	-12.5798
tails	-12.5799
▁kindle	-12.5803
asted	-12.5808
▁ploy	-12.5809
▁faulty	-12.581
allen	-12.581
▁regions	-12.5813
ails	-12.5814
▁enthusiast	-12.5815
▁redecorate	-12.5818
▁arti	-12.5818
▁facewe	-12.5819
▁ref	-12.5821
burg	-12.5825
▁blog	-12.5826
▁bla	-12.5827
fi	-12.583
▁wth	-12.5832
▁shu	-12.5833
▁rendered	-12.5835
five	-12.5836
▁accessable	-12.5837
ys	-12.5837
fixed	-12.5843
▁perspectives	-12.585
▁cheats	-12.5853
▁yours	-12.5853
ords	-12.5857
orm	-12.5865
ics	-12.5866
arily	-12.5868
ilent	-12.587
▁temp	-12.5874
minent	-12.5881
eart	-12.5884
▁gane	-12.5886
▁optimal	-12.5889
▁ambien	-12.5891
▁elder	-12.5899
image	-12.59
lace	-12.5901
▁tether	-12.5908
▁papers	-12.5912
▁doom	-12.5918
▁Adobes	-12.5918
acks	-12.5918
▁offerings	-12.5918
▁teen	-12.5919
cise	-12.592
kill	-12.5921
▁scienti	-12.5924
▁panic	-12.5925
▁ser	-12.5927
▁hello	-12.5927
service	-12.5934
▁america	-12.5937
▁pie	-12.5938
▁crackl	-12.5939
ibly	-12.594
ealing	-12.5941
▁authenticat	-12.5944
ters	-12.5949
▁prem	-12.5953
rel	-12.5956
▁pending	-12.5957
▁blo	-12.5957
ctivity	-12.5958
riding	-12.596
Th	-12.5961
▁faceb	-12.5963
▁dreams	-12.5966
▁poop	-12.5973
ifying	-12.5981
highly	-12.5988
once	-12.5993
iggy	-12.5994
▁gender	-12.5994
▁licens	-12.5996
sm	-12.6012
uy	-12.6022
▁machines	-12.6032
ived	-12.6038
nks	-12.6042
TIA	-12.6046
stalling	-12.6049
fac	-12.6051
▁occuring	-12.6054
▁interiors	-12.6057
oys	-12.6061
▁waaaa	-12.6061
▁undownload	-12.6064
files	-12.6066
▁att	-12.6066
▁applie	-12.6067
▁coops	-12.6067
np	-12.6068
locked	-12.6069
▁lg	-12.6069
▁sandbo	-12.6075
east	-12.6077
map	-12.6086
ga	-12.6087
▁eight	-12.6093
lity	-12.6096
arly	-12.6096
▁blasts	-12.6099
pok	-12.6111
dly	-12.6121
ocate	-12.614
▁surprises	-12.6141
▁cancell	-12.6145
▁Twi	-12.6157
▁typical	-12.6161
etty	-12.6166
▁costume	-12.6169
▁poster	-12.6183
rank	-12.6183
Tubi	-12.6192
Adobe	-12.62
▁clo	-12.6211
▁autosave	-12.6211
kers	-12.6223
storm	-12.6232
▁evolving	-12.6236
▁pronounce	-12.6239
illion	-12.6253
▁positioning	-12.6258
▁grinds	-12.6261
dy	-12.6264
▁lett	-12.6267
browser	-12.6275
ires	-12.6278
color	-12.6283
▁helper	-12.6284
middle	-12.6293
▁watcher	-12.6293
▁sea	-12.6299
▁purchas	-12.6306
presenting	-12.6308
▁insult	-12.6311
des	-12.6324
▁flavo	-12.6327
web	-12.6327
river	-12.6335
send	-12.6349
▁stumble	-12.6358
▁insu	-12.6361
problem	-12.6376
aggy	-12.6377
bugs	-12.6383
tting	-12.6386
▁reboots	-12.6392
▁plagu	-12.6394
tor	-12.6397
▁frustrat	-12.6407
▁stretche	-12.6409
uat	-12.6409
wear	-12.6417
building	-12.6418
forming	-12.6418
▁burner	-12.6419
▁fiction	-12.6422
along	-12.6426
controls	-12.6426
▁wil	-12.643
comic	-12.6438
▁genera	-12.6442
▁hap	-12.6446
▁isolate	-12.6453
wipes	-12.6453
aske	-12.646
nice	-12.6465
stories	-12.6473
rm	-12.6479
software	-12.648
▁dress	-12.6482
ustif	-12.6483
issues	-12.6487
▁irr	-12.6514
▁storm	-12.6517
▁platformer	-12.6518
song	-12.6519
password	-12.6519
▁timings	-12.6522
▁blocky	-12.6539
itch	-12.6542
▁compensate	-12.6553
graphics	-12.6554
loved	-12.6556
▁del	-12.6558
town	-12.6571
through	-12.6583
icing	-12.6586
updates	-12.6592
awful	-12.6592
tooth	-12.6598
cto	-12.66
▁oppo	-12.66
▁lap	-12.6601
▁warnings	-12.6603
eads	-12.662
emoving	-12.662
▁sane	-12.6623
ased	-12.6624
mute	-12.6627
lide	-12.6629
▁wonders	-12.6629
egas	-12.6631
mash	-12.6634
aching	-12.6671
▁des	-12.6696
shooting	-12.6696
vr	-12.6697
▁scroller	-12.6699
▁invert	-12.6701
▁shear	-12.6704
tay	-12.6707
▁shower	-12.6711
▁responsi	-12.6713
▁drown	-12.6717
oney	-12.6733
▁neg	-12.6733
pd	-12.6747
ours	-12.6749
▁ect	-12.6751
runchy	-12.6754
▁hint	-12.6756
▁mk	-12.6759
blank	-12.6771
via	-12.6781
tes	-12.6807
▁perm	-12.6808
max	-12.6813
erefore	-12.6816
▁installs	-12.6822
account	-12.6829
regard	-12.6833
pable	-12.6834
fade	-12.6838
float	-12.6846
hall	-12.6849
▁Till	-12.685
▁ordering	-12.6856
twitch	-12.6861
scape	-12.6863
hilip	-12.6864
▁designate	-12.6865
ines	-12.6874
▁ana	-12.6879
▁silenc	-12.688
▁debate	-12.6886
cam	-12.6893
rote	-12.6899
▁interupt	-12.6915
ips	-12.692
▁grows	-12.6924
▁fees	-12.6933
gram	-12.6938
▁pump	-12.6942
▁serving	-12.6944
indi	-12.6945
Audio	-12.6949
▁fp	-12.6954
oking	-12.6958
ians	-12.6964
killer	-12.6967
opyright	-12.6967
▁Ab	-12.6971
ves	-12.6976
tired	-12.6982
▁contr	-12.699
▁pertain	-12.7001
iment	-12.7016
▁nav	-12.702
▁marker	-12.7021
▁notifi	-12.7022
Time	-12.7023
▁bases	-12.7023
cell	-12.703
syncing	-12.7032
berg	-12.7054
..............	-12.7061
photography	-12.7062
▁becu	-12.7064
▁Includ	-12.7066
ung	-12.7081
competitive	-12.7087
takes	-12.7094
pot	-12.7099
social	-12.7104
▁fist	-12.7115
▁dub	-12.7118
oal	-12.7119
tleast	-12.7123
musical	-12.7126
ana	-12.7135
talk	-12.7136
orbi	-12.7139
proof	-12.7144
come	-12.7147
▁autorotat	-12.7149
▁porta	-12.7152
▁authorit	-12.7161
sibility	-12.7163
ams	-12.7165
mkv	-12.7167
truck	-12.7168
index	-12.7171
reate	-12.7173
developed	-12.7174
had	-12.7178
released	-12.7206
▁goodbut	-12.7211
▁reedit	-12.7223
▁systematic	-12.7229
chrome	-12.723
▁applau	-12.7238
synchroni	-12.7239
nothing	-12.7252
reevee	-12.7257
documentaries	-12.7259
tures	-12.7264
▁Alas	-12.7265
rust	-12.7267
tim	-12.727
called	-12.7272
bow	-12.7276
sharing	-12.7278
▁father	-12.7278
ubs	-12.7279
▁holder	-12.728
▁layers	-12.7282
▁rob	-12.7283
▁outer	-12.7285
tal	-12.7293
written	-12.7294
▁prescripti	-12.7294
iny	-12.7298
lve	-12.7299
▁wr	-12.7317
▁optimis	-12.7321
ically	-12.7322
audio	-12.7338
▁Thankful	-12.7341
▁blues	-12.7346
putting	-12.7357
▁noticeabl	-12.7361
hromecasting	-12.7367
▁Ty	-12.7384
third	-12.7386
▁inclusi	-12.739
stars	-12.7405
▁hav	-12.7411
▁pat	-12.7412
▁tim	-12.7416
doll	-12.742
▁spic	-12.7426
run	-12.7426
skin	-12.743
▁reformat	-12.7433
sports	-12.7435
sheets	-12.7437
stick	-12.7441
clusive	-12.7448
comes	-12.7453
rious	-12.7457
▁Impressive	-12.746
sometime	-12.7462
input	-12.7464
au	-12.7469
course	-12.7471
restore	-12.7481
mous	-12.7483
found	-12.7489
itness	-12.7491
pend	-12.7491
echnology	-12.7493
works	-12.7496
cars	-12.7499
rry	-12.75
▁labell	-12.7502
▁acces	-12.7502
lined	-12.751
aggressive	-12.7514
tapping	-12.7522
▁hella	-12.7527
Add	-12.7534
ins	-12.7547
▁eve	-12.7552
ixture	-12.7568
runs	-12.7577
centered	-12.7577
forced	-12.7582
scription	-12.7599
endors	-12.7601
evi	-12.7613
pam	-12.7613
iest	-12.7614
▁infr	-12.7621
eset	-12.7622
gate	-12.7639
▁switche	-12.7641
ember	-12.7642
▁astonish	-12.7645
ample	-12.7647
vi	-12.7664
issue	-12.7665
erry	-12.7666
▁Aim	-12.7667
▁pleas	-12.7682
mps	-12.769
▁retriev	-12.7692
hu	-12.7695
▁tri	-12.7702
emind	-12.7715
ared	-12.7724
reply	-12.7728
open	-12.7732
▁royal	-12.7733
▁grin	-12.7743
logs	-12.7749
reward	-12.7751
▁wit	-12.7751
aged	-12.7755
▁coincide	-12.7772
▁glo	-12.7786
ecting	-12.7787
▁conf	-12.7791
photos	-12.7792
▁suite	-12.7798
▁diminish	-12.7806
green	-12.7806
heap	-12.7808
opup	-12.7809
▁retract	-12.7813
▁discontinu	-12.7843
▁agenc	-12.7855
grade	-12.7865
owngrade	-12.7898
iking	-12.7904
ati	-12.7912
▁bea	-12.7915
topped	-12.7925
era	-12.7927
eeding	-12.7928
▁tol	-12.7943
smi	-12.7952
▁bin	-12.7969
erves	-12.7974
dia	-12.7978
vious	-12.7993
lse	-12.7995
▁distan	-12.8
▁unsubscribed	-12.8008
unt	-12.8008
ngs	-12.8009
ents	-12.8015
▁keeper	-12.802
ounding	-12.8021
isual	-12.8022
icket	-12.8027
lf	-12.804
asp	-12.8048
met	-12.8052
uc	-12.8061
▁pains	-12.807
bby	-12.8075
linking	-12.8078
ourth	-12.8084
allowe	-12.8092
▁easi	-12.8092
▁gross	-12.8095
mel	-12.8107
nest	-12.8107
▁simpl	-12.811
owns	-12.812
got	-12.8127
certain	-12.8138
scanning	-12.8143
ised	-12.8144
▁ensur	-12.8146
platform	-12.8162
rie	-12.817
▁Increase	-12.8172
chase	-12.8178
note	-12.8189
put	-12.8202
▁cas	-12.8209
mulator	-12.8217
eac	-12.8222
▁yhe	-12.8227
release	-12.824
▁sci	-12.8254
▁cur	-12.8254
▁intr	-12.8261
atin	-12.8262
ourse	-12.8266
ative	-12.828
active	-12.8283
atches	-12.8286
▁facep	-12.8288
▁ph	-12.8292
▁determin	-12.8297
▁curse	-12.8303
nity	-12.8309
proxim	-12.8314
lines	-12.8324
added	-12.8326
▁deter	-12.8329
tter	-12.8334
heel	-12.8337
▁devot	-12.8339
▁deem	-12.8341
▁medica	-12.8345
▁lean	-12.8363
mmm	-12.837
▁astro	-12.8373
mming	-12.8383
ift	-12.8387
croll	-12.8389
rains	-12.8389
ament	-12.8405
grossing	-12.8405
ign	-12.8417
mes	-12.8419
eg	-12.8419
▁reporter	-12.8445
▁Ton	-12.8445
shoot	-12.8452
imes	-12.8454
ange	-12.8461
oftware	-12.8471
▁reserve	-12.8482
▁embed	-12.8489
makes	-12.8495
real	-12.8502
▁swi	-12.8504
▁mock	-12.8505
▁cnn	-12.8506
onic	-12.8507
▁scen	-12.8519
▁relie	-12.8519
pened	-12.8522
▁wash	-12.8529
usually	-12.853
▁poof	-12.853
ustifie	-12.8533
▁calculat	-12.8533
▁Thumb	-12.8535
erson	-12.8538
ometer	-12.8542
understand	-12.8547
onnection	-12.8547
rown	-12.8554
rash	-12.8554
ident	-12.8556
pload	-12.8559
ystem	-12.8564
catch	-12.8565
ady	-12.8575
▁selects	-12.8579
▁conflict	-12.8584
oncept	-12.8585
▁sinc	-12.8588
pher	-12.8591
▁rescann	-12.8591
eck	-12.8593
dis	-12.8593
▁unl	-12.8594
eamless	-12.8602
irec	-12.861
▁fla	-12.8614
howtime	-12.8615
▁interfac	-12.8617
▁ripp	-12.8618
ield	-12.8621
ming	-12.8623
▁cann	-12.8627
toms	-12.8628
ositive	-12.8629
▁Improvement	-12.863
hadow	-12.8631
ocument	-12.8631
listening	-12.8639
▁slam	-12.864
odcast	-12.864
ommercial	-12.8642
▁facts	-12.8642
▁ingredient	-12.8644
▁estimate	-12.8644
▁.....	-12.8645
law	-12.8649
▁italic	-12.8649
▁balloon	-12.8651
eapon	-12.8652
▁Item	-12.8653
▁statistic	-12.8654
▁concert	-12.8654
▁veri	-12.8654
▁lyric	-12.8655
sy	-12.8655
glitches	-12.8655
▁succes	-12.8656
▁fork	-12.8657
ntermediate	-12.866
ipe	-12.866
egard	-12.8661
ening	-12.8674
evised	-12.8674
▁compliment	-12.8675
▁texted	-12.8676
▁surround	-12.8676
lash	-12.8678
▁annotation	-12.8679
▁hacker	-12.8681
▁supplie	-12.8681
proportiona	-12.8681
utton	-12.8682
▁sooooooo	-12.8686
▁memor	-12.8688
▁nude	-12.8691
unctional	-12.8692
system	-12.8694
aced	-12.8696
▁photograph	-12.8697
▁impossibl	-12.8697
egular	-12.8697
nology	-12.8699
oid	-12.8701
iously	-12.8703
cess	-12.8703
▁calori	-12.8704
▁para	-12.8707
omplete	-12.8707
▁oldie	-12.8712
▁substantial	-12.8713
▁tremendous	-12.8713
urprising	-12.8713
uperior	-12.8714
moothness	-12.8714
toryline	-12.8715
crobat	-12.8715
ss	-12.8717
▁config	-12.8717
▁batter	-12.8717
igure	-12.8719
▁dirt	-12.872
uggested	-12.8721
sight	-12.8722
aker	-12.8724
mportant	-12.8724
▁Trouble	-12.8724
magine	-12.8725
▁meme	-12.8725
xercise	-12.8725
xperiencing	-12.8725
orrection	-12.8726
▁elevat	-12.8726
mobi	-12.8726
latform	-12.8727
wo	-12.8727
henomenal	-12.8728
urchased	-12.8728
urchases	-12.8728
hysics	-12.8729
esterday	-12.8729
isturb	-12.8729
rivacy	-12.8729
ompatible	-12.873
epeatedly	-12.873
ediocre	-12.873
aximum	-12.873
avourites	-12.873
lawless	-12.8731
pinion	-12.8731
egret	-12.8731
owerful	-12.8731
slaught	-12.8732
▁sporadic	-12.8732
elpful	-12.8732
oodbye	-12.8732
pgrade	-12.8733
ursday	-12.8733
ullscreen	-12.8734
oyTunes	-12.8734
▁Television	-12.8734
▁Terrarium	-12.8734
▁ammunition	-12.8734
▁arripay	-12.8734
▁boundaries	-12.8734
▁celebs	-12.8734
▁comprehend	-12.8734
▁cosmetic	-12.8734
▁daunting	-12.8734
▁deteriorating	-12.8734
▁enviroment	-12.8734
▁erroneous	-12.8734
▁franchise	-12.8734
▁impeccable	-12.8734
▁intellectual	-12.8734
▁mindblowing	-12.8734
▁miniscule	-12.8734
▁motorcycle	-12.8734
▁nauseous	-12.8734
▁nobrainer	-12.8734
▁overbearing	-12.8734
▁privilege	-12.8734
▁protagonist	-12.8734
▁relegated	-12.8734
▁superfluous	-12.8734
▁terminology	-12.8734
▁therapeutic	-12.8734
▁tinkering	-12.8734
▁unstoppable	-12.8734
▁unwelcome	-12.8734
▁deceiving	-12.8734
▁marathon	-12.8734
▁shrunk	-12.8734
▁megabytes	-12.8734
▁sheriff	-12.8734
▁illusion	-12.8734
▁perplex	-12.8734
▁siblings	-12.8734
fathom	-12.8734
▁Ignore	-12.8734
▁Turbo	-12.8734
▁glimps	-12.8734
▁sprinkl	-12.8734
stuary	-12.8734
urnett	-12.8734
▁participants	-12.8734
▁pregnancy	-12.8734
▁multilingual	-12.8734
▁samba	-12.8734
▁voila	-12.8734
▁biometric	-12.8734
▁rabbit	-12.8734
▁refinement	-12.8734
▁skindex	-12.8734
▁alleviat	-12.8734
▁begrudg	-12.8734
▁studder	-12.8734
▁progess	-12.8734
▁whisper	-12.8734
▁dishonest	-12.8734
▁anchor	-12.8734
ohnson	-12.8734
▁sustain	-12.8734
▁dreadful	-12.8734
▁vedio	-12.8734
▁expansive	-12.8734
▁illegal	-12.8734
▁iptv	-12.8734
▁mgm	-12.8734
▁scummy	-12.8734
▁gamechanger	-12.8734
▁vanilla	-12.8734
▁fierce	-12.8734
▁reflex	-12.8734
▁applicable	-12.8734
▁cyber	-12.8734
▁economical	-12.8734
▁receipt	-12.8734
▁truncat	-12.8734
▁abroad	-12.8734
▁capitalism	-12.8734
▁emotion	-12.8734
▁diagonal	-12.8734
▁unwilling	-12.8734
onfusing	-12.8734
▁inconvience	-12.8734
▁stagger	-12.8734
▁turbo	-12.8734
▁torture	-12.8734
▁knees	-12.8734
culation	-12.8734
▁fanatic	-12.8734
▁brodcast	-12.8735
nsubscribed	-12.8735
▁heartslives	-12.8735
▁inundate	-12.8735
▁disruptions	-12.8735
▁milestone	-12.8735
▁controvers	-12.8735
▁kitchen	-12.8735
▁migration	-12.8735
▁unparalleled	-12.8735
▁criminal	-12.8735
▁comedies	-12.8735
atchlist	-12.8735
▁ambience	-12.8735
▁misstep	-12.8735
▁rebrand	-12.8735
▁obli	-12.8735
▁deluxe	-12.8735
▁permitted	-12.8735
▁slabs	-12.8735
▁Image	-12.8736
▁defective	-12.8736
▁arsenal	-12.8736
appened	-12.8736
▁midair	-12.8736
▁vehiche	-12.8736
▁unnatural	-12.8736
▁furious	-12.8736
▁habla	-12.8736
▁passcode	-12.8736
▁sideswipe	-12.8736
▁identification	-12.8736
▁marvelous	-12.8736
▁technician	-12.8736
▁steroids	-12.8736
▁repeatitive	-12.8737
radical	-12.8737
▁paperwork	-12.8737
▁tempera	-12.8737
▁repetetive	-12.8737
▁grafic	-12.8737
▁denied	-12.8737
▁atmos	-12.8737
rift	-12.8737
▁forwardrewind	-12.8737
▁uncover	-12.8737
▁bingewatching	-12.8737
ariety	-12.8737
▁remedie	-12.8738
▁debrid	-12.8738
▁disapointed	-12.8738
▁propose	-12.8738
▁slaughter	-12.8738
▁cancer	-12.8738
obux	-12.8738
▁somthing	-12.8738
nnecessary	-12.8738
nknown	-12.8739
▁divorce	-12.8739
first	-12.8739
▁devastated	-12.8739
▁retries	-12.8739
▁comparatively	-12.8739
▁embarrassed	-12.874
▁freebies	-12.874
epublic	-12.874
ccessibility	-12.874
▁standby	-12.874
▁cooperate	-12.874
hhhh	-12.874
▁madness	-12.874
ottom	-12.874
▁fluidity	-12.874
▁reevaluate	-12.8741
lowkey	-12.8741
▁discuss	-12.8741
▁familiarity	-12.8741
▁Trump	-12.8741
▁aggravation	-12.8741
▁motivator	-12.8741
▁clash	-12.8741
▁evil	-12.8741
otspot	-12.8742
easonable	-12.8742
▁dictate	-12.8742
▁underwhelming	-12.8742
▁profitable	-12.8742
▁motor	-12.8743
▁skimp	-12.8743
▁intrigued	-12.8743
▁wellknown	-12.8743
▁unreal	-12.8743
▁overdone	-12.8743
ummed	-12.8744
▁hostess	-12.8744
▁necessity	-12.8744
▁letterboxe	-12.8744
▁motivational	-12.8744
▁slope	-12.8744
▁reposition	-12.8744
udging	-12.8745
amaro	-12.8746
▁bearable	-12.8746
▁whack	-12.8746
ealms	-12.8747
▁obligated	-12.8747
▁swapped	-12.8747
eliable	-12.8747
▁relation	-12.8747
▁touchpad	-12.8748
persever	-12.8748
▁aggravated	-12.8748
▁notebook	-12.8748
▁sampling	-12.8748
▁sliver	-12.8749
atur	-12.8749
▁disorder	-12.875
▁audi	-12.875
▁goddam	-12.875
▁infact	-12.875
▁constraint	-12.8751
▁smth	-12.8751
▁bugsglitches	-12.8751
▁reshuffle	-12.8752
▁goodnovel	-12.8752
▁socialising	-12.8752
▁rollout	-12.8753
▁scammed	-12.8753
▁waterfall	-12.8753
▁challanges	-12.8755
▁weaponry	-12.8755
▁outdoors	-12.8755
▁panda	-12.8755
uccumb	-12.8755
▁flex	-12.8756
▁sidebar	-12.8756
▁adverti	-12.8756
ighlights	-12.8757
▁blurb	-12.8757
peria	-12.8758
▁teenagers	-12.8758
▁discre	-12.8759
▁expectation	-12.8759
egends	-12.876
▁miniplayer	-12.8761
ular	-12.8763
▁lived	-12.8763
ndless	-12.8763
itchen	-12.8764
erky	-12.8765
▁spoile	-12.8765
nconsistent	-12.8766
▁irks	-12.8766
▁tiger	-12.8766
▁miserabl	-12.8767
▁drug	-12.8767
▁commentry	-12.8767
▁instructor	-12.8767
▁exploited	-12.8767
▁supercars	-12.8768
ntegration	-12.8768
anually	-12.8768
▁teamwork	-12.8768
acity	-12.8768
▁lurk	-12.8769
▁panorama	-12.8769
▁parrot	-12.8769
▁boyfriend	-12.8769
▁hesitation	-12.877
ustomi	-12.877
▁unsyncing	-12.877
utstanding	-12.8771
▁imagevideo	-12.8772
▁decreasing	-12.8772
▁broadcaster	-12.8772
onnected	-12.8773
▁overrated	-12.8774
▁planks	-12.8774
▁incompetent	-12.8774
▁brainer	-12.8775
▁inches	-12.8775
ueries	-12.8775
▁saga	-12.8776
punch	-12.8776
▁allround	-12.8777
ploaded	-12.8777
▁phonetablet	-12.8778
▁axes	-12.8778
eleted	-12.8778
ondering	-12.8779
score	-12.878
stances	-12.878
▁oversi	-12.878
▁corse	-12.878
▁acknowledged	-12.8781
▁mistaking	-12.8782
▁dampen	-12.8782
▁Info	-12.8783
▁consecutively	-12.8784
▁whi	-12.8786
▁alleg	-12.8787
▁decay	-12.879
▁cringe	-12.879
▁refusal	-12.879
▁massages	-12.8791
AAAA	-12.8792
▁audiophiles	-12.8794
reators	-12.8794
▁hangup	-12.8794
▁respectively	-12.8795
▁Autoplay	-12.8795
▁moderator	-12.8796
▁recreation	-12.8797
toplay	-12.8797
▁tabletop	-12.8798
▁photoshop	-12.8798
▁Indian	-12.8799
descend	-12.8799
▁villager	-12.88
▁reliever	-12.8801
▁flac	-12.8801
▁clouds	-12.8801
worked	-12.8802
ndeed	-12.8802
blem	-12.8802
▁slowness	-12.8803
▁clickbaity	-12.8804
irtual	-12.8805
▁badass	-12.8805
dressed	-12.8805
▁beach	-12.8805
▁celebrit	-12.8806
ournalist	-12.8807
▁raids	-12.8808
▁routinely	-12.8811
▁styling	-12.8811
▁persisted	-12.8812
▁polishing	-12.8812
search	-12.8812
scales	-12.8812
▁formal	-12.8813
▁Tutorial	-12.8814
ranslation	-12.8815
▁perk	-12.8816
▁Adam	-12.8816
▁videoaudio	-12.8817
▁planted	-12.8817
▁bucket	-12.8818
eapons	-12.8818
aliasing	-12.8818
ses	-12.8818
▁cracking	-12.8818
einstall	-12.882
rest	-12.8821
▁bookstore	-12.8821
▁cargo	-12.8821
▁crime	-12.8822
▁represented	-12.8823
ploading	-12.8824
▁highway	-12.8825
▁homeless	-12.8826
armin	-12.8827
▁approaches	-12.8827
mbedded	-12.8828
hem	-12.8828
dependent	-12.8829
▁islands	-12.883
▁overthe	-12.883
▁snake	-12.8831
▁gigab	-12.8832
▁poses	-12.8834
▁dinged	-12.8834
▁impro	-12.8834
ior	-12.8835
unny	-12.8836
▁suffered	-12.8836
ubi	-12.8837
vertime	-12.8839
▁ghost	-12.8841
▁visitor	-12.8841
▁spoilers	-12.8842
▁hover	-12.8844
▁taping	-12.8846
▁compressing	-12.8846
▁neverending	-12.8846
▁setback	-12.8847
▁offscreen	-12.8847
airing	-12.8849
▁inserted	-12.8849
▁spoiler	-12.885
▁incentivi	-12.8852
uitting	-12.8852
▁temples	-12.8853
▁cleanest	-12.8854
iscovery	-12.8854
iewing	-12.8857
▁pauseplay	-12.8857
wield	-12.8858
▁preform	-12.8859
ovement	-12.8863
▁polls	-12.8864
gested	-12.8866
▁funnie	-12.8866
▁keywords	-12.8866
▁vis	-12.8868
uttons	-12.8869
▁blatant	-12.8871
▁hurri	-12.8872
ouTuber	-12.8872
▁cultures	-12.8873
nstru	-12.8875
▁radi	-12.8875
▁magnifi	-12.8876
▁oneplus	-12.8877
▁recheck	-12.8877
estimated	-12.8878
▁dive	-12.888
exico	-12.8881
▁patches	-12.8882
▁endure	-12.8882
At	-12.8883
truggle	-12.8885
pop	-12.8886
▁innovat	-12.8887
▁glide	-12.8887
▁cutout	-12.8888
kips	-12.889
▁director	-12.8892
▁drinking	-12.8892
▁steer	-12.8893
ubse	-12.8893
rdu	-12.8895
▁abd	-12.8897
▁operated	-12.8902
▁layered	-12.8903
xes	-12.8906
▁leaders	-12.8913
▁configurat	-12.8916
▁clover	-12.8917
▁sensoring	-12.8918
ania	-12.8922
▁courte	-12.8922
▁decks	-12.8923
▁maby	-12.8923
layable	-12.8926
ersey	-12.8927
paid	-12.8929
▁masks	-12.8933
▁sincere	-12.8933
lette	-12.8935
washed	-12.8935
▁shine	-12.8935
▁rankings	-12.894
▁invad	-12.8941
ophi	-12.8941
related	-12.8942
▁ans	-12.8944
▁expressions	-12.8945
▁delivery	-12.8947
bu	-12.8947
evaluate	-12.8948
▁peice	-12.8949
▁dims	-12.8951
decorating	-12.8953
tive	-12.8955
onday	-12.8957
liding	-12.896
▁loooo	-12.8961
▁Tower	-12.8962
arth	-12.8965
ibbe	-12.8966
pening	-12.8966
▁webm	-12.8967
otential	-12.8968
▁digit	-12.8968
▁overwrite	-12.8968
usive	-12.8968
▁inconsistently	-12.8969
▁ballad	-12.8969
uildings	-12.8969
easier	-12.8972
elt	-12.8975
▁presum	-12.8976
▁cork	-12.8977
turn	-12.898
▁beep	-12.8986
▁grant	-12.8986
▁inno	-12.8994
oked	-12.8995
rovides	-12.8997
▁flee	-12.9004
▁y	-12.9009
▁sharps	-12.9009
▁programmer	-12.901
▁flickers	-12.9011
▁scapes	-12.9013
▁stitch	-12.9017
▁sans	-12.9018
▁flies	-12.9019
▁experts	-12.9023
▁remakes	-12.903
▁influencer	-12.9031
lox	-12.9032
▁detected	-12.9032
short	-12.9032
▁oct	-12.9034
▁startling	-12.9037
bl	-12.9037
▁thre	-12.9042
etho	-12.9046
▁restricting	-12.9046
▁alltime	-12.9055
▁lure	-12.9057
▁weekends	-12.9061
ripping	-12.9063
▁excessively	-12.9066
▁respects	-12.9068
▁proficien	-12.9071
▁displeas	-12.9071
olls	-12.9074
▁chickens	-12.9076
▁secured	-12.9077
▁aaps	-12.9078
▁secrets	-12.9084
ech	-12.9084
sent	-12.9085
wi	-12.909
▁cutter	-12.909
picture	-12.9091
▁pronunciations	-12.9091
purp	-12.9094
▁labor	-12.9097
att	-12.9098
▁resolv	-12.9098
▁retweet	-12.91
▁iterations	-12.91
▁trucks	-12.9101
osing	-12.9102
eye	-12.9103
▁plugin	-12.9104
▁winnable	-12.9105
▁lengthen	-12.9107
▁trace	-12.9108
▁miniature	-12.9109
▁seemless	-12.911
▁productions	-12.9116
aved	-12.9116
▁forte	-12.912
▁bogg	-12.9124
▁statement	-12.9124
▁achievable	-12.9132
▁reconnected	-12.914
▁urgent	-12.914
lowly	-12.9148
▁refreshe	-12.9149
forgiving	-12.9151
▁anny	-12.9162
▁smh	-12.9166
▁classy	-12.9173
casting	-12.9174
place	-12.9183
▁frontend	-12.9186
▁traction	-12.9187
hate	-12.9189
▁conduct	-12.9191
die	-12.9192
▁findings	-12.9193
▁garbled	-12.9193
adar	-12.9193
▁clima	-12.9197
▁follower	-12.9203
▁uninspir	-12.9204
aken	-12.9205
▁browsed	-12.921
stress	-12.9215
▁exam	-12.922
unless	-12.9224
nlock	-12.9228
▁shi	-12.9229
rasp	-12.9238
ingers	-12.9243
▁daughters	-12.9244
▁slee	-12.9259
▁neck	-12.926
hdr	-12.9262
leasant	-12.9262
▁revolve	-12.9263
▁refresher	-12.9264
say	-12.9277
▁ingredients	-12.9279
xamples	-12.928
yt	-12.9284
▁tearsm	-12.929
tant	-12.929
▁intens	-12.9293
urni	-12.9295
ossibly	-12.9296
▁incr	-12.9297
▁reacts	-12.93
players	-12.9303
▁bann	-12.9304
▁dense	-12.9305
enus	-12.9307
certainty	-12.931
▁optimise	-12.9312
▁previewed	-12.9313
cel	-12.9314
uts	-12.9318
ba	-12.9321
tip	-12.9332
▁targeting	-12.9334
▁definit	-12.9337
▁contest	-12.9339
▁caps	-12.9342
▁dys	-12.9345
ldr	-12.9347
aded	-12.935
lan	-12.9357
▁optin	-12.9364
uke	-12.9365
▁pointer	-12.9365
rma	-12.9366
▁grave	-12.9367
▁Air	-12.9368
rave	-12.9369
▁synching	-12.937
suade	-12.9372
▁sociali	-12.9375
▁backs	-12.9376
▁attacks	-12.9379
ku	-12.9381
▁Attempt	-12.9384
▁champions	-12.9388
opics	-12.9392
orphe	-12.94
▁boast	-12.9401
▁limb	-12.9418
▁nu	-12.9419
▁glorif	-12.9421
▁char	-12.9423
boring	-12.943
▁drawbacks	-12.9431
▁themed	-12.9433
nsure	-12.9435
eeper	-12.9438
▁coll	-12.9442
▁fastfo	-12.9443
channel	-12.9445
▁camp	-12.9452
▁informations	-12.9453
▁waster	-12.9457
▁spammer	-12.9464
▁shake	-12.9467
▁furth	-12.9473
scrolling	-12.9483
▁grate	-12.9501
▁headaches	-12.9506
tunes	-12.9506
▁cla	-12.9506
big	-12.9509
▁tray	-12.951
dictive	-12.9512
cate	-12.9516
▁hom	-12.9524
lympic	-12.9525
pts	-12.9529
▁bone	-12.9529
▁armors	-12.9529
▁imm	-12.9536
kan	-12.9536
cific	-12.9538
tel	-12.954
sets	-12.9542
▁pockets	-12.9544
topping	-12.9546
▁wee	-12.9549
▁marri	-12.9552
▁reacharge	-12.9557
▁define	-12.9563
business	-12.9564
rue	-12.9564
▁slim	-12.9567
▁deaths	-12.9569
▁overlook	-12.957
ilk	-12.9574
▁dum	-12.9576
issed	-12.9579
▁sucky	-12.958
▁grouping	-12.958
▁migrate	-12.9584
sp	-12.9587
▁integrations	-12.9598
▁than	-12.96
▁commu	-12.9611
mil	-12.9612
okes	-12.9617
onal	-12.9618
ctively	-12.9623
super	-12.9624
▁installer	-12.9628
hristi	-12.9631
rimar	-12.9631
ilities	-12.9637
week	-12.9637
enig	-12.9659
▁thou	-12.9666
▁catalogues	-12.9666
▁recommendable	-12.9674
▁ounce	-12.9677
▁refunds	-12.968
▁van	-12.9682
▁scams	-12.9694
▁hammer	-12.9697
▁blip	-12.97
reaking	-12.9702
▁promotion	-12.9702
keeper	-12.9704
▁empti	-12.9705
▁Tune	-12.971
tall	-12.9711
ditor	-12.9711
paying	-12.9713
shed	-12.972
stood	-12.9726
▁resett	-12.9735
▁formed	-12.9737
illi	-12.9739
▁gambler	-12.974
folder	-12.974
▁issu	-12.9742
ntly	-12.9746
pictures	-12.9763
nned	-12.9766
▁activates	-12.9768
▁builder	-12.9772
▁dice	-12.9778
▁exceptions	-12.9781
ricket	-12.9786
▁appservice	-12.9791
rushing	-12.9793
▁othe	-12.9793
▁encompass	-12.9795
▁aud	-12.9801
▁diminishe	-12.9802
▁collaborat	-12.9803
reset	-12.9807
ago	-12.9809
tty	-12.9811
▁productive	-12.9812
food	-12.9816
hankfully	-12.9821
▁ie	-12.9822
needed	-12.9826
rrent	-12.9826
▁swapp	-12.9837
▁skipp	-12.9838
icking	-12.9842
▁yay	-12.9844
▁probable	-12.9844
riginals	-12.9844
▁amusing	-12.9851
▁Afterward	-12.9859
bre	-12.9865
lves	-12.9883
▁suppress	-12.9884
respective	-12.989
▁fir	-12.9891
otic	-12.9899
arms	-12.99
changing	-12.9903
aring	-12.9904
▁corr	-12.9908
▁photovideo	-12.9908
▁firefire	-12.9911
agnate	-12.9912
rch	-12.9912
online	-12.9918
odu	-12.9926
▁slic	-12.9929
bits	-12.9929
▁forgiv	-12.9929
▁pod	-12.9934
▁crossbo	-12.9938
alter	-12.994
▁prim	-12.995
▁controler	-12.9951
calls	-12.9954
▁cold	-12.9956
aloud	-12.9961
▁baffl	-12.9964
▁bean	-12.9969
............	-12.9978
▁satif	-12.998
gl	-12.998
lying	-12.9985
▁connector	-12.999
ined	-12.9992
tinel	-13.0003
eaders	-13.001
oss	-13.0014
▁gig	-13.0015
min	-13.002
▁vouch	-13.0024
ora	-13.0028
before	-13.0028
nx	-13.0029
remember	-13.0035
vic	-13.004
umm	-13.0043
ringing	-13.0051
icely	-13.006
▁los	-13.0061
buffering	-13.0062
ITA	-13.0063
▁pts	-13.0072
▁await	-13.0088
▁capes	-13.0088
▁pushy	-13.01
▁Type	-13.0106
▁observe	-13.0107
gives	-13.0107
mount	-13.0107
sided	-13.0107
yearly	-13.0108
har	-13.0114
▁waaa	-13.0115
eve	-13.0122
ovels	-13.0123
fic	-13.0133
▁mos	-13.0136
rg	-13.0137
ipoff	-13.0142
challenges	-13.0142
▁nut	-13.0145
tating	-13.0153
auto	-13.016
iming	-13.0162
wsome	-13.0166
▁tele	-13.0168
rappers	-13.0169
awn	-13.0187
▁devolve	-13.0195
pro	-13.0228
▁compa	-13.0234
▁reconnects	-13.0237
sive	-13.0244
▁shock	-13.025
▁levelup	-13.0257
▁celebrate	-13.0258
den	-13.0258
family	-13.0265
cock	-13.0272
ditions	-13.0279
rev	-13.0286
missions	-13.0287
look	-13.0293
▁ni	-13.0294
xcite	-13.03
▁detailing	-13.0325
▁endorse	-13.0325
che	-13.0328
uplicate	-13.0331
▁appli	-13.0333
void	-13.0339
▁snip	-13.0343
▁overcomplicat	-13.0351
▁Than	-13.0374
mance	-13.0379
mission	-13.0389
locks	-13.0408
▁downer	-13.0422
nnies	-13.0424
▁lingo	-13.0428
epend	-13.0429
fx	-13.0433
profile	-13.0435
.........	-13.0439
elative	-13.0455
name	-13.0459
▁cod	-13.0459
▁peak	-13.0463
rea	-13.0473
▁rides	-13.0482
ux	-13.0484
▁facew	-13.0485
▁Indi	-13.0491
current	-13.0494
ominoes	-13.051
uild	-13.0511
▁Tok	-13.0528
ining	-13.0533
finally	-13.0539
exit	-13.0543
forms	-13.0546
▁mobil	-13.0549
▁agr	-13.0549
▁crosspla	-13.0555
▁occurr	-13.0556
plan	-13.056
normal	-13.0569
display	-13.0574
keyboard	-13.0582
killed	-13.0585
fair	-13.0587
▁defen	-13.0588
▁possess	-13.0594
antic	-13.0599
album	-13.06
documents	-13.0604
although	-13.0617
▁spo	-13.0622
mostly	-13.0635
▁shoulder	-13.0645
▁relia	-13.065
chats	-13.0655
▁blam	-13.066
bc	-13.0666
▁spi	-13.0676
▁highlighter	-13.0678
▁ko	-13.068
▁moive	-13.0683
ubbed	-13.07
▁announce	-13.07
cache	-13.0702
rough	-13.0702
sco	-13.0705
▁castle	-13.0711
▁her	-13.0712
acked	-13.0714
buttons	-13.0717
▁exaggerat	-13.0726
▁Include	-13.0731
earned	-13.0736
▁compares	-13.0739
lag	-13.0743
dits	-13.0752
eams	-13.0756
pens	-13.0764
must	-13.0766
▁envelop	-13.0772
▁professionals	-13.0777
gger	-13.0781
kick	-13.0782
working	-13.0783
stopper	-13.0785
completed	-13.0795
▁gate	-13.0795
rn	-13.0801
toons	-13.0812
▁breathe	-13.0815
them	-13.0816
sup	-13.0816
▁feat	-13.0821
pression	-13.0822
isable	-13.0853
▁aired	-13.0858
▁lengths	-13.086
ien	-13.0862
numbing	-13.0871
members	-13.0872
▁swing	-13.0873
lat	-13.0882
▁signals	-13.0884
▁pun	-13.0886
▁shout	-13.0891
▁waaaaa	-13.0891
road	-13.0903
▁lips	-13.0904
▁chal	-13.092
rade	-13.0925
ran	-13.0927
▁imagin	-13.0931
last	-13.0931
levels	-13.0933
late	-13.0942
ongst	-13.0948
▁pirat	-13.095
uninstalling	-13.0955
▁dia	-13.0963
includ	-13.0964
ruth	-13.0966
▁lov	-13.0969
▁approve	-13.0972
sort	-13.0977
ional	-13.098
figured	-13.0986
▁unedit	-13.099
breaks	-13.0991
nite	-13.0993
mal	-13.0997
▁readi	-13.101
osting	-13.101
▁mixer	-13.1019
▁bush	-13.1023
▁escalat	-13.1026
▁xl	-13.1028
otes	-13.103
▁dam	-13.1032
▁supporter	-13.1051
statement	-13.1051
▁nagivat	-13.1051
multiplayer	-13.1052
filter	-13.1105
gan	-13.1124
ogg	-13.1128
feedback	-13.1136
mic	-13.1149
▁resent	-13.115
under	-13.115
hiding	-13.1154
blink	-13.116
▁flo	-13.1163
▁integra	-13.1163
▁ri	-13.1168
▁documentar	-13.118
▁ty	-13.1193
bble	-13.1198
▁cramm	-13.1204
otation	-13.121
everyone	-13.121
▁unsav	-13.1211
▁plent	-13.1226
▁dem	-13.124
lt	-13.1242
instead	-13.1251
fill	-13.1254
pit	-13.126
inspired	-13.1261
ronic	-13.1261
mk	-13.1262
goal	-13.1263
▁arr	-13.1264
abulous	-13.1267
ealistic	-13.1267
lm	-13.1271
ugue	-13.1272
driving	-13.1277
abbed	-13.1281
▁ag	-13.1292
▁spr	-13.1305
groups	-13.132
consider	-13.1329
creating	-13.1339
arded	-13.1343
▁apples	-13.1355
▁announc	-13.1357
actually	-13.1366
titles	-13.1367
▁reall	-13.1369
▁Troubleshoot	-13.138
products	-13.1381
ickel	-13.1387
mental	-13.1395
shi	-13.1395
istic	-13.1395
shots	-13.1398
rin	-13.14
acted	-13.1402
clicking	-13.1404
oc	-13.1422
created	-13.1426
lable	-13.1427
buffer	-13.1429
brightness	-13.1435
cat	-13.1436
school	-13.1445
▁refin	-13.145
▁crunch	-13.1452
flow	-13.1453
▁skull	-13.1461
entertaining	-13.1463
chromebook	-13.1468
copy	-13.1477
▁against	-13.1479
unlike	-13.1496
rena	-13.1501
▁recon	-13.1503
ormul	-13.151
cared	-13.1513
warning	-13.1514
fish	-13.1521
sssss	-13.1522
uff	-13.1524
nintuitive	-13.1531
optional	-13.1532
porting	-13.1543
amm	-13.1543
xcit	-13.1548
uh	-13.1558
dmi	-13.1562
stone	-13.1562
▁void	-13.1567
▁unsave	-13.157
options	-13.1579
▁reas	-13.1588
▁inc	-13.1593
eadict	-13.1597
hood	-13.16
needs	-13.1603
cheaper	-13.1606
oone	-13.161
▁feats	-13.1619
rid	-13.162
special	-13.1634
▁loo	-13.1641
dislike	-13.1646
paused	-13.1646
tained	-13.1648
▁veg	-13.165
▁nag	-13.1657
irl	-13.1658
eak	-13.1675
▁laggi	-13.1677
advanced	-13.1682
mons	-13.1684
feed	-13.1696
▁cooperati	-13.1697
fro	-13.1697
ough	-13.1707
▁establish	-13.1711
owing	-13.1714
rab	-13.1716
▁fest	-13.1717
hats	-13.1722
▁convinc	-13.1722
subscribe	-13.1725
base	-13.1735
▁irresp	-13.1741
▁readings	-13.1749
falls	-13.175
▁sparkl	-13.1752
sit	-13.1755
bottle	-13.1762
winning	-13.1765
▁lying	-13.1767
▁Ten	-13.1771
▁watchable	-13.1775
▁litera	-13.1783
head	-13.1785
shock	-13.1786
natural	-13.1787
etti	-13.1792
uash	-13.1797
breaking	-13.1797
teaching	-13.1799
▁inca	-13.1801
nding	-13.1803
asked	-13.181
▁enforce	-13.1812
▁imag	-13.1814
▁loot	-13.182
weekly	-13.1825
▁plague	-13.1827
▁wrongly	-13.1832
▁physic	-13.1832
▁pushe	-13.1844
weight	-13.1854
▁tease	-13.1859
collision	-13.1862
hopefully	-13.1874
accessible	-13.1883
tracks	-13.1883
reas	-13.1885
▁impl	-13.1886
Then	-13.1886
▁tones	-13.1895
decorations	-13.1906
seconds	-13.1907
safe	-13.1907
dropping	-13.1915
Track	-13.1916
cover	-13.1922
enough	-13.1922
site	-13.193
sident	-13.1931
stance	-13.1931
yeah	-13.1934
recorded	-13.1941
claim	-13.1941
who	-13.1954
filled	-13.1957
▁poke	-13.1957
apt	-13.1962
runner	-13.1963
message	-13.1967
iring	-13.1968
beginners	-13.1972
satisfied	-13.1972
phrases	-13.1975
trigger	-13.1979
grab	-13.1982
▁rel	-13.1985
balance	-13.1988
▁workable	-13.1991
hell	-13.1992
think	-13.1992
lone	-13.1994
▁Active	-13.1994
▁wording	-13.1999
alm	-13.2003
globe	-13.201
fixing	-13.2015
earbuds	-13.2019
evolving	-13.2019
▁tract	-13.2024
▁mem	-13.2029
installing	-13.2031
employment	-13.2034
▁sail	-13.2034
▁cus	-13.2041
dragon	-13.2044
ety	-13.2046
▁discon	-13.2049
yellow	-13.205
▁insuff	-13.2052
lig	-13.2053
▁slipp	-13.2061
▁goods	-13.2062
firefire	-13.2065
hide	-13.2065
▁Teach	-13.2075
comedy	-13.2078
bridge	-13.2083
▁speciali	-13.2084
Assistant	-13.2085
tyl	-13.2088
train	-13.2092
▁pok	-13.2094
phishing	-13.2094
latency	-13.2095
fight	-13.2106
Artist	-13.2107
profit	-13.2113
ction	-13.2117
▁facef	-13.2121
familiar	-13.2122
gif	-13.2129
satisfying	-13.2137
menus	-13.2137
▁incident	-13.2145
piece	-13.2147
adband	-13.2149
ints	-13.2149
reopening	-13.215
typical	-13.2151
py	-13.2156
boat	-13.2158
▁truthfull	-13.2169
presentation	-13.2175
▁avi	-13.2194
▁nee	-13.2202
until	-13.2205
encompass	-13.2208
gifs	-13.2209
minds	-13.221
▁nit	-13.2213
scam	-13.2214
posed	-13.2216
almost	-13.2222
topics	-13.2232
stairs	-13.2245
▁vot	-13.2258
▁trans	-13.2264
productive	-13.2267
Insta	-13.2267
tride	-13.2276
lr	-13.2278
regards	-13.228
cross	-13.2287
▁ambi	-13.2292
appealing	-13.2298
source	-13.2298
trade	-13.23
sue	-13.2301
nded	-13.2304
▁pour	-13.231
tsapp	-13.232
reconnect	-13.2329
▁exce	-13.233
▁reinforce	-13.2333
▁logins	-13.2333
umi	-13.2337
orest	-13.2341
▁sug	-13.2351
▁creatives	-13.2352
bi	-13.2359
recap	-13.2368
none	-13.237
▁ther	-13.2372
ontier	-13.2375
▁interfer	-13.2381
bumper	-13.2386
olitics	-13.2392
▁deliveri	-13.2393
thro	-13.2396
gb	-13.2397
aaa	-13.2399
ggy	-13.2405
▁ret	-13.241
spoke	-13.2412
metal	-13.2413
contract	-13.2418
sponsor	-13.242
tax	-13.2421
ballsoccer	-13.2435
ything	-13.2443
alone	-13.2445
significant	-13.2446
▁procedur	-13.2451
remodel	-13.2454
▁sabotag	-13.2457
post	-13.2462
▁pot	-13.2463
calculate	-13.2472
volving	-13.2486
▁ignoran	-13.2502
▁minimise	-13.2503
replace	-13.2506
cting	-13.251
aining	-13.2514
worth	-13.2527
▁fx	-13.2528
click	-13.2535
▁recommends	-13.2536
ngl	-13.2567
selected	-13.2586
▁unwatch	-13.2602
▁popula	-13.2608
ished	-13.2641
▁passive	-13.2644
stalled	-13.2644
around	-13.265
urns	-13.2653
tolerable	-13.2659
elected	-13.2659
▁buggi	-13.2661
▁Initial	-13.2662
▁unban	-13.2662
▁orig	-13.2674
icon	-13.2674
lands	-13.2674
ches	-13.2678
nin	-13.2685
icks	-13.2694
sound	-13.2695
▁exc	-13.2701
▁simul	-13.2701
vert	-13.2702
lty	-13.2709
▁resemble	-13.2722
laps	-13.2727
AA	-13.2728
phi	-13.2744
▁simula	-13.2744
oneti	-13.2747
▁med	-13.2752
iss	-13.2755
ggling	-13.2757
▁depress	-13.2759
omeland	-13.276
ella	-13.277
boards	-13.2783
lingo	-13.2785
▁responsib	-13.2789
▁fitbits	-13.2794
ki	-13.2797
ross	-13.2806
rw	-13.2809
▁ext	-13.2811
▁combin	-13.2812
longer	-13.2818
▁noad	-13.2832
▁shoes	-13.2832
virus	-13.2833
main	-13.2835
IAT	-13.2838
recently	-13.2843
▁devi	-13.2849
▁explor	-13.2852
critic	-13.2855
ges	-13.2859
mina	-13.2869
▁recents	-13.287
uin	-13.2879
texts	-13.2885
aware	-13.2895
lent	-13.2904
ading	-13.2906
uld	-13.2911
banned	-13.2919
inf	-13.2929
builds	-13.2929
informed	-13.2936
▁eater	-13.2939
tranger	-13.2954
ugat	-13.2957
▁prec	-13.2961
shape	-13.2962
▁overrid	-13.2968
floors	-13.2985
beg	-13.2986
ferent	-13.2986
mber	-13.2995
▁loa	-13.2999
installed	-13.3006
arts	-13.3006
practical	-13.3008
tra	-13.3014
▁bubbl	-13.3023
▁ender	-13.3029
compress	-13.303
sun	-13.3031
activity	-13.3033
elay	-13.3035
▁plat	-13.3035
▁violat	-13.3038
words	-13.3045
▁subb	-13.3055
▁raid	-13.3066
leg	-13.3069
error	-13.3071
ensoring	-13.3072
bla	-13.3074
shop	-13.3074
picks	-13.3076
lagging	-13.3079
hrist	-13.308
owe	-13.3086
orious	-13.3089
▁una	-13.3089
hes	-13.3113
▁extrac	-13.3119
▁lea	-13.3128
nock	-13.3132
shot	-13.3148
ency	-13.3167
▁unde	-13.3173
ooth	-13.3189
▁phon	-13.3196
rug	-13.3197
▁eraser	-13.3206
lea	-13.3216
nk	-13.3257
war	-13.3266
proves	-13.3266
uds	-13.3268
▁ec	-13.327
▁marke	-13.3274
▁notifie	-13.3278
forget	-13.3284
▁Int	-13.3291
ula	-13.3295
tain	-13.3295
hini	-13.3297
▁lump	-13.3302
▁consol	-13.3303
tch	-13.331
pecial	-13.3317
▁homes	-13.3323
ingreinstalling	-13.3325
nedrive	-13.3332
opt	-13.3336
hope	-13.3338
ource	-13.3352
▁becom	-13.3354
suming	-13.3357
asses	-13.3363
esi	-13.3369
▁storys	-13.3372
▁centr	-13.3375
egg	-13.3375
resses	-13.3375
▁conn	-13.3382
ener	-13.3382
nytime	-13.3385
hr	-13.3395
esthetic	-13.3402
forest	-13.3403
licking	-13.3415
dub	-13.3415
▁relat	-13.3416
ville	-13.342
ecorating	-13.3429
anned	-13.3433
▁accompan	-13.3434
review	-13.3434
ward	-13.3444
▁aftera	-13.3454
isabled	-13.3457
▁unus	-13.3457
▁tin	-13.3464
▁identifi	-13.3466
▁reiterat	-13.3472
▁influenc	-13.3475
canning	-13.3478
md	-13.348
arctic	-13.3483
lia	-13.3485
inted	-13.3487
ogan	-13.3499
▁evening	-13.3499
ducing	-13.3502
▁underst	-13.3508
lover	-13.3517
during	-13.3523
sad	-13.3523
▁dispos	-13.3526
same	-13.3527
▁upt	-13.3536
mpress	-13.3542
odge	-13.3544
ignal	-13.3554
▁curate	-13.3555
▁simplifi	-13.3562
uation	-13.3567
ontroller	-13.3568
byte	-13.357
xtra	-13.3572
▁unfriend	-13.3574
▁const	-13.358
tomy	-13.358
esponse	-13.3581
tual	-13.3582
ght	-13.3583
atalogue	-13.3583
▁poss	-13.3584
ecret	-13.3585
rogram	-13.3585
▁syn	-13.3586
rati	-13.3586
rofile	-13.3587
und	-13.3601
xpect	-13.3615
ournal	-13.3618
ntertainer	-13.3622
ching	-13.3623
ubtitle	-13.3626
meri	-13.3627
settings	-13.3627
▁village	-13.3628
peech	-13.363
ory	-13.3632
▁emphasi	-13.3632
▁exhibit	-13.3633
ility	-13.3634
▁dose	-13.3637
▁instru	-13.3638
udu	-13.3638
veral	-13.3642
essed	-13.3644
▁massage	-13.3648
▁coworker	-13.3649
▁Island	-13.365
▁earbud	-13.3652
idget	-13.3652
▁cartoon	-13.3653
▁subfolder	-13.3654
amet	-13.3654
▁mutant	-13.3654
ollect	-13.3659
▁doctor	-13.366
▁shutdown	-13.366
ilter	-13.366
kipping	-13.3661
tensive	-13.3664
▁landscap	-13.3664
▁incompeten	-13.3668
▁scope	-13.367
▁captur	-13.367
neck	-13.3672
▁declin	-13.3674
meter	-13.3675
heet	-13.3679
▁omg	-13.3681
bel	-13.3681
sthetic	-13.3682
▁proofread	-13.3685
▁hood	-13.3686
▁captivat	-13.3691
ffroad	-13.3694
weet	-13.3695
ssential	-13.3695
▁unbearabl	-13.3696
▁cheer	-13.3697
▁varie	-13.37
emocrat	-13.3702
▁mult	-13.3705
agon	-13.3707
▁compose	-13.3708
▁incessant	-13.3709
▁instinct	-13.371
▁remap	-13.3711
krain	-13.3711
crubb	-13.3711
ubscribed	-13.3711
ubtract	-13.3711
nterior	-13.3711
cenario	-13.3712
▁divisi	-13.3712
rgin	-13.3712
afety	-13.3712
ightmares	-13.3712
urvival	-13.3712
atellite	-13.3713
martphones	-13.3713
▁premature	-13.3713
eemingly	-13.3714
▁simultaneous	-13.3714
ntuitive	-13.3715
▁misspell	-13.3715
wasting	-13.3716
▁remaster	-13.3717
▁swift	-13.3717
▁immerse	-13.3718
▁shortcoming	-13.3719
▁intrigue	-13.3719
tellar	-13.3719
▁complicate	-13.372
ecure	-13.372
▁drastic	-13.3721
unkie	-13.3722
rmour	-13.3723
▁chrom	-13.3723
ragon	-13.3723
rompted	-13.3724
▁Ado	-13.3724
hotography	-13.3724
▁remarkabl	-13.3724
xactly	-13.3725
xternal	-13.3725
▁unsync	-13.3726
bandoned	-13.3726
ccurate	-13.3726
espawn	-13.3726
esponsive	-13.3726
xcuse	-13.3726
epair	-13.3726
ninstal	-13.3727
▁regula	-13.3727
scribe	-13.3727
nfortunate	-13.3727
enalty	-13.3728
articularly	-13.3728
hildren	-13.3728
arrier	-13.3728
vatar	-13.3728
▁revise	-13.3728
ategory	-13.3728
eceiver	-13.3729
epetetive	-13.3729
ompany	-13.3729
omplicated	-13.3729
eginners	-13.3729
elebrit	-13.3729
onfigurat	-13.3729
commendable	-13.373
eccomend	-13.373
onsistently	-13.373
ttention	-13.373
ommunities	-13.373
arketplace	-13.373
eagues	-13.373
evertheless	-13.373
harging	-13.373
undamental	-13.373
raphs	-13.373
ebsite	-13.3731
ookmarks	-13.3731
owadays	-13.3731
lashlight	-13.3731
atience	-13.3731
roadcasters	-13.3731
egions	-13.3731
andwidth	-13.3731
lurry	-13.3731
raft	-13.3731
orkaround	-13.3732
onstruction	-13.3732
▁initia	-13.3732
▁explic	-13.3732
harp	-13.3732
nparalleled	-13.3732
▁cinema	-13.3732
andatory	-13.3732
ournaments	-13.3732
ersatile	-13.3733
omewhat	-13.3733
ancelled	-13.3733
eginning	-13.3733
servation	-13.3733
reedom	-13.3733
imulator	-13.3733
efinetl	-13.3733
romise	-13.3733
ologi	-13.3734
lamethrower	-13.3734
▁pregnan	-13.3734
ommon	-13.3734
▁Arripay	-13.3734
▁cripple	-13.3734
▁pharmac	-13.3734
▁proprietary	-13.3734
▁underlining	-13.3734
bisoft	-13.3734
buntu	-13.3734
deployment	-13.3734
ebToon	-13.3734
emorrhoid	-13.3734
impsons	-13.3734
inaccuracies	-13.3734
ournalism	-13.3734
tshirt	-13.3734
▁Algorithm	-13.3734
▁Alternative	-13.3734
▁AsiaAustralia	-13.3734
▁Increasing	-13.3734
▁International	-13.3734
▁Transition	-13.3734
▁abbreviat	-13.3734
▁aggrevati	-13.3734
▁assembl	-13.3734
▁astronomical	-13.3734
▁blossom	-13.3734
▁bolster	-13.3734
▁carnival	-13.3734
▁catastrophic	-13.3734
▁certificate	-13.3734
▁compilation	-13.3734
▁comprehension	-13.3734
▁concentrate	-13.3734
▁congratulate	-13.3734
▁crippling	-13.3734
▁culprit	-13.3734
▁demonstrat	-13.3734
▁descriptive	-13.3734
▁deteriorated	-13.3734
▁devolper	-13.3734
▁diomond	-13.3734
▁disingenuous	-13.3734
▁dissapointment	-13.3734
▁dissatisfaction	-13.3734
▁educated	-13.3734
▁elaborate	-13.3734
▁elliptical	-13.3734
▁embarassing	-13.3734
▁emoticons	-13.3734
▁exempt	-13.3734
▁grandmothers	-13.3734
▁grievance	-13.3734
▁heavier	-13.3734
▁hitormiss	-13.3734
▁infrastructure	-13.3734
▁interwsting	-13.3734
▁invulnerable	-13.3734
▁irreplaceable	-13.3734
▁leaflets	-13.3734
▁mmorpg	-13.3734
▁monumental	-13.3734
▁newspaper	-13.3734
▁nonsensical	-13.3734
▁oppressive	-13.3734
▁outrageous	-13.3734
▁plagiari	-13.3734
▁plummet	-13.3734
▁postersflyers	-13.3734
▁psycho	-13.3734
▁reimburse	-13.3734
▁reveiw	-13.3734
▁sandstorms	-13.3734
▁sidebyside	-13.3734
▁skeleton	-13.3734
▁skyrocket	-13.3734
▁stagnant	-13.3734
▁suffocate	-13.3734
▁supervisor	-13.3734
▁tornado	-13.3734
▁treadmill	-13.3734
▁unkillable	-13.3734
▁unneccesary	-13.3734
▁unrecoverabl	-13.3734
▁wrinkles	-13.3734
▁Audible	-13.3734
▁alpha	-13.3734
▁dessert	-13.3734
▁fidgety	-13.3734
▁monocle	-13.3734
▁potato	-13.3734
▁unarmed	-13.3734
▁Informative	-13.3734
▁Transport	-13.3734
▁absorb	-13.3734
▁affirm	-13.3734
▁asinine	-13.3734
▁exasperat	-13.3734
▁fragment	-13.3734
▁gentlem	-13.3734
▁piercing	-13.3734
▁unworkable	-13.3734
muffled	-13.3734
shareholders	-13.3734
▁biceps	-13.3734
▁intrinsic	-13.3734
▁narration	-13.3734
▁railroad	-13.3734
▁throttle	-13.3734
▁travesty	-13.3734
▁undesirable	-13.3734
▁ahaha	-13.3734
▁architect	-13.3734
▁friendliness	-13.3734
▁expirience	-13.3734
▁shortlived	-13.3734
▁triumph	-13.3734
▁uncompressed	-13.3734
olorado	-13.3734
uisition	-13.3734
▁advisor	-13.3734
▁imaginative	-13.3734
▁overshadow	-13.3734
▁dominate	-13.3734
▁haunting	-13.3734
goddess	-13.3734
xtrodinar	-13.3734
▁caliber	-13.3734
▁rythme	-13.3734
▁stormsnight	-13.3734
▁vulgar	-13.3734
auldron	-13.3734
olidays	-13.3734
▁curators	-13.3734
▁eyecatching	-13.3734
▁irregular	-13.3734
tulip	-13.3734
▁pickaxe	-13.3734
▁moblie	-13.3734
clothed	-13.3734
unkspam	-13.3734
▁pixilated	-13.3734
▁modifiers	-13.3734
▁nullifie	-13.3734
▁compliant	-13.3734
▁pornographic	-13.3734
▁streamvod	-13.3734
▁curio	-13.3734
▁bpm	-13.3734
▁underwear	-13.3734
eadline	-13.3734
bbath	-13.3734
▁throttling	-13.3734
plurg	-13.3734
▁grief	-13.3734
▁pallet	-13.3734
▁catergor	-13.3734
▁phenom	-13.3734
▁preformance	-13.3734
upreme	-13.3734
▁dahood	-13.3734
kenny	-13.3734
▁vedeo	-13.3734
▁eradicate	-13.3734
▁paytouse	-13.3734
▁Immediately	-13.3734
▁philo	-13.3734
▁godawful	-13.3734
▁adblocker	-13.3734
▁gateway	-13.3734
▁alllll	-13.3734
▁demoralising	-13.3734
▁isolation	-13.3734
▁keybind	-13.3734
▁midsentence	-13.3734
hoosing	-13.3734
▁coaches	-13.3734
▁acclaim	-13.3734
▁bullied	-13.3734
▁subdirectory	-13.3734
▁obligat	-13.3734
▁reinforcement	-13.3734
inimi	-13.3734
uarrel	-13.3734
▁tomato	-13.3734
▁cavern	-13.3735
▁fluke	-13.3735
▁patron	-13.3735
▁opposition	-13.3735
wedish	-13.3735
▁unattainable	-13.3735
▁undistinguish	-13.3735
▁gyro	-13.3735
isclaimer	-13.3735
▁hastle	-13.3735
▁hamper	-13.3735
▁actionpack	-13.3735
▁maniac	-13.3735
▁grabbed	-13.3735
▁teeth	-13.3735
▁downvote	-13.3735
▁outshine	-13.3735
▁humour	-13.3735
▁sensible	-13.3735
▁initiate	-13.3735
▁afterthought	-13.3735
▁prosper	-13.3735
▁provocati	-13.3735
▁unintrusive	-13.3735
▁crossbones	-13.3735
▁wellbeing	-13.3735
▁culos	-13.3735
▁thickness	-13.3735
▁foggy	-13.3735
▁glancing	-13.3735
▁secular	-13.3735
▁silver	-13.3735
▁licence	-13.3735
▁calculation	-13.3735
▁bruh	-13.3735
▁gyroscope	-13.3735
nbelievable	-13.3735
▁shaft	-13.3735
▁arbitrarily	-13.3735
▁pencil	-13.3735
▁lmao	-13.3735
▁inhibit	-13.3735
▁dedication	-13.3735
▁migraine	-13.3735
▁muddle	-13.3735
▁unresolved	-13.3735
▁wepons	-13.3735
▁liberal	-13.3736
▁wolf	-13.3736
gggh	-13.3736
▁seperat	-13.3736
▁walkthrough	-13.3736
▁somethin	-13.3736
▁liberty	-13.3736
▁unregistere	-13.3736
substitutions	-13.3736
▁resubscribing	-13.3736
▁gouging	-13.3736
▁magnificent	-13.3736
▁postpone	-13.3736
▁anonym	-13.3736
▁revolutionary	-13.3736
▁puppy	-13.3736
▁duckduckgo	-13.3736
▁yoga	-13.3736
emory	-13.3736
elcome	-13.3736
▁abhor	-13.3736
▁investment	-13.3736
▁rampant	-13.3736
▁uninterested	-13.3736
▁resourceful	-13.3737
▁insanity	-13.3737
▁grabber	-13.3737
▁eyestraining	-13.3737
▁erotic	-13.3737
▁nonfunctional	-13.3737
▁refer	-13.3737
▁effortless	-13.3737
imond	-13.3737
▁constitu	-13.3737
▁bikerid	-13.3737
phon	-13.3737
▁midchapter	-13.3737
ocations	-13.3737
▁fluctuation	-13.3737
▁ceases	-13.3737
ardware	-13.3737
memeber	-13.3738
▁catagory	-13.3738
▁prettier	-13.3738
capsul	-13.3738
▁drunk	-13.3738
ntirely	-13.3738
▁handeye	-13.3738
▁adamant	-13.3738
▁flirt	-13.3738
▁ye	-13.3738
▁investigate	-13.3738
▁traits	-13.3738
logist	-13.3738
▁boaring	-13.3738
▁editorial	-13.3738
▁chatsgroups	-13.3738
▁millisecond	-13.3738
▁transmi	-13.3738
olitical	-13.3738
mmersion	-13.3739
lunky	-13.3739
usband	-13.3739
▁robbery	-13.3739
▁convient	-13.3739
▁upadate	-13.3739
odbless	-13.3739
▁picsvideos	-13.3739
▁inspiring	-13.3739
▁mentality	-13.3739
▁Argh	-13.3739
ixelbook	-13.374
respectful	-13.374
brid	-13.374
▁competions	-13.374
▁certin	-13.374
▁tnx	-13.374
▁pannel	-13.374
▁tinder	-13.374
▁unfold	-13.374
▁midstory	-13.374
▁wipeout	-13.374
▁timesaver	-13.3741
▁tacky	-13.3741
▁divo	-13.3741
nstantly	-13.3741
▁Tactics	-13.3741
▁gunman	-13.3741
▁buddy	-13.3741
▁discern	-13.3741
▁apocalypse	-13.3741
▁midsong	-13.3742
▁inactivity	-13.3742
▁mishap	-13.3742
▁assis	-13.3742
racist	-13.3742
▁surrounding	-13.3742
▁brah	-13.3742
▁intact	-13.3742
uggling	-13.3742
▁pester	-13.3742
▁experimental	-13.3742
essaging	-13.3742
▁weakness	-13.3742
▁messege	-13.3743
▁predictable	-13.3743
ilderness	-13.3743
▁unneeded	-13.3743
▁bangers	-13.3743
hords	-13.3743
▁spreadsheet	-13.3744
▁Thrill	-13.3744
▁towncash	-13.3744
▁hydrat	-13.3744
apster	-13.3744
isitor	-13.3744
▁programsapps	-13.3744
▁hookers	-13.3744
▁lottery	-13.3744
▁frusterat	-13.3745
▁standpoint	-13.3745
decisi	-13.3745
▁biom	-13.3745
▁upbeat	-13.3745
▁Authori	-13.3745
▁melod	-13.3745
▁humor	-13.3745
▁unbreak	-13.3746
alah	-13.3746
▁nada	-13.3746
pears	-13.3746
▁infant	-13.3746
▁exempl	-13.3747
▁critici	-13.3747
▁scoreboard	-13.3747
▁unhide	-13.3747
uggest	-13.3747
▁speechless	-13.3747
▁leech	-13.3747
▁unreinstalling	-13.3748
▁unchanged	-13.3748
▁surfers	-13.3748
▁distractive	-13.3748
▁flashback	-13.3748
▁manipulative	-13.3749
▁impairment	-13.3749
▁dismaying	-13.3749
▁extraordinary	-13.3749
▁profound	-13.3749
▁immersed	-13.375
▁demotivated	-13.375
▁bandw	-13.375
▁Invit	-13.375
▁explode	-13.375
▁indulge	-13.3751
▁replicate	-13.3751
▁deposit	-13.3751
uitous	-13.3751
uxe	-13.3751
uperbike	-13.3751
▁fiber	-13.3752
▁pubg	-13.3752
▁staple	-13.3752
uatic	-13.3752
▁restrictive	-13.3752
▁synchronised	-13.3753
issions	-13.3753
▁illustrated	-13.3753
incarnat	-13.3753
▁kiddo	-13.3753
adges	-13.3753
▁evreyt	-13.3753
▁aux	-13.3754
uffice	-13.3754
ealous	-13.3754
omepage	-13.3754
▁seriousness	-13.3754
▁Anymore	-13.3754
mma	-13.3754
pital	-13.3754
nfair	-13.3755
tations	-13.3755
ition	-13.3755
tension	-13.3755
▁peraon	-13.3755
▁perfectionist	-13.3755
▁misbehaving	-13.3756
▁appswebsite	-13.3756
▁annotating	-13.3756
▁survivor	-13.3756
nfinished	-13.3756
uarentee	-13.3756
ightning	-13.3756
▁wasteful	-13.3757
▁clamp	-13.3757
▁ridden	-13.3757
▁swiftly	-13.3757
▁avator	-13.3758
oticed	-13.3759
▁incessantly	-13.3759
▁stalking	-13.3759
▁chamber	-13.3759
▁poco	-13.3759
▁remastered	-13.3759
▁rooftop	-13.376
▁snipe	-13.376
▁circuit	-13.3761
▁fisher	-13.3761
pgrading	-13.3761
nstable	-13.3761
▁forewarn	-13.3761
▁automobile	-13.3761
▁Thrills	-13.3761
▁trapping	-13.3761
▁lockdown	-13.3762
awning	-13.3762
▁disconnection	-13.3762
▁sadden	-13.3762
▁hotmail	-13.3763
▁unfortunat	-13.3763
▁multilayer	-13.3763
lific	-13.3763
eans	-13.3763
▁rigor	-13.3763
yes	-13.3763
▁accola	-13.3764
▁presumed	-13.3764
naccurate	-13.3764
▁videospictures	-13.3764
▁Alarm	-13.3765
▁songalbum	-13.3765
▁scratchers	-13.3765
▁overlooked	-13.3765
▁typograph	-13.3766
▁offended	-13.3766
▁noobs	-13.3767
▁reiterate	-13.3767
▁socialise	-13.3767
▁xxx	-13.3767
▁refining	-13.3767
riod	-13.3768
▁enterior	-13.3768
▁assumption	-13.3769
▁metres	-13.3769
hasms	-13.3769
▁predomina	-13.377
▁harm	-13.377
▁instal	-13.377
▁songsartists	-13.377
▁regulations	-13.3771
▁InApp	-13.3771
▁intuitiveness	-13.3771
▁cornfields	-13.3772
▁disapear	-13.3772
▁ergonomics	-13.3772
▁volunteers	-13.3772
▁entrepreneurs	-13.3772
▁expenditures	-13.3772
▁outof	-13.3772
▁sailing	-13.3772
▁demographics	-13.3772
esert	-13.3772
tovideo	-13.3773
▁monkeys	-13.3773
ering	-13.3774
tches	-13.3774
▁handicap	-13.3775
eful	-13.3775
istance	-13.3775
▁monoton	-13.3776
▁cursed	-13.3776
hoever	-13.3777
▁painless	-13.3777
▁lud	-13.3777
▁urgently	-13.3777
onderfull	-13.3777
▁ringtones	-13.3777
▁sofa	-13.3779
attery	-13.3779
arket	-13.3779
ollowed	-13.3779
ggin	-13.378
rankly	-13.378
▁infuriat	-13.378
▁mimic	-13.378
▁matte	-13.3781
▁dipping	-13.3781
llllee	-13.3781
erification	-13.3782
▁currenc	-13.3782
▁horde	-13.3783
▁cheers	-13.3783
▁crisis	-13.3783
▁breast	-13.3784
▁mustang	-13.3784
icturein	-13.3785
▁whitegr	-13.3785
fortunately	-13.3786
▁reenabled	-13.3786
ker	-13.3786
▁endeavo	-13.3787
▁reccommend	-13.3787
▁awaited	-13.3787
▁soundboard	-13.3787
augh	-13.3787
▁elite	-13.3789
▁Input	-13.3789
▁struck	-13.3789
▁adressed	-13.379
▁hardco	-13.379
▁nfs	-13.379
lame	-13.379
▁coinspoints	-13.3791
adass	-13.3792
▁flyer	-13.3793
▁funner	-13.3793
▁streamline	-13.3794
ruh	-13.3795
onsidered	-13.3795
ociali	-13.3796
unner	-13.3796
▁tumble	-13.3796
▁regress	-13.3798
asual	-13.3798
aren	-13.3799
▁bench	-13.3799
▁glee	-13.38
▁rub	-13.38
▁shred	-13.3802
mbits	-13.3802
opian	-13.3802
▁signingin	-13.3802
verybody	-13.3802
flix	-13.3802
gines	-13.3802
▁allotment	-13.3803
rowser	-13.3804
▁handsthumbs	-13.3804
▁framerate	-13.3804
▁exceeded	-13.3804
▁hangout	-13.3804
▁outages	-13.3805
▁screan	-13.3805
▁dandy	-13.3807
eturning	-13.3808
nicorn	-13.3808
▁sonic	-13.3809
▁readiness	-13.3809
hoice	-13.3809
▁grubb	-13.3811
mggg	-13.3813
▁improvment	-13.3813
▁messeng	-13.3813
sanity	-13.3815
▁brakes	-13.3815
▁audioonly	-13.3815
taller	-13.3816
▁prettie	-13.3816
▁shutter	-13.3817
iminal	-13.3818
obless	-13.3819
▁stupidity	-13.3819
vision	-13.3819
▁featire	-13.3819
▁acccount	-13.3819
hild	-13.3819
ondon	-13.3821
▁intel	-13.3821
▁scopes	-13.3822
orgot	-13.3822
▁doctors	-13.3822
proportion	-13.3823
▁obv	-13.3824
▁miscon	-13.3824
▁turnoff	-13.3825
▁shocking	-13.3825
ciate	-13.3826
▁convinie	-13.3827
▁roleplays	-13.3828
▁destin	-13.3828
isco	-13.3828
intelligibl	-13.3828
▁softer	-13.3829
bie	-13.3832
ordinary	-13.3833
▁formations	-13.3833
ngine	-13.3833
kn	-13.3833
licked	-13.3833
ells	-13.3834
▁photosvideos	-13.3835
▁conflicting	-13.3835
▁emphasis	-13.3836
▁exhibits	-13.3836
▁shutdowns	-13.3837
arm	-13.3838
rrow	-13.3839
omedy	-13.3839
uffle	-13.3839
▁Islands	-13.3842
▁agitat	-13.3842
▁rockin	-13.3845
idgets	-13.3846
▁thereof	-13.3846
tween	-13.3847
arning	-13.3847
▁msn	-13.385
▁horrif	-13.3851
soccer	-13.3852
▁inconvien	-13.3853
ropes	-13.3853
esson	-13.3854
identified	-13.3855
ising	-13.3855
choose	-13.3855
▁upgr	-13.3855
alute	-13.3858
umbs	-13.3859
plete	-13.3859
guages	-13.3861
ruits	-13.3863
▁exhausted	-13.3863
▁snatch	-13.3864
tors	-13.3867
devices	-13.3867
snaps	-13.3867
▁lib	-13.3868
▁awesomeness	-13.3868
▁island	-13.3869
▁advertiser	-13.3869
▁tur	-13.3869
▁disapoint	-13.3869
▁dearly	-13.387
ollow	-13.3871
▁deducting	-13.3873
▁downscale	-13.3873
▁sharpen	-13.3874
▁sensation	-13.3874
▁variant	-13.3874
▁contro	-13.3875
ursed	-13.3876
▁pcloud	-13.3878
▁Apr	-13.3878
▁dialect	-13.3878
▁meaningfully	-13.3881
ocuments	-13.3883
ahh	-13.3884
▁restoration	-13.3885
vity	-13.3886
igit	-13.3887
▁prefect	-13.3887
▁rig	-13.3888
▁irrati	-13.3889
ositives	-13.3891
▁pollut	-13.3891
▁comercial	-13.3892
▁desynced	-13.3893
ropping	-13.3893
waite	-13.3894
vril	-13.3898
isible	-13.3898
luxe	-13.3898
cognit	-13.3899
hase	-13.3899
▁seperated	-13.3899
▁diam	-13.39
chnophob	-13.39
▁blury	-13.39
▁identifier	-13.3901
eni	-13.3901
▁influ	-13.3901
▁storms	-13.3901
▁butche	-13.3902
iece	-13.3903
▁avoidable	-13.3903
ontinued	-13.3903
laws	-13.3903
perfect	-13.3904
unday	-13.3906
▁Improvements	-13.3908
▁newsletter	-13.3908
▁smell	-13.3909
spiring	-13.391
position	-13.391
ise	-13.3912
▁everday	-13.3914
munit	-13.3914
▁welcomed	-13.3915
emoved	-13.3916
▁easygoing	-13.3916
▁lumin	-13.3916
▁cramp	-13.3917
▁strengthen	-13.3917
progress	-13.3917
anceling	-13.3918
▁specifi	-13.3919
▁nudes	-13.3921
▁fading	-13.3922
▁worries	-13.3923
▁posit	-13.3923
verlay	-13.3924
isaster	-13.3924
ifficulty	-13.3925
miliar	-13.3925
▁spotlight	-13.3934
▁vlog	-13.3935
▁seperately	-13.3935
escue	-13.3936
▁Alex	-13.3937
sting	-13.3938
▁handhe	-13.3938
▁laser	-13.3944
▁getaway	-13.3944
▁berri	-13.3946
ploads	-13.3946
▁provok	-13.3946
inous	-13.3947
lutooth	-13.395
pider	-13.3952
▁divice	-13.3954
eduction	-13.3955
▁hid	-13.3956
▁documentation	-13.3957
tock	-13.3958
▁manu	-13.3959
oogling	-13.396
rossplatform	-13.3961
▁revolver	-13.3962
▁trapp	-13.3965
ayer	-13.3966
▁prison	-13.3967
▁tycoons	-13.397
▁lava	-13.397
▁carriers	-13.3971
▁bugfree	-13.3972
▁cultur	-13.3973
ype	-13.3976
wl	-13.3977
icro	-13.3977
▁babbl	-13.3977
▁fab	-13.3977
▁shortfall	-13.3978
▁minuet	-13.3979
ustifiabl	-13.3982
▁skies	-13.3985
▁succeeding	-13.3986
▁extensively	-13.3987
▁internationally	-13.3989
hil	-13.3992
everting	-13.3996
▁mys	-13.3997
whole	-13.3999
▁chatter	-13.3999
▁improvise	-13.3999
▁trri	-13.4
earches	-13.4002
▁hardwork	-13.4002
▁representing	-13.4002
nonym	-13.4003
▁teens	-13.4004
▁chips	-13.4006
oise	-13.4007
▁arises	-13.4007
roups	-13.4009
rama	-13.4009
▁apartment	-13.401
▁Tik	-13.4011
▁analytic	-13.4011
▁revent	-13.4012
▁composer	-13.4013
ingenu	-13.4014
ointed	-13.4016
orgi	-13.4018
activatesign	-13.402
away	-13.4023
ported	-13.4024
unctions	-13.4025
▁viol	-13.4025
gression	-13.4026
▁shrinking	-13.4027
▁endcredit	-13.4029
ongtime	-13.4031
evelop	-13.4032
▁fianc	-13.4033
enom	-13.4035
▁reflection	-13.4036
ngoing	-13.4036
▁beeps	-13.4038
uous	-13.4038
rators	-13.4041
rowse	-13.4043
lerts	-13.4044
rivia	-13.4046
earc	-13.4046
▁traps	-13.4052
interpreted	-13.4053
constantly	-13.4057
arge	-13.4059
▁defeated	-13.4064
▁participated	-13.4065
trong	-13.4067
▁denie	-13.4068
▁devour	-13.4068
▁textbox	-13.4072
▁bunk	-13.4072
uins	-13.4072
apan	-13.4074
aught	-13.4076
illy	-13.4077
▁reproduc	-13.4077
▁creeper	-13.408
▁exceeding	-13.408
▁consult	-13.4083
▁respositor	-13.4087
▁tester	-13.4089
gious	-13.4092
▁mach	-13.4092
isplays	-13.4093
ids	-13.4095
incere	-13.4097
▁boun	-13.4103
loper	-13.4103
onderfully	-13.4104
▁preffer	-13.4105
▁distractions	-13.4106
umn	-13.411
▁thos	-13.4111
▁necessit	-13.4111
▁gener	-13.4112
arfare	-13.4114
▁asf	-13.4116
▁videogames	-13.4118
▁signin	-13.4119
▁hurd	-13.4119
▁neatly	-13.412
haul	-13.4123
ranian	-13.4124
etflixs	-13.4126
heer	-13.413
orthy	-13.4133
orget	-13.4134
hings	-13.4135
▁yank	-13.4137
▁exploitati	-13.4138
▁irrel	-13.414
▁tires	-13.4144
hallenges	-13.4152
others	-13.4156
rowsing	-13.4159
aaaay	-13.416
ffers	-13.4162
ectively	-13.4162
tract	-13.4163
connect	-13.4169
▁sn	-13.4173
hecking	-13.4179
▁unluck	-13.4181
▁hat	-13.4181
▁skid	-13.4181
▁relevan	-13.4182
▁energi	-13.4185
▁demotivat	-13.4187
uman	-13.4189
ules	-13.4193
▁locat	-13.4196
▁incurr	-13.4197
▁pano	-13.4198
▁scratched	-13.4201
▁minut	-13.4203
▁blasted	-13.4204
ale	-13.4207
men	-13.4208
lix	-13.4212
fetched	-13.4214
▁crappie	-13.4215
▁bald	-13.4218
▁milk	-13.4219
hic	-13.4221
▁slant	-13.4226
▁oldies	-13.4227
ndo	-13.4227
tep	-13.4228
weeks	-13.4229
destruct	-13.423
orces	-13.4233
▁storytell	-13.4234
▁improper	-13.4236
▁superbly	-13.4237
▁arse	-13.4238
edious	-13.4239
▁destinations	-13.4242
▁alignments	-13.4242
▁whts	-13.4244
▁voluntar	-13.4245
▁comput	-13.4251
▁heading	-13.4253
ormer	-13.4261
status	-13.4263
asio	-13.4264
easons	-13.4265
▁purchaser	-13.4266
catching	-13.4269
▁invent	-13.427
mu	-13.4271
▁hight	-13.4271
▁servive	-13.4271
▁compell	-13.4273
▁pixelate	-13.4273
ednes	-13.4276
avant	-13.4286
uying	-13.4289
▁tipping	-13.4295
hah	-13.4296
▁shareable	-13.4297
wr	-13.4298
▁collapses	-13.4299
▁deafen	-13.4301
owning	-13.4306
ervices	-13.4307
ennyworth	-13.4311
▁foward	-13.4312
▁bene	-13.4314
▁veiwer	-13.4315
▁welcom	-13.432
▁Archiv	-13.432
▁technologi	-13.4327
ruce	-13.4328
▁attend	-13.4334
▁impressively	-13.4335
▁decod	-13.4337
anese	-13.4341
▁scamm	-13.4351
▁smiley	-13.4353
lowers	-13.4356
▁preci	-13.4356
oun	-13.4356
▁Ta	-13.4364
▁punt	-13.4373
crashes	-13.4377
ivo	-13.4383
▁editting	-13.4384
arab	-13.439
vers	-13.4391
▁develope	-13.4395
oids	-13.4397
▁autosuggest	-13.4398
ino	-13.4398
▁ropes	-13.44
playback	-13.4402
▁athlete	-13.4403
vel	-13.4404
▁cables	-13.4408
pth	-13.441
▁esc	-13.4414
ewcomer	-13.4415
▁audiophile	-13.4416
▁promt	-13.4419
estarts	-13.442
ruit	-13.4428
wall	-13.443
lting	-13.4432
isp	-13.4437
▁excuses	-13.4443
erify	-13.4445
▁sens	-13.4447
▁wid	-13.4449
▁stones	-13.445
▁Tablets	-13.4451
▁prep	-13.4453
tell	-13.446
▁flare	-13.4461
ody	-13.4465
▁moto	-13.4466
▁greatful	-13.4467
▁meander	-13.4467
▁conserv	-13.4476
▁enraging	-13.4485
▁reused	-13.4489
usy	-13.4492
▁atl	-13.4493
▁drums	-13.4497
▁paw	-13.4501
▁erratic	-13.4507
adrid	-13.4514
podcasts	-13.4518
▁galler	-13.4519
pate	-13.4519
▁Theme	-13.4527
ducative	-13.4528
▁blurr	-13.4533
▁unfix	-13.4534
tr	-13.4534
▁stub	-13.4536
usician	-13.4536
▁lik	-13.4541
▁handshake	-13.4542
▁popcorn	-13.4542
▁obtainable	-13.4544
▁albumssongs	-13.4545
lef	-13.455
▁trun	-13.4553
▁gamify	-13.4553
▁artis	-13.4554
▁invalidat	-13.4559
▁boggl	-13.4559
▁belief	-13.4566
unted	-13.4568
▁Aday	-13.4569
▁mill	-13.4573
▁magnet	-13.4574
▁giveaways	-13.4576
reen	-13.4576
▁provoking	-13.4577
suits	-13.4578
discovered	-13.4581
▁Albums	-13.4581
cores	-13.4589
vis	-13.4593
▁redesigns	-13.4594
ofa	-13.4595
▁promble	-13.46
craft	-13.4601
▁mum	-13.4604
▁pipe	-13.4607
rates	-13.4612
hul	-13.4618
▁stripe	-13.4622
episide	-13.4622
▁cab	-13.4623
training	-13.4623
grate	-13.4626
iminate	-13.4628
ement	-13.4629
ynching	-13.463
enu	-13.4634
nstalling	-13.4645
▁wha	-13.4648
▁hairs	-13.4655
▁paints	-13.4663
rint	-13.4664
▁ethic	-13.4666
▁agreed	-13.4668
▁packet	-13.467
▁idio	-13.467
▁fury	-13.4682
iful	-13.4685
▁fwd	-13.4686
▁appplatform	-13.4687
▁looooooooo	-13.4696
ecoming	-13.4714
ncreased	-13.4716
ramped	-13.4718
mix	-13.4722
▁bleep	-13.4723
▁bra	-13.4725
▁legs	-13.4726
▁Alb	-13.4728
ardly	-13.4734
pines	-13.4736
▁defect	-13.474
ione	-13.4743
fled	-13.4749
cial	-13.4753
▁platformservice	-13.4762
▁el	-13.4767
▁rol	-13.4769
ustrating	-13.4771
getting	-13.4774
esses	-13.4776
emerges	-13.478
ored	-13.4784
kx	-13.4785
▁aids	-13.4787
recognised	-13.4793
rful	-13.4799
▁sayin	-13.4802
▁crypt	-13.4806
ously	-13.4807
▁stru	-13.4809
▁invoice	-13.4811
eceived	-13.4813
floods	-13.4817
▁negat	-13.482
aul	-13.4821
ogue	-13.4822
alled	-13.4827
opy	-13.483
silencer	-13.4831
sity	-13.4832
oops	-13.4834
▁ATT	-13.4836
▁roleplay	-13.4836
hields	-13.4842
▁aimless	-13.4842
▁rose	-13.4844
▁makeovers	-13.4847
▁relog	-13.4849
▁romani	-13.4849
▁strap	-13.4854
▁resembl	-13.4857
mediate	-13.4859
▁gosh	-13.4863
complicated	-13.4881
▁backdrop	-13.4885
▁obt	-13.4885
▁asp	-13.4886
tail	-13.4889
▁ann	-13.4893
oard	-13.4896
ication	-13.4897
▁clickable	-13.4902
onight	-13.4907
comfort	-13.4912
adios	-13.4914
▁longtime	-13.4915
tak	-13.4917
anag	-13.4925
▁slash	-13.4933
▁spru	-13.4933
ulf	-13.4938
▁flame	-13.494
▁Afi	-13.494
rit	-13.4956
▁compensat	-13.4958
sic	-13.4962
pr	-13.4977
enre	-13.4979
mos	-13.498
▁glor	-13.499
▁chromecasting	-13.4991
▁apprecia	-13.4994
▁unlikely	-13.4999
▁lin	-13.5002
▁robb	-13.5005
andal	-13.5019
▁den	-13.502
owers	-13.502
▁buttom	-13.5021
▁triggering	-13.5024
▁compair	-13.5025
▁smile	-13.5026
▁wen	-13.5028
▁lau	-13.5031
▁ke	-13.5032
nent	-13.5032
nc	-13.5033
▁alas	-13.5038
ddle	-13.5044
ills	-13.5051
daily	-13.5053
▁eng	-13.5061
▁experi	-13.5074
▁balls	-13.5091
▁lagbug	-13.5093
▁tasteful	-13.5095
▁dare	-13.5098
▁exports	-13.5104
▁grup	-13.5106
ontinues	-13.5106
▁midst	-13.5117
horoughly	-13.5118
gers	-13.512
rds	-13.5133
obs	-13.5134
▁compresse	-13.5138
▁replicat	-13.514
stand	-13.5141
▁outlin	-13.5142
▁graduate	-13.5145
▁bust	-13.5148
awe	-13.5161
▁crap	-13.5171
▁corp	-13.5173
▁Tip	-13.5173
assess	-13.5177
car	-13.518
▁sabotage	-13.5192
▁unsu	-13.5198
▁procedure	-13.5203
▁timewatch	-13.5204
urs	-13.5206
▁heartbr	-13.5206
lle	-13.5213
▁TubiT	-13.5217
stuck	-13.5219
▁escapes	-13.5222
▁ranks	-13.5222
pack	-13.523
ugging	-13.5236
eaters	-13.5246
▁engross	-13.5249
ointless	-13.5249
▁vechi	-13.5262
remov	-13.5265
channels	-13.5269
▁ve	-13.528
▁encounters	-13.5283
Ass	-13.5289
▁sleeps	-13.529
ankfully	-13.5291
▁subsi	-13.5295
events	-13.5296
resi	-13.5296
cos	-13.5301
ddy	-13.5311
▁darken	-13.5315
ained	-13.5319
▁untru	-13.532
oose	-13.5323
▁democra	-13.5325
▁har	-13.5325
skip	-13.5329
tp	-13.5331
pear	-13.5337
nnab	-13.5339
ideout	-13.5347
▁nois	-13.5348
abbing	-13.535
▁costomi	-13.5355
icul	-13.5356
llow	-13.5359
arking	-13.5362
▁rail	-13.5366
ermany	-13.5368
inema	-13.5368
▁unen	-13.5385
▁wis	-13.5386
chapters	-13.5386
▁recommen	-13.5389
giving	-13.539
▁ben	-13.5391
▁imped	-13.5395
hilar	-13.5397
mbo	-13.5403
▁collecti	-13.5404
▁meter	-13.5409
save	-13.541
▁sele	-13.5422
▁explana	-13.543
evert	-13.5431
tems	-13.5431
▁downs	-13.5433
bb	-13.544
ner	-13.5445
▁astr	-13.5447
yard	-13.5456
ebooks	-13.5458
cert	-13.5462
▁loooooo	-13.5466
▁hur	-13.5467
scroll	-13.5471
▁sittings	-13.5482
▁autoupdate	-13.5482
hout	-13.5487
▁alt	-13.5488
▁videogame	-13.549
eclutter	-13.5497
▁regrets	-13.5507
▁owl	-13.551
seems	-13.5515
thought	-13.5517
▁speck	-13.5519
▁damp	-13.5528
hours	-13.5534
random	-13.5535
ders	-13.5535
▁aff	-13.5546
▁tu	-13.5553
cked	-13.5556
tok	-13.5556
build	-13.5564
racy	-13.5567
▁serviceapp	-13.5571
hing	-13.5577
conf	-13.5578
▁Tu	-13.5592
ensitivity	-13.56
changes	-13.5606
reak	-13.5606
▁allo	-13.5609
atically	-13.562
▁theu	-13.5627
ari	-13.5641
nnel	-13.5647
cidentally	-13.5656
lander	-13.5663
▁conv	-13.5677
▁tack	-13.5678
▁cust	-13.5687
itiful	-13.569
ualifie	-13.5692
gauge	-13.5694
▁creater	-13.5697
reatest	-13.5704
erms	-13.5711
content	-13.5715
port	-13.5721
▁rocking	-13.5725
▁rag	-13.5733
eld	-13.5748
stonishing	-13.5767
▁employment	-13.5771
pretty	-13.5778
loads	-13.5787
▁behaviors	-13.5794
▁frick	-13.58
▁dieing	-13.5804
xtrem	-13.5806
▁rad	-13.5816
xcellence	-13.5824
▁playin	-13.5839
▁clarif	-13.5841
hift	-13.5846
eeded	-13.5848
eos	-13.5856
least	-13.586
▁prope	-13.5863
▁hon	-13.5888
▁graphing	-13.5898
▁buyer	-13.5901
▁lay	-13.5903
▁parade	-13.5903
▁intri	-13.591
anning	-13.592
olb	-13.5922
riety	-13.5925
▁rem	-13.5925
▁eas	-13.5927
▁dayweek	-13.5931
▁tran	-13.5931
aaaaay	-13.5931
▁passer	-13.5932
org	-13.5934
rock	-13.5937
▁impersona	-13.5938
osters	-13.5948
▁formation	-13.5951
unks	-13.5951
matter	-13.5953
original	-13.5972
▁frea	-13.5972
atures	-13.5973
adation	-13.5976
erable	-13.5979
▁III	-13.5989
aby	-13.5998
▁cure	-13.6018
pick	-13.6039
nplayable	-13.6039
▁las	-13.6044
odes	-13.605
rite	-13.6054
▁diver	-13.6058
urch	-13.606
sync	-13.6063
moled	-13.6073
▁Task	-13.6076
oman	-13.6085
thori	-13.6088
anger	-13.6099
▁overcom	-13.6102
function	-13.6105
tablet	-13.6124
controllable	-13.6128
pointed	-13.6139
idate	-13.6142
▁Technolog	-13.6145
offline	-13.6149
fs	-13.6156
powered	-13.616
ila	-13.6161
▁loser	-13.6163
▁crackle	-13.6167
▁Admi	-13.6184
personal	-13.6188
▁grea	-13.6192
▁Activ	-13.621
did	-13.6213
▁wast	-13.6215
ontroll	-13.6227
previous	-13.6242
ste	-13.6248
▁dec	-13.625
▁Iran	-13.625
▁grandpa	-13.625
eaving	-13.6253
▁execut	-13.6256
▁choke	-13.6259
incidence	-13.6265
▁hateful	-13.6266
▁rolls	-13.6266
lower	-13.6272
ooooooooooooo	-13.6278
▁upd	-13.628
▁unopen	-13.6282
elf	-13.6283
▁acou	-13.6286
rap	-13.629
amil	-13.6291
▁practise	-13.6295
▁activ	-13.6295
android	-13.6314
lled	-13.6317
▁nagg	-13.6336
ened	-13.6339
chased	-13.6345
arner	-13.6352
ifs	-13.6352
▁eternal	-13.6357
▁AIs	-13.6375
▁rou	-13.6376
eace	-13.6381
oll	-13.6382
fftra	-13.639
▁gore	-13.6395
gets	-13.6406
▁cre	-13.6412
▁reco	-13.6421
▁tweeting	-13.6424
yl	-13.643
xolo	-13.6435
lost	-13.6438
▁citys	-13.6446
▁pow	-13.6446
dress	-13.6457
▁needless	-13.6457
lling	-13.6467
▁toh	-13.6484
menu	-13.6486
expensive	-13.6499
cost	-13.6501
iveT	-13.6502
▁cor	-13.6507
[...]
